{
  "version": "1.0",
  "truncation": null,
  "padding": null,
  "added_tokens": [
    {
      "id": 1,
      "content": "<s>",
      "single_word": false,
      "lstrip": false,
      "rstrip": false,
      "normalized": false,
      "special": true
    },
    {
      "id": 4,
      "content": "</s>",
      "single_word": false,
      "lstrip": false,
      "rstrip": false,
      "normalized": false,
      "special": true
    },
    {
      "id": 2,
      "content": "<mask>",
      "single_word": false,
      "lstrip": false,
      "rstrip": false,
      "normalized": false,
      "special": true
    },
    {
      "id": 3,
      "content": "<cls>",
      "single_word": false,
      "lstrip": false,
      "rstrip": false,
      "normalized": false,
      "special": true
    },
    {
      "id": 0,
      "content": "<pad>",
      "single_word": false,
      "lstrip": false,
      "rstrip": false,
      "normalized": false,
      "special": true
    },
    {
      "id": 5,
      "content": "<question>",
      "single_word": false,
      "lstrip": false,
      "rstrip": false,
      "normalized": false,
      "special": true
    },
    {
      "id": 6,
      "content": "<answer>",
      "single_word": false,
      "lstrip": false,
      "rstrip": false,
      "normalized": false,
      "special": true
    },
    {
      "id": 7,
      "content": "<unk>",
      "single_word": false,
      "lstrip": false,
      "rstrip": false,
      "normalized": false,
      "special": true
    }
  ],
  "normalizer": {
    "type": "Sequence",
    "normalizers": [
      {
        "type": "Replace",
        "pattern": {
          "String": "\n(.)\n"
        },
        "content": "\n"
      },
      {
        "type": "Replace",
        "pattern": {
          "String": "[\n\n]+"
        },
        "content": "\n\n"
      }
    ]
  },
  "pre_tokenizer": {
    "type": "ByteLevel",
    "add_prefix_space": false,
    "trim_offsets": true,
    "use_regex": true
  },
  "post_processor": null,
  "decoder": {
    "type": "ByteLevel",
    "add_prefix_space": true,
    "trim_offsets": true,
    "use_regex": true
  },
  "model": {
    "type": "BPE",
    "dropout": null,
    "unk_token": null,
    "continuing_subword_prefix": null,
    "end_of_word_suffix": null,
    "fuse_unk": false,
    "byte_fallback": false,
    "vocab": {
      "<s>": 0,
      "</s>": 1,
      "<mask>": 2,
      "<cls>": 3,
      "<pad>": 4,
      "<question>": 5,
      "<answer>": 6,
      "<unk>": 7,
      "!": 8,
      "\"": 9,
      "#": 10,
      "$": 11,
      "%": 12,
      "&": 13,
      "'": 14,
      "(": 15,
      ")": 16,
      "*": 17,
      "+": 18,
      ",": 19,
      "-": 20,
      ".": 21,
      "/": 22,
      "0": 23,
      "1": 24,
      "2": 25,
      "3": 26,
      "4": 27,
      "5": 28,
      "6": 29,
      "7": 30,
      "8": 31,
      "9": 32,
      ":": 33,
      ";": 34,
      "<": 35,
      "=": 36,
      ">": 37,
      "?": 38,
      "@": 39,
      "A": 40,
      "B": 41,
      "C": 42,
      "D": 43,
      "E": 44,
      "F": 45,
      "G": 46,
      "H": 47,
      "I": 48,
      "J": 49,
      "K": 50,
      "L": 51,
      "M": 52,
      "N": 53,
      "O": 54,
      "P": 55,
      "Q": 56,
      "R": 57,
      "S": 58,
      "T": 59,
      "U": 60,
      "V": 61,
      "W": 62,
      "X": 63,
      "Y": 64,
      "Z": 65,
      "[": 66,
      "\\": 67,
      "]": 68,
      "^": 69,
      "_": 70,
      "`": 71,
      "a": 72,
      "b": 73,
      "c": 74,
      "d": 75,
      "e": 76,
      "f": 77,
      "g": 78,
      "h": 79,
      "i": 80,
      "j": 81,
      "k": 82,
      "l": 83,
      "m": 84,
      "n": 85,
      "o": 86,
      "p": 87,
      "q": 88,
      "r": 89,
      "s": 90,
      "t": 91,
      "u": 92,
      "v": 93,
      "w": 94,
      "x": 95,
      "y": 96,
      "z": 97,
      "{": 98,
      "|": 99,
      "}": 100,
      "~": 101,
      "¡": 102,
      "¢": 103,
      "£": 104,
      "¤": 105,
      "¥": 106,
      "¦": 107,
      "§": 108,
      "¨": 109,
      "©": 110,
      "ª": 111,
      "«": 112,
      "¬": 113,
      "®": 114,
      "¯": 115,
      "°": 116,
      "±": 117,
      "²": 118,
      "³": 119,
      "´": 120,
      "µ": 121,
      "¶": 122,
      "·": 123,
      "¸": 124,
      "¹": 125,
      "º": 126,
      "»": 127,
      "¼": 128,
      "½": 129,
      "¾": 130,
      "¿": 131,
      "Â": 132,
      "Ã": 133,
      "Ä": 134,
      "Å": 135,
      "Æ": 136,
      "Ç": 137,
      "È": 138,
      "É": 139,
      "Ê": 140,
      "Ë": 141,
      "Ì": 142,
      "Í": 143,
      "Î": 144,
      "Ï": 145,
      "Ð": 146,
      "Ñ": 147,
      "Ò": 148,
      "Ó": 149,
      "Ô": 150,
      "Õ": 151,
      "Ö": 152,
      "×": 153,
      "Ø": 154,
      "Ù": 155,
      "Ú": 156,
      "Û": 157,
      "à": 158,
      "á": 159,
      "â": 160,
      "ã": 161,
      "ä": 162,
      "å": 163,
      "æ": 164,
      "ç": 165,
      "è": 166,
      "é": 167,
      "ê": 168,
      "ë": 169,
      "ì": 170,
      "í": 171,
      "î": 172,
      "ï": 173,
      "ð": 174,
      "ă": 175,
      "Ĉ": 176,
      "ĉ": 177,
      "Ċ": 178,
      "ċ": 179,
      "đ": 180,
      "ĝ": 181,
      "ğ": 182,
      "Ġ": 183,
      "ġ": 184,
      "Ģ": 185,
      "ģ": 186,
      "Ĥ": 187,
      "ĥ": 188,
      "Ħ": 189,
      "ħ": 190,
      "Ĩ": 191,
      "ĩ": 192,
      "Ī": 193,
      "ī": 194,
      "Ĭ": 195,
      "ĭ": 196,
      "Į": 197,
      "į": 198,
      "İ": 199,
      "ı": 200,
      "Ĳ": 201,
      "ĳ": 202,
      "Ĵ": 203,
      "ĵ": 204,
      "Ķ": 205,
      "ķ": 206,
      "ĸ": 207,
      "Ĺ": 208,
      "ĺ": 209,
      "Ļ": 210,
      "ļ": 211,
      "Ľ": 212,
      "ľ": 213,
      "Ŀ": 214,
      "ŀ": 215,
      "Ł": 216,
      "ł": 217,
      "Ń": 218,
      "Ġd": 219,
      "Ġe": 220,
      "Ġa": 221,
      "Ġp": 222,
      "Ġm": 223,
      "Ġc": 224,
      "ra": 225,
      "te": 226,
      "to": 227,
      "Ġf": 228,
      "qu": 229,
      "Ġs": 230,
      "en": 231,
      "Ġde": 232,
      "os": 233,
      "re": 234,
      "Ġn": 235,
      "que": 236,
      "as": 237,
      "er": 238,
      "do": 239,
      "is": 240,
      "Ã£": 241,
      "Ġo": 242,
      "in": 243,
      "Ã£o": 244,
      "om": 245,
      "ta": 246,
      "Ġque": 247,
      "il": 248,
      "on": 249,
      "um": 250,
      "Ã©": 251,
      "es": 252,
      "ar": 253,
      "or": 254,
      "an": 255,
      "ti": 256,
      "al": 257,
      "da": 258,
      "em": 259,
      "Ġv": 260,
      "Ġum": 261,
      "el": 262,
      "Ġb": 263,
      "Ġcom": 264,
      "ia": 265,
      "me": 266,
      "Ã§": 267,
      "ro": 268,
      "ito": 269,
      "Ġes": 270,
      "Ã¡": 271,
      "Ġfil": 272,
      "ic": 273,
      "ĠÃ©": 274,
      "..": 275,
      "im": 276,
      "Ġfilme": 277,
      "ente": 278,
      "Ġte": 279,
      "Ġdo": 280,
      "de": 281,
      "Ġmu": 282,
      "ĠnÃ£o": 283,
      "Ġt": 284,
      "ara": 285,
      "Ġl": 286,
      "Ã³": 287,
      "se": 288,
      "ri": 289,
      "Ġse": 290,
      "Ġre": 291,
      "Ġg": 292,
      "ha": 293,
      "ais": 294,
      "ho": 295,
      "Ġmuito": 296,
      "Ã§Ã£o": 297,
      "Ġcon": 298,
      "ss": 299,
      "Ġin": 300,
      "Ġem": 301,
      "ĠA": 302,
      "ÃŃ": 303,
      "Ġda": 304,
      "ci": 305,
      "Ġuma": 306,
      "Ġno": 307,
      "Ġme": 308,
      "so": 309,
      "le": 310,
      "ou": 311,
      "ma": 312,
      "Ġna": 313,
      "Ġpara": 314,
      "Ġap": 315,
      "mo": 316,
      "Ġmais": 317,
      "Ġen": 318,
      "mente": 319,
      "ei": 320,
      "Ġj": 321,
      "ca": 322,
      "Ġto": 323,
      "gu": 324,
      "!!": 325,
      "sa": 326,
      "ida": 327,
      "tu": 328,
      "Ġdi": 329,
      "go": 330,
      "Ġpor": 331,
      "ĠE": 332,
      "ica": 333,
      "ĠM": 334,
      "la": 335,
      "Ġmas": 336,
      "va": 337,
      "Ġsu": 338,
      "Ġh": 339,
      "ando": 340,
      "ol": 341,
      "Ãª": 342,
      "Ġfa": 343,
      "Ġtem": 344,
      "Ġbom": 345,
      "Ġfo": 346,
      "Ġper": 347,
      "Ġqu": 348,
      "Ġpro": 349,
      "ĠS": 350,
      "tei": 351,
      "ce": 352,
      "tra": 353,
      "ria": 354,
      "Ġdes": 355,
      "Ġex": 356,
      "...": 357,
      "res": 358,
      "Ġcomo": 359,
      "us": 360,
      "co": 361,
      "Ġos": 362,
      "ĠP": 363,
      "Ġeu": 364,
      "ag": 365,
      "un": 366,
      "pe": 367,
      "ĠC": 368,
      "pre": 369,
      "Ġpra": 370,
      "po": 371,
      "Ġal": 372,
      "vel": 373,
      "ĠO": 374,
      "Ġac": 375,
      "ai": 376,
      "Ġta": 377,
      "Ġser": 378,
      "tiv": 379,
      "ran": 380,
      "ga": 381,
      "Ġass": 382,
      "ento": 383,
      "Ġas": 384,
      "Ġou": 385,
      "ĠD": 386,
      "Ġpo": 387,
      "Ġmel": 388,
      "Ġan": 389,
      "dos": 390,
      "Ġgos": 391,
      "ĠT": 392,
      "ĠN": 393,
      "Ġsem": 394,
      "Ġbem": 395,
      "endo": 396,
      "ĠÃ": 397,
      "di": 398,
      "Ãµ": 399,
      "ve": 400,
      "Ġesse": 401,
      "Ãµes": 402,
      "he": 403,
      "hor": 404,
      "ul": 405,
      "iz": 406,
      "ante": 407,
      "Ġdos": 408,
      "Ã©m": 409,
      "Ġest": 410,
      "idade": 411,
      "Ġca": 412,
      "ist": 413,
      "inha": 414,
      "cion": 415,
      "Ã§a": 416,
      "ver": 417,
      "Ġmes": 418,
      "Ġver": 419,
      "ĠF": 420,
      "du": 421,
      "tar": 422,
      "cia": 423,
      "Ġpel": 424,
      "Ġele": 425,
      "ĠB": 426,
      "das": 427,
      "Ġso": 428,
      "Ġfoi": 429,
      "Ġter": 430,
      "Ġfaz": 431,
      "Ġao": 432,
      "tan": 433,
      "Ġpr": 434,
      "ez": 435,
      "isso": 436,
      "pl": 437,
      "ir": 438,
      "uito": 439,
      "Ġim": 440,
      "Ġ(": 441,
      "ten": 442,
      "Ã§Ãµes": 443,
      "Ġco": 444,
      "Ġ\"": 445,
      "ens": 446,
      "oc": 447,
      "Ġtra": 448,
      "Ġpre": 449,
      "am": 450,
      "Ġmelhor": 451,
      "Ġr": 452,
      "Ġvi": 453,
      "der": 454,
      "tre": 455,
      "Ġjo": 456,
      "Ġatu": 457,
      "eito": 458,
      "ĠR": 459,
      "inal": 460,
      "com": 461,
      "aÃ§Ã£o": 462,
      "timo": 463,
      "ico": 464,
      "per": 465,
      "Ġgostei": 466,
      "inda": 467,
      "oo": 468,
      "isti": 469,
      "Ġmesmo": 470,
      "son": 471,
      "Ġcomp": 472,
      "ĠjÃ¡": 473,
      "ado": 474,
      "Ġisso": 475,
      "Ãªn": 476,
      "Ġcen": 477,
      "ram": 478,
      "Ġat": 479,
      "mes": 480,
      "Ã³ria": 481,
      "ĠsÃ³": 482,
      "ÃŃvel": 483,
      "KK": 484,
      "Ġten": 485,
      "udo": 486,
      "ter": 487,
      "tivo": 488,
      "ĠÃ³": 489,
      "tas": 490,
      "Ġli": 491,
      "are": 492,
      "Ġnos": 493,
      "Ġfor": 494,
      "Ġhist": 495,
      "ras": 496,
      "tos": 497,
      "hei": 498,
      "Ġfilmes": 499,
      "vi": 500,
      "Ãº": 501,
      "Ġle": 502,
      "ĠJ": 503,
      "mei": 504,
      "ĠL": 505,
      "kk": 506,
      "Ã¡ri": 507,
      "Ġsen": 508,
      "Ġam": 509,
      "Ġfal": 510,
      "Ġsa": 511,
      "Ġperson": 512,
      "ĠG": 513,
      "Ġprodu": 514,
      "cel": 515,
      "hos": 516,
      "ix": 517,
      "indo": 518,
      "tro": 519,
      "Ġtr": 520,
      "Ġbo": 521,
      "io": 522,
      "bre": 523,
      "Ġassisti": 524,
      "rar": 525,
      "Ġvez": 526,
      "ĠhistÃ³ria": 527,
      "gra": 528,
      "Qu": 529,
      "Ġtudo": 530,
      "ĠH": 531,
      "esso": 532,
      "lo": 533,
      "Ġespe": 534,
      "Ġpersonag": 535,
      "Ã§o": 536,
      "tr": 537,
      "tes": 538,
      "tal": 539,
      "si": 540,
      "ema": 541,
      "Ġfinal": 542,
      "ĠsÃ£o": 543,
      "ora": 544,
      "Ġmeu": 545,
      "tou": 546,
      "ĠatÃ©": 547,
      "Ġapp": 548,
      "Ġro": 549,
      "Ġar": 550,
      "tado": 551,
      "rei": 552,
      "almente": 553,
      "ĠV": 554,
      "celente": 555,
      "Ġquando": 556,
      "segu": 557,
      "Ġainda": 558,
      "Ġsim": 559,
      "feito": 560,
      "Ġcl": 561,
      "Ġminha": 562,
      "Ġi": 563,
      "Ġqual": 564,
      "isa": 565,
      "ĠI": 566,
      "fer": 567,
      "dade": 568,
      "mb": 569,
      "ec": 570,
      "ocÃª": 571,
      "Um": 572,
      "Ġentre": 573,
      "Ġpas": 574,
      "lica": 575,
      "Ġjogo": 576,
      "Ġpar": 577,
      "Ġdas": 578,
      "ĠestÃ¡": 579,
      "ur": 580,
      "Ġpou": 581,
      "....": 582,
      "ĠtÃ£o": 583,
      "ido": 584,
      "Ġmen": 585,
      "aix": 586,
      "Ġ1": 587,
      "mos": 588,
      "Ġtempo": 589,
      "Ġconsegu": 590,
      "Ġesta": 591,
      "Ġsua": 592,
      "Ġsobre": 593,
      "ig": 594,
      "con": 595,
      "les": 596,
      "comendo": 597,
      "Ġproduto": 598,
      "tin": 599,
      "Ġtodos": 600,
      "Ġcar": 601,
      "Ġho": 602,
      "Ġcin": 603,
      "pa": 604,
      "Ãªncia": 605,
      "Ġab": 606,
      "Ġpos": 607,
      "Ġpelo": 608,
      "Ġdeix": 609,
      "Ġnada": 610,
      "Ġob": 611,
      "Ġpe": 612,
      "ĠvocÃª": 613,
      "Ġaplica": 614,
      "!!!": 615,
      "Ġti": 616,
      "ndo": 617,
      "be": 618,
      "Ġtamb": 619,
      "vo": 620,
      "Ġsempre": 621,
      "Ġfic": 622,
      "Ġpesso": 623,
      "gar": 624,
      "tica": 625,
      "cil": 626,
      "ilha": 627,
      "Muito": 628,
      "ita": 629,
      "Ġres": 630,
      "Ġvida": 631,
      "ess": 632,
      "Ġdire": 633,
      "ista": 634,
      "Ġmelho": 635,
      "Ġfun": 636,
      "car": 637,
      "tor": 638,
      "ĠtambÃ©m": 639,
      "teiro": 640,
      "Ġ,": 641,
      "Ġpri": 642,
      "Ġson": 643,
      "tante": 644,
      "pos": 645,
      "Ġ2": 646,
      "bl": 647,
      "Ġmo": 648,
      "ns": 649,
      "Ġseu": 650,
      "esse": 651,
      "ples": 652,
      "Ġu": 653,
      "Ġcer": 654,
      "Ġaplicativo": 655,
      "Ġinc": 656,
      "tico": 657,
      "ĠNÃ£o": 658,
      "Ġfazer": 659,
      "qui": 660,
      "Ġquem": 661,
      "ja": 662,
      "ima": 663,
      "Ġassistir": 664,
      "Ġdu": 665,
      "ber": 666,
      "Ġnem": 667,
      "Ġela": 668,
      "tima": 669,
      "Ġpen": 670,
      "Ġtan": 671,
      "ĠÃī": 672,
      "Ġinte": 673,
      "gum": 674,
      "entos": 675,
      "vil": 676,
      "pois": 677,
      "aliz": 678,
      "Ġdem": 679,
      "vol": 680,
      "Ġcinema": 681,
      "des": 682,
      "ĠÃ³timo": 683,
      "por": 684,
      "Ġassim": 685,
      "tÃ£o": 686,
      "gora": 687,
      "tÃ¡": 688,
      "Ġq": 689,
      "Ġpouco": 690,
      "KKKK": 691,
      "Ġpa": 692,
      "Ġprimei": 693,
      "las": 694,
      "Ġpela": 695,
      "Ġessa": 696,
      "Ġforma": 697,
      "âĢ": 698,
      "ale": 699,
      "anto": 700,
      "NÃ£o": 701,
      "Ġgran": 702,
      "Ġboa": 703,
      "Ġbas": 704,
      "Ġfica": 705,
      "iste": 706,
      "Ġche": 707,
      "Ġman": 708,
      "Ġalgum": 709,
      "Ġnao": 710,
      "aravil": 711,
      "ĠÃº": 712,
      "fic": 713,
      "gem": 714,
      "rio": 715,
      "pec": 716,
      "Ġsenti": 717,
      "Ã¢": 718,
      "na": 719,
      "aravilhos": 720,
      "rÃŃvel": 721,
      "Ġcenas": 722,
      "Ġexcelente": 723,
      "Ġpoder": 724,
      "ac": 725,
      "Ġvai": 726,
      "Ġtodo": 727,
      "Ġsur": 728,
      "!!!!": 729,
      "Ġdiz": 730,
      "ĠW": 731,
      "ne": 732,
      "Ġleg": 733,
      "ina": 734,
      "Es": 735,
      "Ġcena": 736,
      "Ġroteiro": 737,
      "har": 738,
      "ĠMas": 739,
      "rem": 740,
      "Ġpersonagens": 741,
      "00": 742,
      "ĠQu": 743,
      "Ġmom": 744,
      "aÃ§Ãµes": 745,
      "Ġsuper": 746,
      "Ġmos": 747,
      "tura": 748,
      "tando": 749,
      "za": 750,
      "ular": 751,
      "for": 752,
      "Ġconsi": 753,
      "has": 754,
      "Ġsegu": 755,
      "fia": 756,
      "Ġera": 757,
      "Ġporque": 758,
      "imo": 759,
      "Ġmin": 760,
      "til": 761,
      "Ġdemais": 762,
      "Ġesc": 763,
      "Ġmelhores": 764,
      "isto": 765,
      "eita": 766,
      "Ġtrilha": 767,
      "Ã¡rio": 768,
      "arece": 769,
      "Ġliv": 770,
      "Ġconta": 771,
      "ilme": 772,
      "Ġma": 773,
      "Ġvezes": 774,
      "Ġprec": 775,
      "Ġsimples": 776,
      "tiva": 777,
      "Ġcoisa": 778,
      "Ġrecomendo": 779,
      "cional": 780,
      "ĠEs": 781,
      "dia": 782,
      "enas": 783,
      "Ġagora": 784,
      "Ġsonora": 785,
      "gos": 786,
      "pp": 787,
      "je": 788,
      "cab": 789,
      "Ãī": 790,
      "cer": 791,
      "man": 792,
      "Ġcara": 793,
      "Ġpode": 794,
      "unca": 795,
      "Ġinter": 796,
      "Ġmostra": 797,
      "Ġcor": 798,
      "Ġdis": 799,
      "ĠU": 800,
      "ĠÃł": 801,
      "ui": 802,
      "Ġcome": 803,
      "ress": 804,
      "Ġcri": 805,
      "enta": 806,
      "Ġop": 807,
      "Ġachei": 808,
      "rado": 809,
      "Ġcr": 810,
      "Ġdiver": 811,
      "Ġpois": 812,
      "Ã¡vel": 813,
      "Ġalgu": 814,
      "Ġpersonagem": 815,
      "Ġdepois": 816,
      "aa": 817,
      "Ġcas": 818,
      "Ġeste": 819,
      "Ġ-": 820,
      "Ġemo": 821,
      "vor": 822,
      "Ġfi": 823,
      "at": 824,
      "Ġins": 825,
      "pi": 826,
      "bal": 827,
      "Ġdia": 828,
      "Ġmaravilhos": 829,
      "Ġdesse": 830,
      "mas": 831,
      "muito": 832,
      "Ġlegal": 833,
      "ada": 834,
      "Ġbon": 835,
      "Ġaque": 836,
      "Ġado": 837,
      "Ġprobl": 838,
      "Ġsi": 839,
      "Eu": 840,
      "inho": 841,
      "tros": 842,
      "her": 843,
      "grafia": 844,
      "cip": 845,
      "Ġru": 846,
      "Ġpessoas": 847,
      "ing": 848,
      "Ġtanto": 849,
      "Ġfoto": 850,
      "Ġcha": 851,
      "no": 852,
      "Ã´": 853,
      "Ġra": 854,
      "Ġsurpre": 855,
      "onte": 856,
      "ĠRe": 857,
      "Ġmim": 858,
      "cu": 859,
      "Ġhum": 860,
      "Ġlo": 861,
      "Ġmundo": 862,
      "Ġ3": 863,
      "Ġon": 864,
      "ĠĠ": 865,
      "Ġreal": 866,
      "ĠatuaÃ§Ã£o": 867,
      "ĠK": 868,
      "Ġestou": 869,
      "Ġus": 870,
      "Ġcada": 871,
      "Ġcan": 872,
      "Ġcons": 873,
      "Ġtenho": 874,
      "bi": 875,
      "Ġtoda": 876,
      "pen": 877,
      "ĠDe": 878,
      "Ġtor": 879,
      "Ġmar": 880,
      "rando": 881,
      "Ġqualidade": 882,
      "Ġgrande": 883,
      "dar": 884,
      "quei": 885,
      "cio": 886,
      "Ġlu": 887,
      "Ġfavor": 888,
      "Ġfuncion": 889,
      "Ġpena": 890,
      "fica": 891,
      "rig": 892,
      "imento": 893,
      "Ġcol": 894,
      "kkkk": 895,
      "ĠOs": 896,
      "Ġimag": 897,
      "Ġbastante": 898,
      "Ġpassa": 899,
      "Ġconsigo": 900,
      "Ġacab": 901,
      "Ġbaix": 902,
      "tamente": 903,
      "Ġdifer": 904,
      "ano": 905,
      "tic": 906,
      "Ġperf": 907,
      "sic": 908,
      "Ġrealmente": 909,
      "Ġestre": 910,
      "Ġprin": 911,
      "ĠAl": 912,
      "Ã³s": 913,
      "Ġatualiz": 914,
      "Ġoutra": 915,
      "hum": 916,
      "ero": 917,
      "Ġha": 918,
      "RA": 919,
      "Ġaten": 920,
      "Ġtiv": 921,
      "eu": 922,
      "Ġanos": 923,
      "Ġacho": 924,
      "ase": 925,
      "oso": 926,
      "Ġparte": 927,
      ").": 928,
      "sÃ£o": 929,
      "??": 930,
      "Ġapenas": 931,
      "Ã¡rios": 932,
      "Ġantes": 933,
      "Ġenten": 934,
      "ad": 935,
      "dem": 936,
      "isas": 937,
      "Ġrec": 938,
      "Ġaqui": 939,
      "Ġinteress": 940,
      "Ġnunca": 941,
      "enhum": 942,
      "Ġtrabal": 943,
      "Ġaconte": 944,
      "TO": 945,
      "Ġsom": 946,
      "veis": 947,
      "Ġbel": 948,
      "Ġseus": 949,
      "ilo": 950,
      "Ġir": 951,
      "gado": 952,
      "Ġlivro": 953,
      "ala": 954,
      "Ġalgo": 955,
      "Ġlindo": 956,
      "Ġmor": 957,
      "ende": 958,
      "Ġoutros": 959,
      "Ġpon": 960,
      "Ġw": 961,
      "quer": 962,
      "Ġ:": 963,
      "ĠatuaÃ§Ãµes": 964,
      "len": 965,
      "aram": 966,
      "anÃ§a": 967,
      "Ġmai": 968,
      "Ġtinha": 969,
      "Ġprincip": 970,
      "xcelente": 971,
      "Ġmenos": 972,
      "ju": 973,
      "ros": 974,
      "entes": 975,
      "Ġcel": 976,
      "Ġsei": 977,
      "press": 978,
      "era": 979,
      "Ġverdade": 980,
      "Ġdele": 981,
      "Ġtran": 982,
      "ostei": 983,
      "ĠUm": 984,
      "ĠincrÃŃvel": 985,
      "ĠdÃ¡": 986,
      "Ġvc": 987,
      "),": 988,
      "Ġfim": 989,
      "ĠprÃ³": 990,
      "Ġnenhum": 991,
      "emb": 992,
      "Ġfotografia": 993,
      "Ġnas": 994,
      "Ġrela": 995,
      "Ġpoderia": 996,
      "itos": 997,
      "Ġconf": 998,
      "Ġ.": 999,
      "Ġcoisas": 1000,
      "Ġer": 1001,
      "Ġruim": 1002,
      "esar": 1003,
      "aro": 1004,
      "ana": 1005,
      "Ġ5": 1006,
      "Ġobra": 1007,
      "Ãªs": 1008,
      "Ġperfeito": 1009,
      "Ġlon": 1010,
      "Ġprimeiro": 1011,
      "oooo": 1012,
      "Ġun": 1013,
      "Ġmeio": 1014,
      "Ġquanto": 1015,
      "ĠCom": 1016,
      "Ã¢n": 1017,
      "Ġol": 1018,
      "ent": 1019,
      "ion": 1020,
      "Ġgra": 1021,
      "Ġoutro": 1022,
      "Ġestava": 1023,
      "EN": 1024,
      "Ġsensa": 1025,
      "Ġinteressante": 1026,
      "ĠmÃº": 1027,
      "Ġdesen": 1028,
      "rÃ¡": 1029,
      "Ãĵ": 1030,
      "ii": 1031,
      "Ġcomple": 1032,
      "ome": 1033,
      "Ġeles": 1034,
      "Ġcho": 1035,
      "eira": 1036,
      "tinu": 1037,
      "Ġdar": 1038,
      "lu": 1039,
      "Ġne": 1040,
      "ru": 1041,
      "Ġexpl": 1042,
      "Ġseja": 1043,
      "Ġtal": 1044,
      "ĠrÃ¡": 1045,
      "ie": 1046,
      "Ġvis": 1047,
      "Ġvou": 1048,
      "bil": 1049,
      "Ġemocion": 1050,
      "tido": 1051,
      "Ġgente": 1052,
      "Ġconsegui": 1053,
      "gia": 1054,
      "Ġ<": 1055,
      "Ã¡cil": 1056,
      "Ġamor": 1057,
      "ER": 1058,
      "Ġsendo": 1059,
      "Ġinf": 1060,
      "ee": 1061,
      "Ġalguns": 1062,
      "Ġpu": 1063,
      "Ġcelular": 1064,
      "Ġfan": 1065,
      "gou": 1066,
      "Ġvol": 1067,
      "raÃ§Ã£o": 1068,
      "Ġnesse": 1069,
      "ini": 1070,
      "Ġba": 1071,
      "Ġvale": 1072,
      "tis": 1073,
      "ĠAn": 1074,
      "Ġmomento": 1075,
      "Ã§as": 1076,
      "mi": 1077,
      "ial": 1078,
      "Ġtodas": 1079,
      "ÃŃss": 1080,
      "mento": 1081,
      "ĠEu": 1082,
      "Ġad": 1083,
      "KKKKKKKK": 1084,
      "Ġentra": 1085,
      "Ġnum": 1086,
      "ven": 1087,
      "bo": 1088,
      "Ġcontinu": 1089,
      "Ġdizer": 1090,
      "Ġqualquer": 1091,
      "Filme": 1092,
      "feitos": 1093,
      "Ġgosto": 1094,
      "gon": 1095,
      "Ġposs": 1096,
      "Ġmaior": 1097,
      "Ġfez": 1098,
      "mar": 1099,
      "pon": 1100,
      "DO": 1101,
      "ĠMuito": 1102,
      "ĠÃ³tima": 1103,
      "Ġgan": 1104,
      "ĠPor": 1105,
      "ssa": 1106,
      "zo": 1107,
      "Ġalgumas": 1108,
      "tem": 1109,
      "cor": 1110,
      "Ġficar": 1111,
      "Ġmeus": 1112,
      "cep": 1113,
      "fÃŃ": 1114,
      "dor": 1115,
      "Ġfeito": 1116,
      "Ġproblema": 1117,
      "ĠEn": 1118,
      "ĠhÃ¡": 1119,
      "tador": 1120,
      "Ġonde": 1121,
      "ge": 1122,
      "Ġseria": 1123,
      "Ġpres": 1124,
      "ĠrÃ¡p": 1125,
      "ecess": 1126,
      "Ġmuita": 1127,
      "ino": 1128,
      "elhor": 1129,
      "Ġprecis": 1130,
      "ĠSe": 1131,
      "ĠâĢ": 1132,
      "Ġtrans": 1133,
      "Ġfra": 1134,
      "Ġquase": 1135,
      "Ġaos": 1136,
      "ine": 1137,
      "Ġpass": 1138,
      "rava": 1139,
      "jo": 1140,
      "Ġnova": 1141,
      "cias": 1142,
      "Ġri": 1143,
      "tir": 1144,
      "ĠaÃ§Ã£o": 1145,
      "ĠNo": 1146,
      "âĸ": 1147,
      "ĠporÃ©m": 1148,
      "Ã¡ss": 1149,
      "ĠfÃ¡cil": 1150,
      "Ġhoje": 1151,
      "Esse": 1152,
      "01": 1153,
      "Ġestrelas": 1154,
      "Ġdeixa": 1155,
      "var": 1156,
      "ĠestÃ£o": 1157,
      "Ġnovo": 1158,
      "Ġja": 1159,
      "Ġess": 1160,
      "antes": 1161,
      "Ġhora": 1162,
      "Ġusar": 1163,
      "Que": 1164,
      "cial": 1165,
      "Ġentrega": 1166,
      "Ġcria": 1167,
      "Ġfalar": 1168,
      "Com": 1169,
      "Ġapare": 1170,
      "Ġtipo": 1171,
      "Ġconhe": 1172,
      "AA": 1173,
      "Ġconsegue": 1174,
      "ĠMar": 1175,
      "QU": 1176,
      "\".": 1177,
      "elo": 1178,
      "veria": 1179,
      "Ġrece": 1180,
      "bÃ©": 1181,
      "ĠsÃ©": 1182,
      "Ġficou": 1183,
      "via": 1184,
      "Ġlemb": 1185,
      "ren": 1186,
      "cul": 1187,
      "ĠÃºn": 1188,
      "sica": 1189,
      "rodu": 1190,
      "Ġpq": 1191,
      "itas": 1192,
      "Ġpes": 1193,
      "Ġmaravilhoso": 1194,
      "Ġhom": 1195,
      "bÃ©ns": 1196,
      "Ġsuas": 1197,
      "ror": 1198,
      "Ġdois": 1199,
      "tÃ¡s": 1200,
      "Ġsai": 1201,
      "uu": 1202,
      "ĠDE": 1203,
      "amento": 1204,
      "Ġperfeita": 1205,
      "ĠApp": 1206,
      "tores": 1207,
      "ke": 1208,
      "Ġau": 1209,
      "Ġparece": 1210,
      "Ġden": 1211,
      "OM": 1212,
      "ĠIn": 1213,
      "ĠalÃ©m": 1214,
      "Ġsus": 1215,
      "osa": 1216,
      "Ġaju": 1217,
      "Ġimpor": 1218,
      "Ġprimeira": 1219,
      "Ġind": 1220,
      "dio": 1221,
      "eliz": 1222,
      "\",": 1223,
      "it": 1224,
      "Ġsou": 1225,
      "chei": 1226,
      "ias": 1227,
      "Ġbr": 1228,
      "Ġdiretor": 1229,
      "ch": 1230,
      "Ġmere": 1231,
      "ĠlÃ¡": 1232,
      "tivas": 1233,
      "ĠdireÃ§Ã£o": 1234,
      "Ġsimplesmente": 1235,
      "Ġmal": 1236,
      "ins": 1237,
      "Ġgosta": 1238,
      "........": 1239,
      "Ġencon": 1240,
      "Ġquer": 1241,
      "Ġminhas": 1242,
      "onta": 1243,
      "lig": 1244,
      "teza": 1245,
      "ĠprÃ³p": 1246,
      "ni": 1247,
      "alav": 1248,
      "Ġexpec": 1249,
      "Ġefeitos": 1250,
      "Ġref": 1251,
      "mm": 1252,
      "idades": 1253,
      "Ġdias": 1254,
      "Ãĵtimo": 1255,
      "Ġpag": 1256,
      "Ġmomentos": 1257,
      "lenco": 1258,
      "vis": 1259,
      "lho": 1260,
      "Gostei": 1261,
      "Ġamei": 1262,
      "Ġ!": 1263,
      "Ġ'": 1264,
      "cos": 1265,
      "Ġrep": 1266,
      "Ġpalav": 1267,
      "Ġques": 1268,
      "tru": 1269,
      "Ġpare": 1270,
      "Ġmul": 1271,
      "Ġfos": 1272,
      "Ġtotal": 1273,
      "Ġfunciona": 1274,
      "OO": 1275,
      "Ġsal": 1276,
      "ĠtÃ¡": 1277,
      "ĠUma": 1278,
      "Ġdiferente": 1279,
      "Ġmuitas": 1280,
      "Ġfu": 1281,
      "Ġmuitos": 1282,
      "xo": 1283,
      "Ġcerteza": 1284,
      "ĠÃºl": 1285,
      "ĠÃ¡": 1286,
      "Ġfalta": 1287,
      "ill": 1288,
      "emos": 1289,
      "cas": 1290,
      "Ġexpecta": 1291,
      "cho": 1292,
      "Ġtrabalho": 1293,
      "ismo": 1294,
      "can": 1295,
      "Ã¡rias": 1296,
      "dido": 1297,
      "Ġpens": 1298,
      "Ġ4": 1299,
      "ich": 1300,
      "Ġlinda": 1301,
      "ĠOscar": 1302,
      "ira": 1303,
      "ba": 1304,
      "Ġinterpre": 1305,
      "Ġfato": 1306,
      "vez": 1307,
      "Ġreso": 1308,
      "end": 1309,
      "Ãĥ": 1310,
      "Ġdeveria": 1311,
      "DA": 1312,
      "TA": 1313,
      "Ġaf": 1314,
      "Ġfiquei": 1315,
      "Ã¡tico": 1316,
      "Ġano": 1317,
      "taÃ§Ã£o": 1318,
      "Ġprecisa": 1319,
      "Ġtive": 1320,
      "ĠvÃŃ": 1321,
      "Ġide": 1322,
      "Ġatra": 1323,
      "Ġsol": 1324,
      "eric": 1325,
      "Ã¡s": 1326,
      "Ġelenco": 1327,
      "Excelente": 1328,
      "Ġprop": 1329,
      "TE": 1330,
      "Ġanim": 1331,
      "pel": 1332,
      "ĠentÃ£o": 1333,
      "rante": 1334,
      "Ġmensa": 1335,
      "ingu": 1336,
      "fi": 1337,
      "Ġsaber": 1338,
      "Ġval": 1339,
      "forma": 1340,
      "rou": 1341,
      "Ġuso": 1342,
      "one": 1343,
      "uper": 1344,
      "Ġprazo": 1345,
      "ĠRecomendo": 1346,
      "RE": 1347,
      "Ġcu": 1348,
      "ele": 1349,
      "Ġprincipalmente": 1350,
      "ÃĥO": 1351,
      "Ġrom": 1352,
      "cado": 1353,
      "ior": 1354,
      "Ġgen": 1355,
      "Ġponto": 1356,
      "roduto": 1357,
      "bilidade": 1358,
      "Ġnecess": 1359,
      "Ġcontra": 1360,
      "âĢĿ": 1361,
      "âĻ": 1362,
      "Ġorig": 1363,
      "ĠclÃ¡ss": 1364,
      "Ġdesenvol": 1365,
      "nÃ£o": 1366,
      "ĠQue": 1367,
      "min": 1368,
      "Ã©dia": 1369,
      "id": 1370,
      "ĠAs": 1371,
      "prei": 1372,
      "vida": 1373,
      "ons": 1374,
      "emas": 1375,
      "fim": 1376,
      "Uma": 1377,
      "ĠfantÃ¡s": 1378,
      "Ġfosse": 1379,
      "Ġcompra": 1380,
      "rer": 1381,
      "usa": 1382,
      "ĠSÃ³": 1383,
      "Ġfam": 1384,
      "ĠJo": 1385,
      "SS": 1386,
      "Ġ10": 1387,
      "sos": 1388,
      "ĠatualizaÃ§Ã£o": 1389,
      "Ġtriste": 1390,
      "sicas": 1391,
      "Ġhor": 1392,
      "ĠgÃªn": 1393,
      "Ġforam": 1394,
      "Ġdin": 1395,
      "Ġprof": 1396,
      "tt": 1397,
      "sei": 1398,
      "Ġenvol": 1399,
      "ĠMe": 1400,
      "Ġnes": 1401,
      "eio": 1402,
      "ĠdÃº": 1403,
      "Ġescol": 1404,
      "Ġcur": 1405,
      "gan": 1406,
      "quen": 1407,
      "ITO": 1408,
      "dito": 1409,
      "ÃŃs": 1410,
      "graÃ§a": 1411,
      "ual": 1412,
      "Ġof": 1413,
      "Ġtrama": 1414,
      "Ġatores": 1415,
      "Ã©ss": 1416,
      "Ġgu": 1417,
      "Ġimpress": 1418,
      "IN": 1419,
      "Ã¢ncia": 1420,
      "rama": 1421,
      "ĠcomeÃ§o": 1422,
      "enda": 1423,
      "iler": 1424,
      "ton": 1425,
      "Ġextre": 1426,
      "Ġsin": 1427,
      "IL": 1428,
      "Ġminu": 1429,
      "Ġban": 1430,
      "Ġve": 1431,
      "MA": 1432,
      "Ġcoloc": 1433,
      "Ġtela": 1434,
      "aixon": 1435,
      "Ġdesta": 1436,
      "dorei": 1437,
      "Ġaparece": 1438,
      "ck": 1439,
      "tagon": 1440,
      "th": 1441,
      "eiro": 1442,
      "Ġduas": 1443,
      "Ġdivertido": 1444,
      "ÃŃveis": 1445,
      "Ġdisso": 1446,
      "--": 1447,
      "az": 1448,
      "ĠmÃ£": 1449,
      "Ġpassar": 1450,
      "ĠQU": 1451,
      "Ġopini": 1452,
      "tivos": 1453,
      "Ġfiz": 1454,
      "fo": 1455,
      "ĠfÃ£": 1456,
      "Ġquero": 1457,
      "haha": 1458,
      "Ġdentro": 1459,
      "ÃŃcio": 1460,
      "Ġapesar": 1461,
      "ĠrÃ¡pido": 1462,
      "Ġdeu": 1463,
      "OR": 1464,
      "Ã¡lo": 1465,
      "ela": 1466,
      "Ġresol": 1467,
      "Ġmesma": 1468,
      "heiro": 1469,
      "Ġgera": 1470,
      "Ġsensacional": 1471,
      "Ġtorn": 1472,
      "you": 1473,
      "Ġdessa": 1474,
      "Ġoriginal": 1475,
      "Ġdesde": 1476,
      "riz": 1477,
      "Ġsabe": 1478,
      "arra": 1479,
      "ĠÃ³ti": 1480,
      "gue": 1481,
      "Ġpessoa": 1482,
      "val": 1483,
      "Ġjun": 1484,
      "ĠâĢľ": 1485,
      "erra": 1486,
      "rias": 1487,
      "Ġutil": 1488,
      "Ġpl": 1489,
      "Ġfacil": 1490,
      "ĠRo": 1491,
      "ticas": 1492,
      "Ġchega": 1493,
      "iente": 1494,
      "Ġcomprar": 1495,
      "Ġprotagon": 1496,
      "IS": 1497,
      "Ġcasa": 1498,
      "ĠrelaÃ§Ã£o": 1499,
      "den": 1500,
      "Ġrefle": 1501,
      "icos": 1502,
      "cido": 1503,
      "Ġsatis": 1504,
      "HA": 1505,
      "ĠPo": 1506,
      "bra": 1507,
      "aran": 1508,
      "ĠcrÃŃ": 1509,
      "De": 1510,
      "Ġmaneira": 1511,
      "poca": 1512,
      "Ġchegou": 1513,
      "EL": 1514,
      "Ġtrava": 1515,
      "Ġoutras": 1516,
      "Ġadorei": 1517,
      "Ġcerto": 1518,
      "Ġ*": 1519,
      "Ġacontece": 1520,
      "cn": 1521,
      "Ġdela": 1522,
      "Ġor": 1523,
      "Ġestra": 1524,
      "Ġlim": 1525,
      "Ġaquele": 1526,
      "xx": 1527,
      "Ġdese": 1528,
      "ĠmÃºsica": 1529,
      "Ġthe": 1530,
      "Ġlado": 1531,
      "gi": 1532,
      "aaaa": 1533,
      "Ġfoda": 1534,
      "Ġapres": 1535,
      "tÃ©": 1536,
      "istas": 1537,
      "izar": 1538,
      "ay": 1539,
      "ĠPara": 1540,
      "Ãªncias": 1541,
      "Ġamo": 1542,
      "fÃŃcil": 1543,
      ".\"": 1544,
      "Ġterror": 1545,
      "ilh": 1546,
      "rasil": 1547,
      "amos": 1548,
      "ack": 1549,
      "Ġqueria": 1550,
      "ĠEm": 1551,
      "Ġpapel": 1552,
      "Ġapaixon": 1553,
      "Ġarre": 1554,
      "iver": 1555,
      "Ġexper": 1556,
      "ĠdiÃ¡lo": 1557,
      "Ġimpec": 1558,
      "Ġvia": 1559,
      "Ã©s": 1560,
      "ciais": 1561,
      "ĠopiniÃ£o": 1562,
      "Ġdemo": 1563,
      "ĠLe": 1564,
      "iza": 1565,
      "ance": 1566,
      "Ġsab": 1567,
      "Ġdecep": 1568,
      "Re": 1569,
      "pan": 1570,
      "cre": 1571,
      "Ġsido": 1572,
      "Ġesperava": 1573,
      "ass": 1574,
      "ĠversÃ£o": 1575,
      "Ġfora": 1576,
      "ĠSem": 1577,
      "pero": 1578,
      "imples": 1579,
      "anas": 1580,
      "vido": 1581,
      "how": 1582,
      "plica": 1583,
      "ĠNa": 1584,
      "Ġch": 1585,
      "ĠAm": 1586,
      "dap": 1587,
      "Ġdetal": 1588,
      "ÃŃssimo": 1589,
      "OS": 1590,
      "âĿ": 1591,
      "ÃŃn": 1592,
      "net": 1593,
      "Ġagra": 1594,
      "ĠvÃ¡rias": 1595,
      "ĠatenÃ§Ã£o": 1596,
      "ris": 1597,
      "ÃŃl": 1598,
      "Ġmensagem": 1599,
      "ĠaÃŃ": 1600,
      "Ġacre": 1601,
      "Ġla": 1602,
      "Ġerro": 1603,
      "mamente": 1604,
      "Ġdrama": 1605,
      "Ġator": 1606,
      "ite": 1607,
      "Ġbu": 1608,
      "Ġajuda": 1609,
      "ĠopÃ§Ã£o": 1610,
      "pense": 1611,
      "ll": 1612,
      "Ġdeixar": 1613,
      "ĠTo": 1614,
      "ĠCh": 1615,
      "Ġcarre": 1616,
      "ON": 1617,
      "usto": 1618,
      "ĠmÃ¡": 1619,
      "Ġposso": 1620,
      "Ġclich": 1621,
      "Ġexiste": 1622,
      "ĠFilme": 1623,
      "âĿ¤": 1624,
      "ĠĠĠĠ": 1625,
      "Ġcolo": 1626,
      "Ġaquela": 1627,
      "Ġpodem": 1628,
      "rir": 1629,
      "ĠinÃŃcio": 1630,
      "AL": 1631,
      "Ġpalavras": 1632,
      "Ġclaro": 1633,
      "Ġnota": 1634,
      "ĠpreÃ§o": 1635,
      "Ġdaque": 1636,
      "ĠparabÃ©ns": 1637,
      "olo": 1638,
      "Ġimagem": 1639,
      "igo": 1640,
      "Ġboas": 1641,
      "Ġtotalmente": 1642,
      "ĠengraÃ§a": 1643,
      "Ġperce": 1644,
      "Ġbonito": 1645,
      "sas": 1646,
      "ĠvÃŃde": 1647,
      "EM": 1648,
      "Ġpol": 1649,
      "ĠdifÃŃcil": 1650,
      "Ġsens": 1651,
      "Ġexpectativas": 1652,
      "ici": 1653,
      "Ġvisto": 1654,
      "AR": 1655,
      "Ġencontra": 1656,
      "como": 1657,
      "anos": 1658,
      "Ġtro": 1659,
      "Ġproblemas": 1660,
      "redo": 1661,
      "Ġali": 1662,
      "Ġfala": 1663,
      "Ġtenha": 1664,
      "Ġmer": 1665,
      "rada": 1666,
      "cendo": 1667,
      "ĠÃ©poca": 1668,
      "pr": 1669,
      "Ġadap": 1670,
      "Ġarte": 1671,
      "mera": 1672,
      "ula": 1673,
      "Ã³g": 1674,
      "Ġvo": 1675,
      "rie": 1676,
      "Ġentender": 1677,
      "ĠCon": 1678,
      "ĠAp": 1679,
      "ces": 1680,
      "Ġbaixar": 1681,
      "Ġestar": 1682,
      "Ġminutos": 1683,
      "Ġcoment": 1684,
      "Ġrealidade": 1685,
      "Ġfui": 1686,
      "Ġjeito": 1687,
      "Ġmedo": 1688,
      "Ġsof": 1689,
      "Ġhoras": 1690,
      "Ġ...": 1691,
      "Ġemocionante": 1692,
      "ĠgÃªnero": 1693,
      "quanto": 1694,
      "Ġsitu": 1695,
      "Ġpensar": 1696,
      "fa": 1697,
      "orm": 1698,
      "Ġpreciso": 1699,
      "Ġmem": 1700,
      "Ġesque": 1701,
      "endeu": 1702,
      "Ġyou": 1703,
      "br": 1704,
      "Ġrecla": 1705,
      "ĠalguÃ©m": 1706,
      "ĠDes": 1707,
      "agem": 1708,
      "Ġapro": 1709,
      "ĠFo": 1710,
      "Produto": 1711,
      "Ġmaravilhosa": 1712,
      "Ġtraz": 1713,
      "Ġforte": 1714,
      "Ġdef": 1715,
      "anÃ§as": 1716,
      "cie": 1717,
      "Ġcabe": 1718,
      "ĠanimaÃ§Ã£o": 1719,
      "ene": 1720,
      "guei": 1721,
      "Ġalguma": 1722,
      "vos": 1723,
      "Ġdeixou": 1724,
      "KKKKKKKKKKKKKKKK": 1725,
      "RO": 1726,
      "Ġcolocar": 1727,
      "Ġlugar": 1728,
      "Ġmag": 1729,
      "Ġcausa": 1730,
      "ontade": 1731,
      "iÃªncia": 1732,
      "Ġjogar": 1733,
      "ĠÃĵ": 1734,
      "Ġdeve": 1735,
      "Ġdescon": 1736,
      "vem": 1737,
      "entar": 1738,
      "Ġdinheiro": 1739,
      "Ġvolta": 1740,
      "Ġlogo": 1741,
      "ĠdiÃ¡logos": 1742,
      "Ġnossa": 1743,
      "ĠMU": 1744,
      "Ġven": 1745,
      "Ġag": 1746,
      "âĻ¥": 1747,
      "gada": 1748,
      "Ġsuspense": 1749,
      "Ġhomem": 1750,
      "Ġentrar": 1751,
      "ĠvÃ¡rios": 1752,
      "SÃ³": 1753,
      "Ġcul": 1754,
      "Ġextremamente": 1755,
      "cante": 1756,
      "Ġespec": 1757,
      "Ġleve": 1758,
      "ĠEle": 1759,
      "Ġretra": 1760,
      "gun": 1761,
      "ĠclÃ¡ssico": 1762,
      "empl": 1763,
      "para": 1764,
      "ff": 1765,
      "Ġpequen": 1766,
      "ÃŃlia": 1767,
      "Ġmulher": 1768,
      "ĠmÃ£e": 1769,
      "ĠmÃºsicas": 1770,
      "Ġvem": 1771,
      "Ġlin": 1772,
      "sou": 1773,
      "lar": 1774,
      "tada": 1775,
      "tino": 1776,
      "lus": 1777,
      "Ġobri": 1778,
      "ip": 1779,
      "Ġaparelho": 1780,
      "ĠnÃ³s": 1781,
      "Ġvontade": 1782,
      "ood": 1783,
      "Ġencan": 1784,
      "ap": 1785,
      "AN": 1786,
      "Ġjus": 1787,
      "quia": 1788,
      "Ġfr": 1789,
      "ĠComo": 1790,
      "Ġnenhuma": 1791,
      "iro": 1792,
      "Ġtalvez": 1793,
      "Ġconstru": 1794,
      "Ġdurante": 1795,
      "Ġintelig": 1796,
      "Ġdecepcion": 1797,
      "mentos": 1798,
      "Ġusa": 1799,
      "Ġlou": 1800,
      "Ġveio": 1801,
      "Bom": 1802,
      "Ġsegundo": 1803,
      "Ġ201": 1804,
      "Ġespa": 1805,
      "Ġbons": 1806,
      "ĠDi": 1807,
      "AS": 1808,
      "Ġnovamente": 1809,
      "Ġfazendo": 1810,
      "Ġchei": 1811,
      "ME": 1812,
      "teri": 1813,
      "ĠcomÃ©dia": 1814,
      "Ġinternet": 1815,
      "Achei": 1816,
      "!!!!!!!!": 1817,
      "Melhor": 1818,
      "dida": 1819,
      "gando": 1820,
      "agan": 1821,
      "aria": 1822,
      "ĠcÃ¢": 1823,
      "Ġgenial": 1824,
      "Ġmerece": 1825,
      "cada": 1826,
      "hando": 1827,
      "vas": 1828,
      "Ġexempl": 1829,
      "tc": 1830,
      "Ġbe": 1831,
      "Ġinforma": 1832,
      "gas": 1833,
      "Ġvil": 1834,
      "deu": 1835,
      "IC": 1836,
      "eza": 1837,
      "ĠQUE": 1838,
      "ĠcartÃ£o": 1839,
      "Ġacaba": 1840,
      "rs": 1841,
      "inguÃ©m": 1842,
      "tac": 1843,
      "zinho": 1844,
      "Ġteve": 1845,
      "ĠforÃ§a": 1846,
      "Ġdando": 1847,
      "ĠimpecÃ¡vel": 1848,
      "Ġanti": 1849,
      "ĠfamÃŃlia": 1850,
      "ĠEsse": 1851,
      "Ġfran": 1852,
      "sÃŃvel": 1853,
      "ex": 1854,
      "iÃ§Ã£o": 1855,
      "ly": 1856,
      "Ġinten": 1857,
      "Ã¡tica": 1858,
      "Ġcapa": 1859,
      "ĠpossÃŃvel": 1860,
      "ena": 1861,
      "Ġhisto": 1862,
      "Ã©ssimo": 1863,
      "rito": 1864,
      "ere": 1865,
      "tion": 1866,
      "In": 1867,
      "ard": 1868,
      "tida": 1869,
      "Ġrs": 1870,
      "Ġher": 1871,
      "velmente": 1872,
      "Ġtempos": 1873,
      "cem": 1874,
      "ensa": 1875,
      "Ġpla": 1876,
      "Ġideia": 1877,
      "Ġconseguiu": 1878,
      "ts": 1879,
      "Ġcaso": 1880,
      "Ġsentido": 1881,
      "Ġfeliz": 1882,
      "Ġchato": 1883,
      "cios": 1884,
      "and": 1885,
      "par": 1886,
      "Ġameric": 1887,
      "Ġigu": 1888,
      "ive": 1889,
      "cesso": 1890,
      "ane": 1891,
      "Ġpior": 1892,
      "rios": 1893,
      "Ã§ar": 1894,
      "Ġprotagonista": 1895,
      "ĠhistÃ³": 1896,
      "Ġ8": 1897,
      "uma": 1898,
      "Ġnarra": 1899,
      "possÃŃvel": 1900,
      "osto": 1901,
      "Ġenquanto": 1902,
      "lei": 1903,
      "ick": 1904,
      "gens": 1905,
      "tia": 1906,
      "Se": 1907,
      "ĠTem": 1908,
      "Ġimpression": 1909,
      "jar": 1910,
      "implesmente": 1911,
      "vidas": 1912,
      "Ġnome": 1913,
      "Ġrou": 1914,
      "ranÃ§a": 1915,
      "Ġsub": 1916,
      "Ã¡veis": 1917,
      "igos": 1918,
      "Ġrecebi": 1919,
      "Ġpropagan": 1920,
      "ph": 1921,
      "Ġshow": 1922,
      "ĠÃºnico": 1923,
      "kkkkkkkk": 1924,
      "ua": 1925,
      "ĠGostei": 1926,
      "Ġdesa": 1927,
      "iar": 1928,
      "ĠDa": 1929,
      "Ġenredo": 1930,
      "Ġama": 1931,
      "En": 1932,
      "tÃ¡vel": 1933,
      "ES": 1934,
      "culo": 1935,
      "Ãºn": 1936,
      "Ġolhos": 1937,
      "ticos": 1938,
      "dam": 1939,
      "Ġler": 1940,
      "cidade": 1941,
      "Ã³i": 1942,
      "Ġnuma": 1943,
      "Ġindica": 1944,
      "posta": 1945,
      "Ġpelos": 1946,
      "ĠprÃ¡tico": 1947,
      "fico": 1948,
      "ĠcabeÃ§a": 1949,
      "hado": 1950,
      "ĠSuper": 1951,
      "ĠJÃ¡": 1952,
      "Ġfavoritos": 1953,
      "Ġotimo": 1954,
      "ĠÃºnica": 1955,
      "ves": 1956,
      "Ġai": 1957,
      "Ġatriz": 1958,
      "Ġbus": 1959,
      "hes": 1960,
      "bora": 1961,
      "Ġinic": 1962,
      "Ġvalor": 1963,
      "ĠVale": 1964,
      "Ġmodo": 1965,
      "tur": 1966,
      "Ġlonga": 1967,
      "Ġgeral": 1968,
      "Ġsurpreend": 1969,
      "Ġsite": 1970,
      "ĠapÃ³s": 1971,
      "enÃ§a": 1972,
      "ilogia": 1973,
      "Ġhistoria": 1974,
      "aga": 1975,
      "tacular": 1976,
      "ĠvocÃªs": 1977,
      "alidade": 1978,
      "ficiente": 1979,
      "icas": 1980,
      "tam": 1981,
      "Ã³timo": 1982,
      "Ġtop": 1983,
      "Ġhumor": 1984,
      "tinho": 1985,
      "rin": 1986,
      "oooooooo": 1987,
      "teria": 1988,
      "ĠY": 1989,
      "Ġprocu": 1990,
      "Ġk": 1991,
      "ĠvÃª": 1992,
      "ĠninguÃ©m": 1993,
      "vando": 1994,
      "Ġcam": 1995,
      "ticamente": 1996,
      "Ġprofun": 1997,
      "vam": 1998,
      "Me": 1999,
      "Ġuns": 2000,
      "Ġabor": 2001,
      "ww": 2002,
      "ĠtÃ©": 2003,
      "cimento": 2004,
      "Ġsentir": 2005,
      "Sem": 2006,
      "iva": 2007,
      "maÃ§o": 2008,
      "Ġtema": 2009,
      "Ġfazem": 2010,
      "Ġ:)": 2011,
      "Ġetc": 2012,
      "elho": 2013,
      "ĠMUITO": 2014,
      "bri": 2015,
      "Ġviol": 2016,
      "Ġesses": 2017,
      "Ġexemplo": 2018,
      "Ġbrilh": 2019,
      "iiii": 2020,
      "Ġcerta": 2021,
      "ĠcomeÃ§a": 2022,
      "quilo": 2023,
      "Ġrefer": 2024,
      "Ġpai": 2025,
      "Ġimagin": 2026,
      "sso": 2027,
      "Ġmis": 2028,
      "Ġcheio": 2029,
      "Ġacom": 2030,
      "ry": 2031,
      "Ġabs": 2032,
      "ĠCOM": 2033,
      "tente": 2034,
      "li": 2035,
      "ĠcrianÃ§a": 2036,
      "Ġpensa": 2037,
      "ĠcÃ¢mera": 2038,
      "tanto": 2039,
      "Ġprefer": 2040,
      "ĠOu": 2041,
      "Ġ9": 2042,
      "Ġsupe": 2043,
      "sem": 2044,
      "Ġconte": 2045,
      "ger": 2046,
      "ĠproduÃ§Ã£o": 2047,
      "Ġrespon": 2048,
      "Ġgrandes": 2049,
      "ender": 2050,
      "Ġdisse": 2051,
      "Ġpergun": 2052,
      "vÃ©s": 2053,
      "Como": 2054,
      "Ġmorte": 2055,
      "ximo": 2056,
      "Ġcomprei": 2057,
      "poiler": 2058,
      "Ġinsta": 2059,
      "Ġtivesse": 2060,
      "Ġacess": 2061,
      "Ġtemos": 2062,
      "Ġdeste": 2063,
      "ĠexperiÃªncia": 2064,
      "Ġtrilogia": 2065,
      "Ġauto": 2066,
      "vente": 2067,
      "Ġtb": 2068,
      "ciedade": 2069,
      "Ġcompara": 2070,
      "Ġtirar": 2071,
      "Ġtorna": 2072,
      "Ġvcs": 2073,
      "AAAA": 2074,
      "ores": 2075,
      "Adorei": 2076,
      "ĠcoraÃ§Ã£o": 2077,
      "gua": 2078,
      "-*": 2079,
      "quis": 2080,
      "ney": 2081,
      "Ġbase": 2082,
      "Ġz": 2083,
      "ĠvÃ£o": 2084,
      "imas": 2085,
      "Ġacompan": 2086,
      "Ġprincipal": 2087,
      "Ġfec": 2088,
      "hn": 2089,
      "Ġsegun": 2090,
      "ĠcrianÃ§as": 2091,
      "ĠAss": 2092,
      "Ġassist": 2093,
      "Ġsatisf": 2094,
      "Ġquis": 2095,
      "Ġ=": 2096,
      "eram": 2097,
      "iam": 2098,
      "ĠPer": 2099,
      "Ġcansa": 2100,
      "Ġdific": 2101,
      "elizmente": 2102,
      "ĠdÃºvida": 2103,
      "Ġcontar": 2104,
      "talar": 2105,
      "ĠfantÃ¡stico": 2106,
      "ĠAchei": 2107,
      "ĠespaÃ§o": 2108,
      "Ã§os": 2109,
      "Ġcusto": 2110,
      "ARA": 2111,
      "ĠTV": 2112,
      "Ġfotos": 2113,
      "''": 2114,
      "Ap": 2115,
      "Ãĩ": 2116,
      "Ġci": 2117,
      "ĠcomentÃ¡rios": 2118,
      "Ġfigu": 2119,
      "Ġuniver": 2120,
      "Ġmostrar": 2121,
      "Ġapresenta": 2122,
      "Ġhumano": 2123,
      "ĠengraÃ§ado": 2124,
      "Ġsociedade": 2125,
      "IM": 2126,
      "xa": 2127,
      "fe": 2128,
      "Ġguerra": 2129,
      "ĠÃłs": 2130,
      "ĠprÃ³prio": 2131,
      "Ġpoucos": 2132,
      "ume": 2133,
      "imos": 2134,
      "icion": 2135,
      "Ġfilho": 2136,
      "Ġamigos": 2137,
      "Ġate": 2138,
      "Ġrecom": 2139,
      "peito": 2140,
      "dores": 2141,
      "Ġgostar": 2142,
      "Ġpresente": 2143,
      "ĠanÃºn": 2144,
      "Ãªm": 2145,
      "ign": 2146,
      "ĠcrÃŃtica": 2147,
      "ĠJack": 2148,
      "Ġmarca": 2149,
      "Ġtrata": 2150,
      "encia": 2151,
      "Ġestilo": 2152,
      "ĠNe": 2153,
      "Ġdesco": 2154,
      "blico": 2155,
      "Ġromance": 2156,
      "ĠcrÃ©": 2157,
      "ĠserÃ¡": 2158,
      "Ġand": 2159,
      "Ġsequ": 2160,
      "201": 2161,
      "................": 2162,
      "ĠCar": 2163,
      "Ġel": 2164,
      "ĠÃ³timas": 2165,
      "ĠCa": 2166,
      "lado": 2167,
      "eitas": 2168,
      "ĠNÃĥO": 2169,
      "Ã´n": 2170,
      "ral": 2171,
      "Ġestran": 2172,
      "Ġtom": 2173,
      "Ġcompletamente": 2174,
      "ĠAr": 2175,
      "Ġlongo": 2176,
      "Ġdess": 2177,
      "iquei": 2178,
      "Ġ[": 2179,
      "Ġmelhorar": 2180,
      "IA": 2181,
      "Ġmaioria": 2182,
      "Ġespeciais": 2183,
      "duz": 2184,
      "Ġapren": 2185,
      "ĠpÃº": 2186,
      "âĸĪ": 2187,
      "ĠsÃ©rie": 2188,
      "Ġperfeitamente": 2189,
      "Ġjogos": 2190,
      "ĠX": 2191,
      "Ġcum": 2192,
      "inc": 2193,
      "ĠsensaÃ§Ã£o": 2194,
      "ĠnÃ©": 2195,
      "No": 2196,
      "Na": 2197,
      "Ġambi": 2198,
      "Ġpagar": 2199,
      "Ġhe": 2200,
      "ador": 2201,
      "Ġnarrativa": 2202,
      "Ġfraco": 2203,
      "ice": 2204,
      "Ġaval": 2205,
      "Ġtenta": 2206,
      "Ġdetalhes": 2207,
      "Ġcorre": 2208,
      "timos": 2209,
      "au": 2210,
      "Ġexplica": 2211,
      "Ġcontro": 2212,
      "dendo": 2213,
      "ĠPe": 2214,
      "Ass": 2215,
      "hh": 2216,
      "ossa": 2217,
      "iu": 2218,
      "Ġpodia": 2219,
      "ĠÃºltima": 2220,
      "dou": 2221,
      "ramente": 2222,
      "ĠtÃŃ": 2223,
      "Ġleva": 2224,
      "iros": 2225,
      "Ġexa": 2226,
      "rum": 2227,
      "Ġtele": 2228,
      "Ġcriar": 2229,
      "Ġagu": 2230,
      "ĠZ": 2231,
      "Ãģ": 2232,
      "Ġnorm": 2233,
      "Ġigual": 2234,
      "Ġsair": 2235,
      "Ġdesejar": 2236,
      "Ġdeles": 2237,
      "Ġespectador": 2238,
      "Ġgaro": 2239,
      "uÃ§Ã£o": 2240,
      "ĠquestÃ£o": 2241,
      "Ġvide": 2242,
      "hou": 2243,
      "Ġbar": 2244,
      "ook": 2245,
      "Ġespetacular": 2246,
      "Al": 2247,
      "ĠrÃ¡pida": 2248,
      "Ġrealiz": 2249,
      "Ġ*-*": 2250,
      "ĠAP": 2251,
      "Ġchorar": 2252,
      "ĠAcho": 2253,
      "Ġumas": 2254,
      "ĠAlÃ©m": 2255,
      "mmmm": 2256,
      "Ġirm": 2257,
      "ĠEnfim": 2258,
      "Ġcai": 2259,
      "Por": 2260,
      "dimento": 2261,
      "Ġpartes": 2262,
      "taÃ§Ãµes": 2263,
      "Ġmon": 2264,
      "denti": 2265,
      "Ġ100": 2266,
      "ord": 2267,
      "Ġapar": 2268,
      "ĠtÃ©cn": 2269,
      "ĠBom": 2270,
      "ĠTom": 2271,
      "Ġvejo": 2272,
      "eria": 2273,
      "vir": 2274,
      "ĠDeus": 2275,
      "Con": 2276,
      "Amei": 2277,
      "hat": 2278,
      "Ġ6": 2279,
      "anc": 2280,
      "Ġfalando": 2281,
      "Ġloja": 2282,
      "ost": 2283,
      "trou": 2284,
      "Ġsurpreendeu": 2285,
      "Ġul": 2286,
      "Ġresto": 2287,
      "ĠMarvel": 2288,
      "ĊĊ": 2289,
      "Ġdig": 2290,
      "vou": 2291,
      "Ġvar": 2292,
      "Ġreais": 2293,
      "ĠQuando": 2294,
      "Ġx": 2295,
      "Ġneg": 2296,
      "Ġabre": 2297,
      "Ġestu": 2298,
      "Ġing": 2299,
      "dente": 2300,
      "Ġvisu": 2301,
      "gostei": 2302,
      "icar": 2303,
      "Ġimportante": 2304,
      "Ġidenti": 2305,
      "ĠclichÃª": 2306,
      "Ġfin": 2307,
      "Ġis": 2308,
      "Ġdirig": 2309,
      "Ġpassado": 2310,
      "Mas": 2311,
      "Ġchama": 2312,
      "Ġfre": 2313,
      "vimento": 2314,
      "ĠprÃ³pria": 2315,
      "Ġsurpreendente": 2316,
      "cri": 2317,
      "tantes": 2318,
      "To": 2319,
      "Ġdestaque": 2320,
      "cis": 2321,
      "Ġchegar": 2322,
      "Ġabrir": 2323,
      "Os": 2324,
      "????": 2325,
      "Ġabsur": 2326,
      "ĠtrÃªs": 2327,
      "ĠFIL": 2328,
      "Ġmil": 2329,
      "Ġinteligente": 2330,
      "Ġpontos": 2331,
      "Ġ7": 2332,
      "Ġacha": 2333,
      "Ġmusic": 2334,
      "Ġedi": 2335,
      "titu": 2336,
      "Ġconseguir": 2337,
      "ENTE": 2338,
      "Ġreflex": 2339,
      "Ġcontinua": 2340,
      "Ġpsic": 2341,
      "ĠLo": 2342,
      "Ġbrasil": 2343,
      "plicativo": 2344,
      "ĠpÃºblico": 2345,
      "//": 2346,
      "aravilhoso": 2347,
      "Ġessas": 2348,
      "osta": 2349,
      "Ġbrilhante": 2350,
      "ĠLu": 2351,
      "Estou": 2352,
      "Ġutiliz": 2353,
      "Ġrepres": 2354,
      "Ġemp": 2355,
      "ht": 2356,
      "olÃ³g": 2357,
      "Ġempre": 2358,
      "Ġuniverso": 2359,
      "icamente": 2360,
      "ĠimpossÃŃvel": 2361,
      "cida": 2362,
      "Ġtaman": 2363,
      "rÃŃveis": 2364,
      "Ġcru": 2365,
      "arantino": 2366,
      "Ġcompre": 2367,
      "Ġprome": 2368,
      "Ġsomente": 2369,
      "Ġjunto": 2370,
      "imentos": 2371,
      "Ġrelacion": 2372,
      "Ġpossui": 2373,
      "lesc": 2374,
      "Ġia": 2375,
      "Ġlonge": 2376,
      "Ġconfor": 2377,
      "Ġacredi": 2378,
      "OOOO": 2379,
      "Ġfranquia": 2380,
      "ler": 2381,
      "uuuu": 2382,
      "Ġbateria": 2383,
      "ĠdÃºvidas": 2384,
      "ĠPa": 2385,
      "ÃŃssima": 2386,
      "App": 2387,
      "ĠExcelente": 2388,
      "DE": 2389,
      "Ġdram": 2390,
      "Ġprende": 2391,
      "Ġlivros": 2392,
      "Ġtendo": 2393,
      "essÃ£o": 2394,
      "**": 2395,
      "Ġnessa": 2396,
      "doro": 2397,
      "ĠTudo": 2398,
      "ĠCl": 2399,
      "cin": 2400,
      "vendo": 2401,
      "Ġtermin": 2402,
      "Ġsurpresa": 2403,
      "esta": 2404,
      "ĠThe": 2405,
      "Ġadoro": 2406,
      "Ġbeleza": 2407,
      "ĠBo": 2408,
      "Ġtar": 2409,
      "Ġchorei": 2410,
      "Ġamar": 2411,
      "ĠhistÃ³rias": 2412,
      "ny": 2413,
      "tivamente": 2414,
      "Ġmto": 2415,
      "Ġsor": 2416,
      "ĠMa": 2417,
      "Ġ19": 2418,
      "xto": 2419,
      "Ġenca": 2420,
      "zz": 2421,
      "ock": 2422,
      "Ġsenha": 2423,
      "Ġtava": 2424,
      "Ġexag": 2425,
      "icidade": 2426,
      "Ġabaix": 2427,
      "ki": 2428,
      "Ġaber": 2429,
      "ceito": 2430,
      "ĠadaptaÃ§Ã£o": 2431,
      "ĠvilÃ£o": 2432,
      "Ġaspec": 2433,
      "ĠgraÃ§a": 2434,
      "Ġneste": 2435,
      "ĠhorrÃŃvel": 2436,
      "tulo": 2437,
      "Ġacer": 2438,
      "Ġdou": 2439,
      "Ġespero": 2440,
      "ĠÃºtil": 2441,
      "EC": 2442,
      "Ġbela": 2443,
      "Ġmente": 2444,
      "Ã©r": 2445,
      "esmo": 2446,
      "Ġbac": 2447,
      "Ġvisual": 2448,
      "Ġbene": 2449,
      "As": 2450,
      "Ġdesins": 2451,
      "Ġrespeito": 2452,
      "ĠâĻ¥": 2453,
      "Ġfas": 2454,
      "idos": 2455,
      "Ġganhar": 2456,
      "ĠFa": 2457,
      "Ġlixo": 2458,
      "ĠtensÃ£o": 2459,
      "Ġconven": 2460,
      "Ġnosso": 2461,
      "ĠPra": 2462,
      "Para": 2463,
      "tural": 2464,
      "ames": 2465,
      "Ġrit": 2466,
      "Ġrecon": 2467,
      "Ġsan": 2468,
      "Ġservi": 2469,
      "ĠES": 2470,
      "ĠAdorei": 2471,
      "Ġaborda": 2472,
      "pla": 2473,
      "ĠÃ³timos": 2474,
      "Per": 2475,
      "Ġconfi": 2476,
      "cum": 2477,
      "Ġcativ": 2478,
      "ise": 2479,
      "Ġestrela": 2480,
      "ados": 2481,
      "ĠJohn": 2482,
      "Ãºm": 2483,
      "Ġclima": 2484,
      "Ġluta": 2485,
      "Ġquan": 2486,
      "ĠCo": 2487,
      "ĠAnd": 2488,
      "ceu": 2489,
      "Ġesperando": 2490,
      "Ġvendo": 2491,
      "pas": 2492,
      "Ġadolesc": 2493,
      "rÃ¡s": 2494,
      "ps": 2495,
      "Ġconc": 2496,
      "ĠBrasil": 2497,
      "Ġimagens": 2498,
      "Ġtanta": 2499,
      "Ġfutu": 2500,
      "Ġdiferentes": 2501,
      "Ġjoga": 2502,
      "Ġdemora": 2503,
      "Ġexpress": 2504,
      "pac": 2505,
      "Ġquad": 2506,
      "Po": 2507,
      "istema": 2508,
      "Ġpelas": 2509,
      "JÃ¡": 2510,
      "ĠinfÃ¢ncia": 2511,
      "ura": 2512,
      "van": 2513,
      "Ġritmo": 2514,
      "ron": 2515,
      "spoiler": 2516,
      "Ġviu": 2517,
      "ĠDis": 2518,
      "cou": 2519,
      "ĠvÃŃdeo": 2520,
      "Ġkkkk": 2521,
      "Ġperde": 2522,
      "xxxx": 2523,
      "ĠlanÃ§a": 2524,
      "Ġenc": 2525,
      "dir": 2526,
      "Ġprodutos": 2527,
      "ÃŃdo": 2528,
      "Ġrap": 2529,
      "line": 2530,
      "ĠnÃŃvel": 2531,
      "Ġbelo": 2532,
      "Ġdesf": 2533,
      "inhas": 2534,
      "Ġteria": 2535,
      "Ġth": 2536,
      "jam": 2537,
      "ĠHo": 2538,
      "pÃ©": 2539,
      "Ġdor": 2540,
      "Ġdesign": 2541,
      "Ġsegunda": 2542,
      "Ġbusca": 2543,
      "Ġhahaha": 2544,
      "Ġconside": 2545,
      "bom": 2546,
      "Ã³is": 2547,
      "Fo": 2548,
      "Ġfrente": 2549,
      "tÃµes": 2550,
      "Quando": 2551,
      "Ġaquilo": 2552,
      "Ġmudar": 2553,
      "ĠsituaÃ§Ã£o": 2554,
      "Ġtrailer": 2555,
      "Ġesperar": 2556,
      "ĠIsso": 2557,
      "Ġobje": 2558,
      "Ġconver": 2559,
      "ley": 2560,
      "ï¸": 2561,
      "Ġmeta": 2562,
      "Ġassistindo": 2563,
      "Ġcancel": 2564,
      "Ġvir": 2565,
      "ĠMais": 2566,
      "ĠvÃŃdeos": 2567,
      "Ġpropaganda": 2568,
      "ĠEstou": 2569,
      "mica": 2570,
      "Ġacessar": 2571,
      "Ġtentando": 2572,
      "Ġobs": 2573,
      "Ġperder": 2574,
      "gaÃ§Ã£o": 2575,
      "lusive": 2576,
      "ologia": 2577,
      "gr": 2578,
      "ĠatrÃ¡s": 2579,
      "vio": 2580,
      "Ġfeita": 2581,
      "Ġolhar": 2582,
      "Ġprova": 2583,
      "Ġtv": 2584,
      "://": 2585,
      "eeee": 2586,
      "ks": 2587,
      "atman": 2588,
      "Ġsentimentos": 2589,
      "Ġcaris": 2590,
      "Ġincomo": 2591,
      "Ġlento": 2592,
      "Ġlevar": 2593,
      "ĠTarantino": 2594,
      "Ġcoloca": 2595,
      "Ã¡ria": 2596,
      "ĠatravÃ©s": 2597,
      "fÃŃcio": 2598,
      "Ġfantas": 2599,
      "Ġfavorito": 2600,
      "oria": 2601,
      "Ġacredito": 2602,
      "Ġmante": 2603,
      "ĠNA": 2604,
      "Ġescre": 2605,
      "Ġacabou": 2606,
      "olan": 2607,
      "Ġlista": 2608,
      "Ã³rio": 2609,
      "Ġtecn": 2610,
      "pico": 2611,
      "Ġenfim": 2612,
      "Acho": 2613,
      "los": 2614,
      "?!": 2615,
      "0000": 2616,
      "ĠMelhor": 2617,
      "Ġinspi": 2618,
      "Ġtarde": 2619,
      "ios": 2620,
      "Ġassus": 2621,
      "ĠAinda": 2622,
      "Ġposi": 2623,
      "ĠEx": 2624,
      "Ġdaqueles": 2625,
      "Ġconcor": 2626,
      "Ġviver": 2627,
      "umo": 2628,
      "Ġprevis": 2629,
      "ĠgrÃ¡": 2630,
      "Ġcontato": 2631,
      "Ġachar": 2632,
      "Ġextra": 2633,
      "Ġresul": 2634,
      "icha": 2635,
      "turb": 2636,
      "Ġ;": 2637,
      "omem": 2638,
      "Ġfer": 2639,
      "Ġaconteceu": 2640,
      "Ġolha": 2641,
      "Ġcarac": 2642,
      "Ġcadas": 2643,
      "ĠGu": 2644,
      "'s": 2645,
      "Ġhavia": 2646,
      "ï¸ı": 2647,
      "unto": 2648,
      "Ġdel": 2649,
      "cula": 2650,
      "Ġtes": 2651,
      "Tem": 2652,
      "rivel": 2653,
      "Ġga": 2654,
      "Ġaqueles": 2655,
      "Ġcal": 2656,
      "tados": 2657,
      "ĠmÃ£o": 2658,
      "dÃ£o": 2659,
      "ĠinterpretaÃ§Ã£o": 2660,
      "ĠFILME": 2661,
      "Ġpossi": 2662,
      "ĠLa": 2663,
      "Ġmercado": 2664,
      "ĠSo": 2665,
      "Ġcompleto": 2666,
      "Ġ''": 2667,
      "ona": 2668,
      "terior": 2669,
      "Ġsistema": 2670,
      "dando": 2671,
      "Ġrecur": 2672,
      "uso": 2673,
      "Ġfizeram": 2674,
      "HO": 2675,
      "gs": 2676,
      "Ġinteiro": 2677,
      "Ġale": 2678,
      "Ġsaga": 2679,
      "Ġconseguindo": 2680,
      "ĠSam": 2681,
      "ĠincrÃŃveis": 2682,
      "Ġexcelentes": 2683,
      "ĠficÃ§Ã£o": 2684,
      "ĠMo": 2685,
      "espe": 2686,
      "Ġmex": 2687,
      "Ġcores": 2688,
      "An": 2689,
      "Ġ!!!": 2690,
      "Ġgo": 2691,
      "Ġexatamente": 2692,
      "grÃ¡": 2693,
      "Ġparti": 2694,
      "ĠsÃ©rio": 2695,
      "dios": 2696,
      "Ġmostrando": 2697,
      "Ġ..": 2698,
      "tÃŃ": 2699,
      "ĠpÃ©ssimo": 2700,
      "Ġencaix": 2701,
      "Ġrever": 2702,
      "Ġ?": 2703,
      "Ġprima": 2704,
      "Ġ0": 2705,
      "bos": 2706,
      "Ġdocum": 2707,
      "Ġarrum": 2708,
      "EI": 2709,
      "book": 2710,
      "bel": 2711,
      "gal": 2712,
      "Ġalto": 2713,
      "KKKKKKKKKKKKKKKKKKKKKKKKKKKKKKKK": 2714,
      "Ġdelica": 2715,
      "ensacional": 2716,
      "----": 2717,
      "Ġindi": 2718,
      "__": 2719,
      "Ġtbm": 2720,
      "ars": 2721,
      "ĠApesar": 2722,
      "ĠÃĵtimo": 2723,
      "10": 2724,
      "tindo": 2725,
      "ĠFil": 2726,
      "Ġverdadeiro": 2727,
      "ĠParabÃ©ns": 2728,
      "ĠmemÃ³ria": 2729,
      "ĠAgora": 2730,
      "Ġbacana": 2731,
      "Ġtentar": 2732,
      "Ġhaha": 2733,
      "Ġvista": 2734,
      "Ġouvir": 2735,
      "nifica": 2736,
      "ĠAtÃ©": 2737,
      "Ġnega": 2738,
      "ĠsequÃªncia": 2739,
      "heres": 2740,
      "Ġnele": 2741,
      "Ġpia": 2742,
      "Ġpais": 2743,
      "enho": 2744,
      "ĠPre": 2745,
      "ĠEU": 2746,
      "use": 2747,
      "gadores": 2748,
      "Ġvivo": 2749,
      "Ġentendi": 2750,
      "RI": 2751,
      "yl": 2752,
      "Ġmt": 2753,
      "Ġimpac": 2754,
      "ĠPorÃ©m": 2755,
      "Ġelas": 2756,
      "Ġfuncional": 2757,
      "Ġcontr": 2758,
      "ĠSte": 2759,
      "Ġpedido": 2760,
      "Ã¡g": 2761,
      "Ġfuturo": 2762,
      "Ġequi": 2763,
      "melhor": 2764,
      "Ġentregue": 2765,
      "deira": 2766,
      "Ġespecial": 2767,
      "Ġbonita": 2768,
      "Meu": 2769,
      "Ġgostaria": 2770,
      "Ġ20": 2771,
      "ĠDO": 2772,
      "necess": 2773,
      "tifica": 2774,
      "ĠDo": 2775,
      "nao": 2776,
      "tral": 2777,
      "Ġfilha": 2778,
      "trar": 2779,
      "ditos": 2780,
      "Ġerrado": 2781,
      "Ġpessoal": 2782,
      "ĠviolÃªncia": 2783,
      "ĠYou": 2784,
      "alvez": 2785,
      "Fil": 2786,
      "Ġexplora": 2787,
      "!!!!!": 2788,
      "ach": 2789,
      "Ġquerer": 2790,
      "Ġloc": 2791,
      "Ġante": 2792,
      "Ġprom": 2793,
      "iss": 2794,
      "Ġpassou": 2795,
      "ibilidade": 2796,
      "ĠemoÃ§Ã£o": 2797,
      "ĠÃ¡gua": 2798,
      "Ġcarrega": 2799,
      "vei": 2800,
      "Ġbaixo": 2801,
      "Ġdificul": 2802,
      "ichael": 2803,
      "Ġsurpreen": 2804,
      "Ġmora": 2805,
      "ĠPRO": 2806,
      "Ġmotivo": 2807,
      "Ġsig": 2808,
      "tudo": 2809,
      "asse": 2810,
      "ĠAmeric": 2811,
      "Ġverdadeira": 2812,
      "Ġcidade": 2813,
      "entemente": 2814,
      "ĠJa": 2815,
      "Ġcap": 2816,
      "Ã§ao": 2817,
      "Lindo": 2818,
      "Ġfico": 2819,
      "Ġrir": 2820,
      "Ġ#": 2821,
      "Ã§ou": 2822,
      "damente": 2823,
      "ĠFoi": 2824,
      "Ġenvolvente": 2825,
      "grama": 2826,
      "Ġcres": 2827,
      "ivo": 2828,
      "ĠDisney": 2829,
      "Ġdireito": 2830,
      "ĠcontrÃ¡rio": 2831,
      "ĠMc": 2832,
      "Ġexpectativa": 2833,
      "Ġbran": 2834,
      "ĠĠĠĠĠĠĠĠ": 2835,
      "Ġrevi": 2836,
      "Ġconec": 2837,
      "Ġocor": 2838,
      "Ġobrigado": 2839,
      "Pra": 2840,
      "Ġsabia": 2841,
      "Ġpalavra": 2842,
      "Ġtira": 2843,
      "Ġorgan": 2844,
      "ĠQuem": 2845,
      "ficar": 2846,
      "Ġcre": 2847,
      "Ġacontecer": 2848,
      "Ġaven": 2849,
      "Ġadul": 2850,
      "rr": 2851,
      "Depois": 2852,
      "US": 2853,
      "Ġatual": 2854,
      "Ġpraticamente": 2855,
      "tim": 2856,
      "TI": 2857,
      "gante": 2858,
      "ĠsituaÃ§Ãµes": 2859,
      "ÃŃfica": 2860,
      "Ġreconhe": 2861,
      "ĠAmei": 2862,
      "Ġassistido": 2863,
      "ĠâĿ¤": 2864,
      "Ġmeses": 2865,
      "kkk": 2866,
      "II": 2867,
      "Simplesmente": 2868,
      "Assisti": 2869,
      "Ġpartir": 2870,
      "EE": 2871,
      "Ġsatisfeito": 2872,
      "ony": 2873,
      "ĠfantÃ¡stica": 2874,
      "sÃ³": 2875,
      "Ġpensando": 2876,
      "Ġproduz": 2877,
      "Ġrepe": 2878,
      "Ġsucesso": 2879,
      "Ġgas": 2880,
      "ĠromÃ¢n": 2881,
      "ĠtÃ´": 2882,
      "mina": 2883,
      "Ġterc": 2884,
      "ĠVocÃª": 2885,
      "Ġeficiente": 2886,
      "Ġcomun": 2887,
      "dades": 2888,
      "Ġembora": 2889,
      "Ġvoz": 2890,
      "Ġpermi": 2891,
      "Ġmoder": 2892,
      "enci": 2893,
      "Ġdesper": 2894,
      "quele": 2895,
      "Ġgaran": 2896,
      "Ġblo": 2897,
      "Ġpromete": 2898,
      "Ġacesso": 2899,
      "Ġmulheres": 2900,
      "wn": 2901,
      "Ġaj": 2902,
      "Ġcansativo": 2903,
      "ĠÃºltimos": 2904,
      "Ġelem": 2905,
      "ĠdÃ©": 2906,
      "ham": 2907,
      "Ġdesfec": 2908,
      "ĠirmÃ£": 2909,
      "pro": 2910,
      "Ġdesnecess": 2911,
      "ĠcontinuaÃ§Ã£o": 2912,
      "ĠsensÃŃvel": 2913,
      "Ġbrin": 2914,
      "men": 2915,
      "Ġcinemato": 2916,
      "Ġpoderiam": 2917,
      "tri": 2918,
      "Ġplano": 2919,
      "ĠfaÃ§o": 2920,
      "turas": 2921,
      "taque": 2922,
      "ner": 2923,
      "ds": 2924,
      "Ġsil": 2925,
      "Ġanima": 2926,
      "Ġil": 2927,
      "Ġmetade": 2928,
      "Ġtamanho": 2929,
      "Ġdescre": 2930,
      "Ġsemana": 2931,
      "Ġnormal": 2932,
      "tava": 2933,
      "Ġencontrar": 2934,
      "amentos": 2935,
      "ĠvisÃ£o": 2936,
      "Ġdefeito": 2937,
      "ĠherÃ³i": 2938,
      "dado": 2939,
      "Mais": 2940,
      "Ġvoltar": 2941,
      "ĠBatman": 2942,
      "ĠEl": 2943,
      "ĠChr": 2944,
      "reira": 2945,
      "ĠCor": 2946,
      "Ġdefini": 2947,
      "Ġdei": 2948,
      "ĠclichÃªs": 2949,
      "Ġtoma": 2950,
      "Ġlembrar": 2951,
      "Ġpal": 2952,
      "Ġdura": 2953,
      "umb": 2954,
      "Ġcomum": 2955,
      "ĠNO": 2956,
      "ĠFO": 2957,
      "ĠinformaÃ§Ãµes": 2958,
      "Ġestiv": 2959,
      "ĠIm": 2960,
      "âĸĳ": 2961,
      "vid": 2962,
      "amei": 2963,
      "Ġusu": 2964,
      "fone": 2965,
      "Ġarrepen": 2966,
      "ĠPar": 2967,
      "ĠnecessÃ¡rio": 2968,
      "Ġprecon": 2969,
      "ĠanÃºncios": 2970,
      "solu": 2971,
      "gus": 2972,
      "tividade": 2973,
      "cha": 2974,
      "ĠNada": 2975,
      "Ġdesenvolve": 2976,
      "ceramente": 2977,
      "Ġreclamar": 2978,
      "Ã©rio": 2979,
      "Ġescu": 2980,
      "crÃŃvel": 2981,
      "ĠâĢĵ": 2982,
      "Ġdesses": 2983,
      "ĠHar": 2984,
      "Ġcasal": 2985,
      "dr": 2986,
      "ĠAPP": 2987,
      "berg": 2988,
      "Ġsocial": 2989,
      "Ġsentimento": 2990,
      "xima": 2991,
      "quina": 2992,
      "Ġsupor": 2993,
      "ĠpolÃŃ": 2994,
      "eros": 2995,
      "ĠnÃºm": 2996,
      "izaÃ§Ã£o": 2997,
      "Ġdizendo": 2998,
      "Ġgostando": 2999,
      "Ġdesfecho": 3000,
      "Ġfamil": 3001,
      "Ġpensei": 3002,
      "vado": 3003,
      "Ġescolha": 3004,
      "Ġexc": 3005,
      "Ġinclusive": 3006,
      "Ġsex": 3007,
      "ĠIN": 3008,
      "Ġfundo": 3009,
      "Comprei": 3010,
      "pal": 3011,
      "Ġarqui": 3012,
      "Ġamigo": 3013,
      "Ġcima": 3014,
      "Ġamiza": 3015,
      "reu": 3016,
      "Ġfiel": 3017,
      "Ġestamos": 3018,
      "Ġpesado": 3019,
      "Ġinfan": 3020,
      "Ġinfelizmente": 3021,
      "Ġacor": 3022,
      "Ġcora": 3023,
      "ĠpsicolÃ³g": 3024,
      "Ġtravando": 3025,
      "Ãºs": 3026,
      "Cara": 3027,
      "ĠBra": 3028,
      "Ġraiva": 3029,
      "ciona": 3030,
      "Ġdireto": 3031,
      "ĠTO": 3032,
      "ĠTr": 3033,
      "Ġiria": 3034,
      "Ġ+": 3035,
      "Ġ!!": 3036,
      "este": 3037,
      "ĠMA": 3038,
      "aaaaaaaa": 3039,
      "ib": 3040,
      "dÃŃssimo": 3041,
      "oog": 3042,
      "ĠtrÃ¡s": 3043,
      "ĠHan": 3044,
      "Ġbaixa": 3045,
      "Ġanterior": 3046,
      "nidade": 3047,
      "Ġdiversas": 3048,
      "Ġ200": 3049,
      "Ġnoite": 3050,
      "Ġparar": 3051,
      "Ġcumpre": 3052,
      "ĠHomem": 3053,
      "Ġdesenvolvimento": 3054,
      "bu": 3055,
      "excelente": 3056,
      "deria": 3057,
      "Ġliber": 3058,
      "ĠEla": 3059,
      "Ġrefletir": 3060,
      "Ġcontrole": 3061,
      "Ġrepresenta": 3062,
      "timas": 3063,
      "OU": 3064,
      "Ã¡l": 3065,
      "ttp": 3066,
      "Ġit": 3067,
      "Ġquestion": 3068,
      "ĠFiquei": 3069,
      "Ġprime": 3070,
      "Ġbara": 3071,
      "ĠMesmo": 3072,
      "prima": 3073,
      "nos": 3074,
      "Ġtenso": 3075,
      "cionais": 3076,
      "Recomendo": 3077,
      "Ġusando": 3078,
      "Ġ30": 3079,
      "ardo": 3080,
      "Ġatualizar": 3081,
      "Ġsignifica": 3082,
      "anta": 3083,
      "reza": 3084,
      "Ġprograma": 3085,
      "Ġmaiores": 3086,
      "icia": 3087,
      "inte": 3088,
      "Ġempol": 3089,
      "Ġlinha": 3090,
      "Ġbanco": 3091,
      "Ġpodemos": 3092,
      "Ġperturb": 3093,
      "Ġcondi": 3094,
      "Ġcurti": 3095,
      "inhos": 3096,
      "Ġpequeno": 3097,
      ".....": 3098,
      "Ġrevol": 3099,
      "ĠprÃ³ximo": 3100,
      "Ġhuman": 3101,
      "Ġempresa": 3102,
      "Ġsutil": 3103,
      "Ġansi": 3104,
      "Ġato": 3105,
      "Ġlei": 3106,
      "inas": 3107,
      "Ġdom": 3108,
      "Ġcontas": 3109,
      "Ġfilma": 3110,
      "Le": 3111,
      "Ġdeixando": 3112,
      "ĠMichael": 3113,
      "dei": 3114,
      "Ġenvi": 3115,
      "Ġsomos": 3116,
      "Ġcompe": 3117,
      "ĠopÃ§Ãµes": 3118,
      "Ġatendimento": 3119,
      "bol": 3120,
      "Ġtre": 3121,
      "Ġrevel": 3122,
      "rendo": 3123,
      "Ġsente": 3124,
      "Ġino": 3125,
      "rido": 3126,
      "Ġaspectos": 3127,
      "Ġserem": 3128,
      "Ġfinais": 3129,
      "Ġcomigo": 3130,
      "Ġtocante": 3131,
      "rande": 3132,
      "Ġengan": 3133,
      "Ele": 3134,
      "Ġreclama": 3135,
      "Ġarras": 3136,
      "Ġatende": 3137,
      "ĠWill": 3138,
      "oogle": 3139,
      "ĠreferÃªncias": 3140,
      "Ġtantas": 3141,
      "Ġms": 3142,
      "iller": 3143,
      "fil": 3144,
      "Ġtalento": 3145,
      "ĠLi": 3146,
      "Ġmons": 3147,
      "???": 3148,
      "ĠME": 3149,
      "Ġmod": 3150,
      "Ġdemons": 3151,
      "wood": 3152,
      "Ġsozinho": 3153,
      "Ġmagn": 3154,
      "Ġdispon": 3155,
      "jas": 3156,
      "Ġperdi": 3157,
      "Ġresposta": 3158,
      "Adoro": 3159,
      "ĠmÃªs": 3160,
      "Ġhumana": 3161,
      "ld": 3162,
      "Ġespera": 3163,
      "Ġescrito": 3164,
      "leto": 3165,
      "Ġnatural": 3166,
      "Ġdiscu": 3167,
      "filme": 3168,
      "ube": 3169,
      "cara": 3170,
      "Ġanun": 3171,
      "ĠconteÃº": 3172,
      "dÃŃ": 3173,
      "Ġju": 3174,
      "ĠAtu": 3175,
      "Ġapre": 3176,
      "Ġofere": 3177,
      "ell": 3178,
      "Ġfatos": 3179,
      "Ġacima": 3180,
      "rimei": 3181,
      "ug": 3182,
      "Ġdados": 3183,
      "Ġfaltou": 3184,
      "mico": 3185,
      "Ãį": 3186,
      "Ġ15": 3187,
      "Ainda": 3188,
      "Ġgru": 3189,
      "ĠfunÃ§Ãµes": 3190,
      "Ġsalva": 3191,
      "ĠfÃ£s": 3192,
      "Ġfofo": 3193,
      "quela": 3194,
      "Ãµe": 3195,
      "Ġficam": 3196,
      "ĠMor": 3197,
      "Ġespeci": 3198,
      "AM": 3199,
      "Ġprem": 3200,
      "ĠTim": 3201,
      "Ġacabei": 3202,
      "ĠcÃ³": 3203,
      "Ġtroca": 3204,
      "Ġvamos": 3205,
      "Ġcompras": 3206,
      "Ġretor": 3207,
      "Ġinstalar": 3208,
      "Ġganha": 3209,
      "Apesar": 3210,
      "Ġnossas": 3211,
      "gil": 3212,
      "ĠBOM": 3213,
      "bert": 3214,
      "Amo": 3215,
      "Ġvive": 3216,
      "Ġviagem": 3217,
      "Ġeram": 3218,
      "Ġcapaz": 3219,
      "bin": 3220,
      "Ġsimpl": 3221,
      "ĠtÃŃtulo": 3222,
      "trei": 3223,
      "Ġfecha": 3224,
      "CI": 3225,
      "Em": 3226,
      "Gosto": 3227,
      "ĠAmericanas": 3228,
      "Ġrecomenda": 3229,
      "Ġmonta": 3230,
      "ĠNolan": 3231,
      "nn": 3232,
      "ĠUM": 3233,
      "entÃ¡rio": 3234,
      "Ġnecessidades": 3235,
      "dÃ¡vel": 3236,
      "ĠTh": 3237,
      "Ġvaleu": 3238,
      "Ġpesqu": 3239,
      "Ġope": 3240,
      "Ġtantos": 3241,
      "izado": 3242,
      "roid": 3243,
      "ĠmÃ©": 3244,
      "Ġresolver": 3245,
      "Ġelo": 3246,
      "Ġindico": 3247,
      "Ġexec": 3248,
      "Ġinicio": 3249,
      "Ġdesem": 3250,
      "ĠFran": 3251,
      "talei": 3252,
      "Ġrecursos": 3253,
      "quinho": 3254,
      "ĠPro": 3255,
      "Jo": 3256,
      "Ġped": 3257,
      "ko": 3258,
      "Ã³r": 3259,
      "Ġdesenro": 3260,
      "dd": 3261,
      "Bem": 3262,
      "ĠKe": 3263,
      "mart": 3264,
      "DU": 3265,
      "dica": 3266,
      "ones": 3267,
      "istÃ³ria": 3268,
      "bus": 3269,
      "Ġabsolu": 3270,
      "Ġinves": 3271,
      "gador": 3272,
      "ĠcinematogrÃ¡": 3273,
      "Ġdevido": 3274,
      "Ġdeci": 3275,
      "ĠfunÃ§Ã£o": 3276,
      "Ġok": 3277,
      "quil": 3278,
      "Ġquiser": 3279,
      "Ġeh": 3280,
      "Ġplay": 3281,
      "Des": 3282,
      "ĠBur": 3283,
      "tografia": 3284,
      "ĠherÃ³is": 3285,
      "ose": 3286,
      "Ġmeia": 3287,
      "Ġsob": 3288,
      "ranha": 3289,
      "Ġpossa": 3290,
      "Ġfuncionar": 3291,
      "Ġcarro": 3292,
      "Ã©tica": 3293,
      "Ġcaracter": 3294,
      "Ġ12": 3295,
      "Ġaum": 3296,
      "lock": 3297,
      "Ġperceber": 3298,
      "otimo": 3299,
      "ĠHol": 3300,
      "Ġprimeiros": 3301,
      "trega": 3302,
      "Ġassiste": 3303,
      "Ġoscar": 3304,
      "Ġhumanos": 3305,
      "Ġmedida": 3306,
      "Ġart": 3307,
      "Ġsalvar": 3308,
      "lix": 3309,
      "Ġsatisfeita": 3310,
      "ĠlÃ¡gr": 3311,
      "rey": 3312,
      "ĠimpressÃ£o": 3313,
      "ĠÃºltimo": 3314,
      "ĠTalvez": 3315,
      "ĠprevisÃŃvel": 3316,
      "Ġsala": 3317,
      "istir": 3318,
      "pra": 3319,
      "Ġbatal": 3320,
      "Ġperto": 3321,
      "ĠcrÃ©ditos": 3322,
      "arav": 3323,
      "ĠJames": 3324,
      "Ġsensibilidade": 3325,
      "Ġcorpo": 3326,
      "Ġpega": 3327,
      "eiÃ§Ã£o": 3328,
      "ĠsessÃ£o": 3329,
      "mou": 3330,
      "Ġmarcante": 3331,
      "33": 3332,
      "ÃŃda": 3333,
      "ĠVi": 3334,
      "tube": 3335,
      "ĠcenÃ¡rio": 3336,
      "Ġdiverti": 3337,
      "Ġig": 3338,
      "ficos": 3339,
      "lor": 3340,
      "rador": 3341,
      "Ġmistura": 3342,
      "Ġimpressionante": 3343,
      "ĠEd": 3344,
      "Ġpossu": 3345,
      "ĠpÃ©": 3346,
      "Ġadmi": 3347,
      "aravilha": 3348,
      "ab": 3349,
      "cando": 3350,
      "Ġjul": 3351,
      "ĠAli": 3352,
      "Ġelementos": 3353,
      "fera": 3354,
      "Ġdiante": 3355,
      "digo": 3356,
      "let": 3357,
      "OL": 3358,
      "Ġajudar": 3359,
      "Ġnave": 3360,
      "ĠSim": 3361,
      "ĠdiferenÃ§a": 3362,
      "ĠcrÃ©dito": 3363,
      "Ġamizade": 3364,
      "ocu": 3365,
      "Este": 3366,
      "Ġpreten": 3367,
      "Super": 3368,
      "vin": 3369,
      "ĠWal": 3370,
      "AtÃ©": 3371,
      "Ġsurpreendi": 3372,
      "cao": 3373,
      "Ġliga": 3374,
      "enti": 3375,
      "Ġdesempen": 3376,
      "ĠChe": 3377,
      "Ã¡ssico": 3378,
      "ĠediÃ§Ã£o": 3379,
      "Ġresultado": 3380,
      "mais": 3381,
      "ĠJul": 3382,
      "cl": 3383,
      "Ġdeveriam": 3384,
      "Ġcuida": 3385,
      "tiÃ§a": 3386,
      "Ġsexo": 3387,
      "Ġobras": 3388,
      "Ġadi": 3389,
      "teg": 3390,
      "ĠCON": 3391,
      "Ġluz": 3392,
      "Ġcompar": 3393,
      "Ġmud": 3394,
      "Ġimporta": 3395,
      "Ex": 3396,
      "Ġvemos": 3397,
      "Ġadicion": 3398,
      "Ġpagamento": 3399,
      "Ġmuda": 3400,
      "sion": 3401,
      "Ġdevol": 3402,
      "antÃ¡s": 3403,
      "Ġsangue": 3404,
      "emin": 3405,
      "alo": 3406,
      "Ġid": 3407,
      "ooo": 3408,
      "ĠDepois": 3409,
      "Ġvideo": 3410,
      "Ġquar": 3411,
      "Nossa": 3412,
      "Ġpegar": 3413,
      "Ġmusica": 3414,
      "rinhos": 3415,
      "Ġporem": 3416,
      "Cl": 3417,
      "Ġrelig": 3418,
      "Ġmusical": 3419,
      "oss": 3420,
      "aprio": 3421,
      "Ġembal": 3422,
      "Ġtirando": 3423,
      "Ġmensagens": 3424,
      "ĠStar": 3425,
      "tria": 3426,
      "Ġentendo": 3427,
      "Ġdigi": 3428,
      "itar": 3429,
      "Ġjor": 3430,
      "amb": 3431,
      "Ġmanter": 3432,
      "Ġconhecer": 3433,
      "Ġcompu": 3434,
      "?\"": 3435,
      "ian": 3436,
      "Ġreceber": 3437,
      "ĠanimaÃ§Ãµes": 3438,
      "zinha": 3439,
      "Ġrotei": 3440,
      "ĠmÃŃn": 3441,
      "portu": 3442,
      "!\"": 3443,
      "Ġenf": 3444,
      "Ġsinal": 3445,
      "Ġcaix": 3446,
      "ĠNem": 3447,
      "Ġcomplica": 3448,
      "Ġtransmi": 3449,
      "terna": 3450,
      "Ġreg": 3451,
      "ĠcomeÃ§ar": 3452,
      "Ġaplicativos": 3453,
      "mail": 3454,
      "tadora": 3455,
      "Ġvel": 3456,
      "adas": 3457,
      "GO": 3458,
      "Ġmanuse": 3459,
      "Ġpromo": 3460,
      "Ġconex": 3461,
      "Ġnovos": 3462,
      "gin": 3463,
      "ĠDA": 3464,
      "Ġdro": 3465,
      "ticular": 3466,
      "ĠconteÃºdo": 3467,
      "ese": 3468,
      "Ġmassa": 3469,
      "horei": 3470,
      "dez": 3471,
      "pia": 3472,
      "HAHA": 3473,
      "ĠduraÃ§Ã£o": 3474,
      "Ġtelefone": 3475,
      "Ã§ando": 3476,
      "Ġresolve": 3477,
      "ĠtÃ©cnica": 3478,
      "terial": 3479,
      "ĠnÃºmero": 3480,
      "cur": 3481,
      "imin": 3482,
      "ĠfilmaÃ§o": 3483,
      "Ġcontinuar": 3484,
      "ĠREC": 3485,
      "ĠObri": 3486,
      "quem": 3487,
      "Ġinteressantes": 3488,
      "Ġpassando": 3489,
      "remos": 3490,
      "CA": 3491,
      "dinho": 3492,
      "Ġclara": 3493,
      "ani": 3494,
      "ĠcrÃŃticas": 3495,
      "mando": 3496,
      "Ġganhou": 3497,
      "vidos": 3498,
      "tf": 3499,
      "dic": 3500,
      "Ġproposta": 3501,
      "Ġfuncionando": 3502,
      "firo": 3503,
      "hi": 3504,
      "Ġlembro": 3505,
      "Ġdiversos": 3506,
      "Ġconfuso": 3507,
      "ung": 3508,
      "Ġarma": 3509,
      "Ġtornou": 3510,
      "Ġangus": 3511,
      "lha": 3512,
      "tz": 3513,
      "Aplicativo": 3514,
      "Ġpequena": 3515,
      "Ġpersonalidade": 3516,
      "DUTO": 3517,
      "Nunca": 3518,
      "ĠBen": 3519,
      "fun": 3520,
      "ĠMat": 3521,
      "Ġens": 3522,
      "Ġjovem": 3523,
      "bb": 3524,
      "Ġav": 3525,
      "Ġmanda": 3526,
      "cola": 3527,
      "ixar": 3528,
      "ĠcaracterÃŃs": 3529,
      "Ġsonho": 3530,
      "Ġsomb": 3531,
      "mba": 3532,
      "teira": 3533,
      "Ġusei": 3534,
      "Ġ80": 3535,
      "Ã©ia": 3536,
      "Ġdata": 3537,
      "Ġbaseado": 3538,
      "Ġoportu": 3539,
      "tual": 3540,
      "Ġprev": 3541,
      "Ġnossos": 3542,
      "entado": 3543,
      "Ġaprender": 3544,
      "Ġdescrever": 3545,
      "Ġpreocu": 3546,
      "Ġsobrevi": 3547,
      "Ġnecessidade": 3548,
      "eiros": 3549,
      "tiz": 3550,
      "ecei": 3551,
      "Ġevi": 3552,
      "++": 3553,
      "ĠSpi": 3554,
      "arem": 3555,
      "Ġevol": 3556,
      "Ġtoque": 3557,
      "Ġalta": 3558,
      "essa": 3559,
      "Ġaventura": 3560,
      "Ġassisto": 3561,
      "Ġcliente": 3562,
      "Ġqueb": 3563,
      "od": 3564,
      "Ġmorrer": 3565,
      "Ġagon": 3566,
      "Ġtrabalha": 3567,
      "GA": 3568,
      "Ġfilhos": 3569,
      "ao": 3570,
      "Ġfemin": 3571,
      "rom": 3572,
      "vante": 3573,
      "way": 3574,
      "ĠEN": 3575,
      "Ġconfl": 3576,
      "Ġputa": 3577,
      "uros": 3578,
      "Ġproje": 3579,
      "ĠPOR": 3580,
      "ĠcÃ´": 3581,
      "ĠPARA": 3582,
      "mÃ£o": 3583,
      "ĠquestÃµes": 3584,
      "Ġtornar": 3585,
      "Ġfinalmente": 3586,
      "Ã©tico": 3587,
      "Ġcient": 3588,
      "pis": 3589,
      "istente": 3590,
      "Ġvidas": 3591,
      "Ġcompro": 3592,
      "Ġacontecendo": 3593,
      "ail": 3594,
      "Ġafinal": 3595,
      "cura": 3596,
      "diano": 3597,
      "Ġdist": 3598,
      "ĠEssa": 3599,
      "Ġlembra": 3600,
      "Ġcarreira": 3601,
      "Ġvaz": 3602,
      "Ġori": 3603,
      "Ġserve": 3604,
      "Maravilhoso": 3605,
      "Ġsinto": 3606,
      "SSE": 3607,
      "ĠAo": 3608,
      "nada": 3609,
      "gico": 3610,
      "Quem": 3611,
      "Ġimagina": 3612,
      "Ġtoca": 3613,
      "tran": 3614,
      "Ġlhe": 3615,
      "Ġquadrinhos": 3616,
      "ĠSE": 3617,
      "ĠdÃ£o": 3618,
      "Ġinoc": 3619,
      "ĠSer": 3620,
      "Ġamericanas": 3621,
      "ĠpaÃŃs": 3622,
      "Ġentanto": 3623,
      "ĠtÃªm": 3624,
      "GU": 3625,
      "ĠMal": 3626,
      "IDA": 3627,
      "ĠDu": 3628,
      "Ġacabar": 3629,
      "VEL": 3630,
      "Ġatmos": 3631,
      "ĠpÃ³s": 3632,
      "Ġenor": 3633,
      "ĠSu": 3634,
      "ĠBe": 3635,
      "Ġce": 3636,
      "Ġdeter": 3637,
      "Ġcinco": 3638,
      "posi": 3639,
      "Ġcole": 3640,
      "Ġpropagandas": 3641,
      "Ġdub": 3642,
      "Ġmatar": 3643,
      "Ġacompanhar": 3644,
      "Ġmoral": 3645,
      "ĠlÃ¡grimas": 3646,
      "istÃªncia": 3647,
      "Ġbola": 3648,
      "Ġpropor": 3649,
      "âĸĴ": 3650,
      "Ġcaminho": 3651,
      "ĠÃ±": 3652,
      "Ġcab": 3653,
      "Ġsau": 3654,
      "Ġalma": 3655,
      "mer": 3656,
      "tel": 3657,
      "Ġbru": 3658,
      "ĠinterpretaÃ§Ãµes": 3659,
      "Ġlouco": 3660,
      "ĠcomentÃ¡rio": 3661,
      "Ġemocionar": 3662,
      "Ġmenina": 3663,
      "Ġpop": 3664,
      "Perfeito": 3665,
      "Ġassista": 3666,
      "Ġmerda": 3667,
      "Ġrsrs": 3668,
      "ĠRu": 3669,
      "ĠliÃ§Ã£o": 3670,
      "Ġexistem": 3671,
      "Ġcomentar": 3672,
      "Ġrealista": 3673,
      "Ġrisa": 3674,
      "xe": 3675,
      "ĠCin": 3676,
      "ÃĩÃĥO": 3677,
      "Ġdirigido": 3678,
      "Ġhumanidade": 3679,
      "Ġ:(": 3680,
      "Ġdevia": 3681,
      "ravol": 3682,
      "Ġdeus": 3683,
      "Ġerros": 3684,
      "ĠemoÃ§Ãµes": 3685,
      "meras": 3686,
      "agens": 3687,
      "ĠJe": 3688,
      "ĠserviÃ§o": 3689,
      "www": 3690,
      "Ġporra": 3691,
      "bs": 3692,
      "âĸĪâĸĪ": 3693,
      "UU": 3694,
      "Ġparticip": 3695,
      "tÃ³rio": 3696,
      "ĠMeu": 3697,
      "Ġpi": 3698,
      "ĠpÃ©ss": 3699,
      "Ġnovas": 3700,
      "Ġmusicas": 3701,
      "Ġquebra": 3702,
      "Ġambiente": 3703,
      "Ġinde": 3704,
      "lobo": 3705,
      "fesso": 3706,
      "Ġachando": 3707,
      "Sempre": 3708,
      "Ġbaixei": 3709,
      "cimentos": 3710,
      "Ġaleg": 3711,
      "dias": 3712,
      "Ġjustamente": 3713,
      "Ġvarias": 3714,
      "entando": 3715,
      "Ġestranho": 3716,
      "Ġalem": 3717,
      "sequ": 3718,
      "Ġlegais": 3719,
      "atro": 3720,
      "Ġescolher": 3721,
      "Ġassunto": 3722,
      "riores": 3723,
      "ĠLindo": 3724,
      "Ã¡ticos": 3725,
      "ĠconstruÃ§Ã£o": 3726,
      "real": 3727,
      "ĠChar": 3728,
      "Ġpers": 3729,
      "ĠBem": 3730,
      "ĠbenefÃŃcio": 3731,
      "Ġder": 3732,
      "Ġtri": 3733,
      "Bo": 3734,
      "Ġassass": 3735,
      "Ġdava": 3736,
      "tao": 3737,
      "Pre": 3738,
      "ĠdocumentÃ¡rio": 3739,
      "ĠSimplesmente": 3740,
      "yn": 3741,
      "Ġfe": 3742,
      "Ġatmosfera": 3743,
      "Ġps": 3744,
      "Ġtransforma": 3745,
      "lego": 3746,
      "Ġinstalei": 3747,
      "Ġfortes": 3748,
      "bar": 3749,
      "Ġsuficiente": 3750,
      "ĠnotÃŃ": 3751,
      "Ġsuperou": 3752,
      "Ġdesempenho": 3753,
      "Ġplane": 3754,
      "Ġutilizar": 3755,
      "âĸĳâĸĳ": 3756,
      "Ġgratu": 3757,
      "Ġterceiro": 3758,
      "ĠPeter": 3759,
      "entou": 3760,
      "alizaÃ§Ã£o": 3761,
      "Ġcarism": 3762,
      "cabei": 3763,
      "Ġprim": 3764,
      "Ġcapacidade": 3765,
      "antÃ¡stico": 3766,
      "Ġestavam": 3767,
      "Ġatrapal": 3768,
      "Ġpoucas": 3769,
      "estou": 3770,
      "Ġcomer": 3771,
      "Ġdetalhe": 3772,
      "The": 3773,
      "ÃŃfico": 3774,
      "Ġestado": 3775,
      "cantes": 3776,
      "Ġirri": 3777,
      "Ġinfantil": 3778,
      "Ġcruel": 3779,
      "gel": 3780,
      "ĠNunca": 3781,
      "icho": 3782,
      "Ġtemas": 3783,
      "uta": 3784,
      "ĠtemÃ¡tica": 3785,
      "felizmente": 3786,
      "Ġjuntos": 3787,
      "Ġexplo": 3788,
      "ĠJen": 3789,
      "ĠEntÃ£o": 3790,
      "Ġconser": 3791,
      "inar": 3792,
      "Ġpura": 3793,
      "ate": 3794,
      "che": 3795,
      "Ġpedi": 3796,
      "LE": 3797,
      "Ġhomen": 3798,
      "Ġisto": 3799,
      "duÃ§Ã£o": 3800,
      "Ġobjetivo": 3801,
      "MO": 3802,
      "ĠanÃºncio": 3803,
      "Ġnu": 3804,
      "Ġcontada": 3805,
      "ĠTi": 3806,
      "ĠseguranÃ§a": 3807,
      "lot": 3808,
      "tidade": 3809,
      "tÃ¢ncia": 3810,
      "ficial": 3811,
      "inganÃ§a": 3812,
      "Ġpadr": 3813,
      "ĠEspe": 3814,
      "ĠBurton": 3815,
      "vemos": 3816,
      "cal": 3817,
      "ciÃªncia": 3818,
      "Ġavalia": 3819,
      "Ġlite": 3820,
      "Ġvelho": 3821,
      "Ġmerecia": 3822,
      "Ġpreconceito": 3823,
      "Ġpago": 3824,
      "Ġprofis": 3825,
      "rino": 3826,
      "Ġkkk": 3827,
      "Ġaceita": 3828,
      "Ġhomens": 3829,
      "Ġficando": 3830,
      "................................": 3831,
      "adorei": 3832,
      "Ġpede": 3833,
      "Ġimp": 3834,
      "tugu": 3835,
      "entaÃ§Ã£o": 3836,
      "Ġquerendo": 3837,
      "Ġecon": 3838,
      "zer": 3839,
      "ky": 3840,
      "the": 3841,
      "resse": 3842,
      "ĠSempre": 3843,
      "Ġtu": 3844,
      "Ġlan": 3845,
      "alera": 3846,
      "Ġdigo": 3847,
      "ĠcomeÃ§ou": 3848,
      "Ġcontexto": 3849,
      "Ġcativante": 3850,
      "Ġcompleta": 3851,
      "ambÃ©m": 3852,
      "Ġenx": 3853,
      "Ġmontagem": 3854,
      "top": 3855,
      "ĠmÃ£os": 3856,
      "SA": 3857,
      "Ġultima": 3858,
      "Ġmemor": 3859,
      "ĠRes": 3860,
      "ĠNota": 3861,
      "tureza": 3862,
      "Ġrecar": 3863,
      "ĠimpecÃ¡veis": 3864,
      "ĠTra": 3865,
      "ĠDavid": 3866,
      "sado": 3867,
      "lÃªs": 3868,
      "die": 3869,
      "Ġcaro": 3870,
      "Ġontem": 3871,
      "ĠFal": 3872,
      "Ġexplicar": 3873,
      "Ġcorri": 3874,
      "blo": 3875,
      "und": 3876,
      "âĻ¡": 3877,
      "Ġretrata": 3878,
      "tus": 3879,
      "Ġprotagonistas": 3880,
      "Ġesquecer": 3881,
      "Ġinfer": 3882,
      "ĠDar": 3883,
      "ĠHa": 3884,
      "aixÃ£o": 3885,
      "Ġconfer": 3886,
      "garam": 3887,
      "iÃ£o": 3888,
      "Ġavaliar": 3889,
      "Ġvisuais": 3890,
      "fas": 3891,
      "ientes": 3892,
      "esque": 3893,
      "Ġcultura": 3894,
      "Ġenorme": 3895,
      "Ġpovo": 3896,
      "Ġchave": 3897,
      "tÃ©m": 3898,
      ",,": 3899,
      "ĠreflexÃ£o": 3900,
      "ĠSÃ£o": 3901,
      "Ġtecnologia": 3902,
      "Caprio": 3903,
      "Ġotima": 3904,
      "âĺ": 3905,
      "atch": 3906,
      "Ġguar": 3907,
      "Ġmenor": 3908,
      ">>": 3909,
      "Ġcost": 3910,
      "Ġcob": 3911,
      "Ġnacional": 3912,
      "Ġrapido": 3913,
      "tamento": 3914,
      "Ġdemonstra": 3915,
      "Ġexcep": 3916,
      "ĠRa": 3917,
      "ĠKu": 3918,
      "ĠquÃ£o": 3919,
      "ward": 3920,
      "!!!!!!!!!!!!!!!!": 3921,
      "tflix": 3922,
      "Ġabsurdo": 3923,
      "ath": 3924,
      "tencial": 3925,
      "Ġmesmos": 3926,
      "ĠmÃ¡ximo": 3927,
      "AAAAAAAA": 3928,
      "idas": 3929,
      "ker": 3930,
      "ĠPRODUTO": 3931,
      "Ġparticular": 3932,
      "Ġonline": 3933,
      "Ġconseguem": 3934,
      "gram": 3935,
      "ICA": 3936,
      "dico": 3937,
      "Ġrelacionamento": 3938,
      "Di": 3939,
      "comenda": 3940,
      "Ġbra": 3941,
      "ĠconexÃ£o": 3942,
      "Ġparou": 3943,
      "ĠMan": 3944,
      "Ġesperado": 3945,
      "ws": 3946,
      "nifer": 3947,
      "Ġreviravol": 3948,
      "Ġapaixonada": 3949,
      "oooooooooooooooo": 3950,
      "Ġculpa": 3951,
      "Ġconduz": 3952,
      "ulo": 3953,
      "UN": 3954,
      "Ġtiver": 3955,
      "guÃ©m": 3956,
      "itch": 3957,
      "IMO": 3958,
      "Ġmaterial": 3959,
      "ĠclÃ¡ssicos": 3960,
      "nal": 3961,
      "ĠcÃ©": 3962,
      "Ġhou": 3963,
      "Ġpercebe": 3964,
      "Ġabaixo": 3965,
      "yan": 3966,
      "Ġbloque": 3967,
      "cionante": 3968,
      "Ġtentei": 3969,
      "pens": 3970,
      "Ġincon": 3971,
      "Ġress": 3972,
      "Ġdestru": 3973,
      "Ġbrasileiro": 3974,
      "laÃ§Ã£o": 3975,
      "Ġambos": 3976,
      "amo": 3977,
      "Ġboca": 3978,
      "Ġacreditar": 3979,
      "Ġur": 3980,
      "Ġeng": 3981,
      "ĠhistÃ³r": 3982,
      "Ġesp": 3983,
      "Ġacei": 3984,
      "âĸĢ": 3985,
      "Âº": 3986,
      "Ġfeitos": 3987,
      "ĠpÃ¡g": 3988,
      "ĠBar": 3989,
      "ĠPER": 3990,
      "Ġbol": 3991,
      "brick": 3992,
      "Ġfrase": 3993,
      "ĠHD": 3994,
      "Ġelabora": 3995,
      "Ġsurpreende": 3996,
      "tras": 3997,
      "lash": 3998,
      "Ġcateg": 3999,
      "Ġparecer": 4000,
      "ENDO": 4001,
      "Tube": 4002,
      "Ġconv": 4003,
      "Ġnegro": 4004,
      "Ġaprovei": 4005,
      "âĿ¤âĿ¤": 4006,
      "Ġcarregar": 4007,
      "Ġarrumem": 4008,
      "Foi": 4009,
      "udou": 4010,
      "Ġpeso": 4011,
      "vador": 4012,
      "pisÃ³": 4013,
      "Ġnar": 4014,
      "encial": 4015,
      "cebook": 4016,
      "Ġmy": 4017,
      "Ġanteriores": 4018,
      "mmmmmmmm": 4019,
      "Ġconfigu": 4020,
      "tira": 4021,
      "Ġemail": 4022,
      "ĠprÃ©": 4023,
      "ant": 4024,
      "Ġpio": 4025,
      "patia": 4026,
      "ĠdÃ©cada": 4027,
      "ĠHÃ¡": 4028,
      "VocÃª": 4029,
      "Ġhttp": 4030,
      "Ġintu": 4031,
      "Ġfoco": 4032,
      "ÃŃmica": 4033,
      "Ġinj": 4034,
      "Ġpud": 4035,
      "ĠAssim": 4036,
      "Tudo": 4037,
      "Ġfacilidade": 4038,
      "Ġficaram": 4039,
      "bens": 4040,
      "Ġ90": 4041,
      "ĠinÃº": 4042,
      "dicion": 4043,
      "oro": 4044,
      "ĠCOMP": 4045,
      "Ġsmart": 4046,
      "Ġtambem": 4047,
      "FilmaÃ§o": 4048,
      "'t": 4049,
      "ĠGe": 4050,
      "Ġtransfor": 4051,
      "embre": 4052,
      "Ġtare": 4053,
      "Ġgar": 4054,
      "ĠinglÃªs": 4055,
      "Ġparecia": 4056,
      "ĠmetÃ¡": 4057,
      "ĠesperanÃ§a": 4058,
      "tter": 4059,
      "tenimento": 4060,
      "Ġportugu": 4061,
      "Ġangusti": 4062,
      "Fiquei": 4063,
      "Ġquerem": 4064,
      "ĠVer": 4065,
      "cidos": 4066,
      "ĠperfeiÃ§Ã£o": 4067,
      "UA": 4068,
      "llll": 4069,
      "Ġgostou": 4070,
      "Ġdesenrolar": 4071,
      "Ġris": 4072,
      "Ġtrocar": 4073,
      "Ġadolescente": 4074,
      "ĠWood": 4075,
      "Ġprincipais": 4076,
      "ĠHQ": 4077,
      "Vale": 4078,
      "Ġsta": 4079,
      "bas": 4080,
      "posa": 4081,
      "bem": 4082,
      "Ġarquivos": 4083,
      "Ġvideos": 4084,
      "ĠSh": 4085,
      "ĠFA": 4086,
      "Ġfix": 4087,
      "iiiiiiii": 4088,
      "Ġliberdade": 4089,
      "tadores": 4090,
      "ĠGoogle": 4091,
      "Ġpros": 4092,
      "ĠYouTube": 4093,
      "onto": 4094,
      "Ġsono": 4095,
      "ĠDiCaprio": 4096,
      "99": 4097,
      "Ġpin": 4098,
      "Ġsuperior": 4099,
      "Ġenvia": 4100,
      "cÃŃvel": 4101,
      "nas": 4102,
      "ental": 4103,
      "ĠBrad": 4104,
      "Ġnatureza": 4105,
      "ĠfaÃ§a": 4106,
      "Ġdecor": 4107,
      "ĠMer": 4108,
      "Ġlimite": 4109,
      "Sensacional": 4110,
      "Ġbal": 4111,
      "elh": 4112,
      "ple": 4113,
      "ries": 4114,
      "ĠpsicolÃ³gico": 4115,
      "Ġsociais": 4116,
      "ĠcenÃ¡rios": 4117,
      "Ġtranspor": 4118,
      "Ġfigurino": 4119,
      "Ġterminar": 4120,
      "Ġfascin": 4121,
      "Ġlembrou": 4122,
      "Ġefeito": 4123,
      "Ġmestre": 4124,
      "Ġentende": 4125,
      "Ġescrever": 4126,
      "Ġparado": 4127,
      "Ġequipe": 4128,
      "Ġdizem": 4129,
      "Ġwi": 4130,
      "Ġdemorei": 4131,
      "âĢĿ,": 4132,
      "Ġencontrei": 4133,
      "Ġintenso": 4134,
      "Ġrede": 4135,
      "Gente": 4136,
      "ĠAdam": 4137,
      "Ġfase": 4138,
      "Ġsonhos": 4139,
      "Ġimportantes": 4140,
      "ĠquÃŃmica": 4141,
      "Ġfamos": 4142,
      "Ġprecisava": 4143,
      "Espe": 4144,
      "Ġgostoso": 4145,
      "Ġobser": 4146,
      "Ġsaiu": 4147,
      "Ġlindas": 4148,
      "Ġpiadas": 4149,
      "Ro": 4150,
      "achei": 4151,
      "Ġmelanc": 4152,
      "Ġsuporte": 4153,
      "Ġtento": 4154,
      "IX": 4155,
      "zÃ£o": 4156,
      "EITO": 4157,
      "cionar": 4158,
      "ĠMAIS": 4159,
      "Ġconhece": 4160,
      "ĠCha": 4161,
      "Ġcurto": 4162,
      "ĠEspero": 4163,
      "phone": 4164,
      "Ġmenino": 4165,
      "gir": 4166,
      "Ġchor": 4167,
      "Ġpreferido": 4168,
      "amente": 4169,
      "Vi": 4170,
      "ĠfÃ´": 4171,
      "Ġrecu": 4172,
      "orte": 4173,
      "ĠHolly": 4174,
      "ĠimportÃ¢ncia": 4175,
      "pse": 4176,
      "Ġtransfer": 4177,
      "Ġcanal": 4178,
      "Ġconsum": 4179,
      "Essa": 4180,
      "Ġenviar": 4181,
      "Ġinicial": 4182,
      "ah": 4183,
      "Ġdiv": 4184,
      "dy": 4185,
      "ĠPen": 4186,
      "Ġdaquele": 4187,
      "Ġcaixa": 4188,
      "Ġ50": 4189,
      "ensÃ£o": 4190,
      "ĠBla": 4191,
      "ĠRoteiro": 4192,
      "Ġbarato": 4193,
      "Ġlojas": 4194,
      "ĠRobert": 4195,
      "Ġacost": 4196,
      "ĠNatal": 4197,
      "Ġagrade": 4198,
      "Ġinflu": 4199,
      "ĠEX": 4200,
      "kkkkkkkkkkkkkkkk": 4201,
      "vidade": 4202,
      "Ġprofission": 4203,
      "pitÃ£o": 4204,
      "ight": 4205,
      "Ġseguir": 4206,
      "Ġconfesso": 4207,
      "Ġaula": 4208,
      "ĠcÃ³digo": 4209,
      "Ġgrupo": 4210,
      "cadas": 4211,
      "ĠAndroid": 4212,
      "xxxxxxxx": 4213,
      "Ġdessas": 4214,
      "ĠMi": 4215,
      "Ġbranco": 4216,
      "Ġmostrou": 4217,
      "ĠessÃªncia": 4218,
      "Ġfeitas": 4219,
      "Ġcritica": 4220,
      "Ġcaralho": 4221,
      "ingadores": 4222,
      "ĠScor": 4223,
      "adju": 4224,
      "Ġdown": 4225,
      "Ġabsolutamente": 4226,
      "ila": 4227,
      "Ġtomar": 4228,
      "ĠHe": 4229,
      "cebi": 4230,
      "ĠvinganÃ§a": 4231,
      "Ġelogi": 4232,
      "gg": 4233,
      "ĠGar": 4234,
      "Ġimpe": 4235,
      "Ġmorre": 4236,
      "ĠEmma": 4237,
      "sese": 4238,
      "tendo": 4239,
      "ĠTrilha": 4240,
      "sar": 4241,
      "ĠridÃŃ": 4242,
      "Ġprovavelmente": 4243,
      "ĠHarry": 4244,
      "Ġpude": 4245,
      "Ġferram": 4246,
      "Ġacontecimentos": 4247,
      "Ġ;)": 4248,
      "sung": 4249,
      "Ġtermina": 4250,
      "HOR": 4251,
      "Ġsabendo": 4252,
      "ĠTodos": 4253,
      "ques": 4254,
      "vaÃ§Ã£o": 4255,
      "ĠfÃ´lego": 4256,
      "Ġdificil": 4257,
      "Nao": 4258,
      "Ġatendeu": 4259,
      "Ġgig": 4260,
      "ĠmÃŃnimo": 4261,
      "Ġbei": 4262,
      "Ġoportunidade": 4263,
      "Ġconforme": 4264,
      "Ġporta": 4265,
      "amais": 4266,
      "Ġobriga": 4267,
      "Ġmun": 4268,
      "ĠFaz": 4269,
      "ĠEM": 4270,
      "taram": 4271,
      "ĠBu": 4272,
      "iga": 4273,
      "uita": 4274,
      "load": 4275,
      "Ġquais": 4276,
      "Ġcompor": 4277,
      "ĠEste": 4278,
      "Ġoff": 4279,
      "Ġdon": 4280,
      "Ġamericano": 4281,
      "ĠFora": 4282,
      "Ġsoube": 4283,
      "Ġmoderno": 4284,
      "culos": 4285,
      "Ġentretenimento": 4286,
      "Ġcomputador": 4287,
      "Ġge": 4288,
      "Ġdez": 4289,
      "essor": 4290,
      "Ġafe": 4291,
      "Ġfel": 4292,
      "Ġmodelo": 4293,
      "ĠÃ³b": 4294,
      "elberg": 4295,
      "Ġconsequ": 4296,
      "ciso": 4297,
      "Ġdesinstalar": 4298,
      "Ãĵtima": 4299,
      "sh": 4300,
      "KKKKKKKKKKKKKKKKKKKKKKKKKKKKKKKKKKKKKKKKKKKKKKKKKKKKKKKKKKKKKKKK": 4301,
      "trig": 4302,
      "Ġsao": 4303,
      "Ġdeixam": 4304,
      "Ġcheia": 4305,
      "ĠGuerra": 4306,
      "Ġlivre": 4307,
      "Ġcanso": 4308,
      "ĠgeraÃ§Ã£o": 4309,
      "ĠFre": 4310,
      "Ġbarul": 4311,
      "Ġaper": 4312,
      "Ġsofr": 4313,
      "essem": 4314,
      "Ġencantador": 4315,
      "Tr": 4316,
      "ka": 4317,
      "jos": 4318,
      "Ġmist": 4319,
      "Ġadqui": 4320,
      "Ġgaroto": 4321,
      "11": 4322,
      "Ġtrazer": 4323,
      "Ġdificuldade": 4324,
      "ficio": 4325,
      "issa": 4326,
      "Ġfrus": 4327,
      "Ġtornando": 4328,
      "ĠmÃ¡quina": 4329,
      "Ġpermite": 4330,
      "tina": 4331,
      "Im": 4332,
      "osamente": 4333,
      "Ġincrivel": 4334,
      "ĠindicaÃ§Ã£o": 4335,
      "ssss": 4336,
      "ivel": 4337,
      "ssÃ£o": 4338,
      "cipalmente": 4339,
      "Ġantiga": 4340,
      "quÃª": 4341,
      "Ġvergon": 4342,
      "ty": 4343,
      "ĠpÃ©ssima": 4344,
      "posto": 4345,
      "into": 4346,
      "Ġanal": 4347,
      "Ġprazer": 4348,
      "Ġatualiza": 4349,
      "ciar": 4350,
      "baix": 4351,
      "ĠBon": 4352,
      "ĠagradÃ¡vel": 4353,
      "ĠnotÃŃcias": 4354,
      "ĠCol": 4355,
      "Ġpele": 4356,
      "Ġdado": 4357,
      "Ġgal": 4358,
      "Ġreceb": 4359,
      "Ġmsm": 4360,
      "iais": 4361,
      "ĠbelÃŃssima": 4362,
      "Ġsemelh": 4363,
      "Ġhorror": 4364,
      "ĠSand": 4365,
      "Ġlingu": 4366,
      "Ġtrabalhos": 4367,
      "Ã³l": 4368,
      "Ġprefiro": 4369,
      "Ġcontem": 4370,
      "ĠRealmente": 4371,
      "Ġgalera": 4372,
      "ĠGra": 4373,
      "ĠSa": 4374,
      "ordin": 4375,
      "UL": 4376,
      "Ġtw": 4377,
      "ĠdiversÃ£o": 4378,
      "Ġpergunta": 4379,
      "Ġnamo": 4380,
      "ĠKubrick": 4381,
      "Ġarti": 4382,
      "Ġajudou": 4383,
      "ĠfÃ©": 4384,
      "Ġenxer": 4385,
      "Ġras": 4386,
      "Ġmusicais": 4387,
      "ĠProduto": 4388,
      "Ġaquelas": 4389,
      "Ġquantidade": 4390,
      "Ġapag": 4391,
      "Ġodi": 4392,
      "rioso": 4393,
      "Ġtristeza": 4394,
      "Ġtrem": 4395,
      "ges": 4396,
      "Ġbatalha": 4397,
      "Ġnisso": 4398,
      "Ġpassam": 4399,
      "Ġlibe": 4400,
      "Minha": 4401,
      "ĠInter": 4402,
      "Ġ)": 4403,
      "ĠmÃ©dia": 4404,
      "rea": 4405,
      "Ġfazia": 4406,
      "inga": 4407,
      "Ġescola": 4408,
      "Ġcine": 4409,
      "gio": 4410,
      "ficaÃ§Ã£o": 4411,
      "ĠJennifer": 4412,
      "Ġantigo": 4413,
      "ĠcientÃŃfica": 4414,
      "ĠJim": 4415,
      "Ġstatus": 4416,
      "Ġapps": 4417,
      "Ġatuais": 4418,
      "Ġfatura": 4419,
      "ICO": 4420,
      "Ġdesl": 4421,
      "chor": 4422,
      "didade": 4423,
      "Ġprimor": 4424,
      "Ġdorm": 4425,
      "Sou": 4426,
      "So": 4427,
      "Ġthat": 4428,
      "gente": 4429,
      "Ġesposa": 4430,
      "ĠDC": 4431,
      "ĠKing": 4432,
      "Ġprote": 4433,
      "Ġpesquis": 4434,
      "dÃªncia": 4435,
      "pri": 4436,
      "Ġwe": 4437,
      "Ġcomplexo": 4438,
      "raÃ§Ãµes": 4439,
      "Ġfuncionou": 4440,
      "ĠPerfeito": 4441,
      "Ġinvesti": 4442,
      "ther": 4443,
      "ĠepisÃ³": 4444,
      "Ġminuto": 4445,
      "ast": 4446,
      "Ġleitura": 4447,
      "Ġcuidado": 4448,
      "ĠAd": 4449,
      "Ġarrepi": 4450,
      "PO": 4451,
      "ĠdinÃ¢": 4452,
      "Ġterem": 4453,
      "ĠMinha": 4454,
      "ĠPO": 4455,
      "don": 4456,
      "Ġirre": 4457,
      "Ġcarisma": 4458,
      "Ġtab": 4459,
      "ĠTambÃ©m": 4460,
      "Ġenvolve": 4461,
      "ĠTEM": 4462,
      "embro": 4463,
      "app": 4464,
      "Ġatitu": 4465,
      "Ġrapida": 4466,
      "Ġconstante": 4467,
      "Ġprecisar": 4468,
      "ĠgÃªnio": 4469,
      "Ġplot": 4470,
      "leta": 4471,
      "Ġmaravilhosas": 4472,
      "Ġprofundo": 4473,
      "Ġdigital": 4474,
      "enial": 4475,
      "Ġtexto": 4476,
      "Ġresolu": 4477,
      "Ġdecorrer": 4478,
      "Ġacompanha": 4479,
      "Ġsofrimento": 4480,
      "SSO": 4481,
      "Ġimaginar": 4482,
      "Ġsegue": 4483,
      "âĢĻ": 4484,
      "meu": 4485,
      "ĠGo": 4486,
      "Ġcomplex": 4487,
      "12": 4488,
      "ile": 4489,
      "ĠDI": 4490,
      "Ġvelo": 4491,
      "CION": 4492,
      "ĠrelaÃ§Ãµes": 4493,
      "Ġmov": 4494,
      "Ġconclus": 4495,
      "Che": 4496,
      "aniel": 4497,
      "Ġame": 4498,
      "Ġmaravilha": 4499,
      "Ġinesque": 4500,
      "Ġexperi": 4501,
      "ĠJackson": 4502,
      "âĶ": 4503,
      "Ġsexual": 4504,
      "bro": 4505,
      "Ġpreferidos": 4506,
      "Ã³sito": 4507,
      "ĠÃ¡u": 4508,
      "Ġcoragem": 4509,
      "ĠRyan": 4510,
      "Ġcombin": 4511,
      "Ġmoto": 4512,
      "Ġ....": 4513,
      "Ġperfor": 4514,
      "gosto": 4515,
      "Ġroman": 4516,
      "Ġcair": 4517,
      "Ġpesquisa": 4518,
      "Ġloucura": 4519,
      "Ġincri": 4520,
      "Ġfalha": 4521,
      "Ġexcepcional": 4522,
      "ĠÃ³dio": 4523,
      "Ġine": 4524,
      "Ġrosto": 4525,
      "ĠPRA": 4526,
      "Ġidade": 4527,
      "fiquei": 4528,
      "ĠQuero": 4529,
      "pendente": 4530,
      "Ġpequenos": 4531,
      "Ġfamilia": 4532,
      "Ġtrabalhar": 4533,
      "Ġbur": 4534,
      "rome": 4535,
      "ĠPixar": 4536,
      "itado": 4537,
      "Ġexig": 4538,
      "Ġtime": 4539,
      "Ġpercebi": 4540,
      "Ġpec": 4541,
      "Ġaparecer": 4542,
      "Ġexecu": 4543,
      "Ġsinceramente": 4544,
      "Otimo": 4545,
      "Ġcertos": 4546,
      "Ġmexer": 4547,
      "ĠAN": 4548,
      "lÃ¡": 4549,
      "Ã¢ne": 4550,
      "Ġlogin": 4551,
      "ĠTer": 4552,
      "MENTE": 4553,
      "super": 4554,
      "Ġperdeu": 4555,
      "Ġencontro": 4556,
      "Ġmanuseio": 4557,
      "iado": 4558,
      "ĠCas": 4559,
      "gumas": 4560,
      "all": 4561,
      "age": 4562,
      "âĻ¥âĻ¥": 4563,
      "ÃĬ": 4564,
      "Ġrel": 4565,
      "Ġpouca": 4566,
      "Ġrecebe": 4567,
      "Ġrecor": 4568,
      "atÃ©": 4569,
      "cam": 4570,
      "ĠUMA": 4571,
      "Ġretorno": 4572,
      "Ġquarto": 4573,
      "ĠLaw": 4574,
      "ĠFer": 4575,
      "Ġpis": 4576,
      "espero": 4577,
      "Ġbosta": 4578,
      "Ġescon": 4579,
      "ĠMul": 4580,
      "dial": 4581,
      "ostaria": 4582,
      "vens": 4583,
      "Ġnotifica": 4584,
      "ĠSou": 4585,
      "final": 4586,
      "IncrÃŃvel": 4587,
      "Ġgarota": 4588,
      "Ġperdido": 4589,
      "Ġroub": 4590,
      "Ġbre": 4591,
      "Ġdelas": 4592,
      "gam": 4593,
      "ĠVou": 4594,
      "Ġrele": 4595,
      "Ġfalhas": 4596,
      "Ġhein": 4597,
      "ĠportuguÃªs": 4598,
      ".-": 4599,
      "rece": 4600,
      "Ġestru": 4601,
      "Ġbug": 4602,
      "Ġperforman": 4603,
      "Ġsequen": 4604,
      "rimeiro": 4605,
      "Ġreprodu": 4606,
      "ĠMax": 4607,
      "jÃ¡": 4608,
      "jogo": 4609,
      "Ġner": 4610,
      "aita": 4611,
      "Ġmotor": 4612,
      "Ġlembre": 4613,
      "ling": 4614,
      "Ġpresta": 4615,
      "Ġgri": 4616,
      "Ġsorris": 4617,
      "ĠScorsese": 4618,
      "rus": 4619,
      "Ġvende": 4620,
      "Ġjamais": 4621,
      "ĠMEL": 4622,
      "Ġincom": 4623,
      "ĠquÃª": 4624,
      "luir": 4625,
      "Tenho": 4626,
      "Ġev": 4627,
      "Ġperfeitas": 4628,
      "ĠFor": 4629,
      "Ġtiro": 4630,
      "postas": 4631,
      "Ġrema": 4632,
      "Ġmelhora": 4633,
      "Ġsejam": 4634,
      "Ġcoadju": 4635,
      "Da": 4636,
      "VA": 4637,
      "Ġcachor": 4638,
      "Ġating": 4639,
      "gui": 4640,
      "dero": 4641,
      "emo": 4642,
      "Quero": 4643,
      "Ġang": 4644,
      "itada": 4645,
      "Ġsimplicidade": 4646,
      "TRE": 4647,
      "ceis": 4648,
      "Ã©rica": 4649,
      "acho": 4650,
      "Ġperdendo": 4651,
      "terno": 4652,
      "ĠSuperman": 4653,
      "Ġener": 4654,
      "Ġmoe": 4655,
      "Ġmaquia": 4656,
      "PS": 4657,
      "Ġmarido": 4658,
      "Ġhehe": 4659,
      "ĠÃ©pico": 4660,
      "Ġfof": 4661,
      "Ġideal": 4662,
      "ĠirmÃ£o": 4663,
      "ilho": 4664,
      "ft": 4665,
      "ĠTenho": 4666,
      "PER": 4667,
      "Ġclas": 4668,
      "Ġsentidos": 4669,
      "Ġhomenagem": 4670,
      "ĠpaixÃ£o": 4671,
      "Ġmotiva": 4672,
      "Ġmarcantes": 4673,
      "Ġindicado": 4674,
      "FEITO": 4675,
      "Ġintrig": 4676,
      "Ġperfume": 4677,
      "Ġfacilmente": 4678,
      "Ġbizar": 4679,
      "ranÃ§as": 4680,
      "ĠSpielberg": 4681,
      "Ã³rias": 4682,
      "Ġespecialmente": 4683,
      "Ġcaus": 4684,
      "tÃ¡culo": 4685,
      "Ġbeb": 4686,
      "brir": 4687,
      "mow": 4688,
      "Ġtermos": 4689,
      "Ġdownload": 4690,
      "Ġmach": 4691,
      "Ġpreju": 4692,
      "ĠporquÃª": 4693,
      "Ġchu": 4694,
      "ĠHollywood": 4695,
      "Ah": 4696,
      "Ġsino": 4697,
      "Ġexce": 4698,
      "Ġpratico": 4699,
      "Ġdigno": 4700,
      "Ġcancelar": 4701,
      "Ġcaras": 4702,
      "ĠirÃ¡": 4703,
      "ĠHistÃ³ria": 4704,
      "Ġinici": 4705,
      "ĠCru": 4706,
      "Ġpudesse": 4707,
      "lex": 4708,
      "sÃµes": 4709,
      "icou": 4710,
      "Ġperturbador": 4711,
      "Ġbugs": 4712,
      "Ġtocar": 4713,
      "Ġcurios": 4714,
      "ralmente": 4715,
      "Ġprendeu": 4716,
      "Ġarra": 4717,
      "Ġdelicado": 4718,
      "talgia": 4719,
      "ĠCharl": 4720,
      "Boa": 4721,
      "Ġrecomendado": 4722,
      "recomendo": 4723,
      "00000000": 4724,
      "Ġrepeti": 4725,
      "Ġpan": 4726,
      "Ġabra": 4727,
      "INHA": 4728,
      "HOS": 4729,
      "Ġruins": 4730,
      "Ġesfor": 4731,
      "pensa": 4732,
      "Ġvalores": 4733,
      "Ġprocesso": 4734,
      "Ġconquis": 4735,
      "Ġconseguiram": 4736,
      "ĠBel": 4737,
      "tÃªncia": 4738,
      "QUE": 4739,
      "Ġparecem": 4740,
      "ĠAT": 4741,
      "ĠsequÃªncias": 4742,
      "Ġplanos": 4743,
      "LA": 4744,
      "OOOOOOOO": 4745,
      "Ġdelici": 4746,
      "âķ": 4747,
      "ceitos": 4748,
      "Ġvam": 4749,
      "idÃ£o": 4750,
      "ĠBru": 4751,
      "Ġtec": 4752,
      "Ġcinemas": 4753,
      "Ġdesenvolvedores": 4754,
      "zes": 4755,
      "Ġode": 4756,
      "ĠAh": 4757,
      "Ġderam": 4758,
      "Ġcontras": 4759,
      "Ġseguro": 4760,
      "ĠAllen": 4761,
      "ĠfÃ¡": 4762,
      "odo": 4763,
      "Ġjogando": 4764,
      "Ġdesenho": 4765,
      "Ġchance": 4766,
      "Ġintui": 4767,
      "credito": 4768,
      "Ġdisseram": 4769,
      "mon": 4770,
      "Ġcomovente": 4771,
      "Ġcadastro": 4772,
      "HE": 4773,
      "ainda": 4774,
      "dioso": 4775,
      "Ġprocura": 4776,
      "Ġhero": 4777,
      "Ġformas": 4778,
      "ed": 4779,
      "ĠSen": 4780,
      "Mar": 4781,
      "Ġinteresse": 4782,
      "visÃ£o": 4783,
      "ĠestÃ³ria": 4784,
      "Ġpassei": 4785,
      "DI": 4786,
      "ostra": 4787,
      "Ġdubla": 4788,
      "Ġindo": 4789,
      "ĠNetflix": 4790,
      "asta": 4791,
      "trui": 4792,
      "oma": 4793,
      "ĠSto": 4794,
      "pare": 4795,
      "ĠLee": 4796,
      "Ġusado": 4797,
      "face": 4798,
      "Ġmotivos": 4799,
      "ĠÃŃ": 4800,
      "ĠGrande": 4801,
      "ĠsÃ©ries": 4802,
      "Faz": 4803,
      "Ġaz": 4804,
      "usÃ£o": 4805,
      "timado": 4806,
      "Ġouro": 4807,
      "ĠChristo": 4808,
      "ime": 4809,
      "ĠDestaque": 4810,
      "ClÃ¡ssico": 4811,
      "Ġresta": 4812,
      "Realmente": 4813,
      "âĢĿ.": 4814,
      "ĠexplicaÃ§Ã£o": 4815,
      "ĠÃĵtima": 4816,
      "Ġfalam": 4817,
      "ĠforÃ§ado": 4818,
      "tempo": 4819,
      "Ġfantasia": 4820,
      "Ġcriativo": 4821,
      "Ġfalas": 4822,
      "itt": 4823,
      "tman": 4824,
      "Ġtrou": 4825,
      "Ġfelicidade": 4826,
      "ĠOS": 4827,
      "pera": 4828,
      "ĠDire": 4829,
      "respon": 4830,
      "Ġdiria": 4831,
      "Ġassistiu": 4832,
      "Ġavis": 4833,
      "ĠWoody": 4834,
      "Ġdivertida": 4835,
      "Ġretrato": 4836,
      "orias": 4837,
      "Ġanimais": 4838,
      "Ġtratar": 4839,
      "ĠAmy": 4840,
      "quad": 4841,
      "Ġemocional": 4842,
      "Ġinfin": 4843,
      "osos": 4844,
      "Ġcertas": 4845,
      "Ã©dias": 4846,
      "Ġbla": 4847,
      "ĠinformaÃ§Ã£o": 4848,
      "Ġinser": 4849,
      "Ġrisadas": 4850,
      "ĠresoluÃ§Ã£o": 4851,
      "ĠAmo": 4852,
      "quando": 4853,
      "Ġconfir": 4854,
      "Ġinfor": 4855,
      "ĠpresenÃ§a": 4856,
      "Ġdaria": 4857,
      "resc": 4858,
      "ĠcinematogrÃ¡fica": 4859,
      "Ġalte": 4860,
      "Ġdaquela": 4861,
      "Agora": 4862,
      "Ġoq": 4863,
      "Ġconversa": 4864,
      "Ġcomplicado": 4865,
      "mios": 4866,
      "Ġarran": 4867,
      "esia": 4868,
      "Ġvergonha": 4869,
      "Ġlocal": 4870,
      "ĠFotografia": 4871,
      "Fal": 4872,
      "Ġprender": 4873,
      "Ġcertamente": 4874,
      "hÃ£": 4875,
      "ĠBa": 4876,
      "Ġroteir": 4877,
      "Ġpsico": 4878,
      "ĠinvÃ©s": 4879,
      "Ġhj": 4880,
      "Ġincomoda": 4881,
      "ĠdiÃ¡logo": 4882,
      "pital": 4883,
      "Ġapo": 4884,
      "Ġcaramba": 4885,
      "Ġligar": 4886,
      "Ġprevisto": 4887,
      "ting": 4888,
      "lhos": 4889,
      "Ġcos": 4890,
      "Ġentregar": 4891,
      "Ġfrete": 4892,
      "Ġconferir": 4893,
      "vier": 4894,
      "han": 4895,
      "Atu": 4896,
      "Ġcomecei": 4897,
      "Ġdivi": 4898,
      "Ġdupla": 4899,
      "Ġdesinstalei": 4900,
      "Ġperda": 4901,
      "Ġdiretores": 4902,
      "Ġcabelo": 4903,
      "ĠBoa": 4904,
      "ĠusuÃ¡rio": 4905,
      "ticidade": 4906,
      "Ġidio": 4907,
      "mocionante": 4908,
      "Ġescolh": 4909,
      "Ġmarcou": 4910,
      "Ġescolhas": 4911,
      "Ġcomparar": 4912,
      "tadas": 4913,
      "Ġextraordin": 4914,
      "tÃ³ria": 4915,
      "ĠprÃ³x": 4916,
      "Ġobrigada": 4917,
      "ĠAssisti": 4918,
      "ĠidÃ©ia": 4919,
      "ind": 4920,
      "Ġconhecimento": 4921,
      "ĠromÃ¢ntica": 4922,
      "Ġade": 4923,
      "Ġsupera": 4924,
      "Ġacordo": 4925,
      "Ġintro": 4926,
      "Ġcama": 4927,
      "ĠestÃ©tica": 4928,
      "Ġadultos": 4929,
      "Ġremo": 4930,
      "Ġsinopse": 4931,
      "rence": 4932,
      "âĢľ": 4933,
      "VIL": 4934,
      "Ġdespre": 4935,
      "ĠBro": 4936,
      "tive": 4937,
      "ficas": 4938,
      "ya": 4939,
      "icial": 4940,
      "Ġrob": 4941,
      "ĠGosto": 4942,
      "****": 4943,
      "tinha": 4944,
      "Ġinjus": 4945,
      "ĠNatalie": 4946,
      "Ġdecis": 4947,
      "ĠIncrÃŃvel": 4948,
      "Ġfras": 4949,
      "pressÃ£o": 4950,
      "bul": 4951,
      "ĠNor": 4952,
      "alizar": 4953,
      "bilidades": 4954,
      "ĠdaÃŃ": 4955,
      "ĠTe": 4956,
      "Ġdefin": 4957,
      "ardando": 4958,
      "Ġprofundidade": 4959,
      "Ġpreto": 4960,
      "Ġente": 4961,
      "Ġperfeitos": 4962,
      "Ġentrou": 4963,
      "cepÃ§Ã£o": 4964,
      "ĠpreÃ§os": 4965,
      "Ġdiscur": 4966,
      "ep": 4967,
      "ĠRE": 4968,
      "Ġpuro": 4969,
      "ĠPois": 4970,
      "anda": 4971,
      "ĠpelÃŃ": 4972,
      "^^": 4973,
      "Ã©is": 4974,
      "esa": 4975,
      "inceramente": 4976,
      "ĠAdoro": 4977,
      "Ġagradou": 4978,
      "Ġjan": 4979,
      "Ġsele": 4980,
      "ĠUS": 4981,
      "ĠaliÃ¡s": 4982,
      "pres": 4983,
      "ĠFu": 4984,
      "Ġpaga": 4985,
      "ĠdecepÃ§Ã£o": 4986,
      "03": 4987,
      "umindo": 4988,
      "Ġchamar": 4989,
      "Ġgame": 4990,
      "ĠavaliaÃ§Ã£o": 4991,
      "Ġabri": 4992,
      "ÃŃp": 4993,
      "inos": 4994,
      "][": 4995,
      "ĠfÃŃ": 4996,
      "Ġoque": 4997,
      "int": 4998,
      "Ġreti": 4999,
      "Ġcentral": 5000,
      "we": 5001,
      "ĠDen": 5002,
      "produto": 5003,
      "dura": 5004,
      "Ġsegundos": 5005,
      "cr": 5006,
      "Ġmilh": 5007,
      "ĠmistÃ©rio": 5008,
      "Ġcategoria": 5009,
      "pendo": 5010,
      "orge": 5011,
      "sidade": 5012,
      "Ġhil": 5013,
      "ĠObrigado": 5014,
      "ĠCinema": 5015,
      "Ġdefinitivamente": 5016,
      "essi": 5017,
      "ers": 5018,
      "Ġlike": 5019,
      "Ġproduzido": 5020,
      "ĠSal": 5021,
      "Ġprepara": 5022,
      "ze": 5023,
      "ĠEntre": 5024,
      "fora": 5025,
      "ĠDES": 5026,
      "Ġnaquele": 5027,
      "Ġdescobrir": 5028,
      "ĠESSE": 5029,
      "Ġcomenta": 5030,
      "Ġpaguei": 5031,
      "Ġrapi": 5032,
      "trado": 5033,
      "Ġindis": 5034,
      "Ġbate": 5035,
      "ĠAtuaÃ§Ãµes": 5036,
      "UM": 5037,
      "pher": 5038,
      "eno": 5039,
      "Ġapaixonado": 5040,
      "Ġfis": 5041,
      "Ġdefeitos": 5042,
      "elente": 5043,
      "Ġbeneficio": 5044,
      "ĠmÃŃ": 5045,
      "ĠconheÃ§o": 5046,
      "VE": 5047,
      "ĠWars": 5048,
      "Ġtarefas": 5049,
      "Ġnaquela": 5050,
      "2018": 5051,
      "ink": 5052,
      "talando": 5053,
      "Ġpouquinho": 5054,
      "Ġrac": 5055,
      "Men": 5056,
      "Ġdepen": 5057,
      "radora": 5058,
      "Ġvoce": 5059,
      "art": 5060,
      "Ġsaco": 5061,
      "Ġnegativo": 5062,
      "ĠAliÃ¡s": 5063,
      "ĠconstruÃŃdo": 5064,
      "CE": 5065,
      "ĠCam": 5066,
      "PÃ©ssimo": 5067,
      "ĠDaniel": 5068,
      "ĠChris": 5069,
      "Ġbri": 5070,
      "Ġfraca": 5071,
      "Ġsequer": 5072,
      "gares": 5073,
      "resso": 5074,
      "ith": 5075,
      "Ġchar": 5076,
      "Ġmostrado": 5077,
      "Ġlindos": 5078,
      "Ġsepara": 5079,
      "Ġmega": 5080,
      "ĠBill": 5081,
      "ixo": 5082,
      "Ġenergia": 5083,
      "Ġbes": 5084,
      "cra": 5085,
      "ariamente": 5086,
      "Ġacresc": 5087,
      "Ġpedir": 5088,
      "Ġbrinca": 5089,
      "Ġrealizar": 5090,
      "Ġpotencial": 5091,
      "Ġperspec": 5092,
      "Ġapaixonante": 5093,
      "Ġduvida": 5094,
      "ĠcondiÃ§Ãµes": 5095,
      "gre": 5096,
      "Ġpersegu": 5097,
      "DOS": 5098,
      "Ġressal": 5099,
      "Ġmata": 5100,
      "Ġaprendi": 5101,
      "lay": 5102,
      "ĠCr": 5103,
      "Ãªncio": 5104,
      "ressante": 5105,
      "lui": 5106,
      "ĠsaÃŃ": 5107,
      "ĠmudanÃ§a": 5108,
      "Ġdoce": 5109,
      "ĠRECOM": 5110,
      "ĠSA": 5111,
      "Ġego": 5112,
      "ĠTony": 5113,
      "Ġperfil": 5114,
      "ĠÃ¡udio": 5115,
      "Ġdestino": 5116,
      "Ġlidar": 5117,
      "Ġfigura": 5118,
      "rantes": 5119,
      "Ġplen": 5120,
      "vv": 5121,
      "dere": 5122,
      "Ġagrada": 5123,
      "Ġcriou": 5124,
      "ĠespetÃ¡culo": 5125,
      "tismo": 5126,
      "Ġconhecia": 5127,
      "Ġimpacto": 5128,
      "deza": 5129,
      "ĠPac": 5130,
      "Ġantigos": 5131,
      "Ġjogadores": 5132,
      "Ġmonte": 5133,
      "kins": 5134,
      "Ġseres": 5135,
      "ĠvilÃµes": 5136,
      "Ġimaginava": 5137,
      "!!!!!!": 5138,
      "Ġpedindo": 5139,
      "Ġlevou": 5140,
      "ĠrazÃ£o": 5141,
      "Ġaparecendo": 5142,
      "ĠNADA": 5143,
      "Ġabr": 5144,
      "Ġfacilita": 5145,
      "Ġalien": 5146,
      "____": 5147,
      "Ġquantas": 5148,
      "Ġprocurar": 5149,
      "Ġsurreal": 5150,
      "Ġarrastado": 5151,
      "Ġdito": 5152,
      "mod": 5153,
      "Ġaspecto": 5154,
      "ĠPelo": 5155,
      "Ġpod": 5156,
      "ĠdramÃ¡tico": 5157,
      "Ġassina": 5158,
      "rados": 5159,
      "Acabei": 5160,
      "Ġefe": 5161,
      "ĠcaracterÃŃsticas": 5162,
      "ĠespÃ©": 5163,
      "mago": 5164,
      "ĠMag": 5165,
      "Ġveri": 5166,
      "Ġconsumo": 5167,
      "zzzz": 5168,
      "ĊĊĊĊ": 5169,
      "--------": 5170,
      "quenas": 5171,
      "antas": 5172,
      "Ġhouve": 5173,
      "Ġterra": 5174,
      "ĠgraÃ§as": 5175,
      "ĠTre": 5176,
      "Ġhaver": 5177,
      "ĠPorque": 5178,
      "talmente": 5179,
      "Ġedu": 5180,
      "Ġpossibilidade": 5181,
      "ĠpadrÃ£o": 5182,
      "Ġcompartil": 5183,
      "Ġva": 5184,
      "Ġjovens": 5185,
      "pica": 5186,
      "000": 5187,
      "...\"": 5188,
      "igu": 5189,
      "Ġlugares": 5190,
      "ĠDepp": 5191,
      "Ġsabem": 5192,
      "Ġparal": 5193,
      "Ġroda": 5194,
      "ĠAnne": 5195,
      "st": 5196,
      "ĠGlobo": 5197,
      "voca": 5198,
      "Ġremake": 5199,
      "pado": 5200,
      "Ġves": 5201,
      "uuuuuuuu": 5202,
      "Ġagonia": 5203,
      "ĠĠĠĠĠĠĠĠĠĠĠĠĠĠĠĠ": 5204,
      "Ġ=)": 5205,
      "Ġtos": 5206,
      "Ġhip": 5207,
      "uitas": 5208,
      "Ġdevo": 5209,
      "ĠatualizaÃ§Ãµes": 5210,
      "PRE": 5211,
      "ĠCu": 5212,
      "UITO": 5213,
      "Ġare": 5214,
      "ĠBer": 5215,
      "su": 5216,
      "ĠHA": 5217,
      "ĠpelÃŃcula": 5218,
      "MEI": 5219,
      "zen": 5220,
      "Ġparecido": 5221,
      "Ġperguntas": 5222,
      "cock": 5223,
      "Ġspoiler": 5224,
      "laus": 5225,
      "isten": 5226,
      "Ġhi": 5227,
      "Ġrecarga": 5228,
      "gh": 5229,
      "Ã©l": 5230,
      "Ġcore": 5231,
      "uuito": 5232,
      "Ġnote": 5233,
      "Ġagente": 5234,
      "Ġideias": 5235,
      "hil": 5236,
      "undo": 5237,
      "orou": 5238,
      "eld": 5239,
      "Ġapr": 5240,
      "Ġ11": 5241,
      "Ġmaravilhosos": 5242,
      "ĠnegÃ³": 5243,
      "Ġestrutura": 5244,
      "Ġdimin": 5245,
      "Ġmanual": 5246,
      "Ġger": 5247,
      "Ġperman": 5248,
      "Ã´s": 5249,
      "ĠaÃ§Ãµes": 5250,
      "elos": 5251,
      "Ġchoro": 5252,
      "Ġenro": 5253,
      "TÃ£o": 5254,
      "dinha": 5255,
      "ĠCada": 5256,
      "tude": 5257,
      "Ġexagera": 5258,
      "Ġquatro": 5259,
      "Ġorigem": 5260,
      "ĠClaro": 5261,
      "ĠSan": 5262,
      "elas": 5263,
      "Â´": 5264,
      "Ġeconom": 5265,
      "Ġdesejo": 5266,
      "ĠpÃ¡gina": 5267,
      "ĠVingadores": 5268,
      "Ġpolicial": 5269,
      "Ġsilenci": 5270,
      "of": 5271,
      "bate": 5272,
      "Ġ13": 5273,
      "Ġmaquiagem": 5274,
      "Ġmandar": 5275,
      "Ġtinham": 5276,
      "ĠparticipaÃ§Ã£o": 5277,
      "elle": 5278,
      "ĠintenÃ§Ã£o": 5279,
      "sempre": 5280,
      "TRA": 5281,
      "Ġboleto": 5282,
      "Ou": 5283,
      "Ġsaindo": 5284,
      "Ġpartida": 5285,
      "ĠKevin": 5286,
      "Ġlouca": 5287,
      "Ġcoti": 5288,
      "ĠestÃº": 5289,
      "ĠBan": 5290,
      "Ġconvinc": 5291,
      "Ġclientes": 5292,
      "Ġconto": 5293,
      "ĠThor": 5294,
      "Ġjoguei": 5295,
      "Ġaparecem": 5296,
      "pÃ©is": 5297,
      "VILHOS": 5298,
      "Ġtentativa": 5299,
      "Ġprecisam": 5300,
      "caria": 5301,
      "Ġpequenas": 5302,
      "Chorei": 5303,
      "entei": 5304,
      "ĠSU": 5305,
      "Ġtao": 5306,
      "Ġnotas": 5307,
      "ĠPA": 5308,
      "ugh": 5309,
      "19": 5310,
      "Ġinv": 5311,
      "ĠirmÃ£os": 5312,
      "ĠpapÃ©is": 5313,
      "ĠAM": 5314,
      "Ġnostalgia": 5315,
      "Ġcriado": 5316,
      "Ġsubs": 5317,
      "Ġconcorr": 5318,
      "Ġapaixonei": 5319,
      "Ġdescul": 5320,
      "ciado": 5321,
      "Ġmanip": 5322,
      "Ġlevan": 5323,
      "ĠGre": 5324,
      "ĠreferÃªncia": 5325,
      "Ġcompetente": 5326,
      "ites": 5327,
      "Ġinespe": 5328,
      "ÃŃamos": 5329,
      "ĠParece": 5330,
      "graf": 5331,
      "umbis": 5332,
      "ĠFODA": 5333,
      "nd": 5334,
      "Ġflash": 5335,
      "ĠSol": 5336,
      "ĠIma": 5337,
      "ĠPortman": 5338,
      "Ġemociona": 5339,
      "hhhh": 5340,
      "Ġreviravoltas": 5341,
      "aplicativo": 5342,
      "Ġsuperar": 5343,
      "Ġdormir": 5344,
      "Ġcir": 5345,
      "Ġtiveram": 5346,
      "Ġpasso": 5347,
      "Ġangustiante": 5348,
      "Ġdescri": 5349,
      "Ġatualizado": 5350,
      "depois": 5351,
      "Ġresp": 5352,
      "Ġever": 5353,
      "Ġficaria": 5354,
      "inado": 5355,
      "ĠpeÃ§a": 5356,
      "Ġ:/": 5357,
      "Ġcarga": 5358,
      "ĠSom": 5359,
      "Ġvazio": 5360,
      "ĠJO": 5361,
      "Ġmudou": 5362,
      "Ġparabens": 5363,
      "ĠPRE": 5364,
      "ĠLeon": 5365,
      "TIMO": 5366,
      "Ġfar": 5367,
      "Ġcamera": 5368,
      "Ġ40": 5369,
      "Ġvelocidade": 5370,
      "ĠPacino": 5371,
      "Ġlegenda": 5372,
      "Ġoferece": 5373,
      "Ġutiliza": 5374,
      "ĠligaÃ§Ã£o": 5375,
      "Ġamiga": 5376,
      "ĠsoluÃ§Ã£o": 5377,
      "radas": 5378,
      "rrrr": 5379,
      "Ġamando": 5380,
      "Ġassustador": 5381,
      "guns": 5382,
      "Ãªmios": 5383,
      "Ġlove": 5384,
      "Ġpess": 5385,
      "Ġdesconhe": 5386,
      "Ġaberto": 5387,
      "Ġnovel": 5388,
      "Ġverm": 5389,
      "Ġdrogas": 5390,
      "Ġconceito": 5391,
      "Ġincrivelmente": 5392,
      "ĠAff": 5393,
      "ĠJake": 5394,
      "Do": 5395,
      "ĠpropÃµe": 5396,
      "Ġfamiliar": 5397,
      "fal": 5398,
      "entas": 5399,
      "âĸĴâĸĪ": 5400,
      "Ġmaes": 5401,
      "ong": 5402,
      "Ġvici": 5403,
      "Ġdivertir": 5404,
      "Ġinterna": 5405,
      "Ġ/": 5406,
      "gen": 5407,
      "Ġintrigante": 5408,
      "CEL": 5409,
      "Ġmol": 5410,
      "Ġimpactante": 5411,
      "ĠutilizaÃ§Ã£o": 5412,
      "Jogo": 5413,
      "Ġdetermin": 5414,
      "itchcock": 5415,
      "ĠNos": 5416,
      "ĠfrÃ¡": 5417,
      "Ġbaixem": 5418,
      "Ġcaiu": 5419,
      "eiras": 5420,
      "Ġrouba": 5421,
      "ĠcomparaÃ§Ã£o": 5422,
      "Ġabordagem": 5423,
      "oore": 5424,
      "ĠGa": 5425,
      "Ã¡stico": 5426,
      "20": 5427,
      "sex": 5428,
      "tende": 5429,
      "ÃŃssimas": 5430,
      "Ġcadastrar": 5431,
      "Ġrev": 5432,
      "adoro": 5433,
      "Ġpremissa": 5434,
      "Ġferramenta": 5435,
      "Ġteles": 5436,
      "ĠsÃ¡": 5437,
      "Ġsensacionais": 5438,
      "Ġexisti": 5439,
      "ĠSEM": 5440,
      "Ã§oes": 5441,
      "Ġemocionei": 5442,
      "cessa": 5443,
      "ĠPaul": 5444,
      "ĠLawrence": 5445,
      "Pro": 5446,
      "tÃŃvel": 5447,
      "ĠCan": 5448,
      "Ġdan": 5449,
      "Ġesca": 5450,
      "rÃ¡tico": 5451,
      "Ã§ado": 5452,
      "idor": 5453,
      "Fui": 5454,
      "Ġdaqui": 5455,
      "ĠnoÃ§Ã£o": 5456,
      "olver": 5457,
      "ĠbelÃŃssimo": 5458,
      "INDO": 5459,
      "Ġocu": 5460,
      "ĠprÃªmios": 5461,
      "Ġface": 5462,
      "ĠMaravilhoso": 5463,
      "ĠTa": 5464,
      "Ġindependente": 5465,
      "ĠAu": 5466,
      "ĠDon": 5467,
      "ĠPi": 5468,
      "Ġapareceu": 5469,
      "gias": 5470,
      "Ġmagia": 5471,
      "ĠangÃºs": 5472,
      "ĠlanÃ§ado": 5473,
      "Ġpositivo": 5474,
      "Ġplaneta": 5475,
      "Ġdiga": 5476,
      "tÃ¡l": 5477,
      "AlÃ©m": 5478,
      "ĠEUA": 5479,
      "Ġvenha": 5480,
      "ĠRecomenda": 5481,
      "enso": 5482,
      "Ġnot": 5483,
      "Ġconj": 5484,
      "ĠSensacional": 5485,
      "Ġcompensa": 5486,
      "Ã´nico": 5487,
      "eeeeeeee": 5488,
      "Ã§ada": 5489,
      "Ġwhat": 5490,
      "Â°": 5491,
      "Ġdevem": 5492,
      "Ġabando": 5493,
      "Ġespi": 5494,
      "Ġsatisfat": 5495,
      "Ġfree": 5496,
      "Ġpobre": 5497,
      "ĠUni": 5498,
      "Ġreceitas": 5499,
      "Ġacabamento": 5500,
      "Ġ70": 5501,
      "Ġamericana": 5502,
      "Ġsombrio": 5503,
      "Ã³var": 5504,
      "Ġtelespec": 5505,
      "Nem": 5506,
      "Ġouvi": 5507,
      "ĠsolidÃ£o": 5508,
      "Ġadicionar": 5509,
      "ĠAmÃ©rica": 5510,
      "Ġtablet": 5511,
      "ĠCre": 5512,
      "ĠcomÃ©dias": 5513,
      "Ġsustos": 5514,
      "Ġrespons": 5515,
      "',": 5516,
      "rÃ£o": 5517,
      "Ġinsti": 5518,
      "Ġpareceu": 5519,
      "ĠpropÃ³sito": 5520,
      "Vou": 5521,
      "ĠMELHOR": 5522,
      "ĠdisponÃŃvel": 5523,
      "Ġotim": 5524,
      "Ġcriadores": 5525,
      "Ġsorriso": 5526,
      "Ġestiver": 5527,
      "Ġvirou": 5528,
      "Ġconflitos": 5529,
      "Ġbelas": 5530,
      "bbi": 5531,
      "rag": 5532,
      "ĠespÃ©cie": 5533,
      "ĠmonÃ³": 5534,
      "Ġvisualmente": 5535,
      "king": 5536,
      "tebol": 5537,
      "youtube": 5538,
      "iedade": 5539,
      "Ġtel": 5540,
      "ĠMEU": 5541,
      "Ġtrabalhado": 5542,
      "ĠSobre": 5543,
      "modÃ³var": 5544,
      "Ġparticularmente": 5545,
      "gn": 5546,
      "ĠJohnny": 5547,
      "arar": 5548,
      "ĠlÃ³g": 5549,
      "max": 5550,
      "Ġalcan": 5551,
      "ĠpeÃ§as": 5552,
      "Ġempatia": 5553,
      "PE": 5554,
      "teis": 5555,
      "ĠPS": 5556,
      "Ġfaltando": 5557,
      "Ġsorte": 5558,
      "IDADE": 5559,
      "ĠÃ³bvio": 5560,
      "ĠCA": 5561,
      "Ġparc": 5562,
      "VO": 5563,
      "mula": 5564,
      "Ġroupas": 5565,
      "Ġcreio": 5566,
      "Ġimpos": 5567,
      "ÃĩO": 5568,
      "Ġcarregando": 5569,
      "derson": 5570,
      "izada": 5571,
      "Ġdica": 5572,
      "Ġfrases": 5573,
      "urpre": 5574,
      "ĠCarrey": 5575,
      "fv": 5576,
      "onde": 5577,
      "ĠMel": 5578,
      "'m": 5579,
      "ĠCapitÃ£o": 5580,
      "ĠlanÃ§amento": 5581,
      "watch": 5582,
      "omas": 5583,
      "ĠDÃ¡": 5584,
      "ĠprÃ³xima": 5585,
      "Ġtur": 5586,
      "MUITO": 5587,
      "ĠLG": 5588,
      "ĠPotter": 5589,
      "02": 5590,
      "Ġlutas": 5591,
      "Ġliteralmente": 5592,
      "triz": 5593,
      "Ġalu": 5594,
      "Ġconsidero": 5595,
      "ĠgrÃ¡tis": 5596,
      "demos": 5597,
      "Chegou": 5598,
      "jj": 5599,
      "Ġdesespero": 5600,
      "Ġestivesse": 5601,
      "Ġlenta": 5602,
      "ĠpolÃŃtica": 5603,
      "ĠÃŃn": 5604,
      "Ġlink": 5605,
      "ĠDei": 5606,
      "Ġfascinante": 5607,
      "Ġprofissional": 5608,
      "ANDO": 5609,
      "osas": 5610,
      "ĠStre": 5611,
      "tern": 5612,
      "enÃ§as": 5613,
      "ĠconclusÃ£o": 5614,
      "Ġcamin": 5615,
      "eta": 5616,
      "Ġlendo": 5617,
      "ĠScar": 5618,
      "Ġcriatividade": 5619,
      "Ġtwist": 5620,
      "Fa": 5621,
      "ĠMoore": 5622,
      "Ġcorreto": 5623,
      "Ġrein": 5624,
      "ĠSamsung": 5625,
      "queles": 5626,
      "olverine": 5627,
      "ĠJus": 5628,
      "ĠApenas": 5629,
      "ĠFacebook": 5630,
      "cron": 5631,
      "Ġnormalmente": 5632,
      "ZZ": 5633,
      "Ġcus": 5634,
      "ĠPoderia": 5635,
      "Ġprocurando": 5636,
      "Ġfir": 5637,
      "ĠHu": 5638,
      "ĠEra": 5639,
      "peza": 5640,
      "ĠToda": 5641,
      "ĠFica": 5642,
      "ĠFinal": 5643,
      "ĠproduÃ§Ãµes": 5644,
      "ĠcriaÃ§Ã£o": 5645,
      "Ġpoesia": 5646,
      "ĠPode": 5647,
      "ĠperÃŃ": 5648,
      "Ġafir": 5649,
      "Ġcuriosidade": 5650,
      "Ġimper": 5651,
      "Ġdigna": 5652,
      "Ġbi": 5653,
      "pot": 5654,
      "satis": 5655,
      "ĠLars": 5656,
      "Enfim": 5657,
      "cott": 5658,
      "Ġexplos": 5659,
      "Ġlar": 5660,
      "veu": 5661,
      "ÃįVEL": 5662,
      "Ġmoedas": 5663,
      "paz": 5664,
      "Final": 5665,
      "Ġaberta": 5666,
      "hats": 5667,
      "Ġinferior": 5668,
      "Ġchocante": 5669,
      "âľ": 5670,
      "Ġleu": 5671,
      "Ġexer": 5672,
      "ĠAb": 5673,
      "incher": 5674,
      "Ġesteja": 5675,
      "rew": 5676,
      "ĠBr": 5677,
      "ĠLE": 5678,
      "Ġultra": 5679,
      "fÃ©": 5680,
      "Ġconvi": 5681,
      "bene": 5682,
      "ĠVol": 5683,
      "ÃŃg": 5684,
      "Ġpreso": 5685,
      "Ġfaria": 5686,
      "Ġsombra": 5687,
      "ramos": 5688,
      "ĠMAS": 5689,
      "untos": 5690,
      "Ġpeca": 5691,
      "enom": 5692,
      "ĠWes": 5693,
      "Ġdesenvolvido": 5694,
      "sen": 5695,
      "ĠvÃ¡": 5696,
      "cemos": 5697,
      "dÃŃvel": 5698,
      "Ġembalado": 5699,
      "cente": 5700,
      "ĠHanks": 5701,
      "our": 5702,
      "Ġsome": 5703,
      "ĠhistÃ³rico": 5704,
      "Ġatrizes": 5705,
      "Â¬": 5706,
      "col": 5707,
      "Ġnesta": 5708,
      "Ġanda": 5709,
      "Ġjornada": 5710,
      "Ġsegura": 5711,
      "ĠexistÃªncia": 5712,
      "Ġsolu": 5713,
      "ulaÃ§Ã£o": 5714,
      "Ġanalis": 5715,
      "Ġmoc": 5716,
      "ĠNiro": 5717,
      "Ġsofre": 5718,
      "Entrega": 5719,
      "ys": 5720,
      "Ġreme": 5721,
      "Ġmonstro": 5722,
      "Ġfoge": 5723,
      "ĠAqui": 5724,
      "âĸĦ": 5725,
      "traÃ§Ã£o": 5726,
      "ferente": 5727,
      "isse": 5728,
      "ĠDem": 5729,
      "ĠEsta": 5730,
      "Ġkkkkk": 5731,
      "Ã¡ticas": 5732,
      "Ġpassaram": 5733,
      "Ġ^^": 5734,
      "Ġsincron": 5735,
      "????????": 5736,
      "Ġpassagem": 5737,
      "Ġapos": 5738,
      "EEEE": 5739,
      "EstÃ¡": 5740,
      "Ġunica": 5741,
      "feita": 5742,
      "Ġaprofun": 5743,
      "vie": 5744,
      "cidas": 5745,
      "Ãªmio": 5746,
      "ĠQuanto": 5747,
      "Ġseguinte": 5748,
      "Ġadolescentes": 5749,
      "ĠRECOMENDO": 5750,
      "Ġlinguagem": 5751,
      "ĠPitt": 5752,
      "uah": 5753,
      "ĠreflexÃµes": 5754,
      "Mesmo": 5755,
      "ĠprÃ¡tica": 5756,
      "ters": 5757,
      "Ġsincer": 5758,
      "Ġexage": 5759,
      "ĠJu": 5760,
      "ĠIns": 5761,
      "Ġzumbis": 5762,
      "Ġequil": 5763,
      "Ġacabam": 5764,
      "Ġmito": 5765,
      "pido": 5766,
      "Ġatua": 5767,
      "ĠevoluÃ§Ã£o": 5768,
      "Ġescra": 5769,
      "Ġcoloco": 5770,
      "ĠBale": 5771,
      "Ġapaixonar": 5772,
      "Ġcarica": 5773,
      "Ġfutebol": 5774,
      "Ġcolor": 5775,
      "erem": 5776,
      "Ġrazo": 5777,
      "iram": 5778,
      "Ġvira": 5779,
      "Ġcomunica": 5780,
      "ĠdesnecessÃ¡rio": 5781,
      "ĠcÃ´mico": 5782,
      "][/": 5783,
      "Ta": 5784,
      "ĠChorei": 5785,
      "Ġimer": 5786,
      "Ġcomprado": 5787,
      "Ġassinatura": 5788,
      "VER": 5789,
      "ue": 5790,
      "ĠTerra": 5791,
      "ooper": 5792,
      "Ġaus": 5793,
      "ĠDel": 5794,
      "Ġbob": 5795,
      "ĠTodo": 5796,
      "ĠreclamaÃ§Ã£o": 5797,
      "ĠBl": 5798,
      "kes": 5799,
      "minha": 5800,
      "Ġencer": 5801,
      "Ġdesespe": 5802,
      "Ġcurte": 5803,
      "Ġestranha": 5804,
      "orrÃŃvel": 5805,
      "Ġresponde": 5806,
      "ĠStone": 5807,
      "Ġbarulho": 5808,
      "Ġtipos": 5809,
      "Ġfrio": 5810,
      "osso": 5811,
      "ĠTri": 5812,
      "Ġperformance": 5813,
      "Ġcarta": 5814,
      "Ġachava": 5815,
      "SSA": 5816,
      "ÃŃdos": 5817,
      "Ġorganizar": 5818,
      "ĠmagnÃŃfico": 5819,
      "taria": 5820,
      "ĠÃ¢": 5821,
      "Ġperceb": 5822,
      "ĠsilÃªncio": 5823,
      "Ġacostum": 5824,
      "Ġmaestria": 5825,
      "if": 5826,
      "ĠNao": 5827,
      "Ġfigurin": 5828,
      "Ġchorando": 5829,
      "ÃŃcia": 5830,
      "trada": 5831,
      "gica": 5832,
      "ĠPal": 5833,
      "cisa": 5834,
      "ĠfilmÃ£o": 5835,
      "Ġlimpeza": 5836,
      "Ġsentindo": 5837,
      "Ġ14": 5838,
      "lou": 5839,
      "REI": 5840,
      "et": 5841,
      "gulho": 5842,
      "......": 5843,
      "ĠmantÃ©m": 5844,
      "ilar": 5845,
      "Ġdesenvolver": 5846,
      "Ġmesmas": 5847,
      "Ġkkkkkkkk": 5848,
      "ĠambientaÃ§Ã£o": 5849,
      "ĠAnderson": 5850,
      "ĠpaciÃªncia": 5851,
      "Ġcontri": 5852,
      "jado": 5853,
      "Ġexplorado": 5854,
      "Ġbil": 5855,
      "ĠdanÃ§a": 5856,
      "ĠCara": 5857,
      "Ġsurpreender": 5858,
      "Ġbobo": 5859,
      "Ġfuros": 5860,
      "Ġbaita": 5861,
      "ĠadaptaÃ§Ãµes": 5862,
      "Ġencaixa": 5863,
      "Ġmando": 5864,
      "vantes": 5865,
      "lett": 5866,
      "ÃŃnio": 5867,
      "leck": 5868,
      "issÃ£o": 5869,
      "media": 5870,
      "prim": 5871,
      "Âª": 5872,
      "Ġness": 5873,
      "Ġtou": 5874,
      "ulares": 5875,
      "ĠridÃŃculo": 5876,
      "Ġ16": 5877,
      "Ġcertinho": 5878,
      "ĠQ": 5879,
      "Ġresistente": 5880,
      "Ġocorre": 5881,
      "Ã³lico": 5882,
      "tÃ¡veis": 5883,
      "itaÃ§Ã£o": 5884,
      "ĠexpressÃ£o": 5885,
      "Ġtamanha": 5886,
      "ĠgrÃ¡ficos": 5887,
      "\"...": 5888,
      "Ġexistir": 5889,
      "rup": 5890,
      "apesar": 5891,
      "Ġgostado": 5892,
      "Ġmorreu": 5893,
      "terror": 5894,
      "ĠVI": 5895,
      "Ġlevando": 5896,
      "Ġsum": 5897,
      "Ġmedi": 5898,
      "Ġdisposi": 5899,
      "ser": 5900,
      "Ġline": 5901,
      "ĠRock": 5902,
      "cina": 5903,
      "gro": 5904,
      "viamente": 5905,
      "ash": 5906,
      "Ġbasta": 5907,
      "NDO": 5908,
      "ĠPena": 5909,
      "ĠpoÃ©tico": 5910,
      "Ġdeixaram": 5911,
      "Ġbrilho": 5912,
      "ĠEdward": 5913,
      "Ġvin": 5914,
      "Ġgenialidade": 5915,
      "rsrs": 5916,
      "Ġsmartphone": 5917,
      "cesa": 5918,
      "ĠOutro": 5919,
      "verno": 5920,
      "Ġidentificar": 5921,
      "Olha": 5922,
      "UDO": 5923,
      "Ġ!!!!": 5924,
      "ĠInfelizmente": 5925,
      "ĠAL": 5926,
      "ĠWil": 5927,
      "Ġrecupe": 5928,
      "istian": 5929,
      "torno": 5930,
      "Ġnov": 5931,
      "Ġconseguia": 5932,
      "Ġjogabilidade": 5933,
      "ĠmÃ¡s": 5934,
      "ĠMES": 5935,
      "Ġfracas": 5936,
      "ĠFilmaÃ§o": 5937,
      "TER": 5938,
      "ban": 5939,
      "cedor": 5940,
      "Ġtrag": 5941,
      "mbora": 5942,
      "ĠNicho": 5943,
      "Ġelogios": 5944,
      "Ġtrouxe": 5945,
      "daria": 5946,
      "Ġconflito": 5947,
      "Ġconectar": 5948,
      "ĠGeorge": 5949,
      "Ã³rios": 5950,
      "back": 5951,
      "Ġsabemos": 5952,
      "ĠchÃ£o": 5953,
      "Ġfechar": 5954,
      "ĠepisÃ³dio": 5955,
      ".:": 5956,
      "ĠSus": 5957,
      "Ġrespi": 5958,
      "lly": 5959,
      "18": 5960,
      "OC": 5961,
      "Ġordem": 5962,
      "Ġmerecido": 5963,
      "Ġinterpreta": 5964,
      "phen": 5965,
      "ĠinÃºmeras": 5966,
      "Ġjapon": 5967,
      "Ġimaginei": 5968,
      "Ġbor": 5969,
      "ulk": 5970,
      "Ġinex": 5971,
      "veita": 5972,
      "raco": 5973,
      "ĠMad": 5974,
      "Ġflo": 5975,
      "ĠHitchcock": 5976,
      "Ġmi": 5977,
      "Ġcompan": 5978,
      "Ġmovimento": 5979,
      "Ġintensa": 5980,
      "Ġperspectiva": 5981,
      "Ġextremo": 5982,
      "Ġinim": 5983,
      "IZ": 5984,
      "nie": 5985,
      "vÃªncia": 5986,
      "Ġassistia": 5987,
      "ĠinesquecÃŃvel": 5988,
      "ĠmagnÃŃfica": 5989,
      "Ġgol": 5990,
      "mith": 5991,
      "ĠMARA": 5992,
      "ola": 5993,
      "Ġtornam": 5994,
      "Ġaguardando": 5995,
      "Ġdescober": 5996,
      "Ġfabr": 5997,
      "ĠBlack": 5998,
      "ÃŃstica": 5999,
      "Ġcheguei": 6000,
      "Ġalegria": 6001,
      "ĠASS": 6002,
      "ize": 6003,
      "ĠprÃ³prios": 6004,
      "ĠImpossÃŃvel": 6005,
      "ingo": 6006,
      "ĠsÃ©culo": 6007,
      "ĠMon": 6008,
      "ĠChristopher": 6009,
      "Ġargum": 6010,
      "Ġincomodou": 6011,
      "Ġdesconto": 6012,
      "Ġ1000": 6013,
      "Ġ60": 6014,
      "Ġapena": 6015,
      "ĠVal": 6016,
      "aaa": 6017,
      "ADO": 6018,
      "tory": 6019,
      "Ġaceitar": 6020,
      "ĠdoenÃ§a": 6021,
      "Ġdificuldades": 6022,
      "Ġcompartilhar": 6023,
      "Ġconjunto": 6024,
      "ĠFincher": 6025,
      "tron": 6026,
      "Ġcorrespon": 6027,
      "Isso": 6028,
      "Ġtraduz": 6029,
      "Ġflu": 6030,
      "ĠGos": 6031,
      "ĠWilliam": 6032,
      "Ġentro": 6033,
      "ĠOU": 6034,
      "âĸĢâĸĢ": 6035,
      "Ġprogram": 6036,
      "Ġpiores": 6037,
      "ĠDesde": 6038,
      "Ġwith": 6039,
      "ĠBri": 6040,
      "FantÃ¡stico": 6041,
      "HH": 6042,
      "fu": 6043,
      "Ġadulto": 6044,
      "ĠmudanÃ§as": 6045,
      "by": 6046,
      "Ġsel": 6047,
      "ĠBA": 6048,
      "ENTO": 6049,
      "Poderia": 6050,
      "Ġdecidi": 6051,
      "ily": 6052,
      "Ġassuntos": 6053,
      "demia": 6054,
      "ĠmilhÃµes": 6055,
      "mesmo": 6056,
      "Ġabertura": 6057,
      "atu": 6058,
      "Trilha": 6059,
      "ĠScott": 6060,
      "ĠWi": 6061,
      "tif": 6062,
      "Ġarrepender": 6063,
      "ĠbebÃª": 6064,
      "Ġfossem": 6065,
      "'.": 6066,
      "mor": 6067,
      "Ġendere": 6068,
      "Ġativ": 6069,
      "ĠBul": 6070,
      "tilha": 6071,
      "Ġaltura": 6072,
      "Ġconsul": 6073,
      "ĠmÃ©rito": 6074,
      "Ġcorrida": 6075,
      "Ġchata": 6076,
      "Ġescri": 6077,
      "visÃŃvel": 6078,
      "Ġdiscurso": 6079,
      "ĠCur": 6080,
      "ĠPrin": 6081,
      "riller": 6082,
      "del": 6083,
      "Ġfalou": 6084,
      "lockbus": 6085,
      "Ġreproduz": 6086,
      "ĠEstÃ¡": 6087,
      "ĠInternet": 6088,
      "Ġdolor": 6089,
      "ms": 6090,
      "Ġdirei": 6091,
      "Ġcompac": 6092,
      "ĠLou": 6093,
      "ĠjustiÃ§a": 6094,
      "Ã¡r": 6095,
      "Ġolho": 6096,
      "redi": 6097,
      "Ġcasamento": 6098,
      "ĠprÃ³ximos": 6099,
      "ĠfrÃ¡gil": 6100,
      "Ġmarcas": 6101,
      "Ġresolvi": 6102,
      "Ġdelicadeza": 6103,
      "Ġprocessa": 6104,
      "TÃģ": 6105,
      "xy": 6106,
      "ĠprÃ³prias": 6107,
      "Ġapresentar": 6108,
      "Ġempolgante": 6109,
      "ĠpossÃŃveis": 6110,
      "ĠperÃŃodo": 6111,
      "ml": 6112,
      "Ġchamado": 6113,
      "Ġcortes": 6114,
      "pu": 6115,
      "beth": 6116,
      "Ġcurioso": 6117,
      "Ġespan": 6118,
      "ĠConsegu": 6119,
      "ĠangÃºstia": 6120,
      "Ġefica": 6121,
      "ĠSua": 6122,
      "Ġcartao": 6123,
      "ĠEntrega": 6124,
      "Ġign": 6125,
      "tasse": 6126,
      "Ġmano": 6127,
      "ĠEles": 6128,
      "Ġficava": 6129,
      "Ġerrada": 6130,
      "Ġdescobri": 6131,
      "Ġzo": 6132,
      "Sa": 6133,
      "fini": 6134,
      "Ġpesquisas": 6135,
      "foi": 6136,
      "Ġlimpar": 6137,
      "ĠinteligÃªncia": 6138,
      "Ġsignificado": 6139,
      "Ġsequencia": 6140,
      "Ġsemanas": 6141,
      "ĠSandra": 6142,
      "ĠAcredito": 6143,
      "ensÃŃvel": 6144,
      "Ġtelespectador": 6145,
      "ĠSon": 6146,
      "now": 6147,
      "Ġsolici": 6148,
      "Ġaparentemente": 6149,
      "MM": 6150,
      "Ġdesconfor": 6151,
      "ĠdramÃ¡tica": 6152,
      "lau": 6153,
      "ĠWe": 6154,
      "Ġpau": 6155,
      "Ġdecepcionou": 6156,
      "hen": 6157,
      "rinho": 6158,
      "ibil": 6159,
      "lue": 6160,
      "Ġexperim": 6161,
      "ĠNAO": 6162,
      "itinho": 6163,
      "!)": 6164,
      "Ġdecepciona": 6165,
      "30": 6166,
      "Ġagradar": 6167,
      "Ġtransmitir": 6168,
      "Ġadequ": 6169,
      "fre": 6170,
      "ĠOn": 6171,
      "Ġpul": 6172,
      "ĠTar": 6173,
      "ĠFi": 6174,
      "ĠVe": 6175,
      "ĠPou": 6176,
      "Ġprofessor": 6177,
      "Ġinteira": 6178,
      "Ġdescar": 6179,
      "ies": 6180,
      "Ġgarantia": 6181,
      "Ġyour": 6182,
      "Ġthis": 6183,
      "ĠGal": 6184,
      "Ġvid": 6185,
      "VD": 6186,
      "prin": 6187,
      "Ġeduca": 6188,
      "Ã¨": 6189,
      "Ġsaldo": 6190,
      "Ġmagis": 6191,
      "ĠinstalaÃ§Ã£o": 6192,
      "Roteiro": 6193,
      "baixo": 6194,
      "Ġincor": 6195,
      "CO": 6196,
      "ĠanÃ¡l": 6197,
      "ĠâĿ¤ï¸ı": 6198,
      "Ġcachorro": 6199,
      "plo": 6200,
      "Ġpronto": 6201,
      "field": 6202,
      "graÃ§ado": 6203,
      "Ġclaramente": 6204,
      "Ġaca": 6205,
      "Ġporcaria": 6206,
      "Ġletras": 6207,
      "GI": 6208,
      "osÃ³": 6209,
      "riosa": 6210,
      "ÃŃa": 6211,
      "sioso": 6212,
      "Ġentrada": 6213,
      "Ġarrependo": 6214,
      "ĠpolÃªm": 6215,
      "Ġnotebook": 6216,
      "50": 6217,
      "ĠAlmodÃ³var": 6218,
      "ĠclÃ¡ssica": 6219,
      "Ġdefine": 6220,
      "ParabÃ©ns": 6221,
      "ok": 6222,
      "Ġpossuem": 6223,
      "Ġconsta": 6224,
      "Ġclassi": 6225,
      "Ġdestrui": 6226,
      "ĠprÃªmio": 6227,
      "ĠHugh": 6228,
      "Ġ18": 6229,
      "Ġansioso": 6230,
      "unciona": 6231,
      "Ġquesito": 6232,
      "Ġcomprome": 6233,
      "Ġdeseja": 6234,
      "ird": 6235,
      "Ġtraje": 6236,
      "ĠSel": 6237,
      "Ġatitudes": 6238,
      "ĠnegÃ³cio": 6239,
      "ĠmÃ¡gico": 6240,
      "dados": 6241,
      "ficado": 6242,
      "Ġhave": 6243,
      "Ġprofunda": 6244,
      "ĠindicaÃ§Ãµes": 6245,
      "Ġbarra": 6246,
      "ĠpromoÃ§Ãµes": 6247,
      "Ġtorno": 6248,
      "inta": 6249,
      "Ġgrava": 6250,
      "ĠreligiÃ£o": 6251,
      "Ġjusto": 6252,
      "Ġsuperficial": 6253,
      "Ġfuncionam": 6254,
      "Ġchamou": 6255,
      "AlguÃ©m": 6256,
      "trÃ³i": 6257,
      "ĠAngel": 6258,
      "Ġvarios": 6259,
      "âĻ¡âĻ¡": 6260,
      "Ġ24": 6261,
      "cs": 6262,
      "hÃ£o": 6263,
      "Ġsing": 6264,
      "ĠfÃŃsica": 6265,
      "ĠMostra": 6266,
      "Ġintuitivo": 6267,
      "uel": 6268,
      "ĠconsequÃªncias": 6269,
      "istam": 6270,
      "Ġadianta": 6271,
      "Ġexcesso": 6272,
      "Ġchegando": 6273,
      "Ġinterface": 6274,
      "ĠconfortÃ¡vel": 6275,
      "Ġinovador": 6276,
      "nes": 6277,
      "âĿ¤ï¸ı": 6278,
      "Ġdramas": 6279,
      "ĠMark": 6280,
      "ĠusuÃ¡rios": 6281,
      "ĠPE": 6282,
      "Ġcabo": 6283,
      "Ġinclu": 6284,
      "ĠimaginaÃ§Ã£o": 6285,
      "Ġfuncionalidades": 6286,
      "ĠromÃ¢ntico": 6287,
      "Ġabrindo": 6288,
      "eman": 6289,
      "Ġsubl": 6290,
      "Ġrelacionamentos": 6291,
      "ĠSw": 6292,
      "Ġcanto": 6293,
      "Ġfugir": 6294,
      "Ġcola": 6295,
      "pensÃ¡vel": 6296,
      "ĠNenhum": 6297,
      "Ġbuscar": 6298,
      "Ġrespostas": 6299,
      "Ġefetu": 6300,
      "Ġmostram": 6301,
      "herÃ³is": 6302,
      "Ġretratar": 6303,
      "Ġconsiderado": 6304,
      "posiÃ§Ã£o": 6305,
      "Ġplata": 6306,
      "ianne": 6307,
      "restimado": 6308,
      "ĠWolverine": 6309,
      "Ġilum": 6310,
      "Ġsubstitu": 6311,
      "ĠSil": 6312,
      "ĠPr": 6313,
      "nnnn": 6314,
      "Ã±": 6315,
      "Confesso": 6316,
      "Ġy": 6317,
      "didos": 6318,
      "CELENTE": 6319,
      "Ġsusten": 6320,
      "ĠMcA": 6321,
      "ĠConfesso": 6322,
      "ĠDiver": 6323,
      "ĠMARAVILHOS": 6324,
      "Ġsuj": 6325,
      "quero": 6326,
      "rores": 6327,
      "Ġsenso": 6328,
      "ĠPas": 6329,
      "Ġroupa": 6330,
      "Ġautom": 6331,
      "HÃ¡": 6332,
      "teriz": 6333,
      "ĠTrier": 6334,
      "ĠComprei": 6335,
      "Ġpecul": 6336,
      "Ġproblem": 6337,
      "Ġclasse": 6338,
      "Ġeditar": 6339,
      "Ġtd": 6340,
      "my": 6341,
      "Ġaproveita": 6342,
      "Ġresga": 6343,
      "play": 6344,
      "ĠMINHA": 6345,
      "ioso": 6346,
      "ĠAS": 6347,
      "gular": 6348,
      "Ã´nica": 6349,
      "Ġredor": 6350,
      "irl": 6351,
      "ĠinocÃªncia": 6352,
      "Ġtido": 6353,
      "IIII": 6354,
      "ĠcarismÃ¡ticos": 6355,
      "ĠSEN": 6356,
      "Ġalterna": 6357,
      "Ġpremia": 6358,
      "Ġamea": 6359,
      "ĠAffleck": 6360,
      "rola": 6361,
      "Ġgostam": 6362,
      "Ġcorrig": 6363,
      "Ġfrequ": 6364,
      "Ġcompreender": 6365,
      "Ġassistam": 6366,
      "ĠLed": 6367,
      "Ġbrasileiros": 6368,
      "ĠmetÃ¡fora": 6369,
      "pol": 6370,
      "Ġessencial": 6371,
      "cionado": 6372,
      "Ġviva": 6373,
      "Ã´mago": 6374,
      "04": 6375,
      "Ġprov": 6376,
      "Ġvelha": 6377,
      "Diver": 6378,
      "ĠtrÃ¡g": 6379,
      "Ġfique": 6380,
      "Simples": 6381,
      "TÃ¡": 6382,
      "ilhas": 6383,
      "ĠDVD": 6384,
      "Ġlido": 6385,
      "ĠbotÃ£o": 6386,
      "Ġidi": 6387,
      "Ġintera": 6388,
      "herÃ³i": 6389,
      "Ġrecurso": 6390,
      "Ġah": 6391,
      "thew": 6392,
      "ĠdescriÃ§Ã£o": 6393,
      "http": 6394,
      "aso": 6395,
      "ramento": 6396,
      "Ġdecl": 6397,
      "Ġstar": 6398,
      "ances": 6399,
      "Ca": 6400,
      "fio": 6401,
      "pou": 6402,
      "ticar": 6403,
      "Ġdeslumb": 6404,
      "Ġtravar": 6405,
      "Ġarris": 6406,
      "Ġirei": 6407,
      "ork": 6408,
      "aaaaaaaaaaaaaaaa": 6409,
      "Ġviciante": 6410,
      "ÃŃssimos": 6411,
      "Ġlag": 6412,
      "Ġmalu": 6413,
      "ĠLeonardo": 6414,
      "vers": 6415,
      "ĠFavor": 6416,
      "ĠcapÃŃ": 6417,
      "Ġjornal": 6418,
      "foras": 6419,
      "yllen": 6420,
      "Ġdesli": 6421,
      "eca": 6422,
      "iÃ§Ãµes": 6423,
      "quin": 6424,
      "ĠÃ´": 6425,
      "ĠAlgumas": 6426,
      "dora": 6427,
      "Ġfiloso": 6428,
      "legal": 6429,
      "Ġmereceu": 6430,
      "Ã§am": 6431,
      "ĠterÃ¡": 6432,
      "Ġeficaz": 6433,
      "lson": 6434,
      "guem": 6435,
      "Ġholly": 6436,
      "pace": 6437,
      "Ġ:'": 6438,
      "culares": 6439,
      "Ġgrandioso": 6440,
      "ĠposiÃ§Ã£o": 6441,
      "Ġjustifica": 6442,
      "ĠmÃŃdia": 6443,
      "Ch": 6444,
      "Ġazul": 6445,
      "ĠrÃ¡pi": 6446,
      "omi": 6447,
      "umbi": 6448,
      "Ġconhecido": 6449,
      "Ġapel": 6450,
      "Ġcoadjuvante": 6451,
      "ĠPC": 6452,
      "Ãļ": 6453,
      "lindo": 6454,
      "Ġfundam": 6455,
      "Ġarrependi": 6456,
      "ĠJean": 6457,
      "ĠCruise": 6458,
      "eral": 6459,
      "Ġinterpretado": 6460,
      "Ġrapidamente": 6461,
      "Ġaparelhos": 6462,
      "ric": 6463,
      "ĠMen": 6464,
      "RES": 6465,
      "Ġpenso": 6466,
      "ĠMartin": 6467,
      "Ġofer": 6468,
      "ĠfilosÃ³": 6469,
      "diÃ§Ã£o": 6470,
      "ĠBruce": 6471,
      "ĠFÃ¡cil": 6472,
      "ĠMulher": 6473,
      "Ġpfv": 6474,
      "Ġhon": 6475,
      "ttps": 6476,
      "ĠTUDO": 6477,
      "Ġprinc": 6478,
      "ĠespÃŃ": 6479,
      "Ġvenda": 6480,
      "Ġrumo": 6481,
      "nar": 6482,
      "Ġinsatis": 6483,
      "Ġatrapalha": 6484,
      "Ġrua": 6485,
      "++++": 6486,
      "Ġvindo": 6487,
      "haal": 6488,
      "Ġenquad": 6489,
      "diante": 6490,
      "Ġbilhe": 6491,
      "Ġatualmente": 6492,
      "ĠAlex": 6493,
      "tremamente": 6494,
      "ĠStephen": 6495,
      "piros": 6496,
      "Ġup": 6497,
      "Ġcrime": 6498,
      "Ġcomparado": 6499,
      "ĠmemorÃ¡vel": 6500,
      "Ġgigantes": 6501,
      "EU": 6502,
      "ĠFantÃ¡stico": 6503,
      "Ġfri": 6504,
      "Ġnela": 6505,
      "Ġenjo": 6506,
      "Ġrico": 6507,
      "Ġmonstros": 6508,
      "ĠendereÃ§o": 6509,
      "lin": 6510,
      "ĠBullock": 6511,
      "Ġvirar": 6512,
      "Ġanimal": 6513,
      "Esta": 6514,
      "omes": 6515,
      "ĠestÃ´mago": 6516,
      "Ġimpre": 6517,
      "Ġsimbol": 6518,
      "ĠHat": 6519,
      "Ġcoloquei": 6520,
      "Ġelaborado": 6521,
      "Ġconqu": 6522,
      "sky": 6523,
      "Ġblockbus": 6524,
      "Ġjulga": 6525,
      "kin": 6526,
      "Ġdim": 6527,
      "Ġcurta": 6528,
      "bui": 6529,
      "?)": 6530,
      "riamente": 6531,
      "Ġviolento": 6532,
      "Ġatos": 6533,
      "Ġdose": 6534,
      "Li": 6535,
      "ĠOr": 6536,
      "Ġpregui": 6537,
      "ulas": 6538,
      "Ġcontando": 6539,
      "sapp": 6540,
      "Ġdialo": 6541,
      "Ġlimites": 6542,
      "ĠassistÃªncia": 6543,
      "benefÃŃcio": 6544,
      "Ġidentidade": 6545,
      "bado": 6546,
      "Ġautoma": 6547,
      "Ġcumpri": 6548,
      "haway": 6549,
      "Ġvicia": 6550,
      "Recebi": 6551,
      "PA": 6552,
      "Ġtranquil": 6553,
      "entin": 6554,
      "tendeu": 6555,
      "ĠVai": 6556,
      "Ġencher": 6557,
      "ĠCoringa": 6558,
      "Ġdetermina": 6559,
      "ĠlÃŃ": 6560,
      "Ã¢nico": 6561,
      "olia": 6562,
      "ĠDan": 6563,
      "Ġchoque": 6564,
      "ĠdiscussÃ£o": 6565,
      "ĠScarlett": 6566,
      "Ġsilencioso": 6567,
      "Ġdublagem": 6568,
      "Ġcotidiano": 6569,
      "Ġvivemos": 6570,
      "ĠJoe": 6571,
      "Ġarrumar": 6572,
      "Ġoffline": 6573,
      "Ġenvolvendo": 6574,
      "Ġredes": 6575,
      "ĠÃļ": 6576,
      "ĠRec": 6577,
      "Ġenxergar": 6578,
      "Ao": 6579,
      "Ġpegada": 6580,
      "Ġficado": 6581,
      "Ġsar": 6582,
      "ÃŃmax": 6583,
      "Ġatuando": 6584,
      "ĠInte": 6585,
      "Ġhahahaha": 6586,
      "Ġdecepcionei": 6587,
      "Ġmagistral": 6588,
      "tulos": 6589,
      "ĠMil": 6590,
      "Ġformato": 6591,
      "Lo": 6592,
      "ĠToro": 6593,
      "Ġtenham": 6594,
      "principalmente": 6595,
      "Ġcolocando": 6596,
      ".âĢĿ": 6597,
      "ĠcÃ¢meras": 6598,
      "Ġilus": 6599,
      "ĠdÃ³": 6600,
      "Ġimedia": 6601,
      "Ġabaixar": 6602,
      "Ġtrash": 6603,
      "ĠSmith": 6604,
      "rans": 6605,
      "Ġfire": 6606,
      "Ġroteirista": 6607,
      "Ġall": 6608,
      "ĠOl": 6609,
      "Ġduvidas": 6610,
      "Ġcomportamento": 6611,
      "yllenhaal": 6612,
      "Ti": 6613,
      "iii": 6614,
      "cy": 6615,
      "Ġinteligentes": 6616,
      "xim": 6617,
      "sexual": 6618,
      "INDA": 6619,
      "ĠSER": 6620,
      "rest": 6621,
      "Ġexagerado": 6622,
      "Ġlam": 6623,
      "Ġhorrores": 6624,
      "ciente": 6625,
      "ĠFui": 6626,
      "Ġportanto": 6627,
      "lando": 6628,
      "Ġgratuito": 6629,
      "CIONAL": 6630,
      "Era": 6631,
      "ĠGosling": 6632,
      "Ġabsurda": 6633,
      "ichar": 6634,
      "Ġleito": 6635,
      "nem": 6636,
      "Ġesquece": 6637,
      "Ġaguar": 6638,
      "Ġfofa": 6639,
      "tidos": 6640,
      "HS": 6641,
      "Ġdurabilidade": 6642,
      "Ġ\\": 6643,
      "Ã³tico": 6644,
      "Ġassassino": 6645,
      "Ġbizarro": 6646,
      "Ġefic": 6647,
      "Ġclass": 6648,
      "Ġextrema": 6649,
      "Ġapresentado": 6650,
      "Ġsoco": 6651,
      "ĠtÃŃpico": 6652,
      "Esperava": 6653,
      "Ġbreve": 6654,
      "ader": 6655,
      "Ġtoa": 6656,
      "Ġadora": 6657,
      "ips": 6658,
      "logo": 6659,
      "Ġcadeira": 6660,
      "pata": 6661,
      "Sim": 6662,
      "Ġfalaram": 6663,
      "Ġteclado": 6664,
      "ĠVER": 6665,
      "ĠsensaÃ§Ãµes": 6666,
      "ridade": 6667,
      "pression": 6668,
      "Ġ2018": 6669,
      "Ġcausar": 6670,
      "ĠNorton": 6671,
      "Ġaranha": 6672,
      "Ġdivul": 6673,
      "ĠcinÃ©": 6674,
      "ady": 6675,
      "maravilhoso": 6676,
      "Ġchat": 6677,
      "Ġdecepcionado": 6678,
      "Ar": 6679,
      "Ġaproveitar": 6680,
      "Ġtransformar": 6681,
      "Ġnet": 6682,
      "Ġmundial": 6683,
      "Ġmulti": 6684,
      "Ġfodas": 6685,
      "thing": 6686,
      "Ġsenhor": 6687,
      "juda": 6688,
      "sonagens": 6689,
      "ĠmetÃ¡foras": 6690,
      "Ġvivendo": 6691,
      "modo": 6692,
      "ared": 6693,
      "Ġvender": 6694,
      "Ġdiam": 6695,
      "Ġpontu": 6696,
      "Ġentendeu": 6697,
      "ĠadolescÃªncia": 6698,
      "ĠHathaway": 6699,
      "Ġesper": 6700,
      "Queria": 6701,
      "Ġespeta": 6702,
      "Ġresponsa": 6703,
      "Ġacredita": 6704,
      "Ġexagero": 6705,
      "Ġexplorar": 6706,
      "cioso": 6707,
      "Antes": 6708,
      "izando": 6709,
      "Ġcasos": 6710,
      "Ġinocente": 6711,
      "Ġcomercial": 6712,
      "Ġgay": 6713,
      "oney": 6714,
      "Ġbanda": 6715,
      "html": 6716,
      "Ġtex": 6717,
      "ĠlÃŃn": 6718,
      "âĸĪâĸĪâĸĪâĸĪ": 6719,
      "ĠAna": 6720,
      "Ġtapa": 6721,
      "Ġqualidades": 6722,
      "endente": 6723,
      "ĠpÃ©s": 6724,
      "ĠChegou": 6725,
      "Ġcriando": 6726,
      "Ġpasse": 6727,
      "Ġdita": 6728,
      "Ġdroga": 6729,
      "cÃªs": 6730,
      "Ġespel": 6731,
      "ĠfantÃ¡sticas": 6732,
      "Ġpensamento": 6733,
      "Ja": 6734,
      "ilhares": 6735,
      "parece": 6736,
      "Ġaltos": 6737,
      "Ġequip": 6738,
      "Ġirritante": 6739,
      "rior": 6740,
      "Ġcantando": 6741,
      "Ġdestacar": 6742,
      "ĠJackman": 6743,
      "ĠAtuaÃ§Ã£o": 6744,
      "Ġaci": 6745,
      "ĠVis": 6746,
      "Ġrestau": 6747,
      "Ġmandou": 6748,
      "Ġlive": 6749,
      "ĠfÃ³r": 6750,
      "ĠNova": 6751,
      "Ġbranca": 6752,
      "âĶĢ": 6753,
      "Ġcelulares": 6754,
      "Ġparede": 6755,
      "Ġtam": 6756,
      "cordo": 6757,
      "Ġgostava": 6758,
      "Ġ2017": 6759,
      "Ġidentifiquei": 6760,
      "Ġjuven": 6761,
      "ĠtransferÃªncia": 6762,
      "ush": 6763,
      "ĠaplicaÃ§Ã£o": 6764,
      "zada": 6765,
      "Ġchegam": 6766,
      "vale": 6767,
      "Ġesqu": 6768,
      "Ġbrasileira": 6769,
      "ĠIM": 6770,
      "Ġalguem": 6771,
      "ĠresponsÃ¡vel": 6772,
      "Ġcapital": 6773,
      "Ġeventos": 6774,
      "Ġpraticidade": 6775,
      "Ġmorto": 6776,
      "Ġgravar": 6777,
      "boa": 6778,
      "umpre": 6779,
      "Ġape": 6780,
      "Ġveja": 6781,
      "Ġenfren": 6782,
      "oman": 6783,
      "Ġbro": 6784,
      "Ġentrei": 6785,
      "Ġprecisamos": 6786,
      "Ġlados": 6787,
      "Ġestes": 6788,
      "Ġgeralmente": 6789,
      "Ġanuncio": 6790,
      "inais": 6791,
      "Ġganhei": 6792,
      "Ġpesada": 6793,
      "woo": 6794,
      "Ġregi": 6795,
      "Ġatualidade": 6796,
      "ĠconfiÃ¡vel": 6797,
      "Ġidiota": 6798,
      "Dei": 6799,
      "Ġligado": 6800,
      "Ġhorrivel": 6801,
      "ĠSenhor": 6802,
      "Ġpodiam": 6803,
      "sada": 6804,
      "ĠfixaÃ§Ã£o": 6805,
      "Ġfamiliares": 6806,
      "nis": 6807,
      "Ġpeda": 6808,
      "Ġmanu": 6809,
      "Ġganho": 6810,
      "cess": 6811,
      "Ġouvido": 6812,
      "ĠHer": 6813,
      "Ġmentira": 6814,
      "ĠcÃ¡": 6815,
      "Ġfesta": 6816,
      "ĠAC": 6817,
      "Ġtensa": 6818,
      "Ġcoer": 6819,
      "ĠGyllenhaal": 6820,
      "Ġresum": 6821,
      "Ġrepente": 6822,
      "Ġpossibilidades": 6823,
      "Ġpresentes": 6824,
      "Ġpqp": 6825,
      "achel": 6826,
      "istem": 6827,
      "KKKKKKKKKKKKKKKKKKKKKKKKKKKKKKKKKKKKKKKKKKKKKKKKKKKKKKKKKKKKKKKKKKKKKKKKKKKKKKKKKKKKKKKKKKKKKKKKKKKKKKKKKKKKKKKKKKKKKKKKKKKKKKKK": 6828,
      "Ġesto": 6829,
      "ĠmÃ¡xima": 6830,
      "Ġamericanos": 6831,
      "Fiz": 6832,
      "Ġmortes": 6833,
      "MAIS": 6834,
      "RAN": 6835,
      "Ġresponder": 6836,
      "Ġyoutube": 6837,
      "Ġracismo": 6838,
      "ity": 6839,
      "rive": 6840,
      "Ġbut": 6841,
      "presas": 6842,
      "Ġarreba": 6843,
      "ĠOutra": 6844,
      "Ġvendedor": 6845,
      "?-": 6846,
      "Ġencar": 6847,
      "Ġpesquisar": 6848,
      "imi": 6849,
      "ĠCooper": 6850,
      "ĠcomunicaÃ§Ã£o": 6851,
      "ense": 6852,
      "ull": 6853,
      "ings": 6854,
      "ĠQual": 6855,
      "Ġdecepcionada": 6856,
      "ĠCOMO": 6857,
      "ĠAntes": 6858,
      "ĠSerÃ¡": 6859,
      "HistÃ³ria": 6860,
      "Res": 6861,
      "Ġvaria": 6862,
      "Ġespl": 6863,
      "Ġcontinue": 6864,
      "jan": 6865,
      "ario": 6866,
      "Legal": 6867,
      "Ġnaz": 6868,
      "Ġprogramas": 6869,
      "Ġcarinho": 6870,
      "Ġinterpretar": 6871,
      "Ġdaquelas": 6872,
      "Ġcineasta": 6873,
      "Ġmovimentos": 6874,
      "nossa": 6875,
      "Ġconvincente": 6876,
      "turar": 6877,
      "perfeito": 6878,
      "ĠlembranÃ§as": 6879,
      "ĠMich": 6880,
      "ÃŃstico": 6881,
      "dis": 6882,
      "Ġbater": 6883,
      "Ġresolvam": 6884,
      "Ġzero": 6885,
      "Ġconvence": 6886,
      "Su": 6887,
      "Ġlen": 6888,
      "ĠAnna": 6889,
      "TEI": 6890,
      "Ġprofundamente": 6891,
      "Ġreun": 6892,
      "Ġexi": 6893,
      "Ġmau": 6894,
      "Ġnotar": 6895,
      "Ġcaval": 6896,
      "verso": 6897,
      "ĠorÃ§a": 6898,
      "haram": 6899,
      "Ġconsumidor": 6900,
      "Ġ&": 6901,
      "Ġempres": 6902,
      "Ġmudo": 6903,
      "ĠclÃŃmax": 6904,
      "ĠIng": 6905,
      "ĠdinÃ¢mica": 6906,
      "cito": 6907,
      "Ġvoltou": 6908,
      "Pe": 6909,
      "ĠPhil": 6910,
      "Ġpaco": 6911,
      "Ġseguida": 6912,
      "ĠValeu": 6913,
      "Ġfases": 6914,
      "ĠSeu": 6915,
      "ĠÃģ": 6916,
      "alizado": 6917,
      "Ġtorcer": 6918,
      "Ġsutileza": 6919,
      "ĠOB": 6920,
      "Ġescuro": 6921,
      "Ġapagar": 6922,
      "Ġinevi": 6923,
      "Ġcau": 6924,
      "ĠHoje": 6925,
      "Ã¡lido": 6926,
      "Ġpeculiar": 6927,
      "Ġviz": 6928,
      "reios": 6929,
      "Ġigno": 6930,
      "ITA": 6931,
      "Ġletra": 6932,
      "Ġcomplexidade": 6933,
      "ĠanÃ¡lise": 6934,
      "bor": 6935,
      "Ġencanta": 6936,
      "ski": 6937,
      "ĠsÃŃ": 6938,
      "Ġic": 6939,
      "nibus": 6940,
      "ocante": 6941,
      "Ġdispensa": 6942,
      "Ġadm": 6943,
      "ĠAdams": 6944,
      "ĠFerro": 6945,
      "ĠDireÃ§Ã£o": 6946,
      "Nota": 6947,
      "ivos": 6948,
      "Ġmilhares": 6949,
      "ream": 6950,
      "eron": 6951,
      "ÃŃna": 6952,
      "far": 6953,
      "tais": 6954,
      "Ġconfusa": 6955,
      "pelo": 6956,
      "uir": 6957,
      "RAS": 6958,
      "Ġgoogle": 6959,
      "ĠSeria": 6960,
      "Ġperturbado": 6961,
      "dinhas": 6962,
      "ĠMatthew": 6963,
      "ĠcÃ©re": 6964,
      "vindo": 6965,
      "vidu": 6966,
      "estre": 6967,
      "âĢ¦": 6968,
      "ĠENTRE": 6969,
      "Ġconcer": 6970,
      "ĠObrigada": 6971,
      "Ġsuges": 6972,
      "ĠStan": 6973,
      "dure": 6974,
      "sim": 6975,
      "ĠconsciÃªncia": 6976,
      "ĠPERFEITO": 6977,
      "ĠISSO": 6978,
      "Ġexpressar": 6979,
      "rais": 6980,
      "ĠObs": 6981,
      "uro": 6982,
      "ĠObra": 6983,
      "Ġador": 6984,
      "ĠaparÃªncia": 6985,
      "encias": 6986,
      "ĠDam": 6987,
      "Ġresolvido": 6988,
      "Ġartista": 6989,
      "nunca": 6990,
      "ĠSei": 6991,
      "Ġwas": 6992,
      "ooooo": 6993,
      "ĠsuperaÃ§Ã£o": 6994,
      "Ġconforto": 6995,
      "ĠdevoluÃ§Ã£o": 6996,
      "Ġnec": 6997,
      "Ġges": 6998,
      "Ġtradicion": 6999,
      "Ġreclamando": 7000,
      "Ġabsurdamente": 7001,
      "Ġestil": 7002,
      "Ã³gio": 7003,
      "ĠKat": 7004,
      "Ġdestaca": 7005,
      "ĠCharlie": 7006,
      "low": 7007,
      "Ġterceira": 7008,
      "ray": 7009,
      "orld": 7010,
      "Ġone": 7011,
      "Ġpiada": 7012,
      "ritu": 7013,
      "Ġgre": 7014,
      "ĠPlay": 7015,
      "Ġtrazendo": 7016,
      "05": 7017,
      "blica": 7018,
      "Ġpegou": 7019,
      "icro": 7020,
      "Ġgela": 7021,
      "Ġcorrendo": 7022,
      "Ġregis": 7023,
      "ĠmemorÃ¡veis": 7024,
      "ĠÃ¡rea": 7025,
      "Ġaumentar": 7026,
      "COM": 7027,
      "esus": 7028,
      "plic": 7029,
      "ĠsatisfaÃ§Ã£o": 7030,
      "Ġ(:": 7031,
      "Ġestreia": 7032,
      "Ġtransi": 7033,
      "Ġcompartilha": 7034,
      "Grande": 7035,
      "Ġassassina": 7036,
      "ĠLedger": 7037,
      "bele": 7038,
      "Ġrefor": 7039,
      "itamente": 7040,
      "ĠWat": 7041,
      "Ġataque": 7042,
      "Ġlevado": 7043,
      "Ġreconhecimento": 7044,
      "Ġarmazen": 7045,
      "Ġescolhe": 7046,
      "Ġ25": 7047,
      "Ġpaz": 7048,
      "Ġpoderes": 7049,
      "ichard": 7050,
      "ique": 7051,
      "Ġfeio": 7052,
      "ĠAranha": 7053,
      "ĠGostaria": 7054,
      "ĠinjustiÃ§a": 7055,
      "Ġcurtir": 7056,
      "Ġpreocup": 7057,
      "Ã£e": 7058,
      "Ġsozinha": 7059,
      "Ġingresso": 7060,
      "Ġenvel": 7061,
      "Ġrealizado": 7062,
      "Ġrapidez": 7063,
      "Talvez": 7064,
      "ali": 7065,
      "ĠLau": 7066,
      "Ġentregou": 7067,
      "Ġpassada": 7068,
      "ÃŃtica": 7069,
      "Ġmediano": 7070,
      "Ġcorretamente": 7071,
      "hau": 7072,
      "Ġcativantes": 7073,
      "Ġnorte": 7074,
      "Ġbonitinho": 7075,
      "Ġdiferencia": 7076,
      "Ġvolume": 7077,
      "Ġencantadora": 7078,
      "Ġpalha": 7079,
      "enomen": 7080,
      "porÃ¢ne": 7081,
      "Ġajus": 7082,
      "TU": 7083,
      "Ġbugado": 7084,
      "Ġdescobre": 7085,
      "Ġdefinir": 7086,
      "Ġhomos": 7087,
      "ĠprogramaÃ§Ã£o": 7088,
      "lec": 7089,
      "alaxy": 7090,
      "UUUU": 7091,
      "Ġflores": 7092,
      "Ġplataforma": 7093,
      "Ġindividu": 7094,
      "Ġembalagem": 7095,
      "LHO": 7096,
      "Ġcompos": 7097,
      "pada": 7098,
      "ĠJogo": 7099,
      "Nada": 7100,
      "ĠreaÃ§Ã£o": 7101,
      "Ġtratando": 7102,
      "llllllll": 7103,
      "bina": 7104,
      "Ġhar": 7105,
      "ĠnostÃ¡l": 7106,
      "tidas": 7107,
      "uno": 7108,
      "ĠTÃ£o": 7109,
      "Ġbasicamente": 7110,
      "Ġsurpresas": 7111,
      "Ġadorando": 7112,
      "ĠvÃŃrus": 7113,
      "Ġcolocado": 7114,
      "IO": 7115,
      "Ġpris": 7116,
      "plem": 7117,
      "Ġvaler": 7118,
      "ĠHulk": 7119,
      "Ġmontar": 7120,
      "nyder": 7121,
      "hatsApp": 7122,
      "Ġnomes": 7123,
      "Ġdeslig": 7124,
      "grafias": 7125,
      "Ġlongas": 7126,
      "RÃįVEL": 7127,
      "Ġseg": 7128,
      "ĠBO": 7129,
      "tenÃ§Ã£o": 7130,
      "Ġarro": 7131,
      "ĠBEM": 7132,
      "Ġrecebo": 7133,
      "bito": 7134,
      "Ġgames": 7135,
      "Ġaler": 7136,
      "tens": 7137,
      "ĠÃ´nibus": 7138,
      "Ġabus": 7139,
      "Ġestudo": 7140,
      "ĠMoto": 7141,
      "Ġpotente": 7142,
      "Ġhones": 7143,
      "Ġinicia": 7144,
      "ĠtelevisÃ£o": 7145,
      "xxxxxxxxxxxxxxxx": 7146,
      "Ġaff": 7147,
      "Ġbrutal": 7148,
      "ĠcÃ©rebro": 7149,
      "ĠWar": 7150,
      "ilhante": 7151,
      "Ġoperadora": 7152,
      "pÃ©ssimo": 7153,
      "veja": 7154,
      "Ġinsu": 7155,
      "TAR": 7156,
      "ĠconstruÃŃda": 7157,
      "Ġthriller": 7158,
      "Ġdedica": 7159,
      "ĠCARA": 7160,
      "Ġmemoria": 7161,
      "Ġcaracteriz": 7162,
      "ixa": 7163,
      "Ġlimita": 7164,
      "olie": 7165,
      "Ġacons": 7166,
      "Ġdiverte": 7167,
      "Ġcriador": 7168,
      "Ġaumenta": 7169,
      "ĠcÃ©u": 7170,
      "ST": 7171,
      "...)": 7172,
      "Ġsurge": 7173,
      "Ġhumil": 7174,
      "Ġperguntando": 7175,
      "ynch": 7176,
      "ĠMiller": 7177,
      "ĠtÃ©cnicos": 7178,
      "gadas": 7179,
      "Ġcrua": 7180,
      "ĠQueria": 7181,
      "Ġinterior": 7182,
      "ĠmonÃ³to": 7183,
      "ĠAfinal": 7184,
      "Ġultimamente": 7185,
      "Ġarrepiar": 7186,
      "Ġ17": 7187,
      "Ġsam": 7188,
      "Ġafl": 7189,
      "ĠopiniÃµes": 7190,
      "Ġcampo": 7191,
      "Fotografia": 7192,
      "Ġolhando": 7193,
      "Ġconstruir": 7194,
      "Ġfelizes": 7195,
      "ĠTODOS": 7196,
      "ceria": 7197,
      "Top": 7198,
      "ĠJulianne": 7199,
      "ĠTÃ¡": 7200,
      "ĠVon": 7201,
      "mmmmmmmmmmmmmmmm": 7202,
      "Ġtais": 7203,
      "Ġtocou": 7204,
      "Ġdemorou": 7205,
      "ĠQUAL": 7206,
      "Ġbeber": 7207,
      "ĠobrigatÃ³rio": 7208,
      "ĠDr": 7209,
      "ĠsenÃ£o": 7210,
      "Ġentrando": 7211,
      "Ġvoc": 7212,
      "ĠRES": 7213,
      "ĠJr": 7214,
      "Ġaguardo": 7215,
      "ĠSÃ©rio": 7216,
      "Ġfres": 7217,
      "ĠcontemporÃ¢ne": 7218,
      "ĠtraduÃ§Ã£o": 7219,
      "piro": 7220,
      "Ġzumbi": 7221,
      "sson": 7222,
      "ĠHel": 7223,
      "ĠDead": 7224,
      "ot": 7225,
      "dÃŃssima": 7226,
      "faz": 7227,
      "Ġexten": 7228,
      "Ġchamada": 7229,
      "Ġmiste": 7230,
      "Ġpoli": 7231,
      "Ġescutar": 7232,
      "ĠAlice": 7233,
      "Ġespetaculares": 7234,
      "Ġinven": 7235,
      "ĠAR": 7236,
      "Ġmaca": 7237,
      "ĠtÃ©cnico": 7238,
      "vamos": 7239,
      "rena": 7240,
      "ĠÃ¢n": 7241,
      "ĠDia": 7242,
      "siva": 7243,
      "mado": 7244,
      "ĠCra": 7245,
      "ĠengraÃ§adas": 7246,
      "Ġ199": 7247,
      "bio": 7248,
      "ĠDou": 7249,
      "hehe": 7250,
      "ĠRei": 7251,
      "ĠextraordinÃ¡rio": 7252,
      "onia": 7253,
      "Ġpoderoso": 7254,
      "Ġprojeto": 7255,
      "ĠcarismÃ¡tico": 7256,
      "Ġrecuperar": 7257,
      "ĠParis": 7258,
      "ĠrazoÃ¡vel": 7259,
      "Ġconceitos": 7260,
      "Ġimpossi": 7261,
      "Ġfigurinos": 7262,
      "ĠorÃ§amento": 7263,
      "HorrÃŃvel": 7264,
      "agora": 7265,
      "olha": 7266,
      "Ġmesa": 7267,
      "inaÃ§Ã£o": 7268,
      "ĠexpressÃµes": 7269,
      "Ġimensa": 7270,
      "Ġemocionantes": 7271,
      "................................................................": 7272,
      "vesse": 7273,
      "ĠAndrew": 7274,
      "ĠfrancÃªs": 7275,
      "Ġversa": 7276,
      "ĠJon": 7277,
      "Ġfren": 7278,
      "deus": 7279,
      "Ġagil": 7280,
      "Tra": 7281,
      "Ġdevemos": 7282,
      "Ġcarros": 7283,
      "ĠSean": 7284,
      "Ġrepleto": 7285,
      "Ġguer": 7286,
      "Ġmagni": 7287,
      "Ġacerta": 7288,
      "Ġcedo": 7289,
      "QP": 7290,
      "Ġcaos": 7291,
      "Ġback": 7292,
      "Ġenvolver": 7293,
      "ĠmÃ³": 7294,
      "porque": 7295,
      "ĠcrÃŃtico": 7296,
      "bloque": 7297,
      "Ġwifi": 7298,
      "Ġcita": 7299,
      "hada": 7300,
      "Ġviram": 7301,
      "rimeira": 7302,
      "tavo": 7303,
      "Ġaux": 7304,
      "ĠJOGO": 7305,
      "ritos": 7306,
      "ĠJane": 7307,
      "ĠacessÃŃvel": 7308,
      "Ġajudando": 7309,
      "pom": 7310,
      "simplesmente": 7311,
      "Ġhos": 7312,
      "Ġpessoais": 7313,
      "âĺĨ": 7314,
      "Ġni": 7315,
      "Ġdecepcionante": 7316,
      "ĠFOI": 7317,
      "Ġcharme": 7318,
      "ĠMESMO": 7319,
      "Ġora": 7320,
      "ĠalÃŃ": 7321,
      "Ġamadure": 7322,
      "Ġbrilhantes": 7323,
      "ĠserviÃ§os": 7324,
      "Ġacaso": 7325,
      "ĠRid": 7326,
      "ÃĩA": 7327,
      "ĠversÃµes": 7328,
      "Ġparcel": 7329,
      "rida": 7330,
      "Ġelegante": 7331,
      "ĠClint": 7332,
      "Ġido": 7333,
      "Ġrestante": 7334,
      "Ġgrata": 7335,
      "Ser": 7336,
      "Ġmotorista": 7337,
      "Ġcheiro": 7338,
      "Ġnivel": 7339,
      "Ġaudio": 7340,
      "Ġsacada": 7341,
      "Ġreflexivo": 7342,
      "ĠconfianÃ§a": 7343,
      ">>>>": 7344,
      "Ġocorreu": 7345,
      "tenho": 7346,
      "ĠhorÃ¡rio": 7347,
      "Ter": 7348,
      "Ġcou": 7349,
      "ĠRachel": 7350,
      "Ġconcordo": 7351,
      "ĠespÃŃrito": 7352,
      "land": 7353,
      "ĠCO": 7354,
      "Ġpreen": 7355,
      "Ġeterna": 7356,
      "Ġtirou": 7357,
      "Ġcerca": 7358,
      "finitivamente": 7359,
      "ĠHit": 7360,
      "Ġgato": 7361,
      "fere": 7362,
      "ĠBas": 7363,
      "Ġandroid": 7364,
      "Parece": 7365,
      "Ġdoido": 7366,
      "Ġgood": 7367,
      "Ġexplic": 7368,
      "ĠorganizaÃ§Ã£o": 7369,
      "ĠStreep": 7370,
      "Ġenvelhe": 7371,
      "Ġdiger": 7372,
      "ĠcarÃ¡": 7373,
      "ĠexceÃ§Ã£o": 7374,
      "ĠesforÃ§o": 7375,
      "wis": 7376,
      "Ġdiretamente": 7377,
      "ĠengraÃ§ada": 7378,
      "vada": 7379,
      "Ġviaj": 7380,
      "ĠcondiÃ§Ã£o": 7381,
      "blogs": 7382,
      "ĠGenial": 7383,
      "ĠâĸĴâĸĪ": 7384,
      "todo": 7385,
      "Ġeletr": 7386,
      "ĠexplicaÃ§Ãµes": 7387,
      "200": 7388,
      "dentes": 7389,
      "Ġroteiros": 7390,
      "ĠRos": 7391,
      "Ver": 7392,
      "Ġabsor": 7393,
      "ece": 7394,
      "vÃŃ": 7395,
      "Ġagr": 7396,
      "Fi": 7397,
      "Ġchate": 7398,
      "ĠfantÃ¡sticos": 7399,
      "Ġsuperestimado": 7400,
      "ĠFilmes": 7401,
      "tw": 7402,
      "Ġsuave": 7403,
      "ĠĠĠ": 7404,
      "ĠLeia": 7405,
      "Ġensin": 7406,
      "ĠexperiÃªncias": 7407,
      "Ġaprendiz": 7408,
      "americ": 7409,
      "ĠliÃ§Ãµes": 7410,
      "Ġqdo": 7411,
      "hahaha": 7412,
      "Ġintensidade": 7413,
      "Du": 7414,
      "Obra": 7415,
      "Ġresi": 7416,
      "Ġapela": 7417,
      "Ġdespe": 7418,
      "Ġexpor": 7419,
      "Ġ2015": 7420,
      "Ġguarda": 7421,
      "riam": 7422,
      "ĠMary": 7423,
      "Ġ2016": 7424,
      "ĠdelÃŃcia": 7425,
      "Ġsaudade": 7426,
      "ĠSÃĵ": 7427,
      "Ġexelente": 7428,
      "igh": 7429,
      "Ġlogar": 7430,
      "Ġacham": 7431,
      "ĠPoder": 7432,
      "Ġsimb": 7433,
      "alidades": 7434,
      "istro": 7435,
      "!!!!!!!": 7436,
      "Ġenche": 7437,
      "Ho": 7438,
      "ĠTive": 7439,
      "Ġgrandios": 7440,
      "Ġlutar": 7441,
      "Ġachou": 7442,
      "ĠdefiniÃ§Ã£o": 7443,
      "Ġmovim": 7444,
      "Ġqueremos": 7445,
      "ĠPatr": 7446,
      "Ġkk": 7447,
      "Ġvanta": 7448,
      "ĠSIM": 7449,
      "ecer": 7450,
      "assem": 7451,
      "Ġterminei": 7452,
      "Ġeterno": 7453,
      "ERO": 7454,
      "Ġdeterminado": 7455,
      "Ġbio": 7456,
      "Ġglobo": 7457,
      "ĠSnyder": 7458,
      "ĠLINDO": 7459,
      "TAL": 7460,
      "enciar": 7461,
      "emorei": 7462,
      "ĠJared": 7463,
      "Ġoriginais": 7464,
      "Ġodiei": 7465,
      "rente": 7466,
      "cell": 7467,
      "Ġestabele": 7468,
      "Ġaprendendo": 7469,
      "ĠCONS": 7470,
      "ĠpadrÃµes": 7471,
      "Aquele": 7472,
      "Ġnego": 7473,
      "ffff": 7474,
      "ĠsatisfatÃ³rio": 7475,
      "Ġacontecem": 7476,
      "ĠCel": 7477,
      "~~": 7478,
      "ĠDavis": 7479,
      "Ġrevolu": 7480,
      "ĠlÃ³gica": 7481,
      "Ã£os": 7482,
      "enha": 7483,
      "ĠAMEI": 7484,
      "ĠSimples": 7485,
      "ĠblÃ¡": 7486,
      "logia": 7487,
      "Ġintegra": 7488,
      "Ġmarco": 7489,
      "Ġfracos": 7490,
      "Ġenvolvidos": 7491,
      "ĠMeryl": 7492,
      "ĠFrank": 7493,
      "ĠeconÃ´": 7494,
      "brio": 7495,
      "ĠGPS": 7496,
      "Ġacabado": 7497,
      "Ġcult": 7498,
      "Ġgastar": 7499,
      "ÃŃpio": 7500,
      "Ġfabul": 7501,
      "pocal": 7502,
      "ĠWhatsApp": 7503,
      "Ġknow": 7504,
      "Ġinac": 7505,
      "Ġpensamentos": 7506,
      "Ġexageros": 7507,
      "ĠpromoÃ§Ã£o": 7508,
      "Gostaria": 7509,
      "Ġcozinha": 7510,
      "aug": 7511,
      "blogspot": 7512,
      "VI": 7513,
      "cen": 7514,
      "Ġsentia": 7515,
      "ĠJohan": 7516,
      "Ġvermelho": 7517,
      "80": 7518,
      "Ġdid": 7519,
      "ĠTER": 7520,
      "comprei": 7521,
      "difica": 7522,
      "ĠterrÃŃvel": 7523,
      "Ġfamoso": 7524,
      "âľĮ": 7525,
      "Ġdireitinho": 7526,
      "BI": 7527,
      "Ġseca": 7528,
      "sol": 7529,
      "Ġdentre": 7530,
      "Ġvivem": 7531,
      "Ġinesperado": 7532,
      "tÃ³": 7533,
      "ĠELE": 7534,
      "Ġdep": 7535,
      "ĠbÃ¡": 7536,
      "Infelizmente": 7537,
      "Ġsobreviver": 7538,
      "Ġteoria": 7539,
      "ulado": 7540,
      "Ġ2013": 7541,
      "Toda": 7542,
      "unda": 7543,
      "ĠAlguns": 7544,
      "endendo": 7545,
      "Ġ*--": 7546,
      "'re": 7547,
      "ĠGor": 7548,
      "Ġponta": 7549,
      "ĠsobrevivÃªncia": 7550,
      "ĠLucas": 7551,
      "ĠdesnecessÃ¡rias": 7552,
      "Ġfilmagem": 7553,
      "Ġguardar": 7554,
      "ĠCOMPRA": 7555,
      "Ġverde": 7556,
      "gina": 7557,
      "ann": 7558,
      "ceb": 7559,
      "Ġmad": 7560,
      "Ġdesenvolvida": 7561,
      "ĠÃŃcon": 7562,
      "Ġproporciona": 7563,
      "NO": 7564,
      "cipe": 7565,
      "Ġprestar": 7566,
      "ĠLogan": 7567,
      "Ġreen": 7568,
      "ĠHard": 7569,
      "Bel": 7570,
      "Pelo": 7571,
      "Ġcapr": 7572,
      "Ġtivessem": 7573,
      "Ġnavegador": 7574,
      "Ġcativa": 7575,
      "ĠegoÃŃs": 7576,
      "Uso": 7577,
      "ĠSara": 7578,
      "icole": 7579,
      "Ġrealismo": 7580,
      "ĠcarÃ¡ter": 7581,
      "Ġfonte": 7582,
      "ĠVan": 7583,
      "ĠIr": 7584,
      "ĠtragÃ©dia": 7585,
      "geiro": 7586,
      "ĠdepressÃ£o": 7587,
      "ĠDay": 7588,
      "Ġnegros": 7589,
      "DER": 7590,
      "uais": 7591,
      "xas": 7592,
      "ĠNesse": 7593,
      "ĠIt": 7594,
      "Ġdeixado": 7595,
      "Ġleveza": 7596,
      "Ġnegativos": 7597,
      "Ġdil": 7598,
      "Ġestao": 7599,
      "âĸĴâĸĴ": 7600,
      "ĠVida": 7601,
      "Todo": 7602,
      "tch": 7603,
      "Ġespor": 7604,
      "cons": 7605,
      "Ġresolveu": 7606,
      "Ġnamorada": 7607,
      "rim": 7608,
      "ĠAB": 7609,
      "ĠreclamaÃ§Ãµes": 7610,
      "Ġautomaticamente": 7611,
      "Ġnecessi": 7612,
      "Ġfio": 7613,
      "Ġpeguei": 7614,
      "Ġteste": 7615,
      "Ġquestionamentos": 7616,
      "Ġsenho": 7617,
      "Ġinstala": 7618,
      "Ġforne": 7619,
      "Ġcoraj": 7620,
      "Ã¼": 7621,
      "voy": 7622,
      "itou": 7623,
      "ĠQuase": 7624,
      "Ġjust": 7625,
      "maram": 7626,
      "ĠEmocionante": 7627,
      "inguem": 7628,
      "Ġfavorita": 7629,
      "Ġencantou": 7630,
      "Ġencantada": 7631,
      "Aranha": 7632,
      "wen": 7633,
      "ĠEntretanto": 7634,
      "Genial": 7635,
      "imaÃ§Ã£o": 7636,
      "Ġgostos": 7637,
      "Ġcomuns": 7638,
      "ĠLO": 7639,
      "Ġraro": 7640,
      "gor": 7641,
      "Ġcomprom": 7642,
      "Ġmental": 7643,
      "Ġhumanas": 7644,
      "TOU": 7645,
      "Ġcomplexa": 7646,
      "Ġnegar": 7647,
      "Ġpositivamente": 7648,
      "ĠanotaÃ§Ãµes": 7649,
      "Ġfei": 7650,
      "ismos": 7651,
      "Ġrei": 7652,
      "Inte": 7653,
      "ĠPaulo": 7654,
      "Ġpositivos": 7655,
      "ĠWilliams": 7656,
      "caram": 7657,
      "Ġaman": 7658,
      "Ġcujo": 7659,
      "Todos": 7660,
      "Obri": 7661,
      "Ġpie": 7662,
      "vagem": 7663,
      "tte": 7664,
      "Ġtelas": 7665,
      "Ġespecta": 7666,
      "Ġadquirir": 7667,
      "Ġsurpreendendo": 7668,
      "Ġvampiros": 7669,
      "ĠfÃ³rmula": 7670,
      "berto": 7671,
      "ÃīM": 7672,
      "Ġreviravolta": 7673,
      "Ġnoti": 7674,
      "ĠPrimeiro": 7675,
      "ĠTanto": 7676,
      "Ġsobretudo": 7677,
      "Ġimpressiona": 7678,
      "ĠxD": 7679,
      "Ġaonde": 7680,
      "Ġcui": 7681,
      "Ġentendimento": 7682,
      "Ġunico": 7683,
      "tonia": 7684,
      "Ġinformado": 7685,
      "Ġfinanc": 7686,
      "Ġconquistou": 7687,
      "Ġfenomen": 7688,
      "Ġlife": 7689,
      "SACIONAL": 7690,
      "astwood": 7691,
      "pes": 7692,
      "Ġmatou": 7693,
      "Sinceramente": 7694,
      "cla": 7695,
      "ĠAplicativo": 7696,
      "Ġmorrendo": 7697,
      "Ġstre": 7698,
      "gman": 7699,
      "Ġsto": 7700,
      "Ġbrinque": 7701,
      "Ġobviamente": 7702,
      "Ãºsculo": 7703,
      "zas": 7704,
      "Ġdeca": 7705,
      "queza": 7706,
      "ĠÃ¡p": 7707,
      "PL": 7708,
      "ĠTor": 7709,
      "Ġcriativa": 7710,
      "Ġgigante": 7711,
      "Ġperdo": 7712,
      "izante": 7713,
      "Ġmanusear": 7714,
      "Ġvib": 7715,
      "viÃ£o": 7716,
      "Ġsolic": 7717,
      "entÃ¡vel": 7718,
      "ĠJolie": 7719,
      "ĠAngelina": 7720,
      "ĠSO": 7721,
      "ĠEnquanto": 7722,
      "ĠprincÃŃpio": 7723,
      "edade": 7724,
      "Ã£es": 7725,
      "Ġinver": 7726,
      "ĠnotificaÃ§Ãµes": 7727,
      "ason": 7728,
      "Ġdireitos": 7729,
      "Ġdesbloque": 7730,
      "ĠRichard": 7731,
      "Ġsusp": 7732,
      "ĠDun": 7733,
      "Ġwill": 7734,
      "Ġesquecido": 7735,
      "ĠInc": 7736,
      "ELA": 7737,
      "Ġdublado": 7738,
      "Ġarmas": 7739,
      "Ġbonitas": 7740,
      "Ġfuncionamento": 7741,
      "ĠSteve": 7742,
      "Ġquebrar": 7743,
      "Ġfilosofia": 7744,
      "NA": 7745,
      "ĠEss": 7746,
      "ĠChristian": 7747,
      "ĠLynch": 7748,
      "ĠPreciso": 7749,
      "Ġ21": 7750,
      "giu": 7751,
      "ĠrelÃ³gio": 7752,
      "ĠRecomendadÃŃssimo": 7753,
      "Ġoriginalidade": 7754,
      "ĠPho": 7755,
      "Ġaltamente": 7756,
      "bbit": 7757,
      "Ġsalvou": 7758,
      "3333": 7759,
      "Ġaplau": 7760,
      "Ã³tima": 7761,
      "ĠEstre": 7762,
      "cher": 7763,
      "Ġorgulho": 7764,
      "ANTE": 7765,
      "Ġacertou": 7766,
      "Ġpun": 7767,
      "ĠClar": 7768,
      "Ġsentimen": 7769,
      "ĠcaracterÃŃstica": 7770,
      "unt": 7771,
      "uuuito": 7772,
      "Ġandar": 7773,
      "ĠINC": 7774,
      "oooooooooooooooooooooooooooooooo": 7775,
      "ĠBradley": 7776,
      "Ġganhando": 7777,
      "instalei": 7778,
      "âĸĳâĸĳâĸĳâĸĳ": 7779,
      "Ġlance": 7780,
      "ĠLeto": 7781,
      "ĠdinÃ¢mico": 7782,
      "ĠdecisÃ£o": 7783,
      "pq": 7784,
      "jd": 7785,
      "ĠMur": 7786,
      "Ġdetes": 7787,
      "ĠSch": 7788,
      "Ġiguais": 7789,
      "ĠEmbora": 7790,
      "Ġdesc": 7791,
      "Ġpesad": 7792,
      "Ġexp": 7793,
      "ĠÃ¡gil": 7794,
      "ĠDesign": 7795,
      "oseph": 7796,
      "pressionante": 7797,
      "Car": 7798,
      "Ġmelhorou": 7799,
      "arei": 7800,
      "ĠcomeÃ§ando": 7801,
      "ĠPrincipalmente": 7802,
      "iante": 7803,
      "Ġmicro": 7804,
      "ismente": 7805,
      "ĠCGI": 7806,
      "Ġexperiencia": 7807,
      "ĠfÃ¡ceis": 7808,
      "Ġconquista": 7809,
      "Co": 7810,
      "Ġsites": 7811,
      "Ġbagun": 7812,
      "Ġmsg": 7813,
      "risten": 7814,
      "ĠRon": 7815,
      "Ġestere": 7816,
      "Ġbeijo": 7817,
      "Ġterminou": 7818,
      "BT": 7819,
      "Ġteorias": 7820,
      "ocar": 7821,
      "ĠKid": 7822,
      "ĠalienÃŃg": 7823,
      "Ġsingu": 7824,
      "enix": 7825,
      "ĠFicou": 7826,
      "Ġdesenhos": 7827,
      "Ġquestionar": 7828,
      "Ġrecebeu": 7829,
      "Ġbatalhas": 7830,
      "Emocionante": 7831,
      "lon": 7832,
      "Ġfalo": 7833,
      "Porque": 7834,
      "iada": 7835,
      "Ġcupom": 7836,
      "Ġnesses": 7837,
      "missÃ£o": 7838,
      "ĠnÃ³": 7839,
      "Ġfogo": 7840,
      "ĠnarraÃ§Ã£o": 7841,
      "lan": 7842,
      "Ġresume": 7843,
      "Ġautor": 7844,
      "ĠLiv": 7845,
      "ĠavanÃ§a": 7846,
      "ĠCameron": 7847,
      "Ġsuic": 7848,
      "ĠAmor": 7849,
      "Ġolhares": 7850,
      "ĠMin": 7851,
      "plin": 7852,
      "Ġgoverno": 7853,
      "Ġrisada": 7854,
      "hamos": 7855,
      "ĠShow": 7856,
      "arelho": 7857,
      "Ġensina": 7858,
      "Ġimpressionado": 7859,
      "ĠmelancÃ³lico": 7860,
      "Ġaconselho": 7861,
      "Ġprato": 7862,
      "eee": 7863,
      "Ġ2014": 7864,
      "Ġfilmado": 7865,
      "aton": 7866,
      "ĠTodas": 7867,
      "ĠestÃºdio": 7868,
      "wney": 7869,
      "ĠSha": 7870,
      "ĠUso": 7871,
      "Ġapresentou": 7872,
      "Ġalim": 7873,
      "Ġinspirador": 7874,
      "Ġnasceu": 7875,
      "vadora": 7876,
      "Ġcostas": 7877,
      "âĶĢâĶĢ": 7878,
      "dÃª": 7879,
      "assisti": 7880,
      "ĠThomas": 7881,
      "ĠausÃªncia": 7882,
      "Ma": 7883,
      "toc": 7884,
      "umes": 7885,
      "ĠIsa": 7886,
      "Ġfadas": 7887,
      "aman": 7888,
      "Desde": 7889,
      "ĠDEUS": 7890,
      "ĠUSB": 7891,
      "gela": 7892,
      "ĠApÃ³s": 7893,
      "Ġrevela": 7894,
      "Dem": 7895,
      "ĠFiz": 7896,
      "heio": 7897,
      "ĠprojeÃ§Ã£o": 7898,
      "bender": 7899,
      "elha": 7900,
      "Ġatraso": 7901,
      "Ġrisco": 7902,
      "RIA": 7903,
      "lass": 7904,
      "Ġtransmite": 7905,
      "ĠadorÃ¡vel": 7906,
      "horrÃŃvel": 7907,
      "Ġmascul": 7908,
      "Ġevidente": 7909,
      "ĠMuita": 7910,
      "Ġinstigante": 7911,
      "ualmente": 7912,
      "ĠdifÃŃ": 7913,
      "ĠexecuÃ§Ã£o": 7914,
      "Ġexcel": 7915,
      "NÃĥO": 7916,
      "thony": 7917,
      "ĠRuss": 7918,
      "Ġemocionou": 7919,
      "Ġpipoca": 7920,
      "Ġaquis": 7921,
      "Ġprovoca": 7922,
      "Ġprecisando": 7923,
      "Ġtestei": 7924,
      "Ġ>": 7925,
      "ence": 7926,
      "tipo": 7927,
      "Ġconvencional": 7928,
      "Ġprocessador": 7929,
      "ĠBird": 7930,
      "Ġtorcendo": 7931,
      "Ġexib": 7932,
      "Ġansiosa": 7933,
      "ĠÃ¡pice": 7934,
      "fin": 7935,
      "pode": 7936,
      "cionou": 7937,
      "ĠLI": 7938,
      "Ġcancelamento": 7939,
      "Ġsho": 7940,
      "sivo": 7941,
      "Ġdenso": 7942,
      "Ġanalisar": 7943,
      "Ġsentimental": 7944,
      "hone": 7945,
      "ĠTEN": 7946,
      "ĠVil": 7947,
      "Ġrespei": 7948,
      "ĠAlan": 7949,
      "ĠEXCELENTE": 7950,
      "Ġapoio": 7951,
      "Ġagenda": 7952,
      "wer": 7953,
      "too": 7954,
      "ribu": 7955,
      "ĠAÃŃ": 7956,
      "Ġestatu": 7957,
      "Ġmaquina": 7958,
      "Ġsincero": 7959,
      "ĠJan": 7960,
      "ĠnecessÃ¡ria": 7961,
      "Ġabordar": 7962,
      "2014": 7963,
      "ĠFic": 7964,
      "ĠNicholson": 7965,
      "Ġlac": 7966,
      "Ġprimeiras": 7967,
      "ĠRobin": 7968,
      "Ġconversar": 7969,
      "ĠAgu": 7970,
      "fei": 7971,
      "didas": 7972,
      "Ġcobra": 7973,
      "âĺº": 7974,
      "Ġfundamental": 7975,
      "dÃ¡": 7976,
      "Ġitens": 7977,
      "Ġcontinuo": 7978,
      "ĠRi": 7979,
      "Ġtomada": 7980,
      "Cur": 7981,
      "FÃ¡cil": 7982,
      "Ġfru": 7983,
      "quinha": 7984,
      "gados": 7985,
      "Ġmerecem": 7986,
      "ossui": 7987,
      "linhas": 7988,
      "ĠEastwood": 7989,
      "Ġtim": 7990,
      "tÃ¡ria": 7991,
      "ĠClÃ¡ssico": 7992,
      "Ġentretanto": 7993,
      "ĠWhat": 7994,
      "ĠOuro": 7995,
      "ĠapresentaÃ§Ã£o": 7996,
      "Ġacostuma": 7997,
      "iano": 7998,
      "Ã³b": 7999,
      "ĠAlguÃ©m": 8000,
      "Ġrecente": 8001,
      "assbender": 8002,
      "XX": 8003,
      "ium": 8004,
      "Ġengo": 8005,
      "Estava": 8006,
      "ĠconfiguraÃ§Ã£o": 8007,
      "iosa": 8008,
      "Ġassum": 8009,
      "Ġtransa": 8010,
      "Ġseriam": 8011,
      "Ġtecnicamente": 8012,
      "Ġtestar": 8013,
      "Ġescla": 8014,
      "Ġaleat": 8015,
      "ĠpolÃŃtico": 8016,
      "Pa": 8017,
      "ĠagradeÃ§o": 8018,
      "ĠdifÃŃceis": 8019,
      "Ġ23": 8020,
      "Ġcanais": 8021,
      "ĠDEMAIS": 8022,
      "Ġbotar": 8023,
      "Ġmuit": 8024,
      "Ġdiferencial": 8025,
      "Ġqueim": 8026,
      "tiu": 8027,
      "Ġmarcar": 8028,
      "ÃŃculo": 8029,
      "Ġimaginando": 8030,
      "ĠCenas": 8031,
      "ĠDeveria": 8032,
      "Ġcompacto": 8033,
      "ĠTI": 8034,
      "ĠRam": 8035,
      "atÃŃvel": 8036,
      "Ġpc": 8037,
      "ĠMO": 8038,
      "Ġaltas": 8039,
      "Ġserie": 8040,
      "Ġcriada": 8041,
      "Ġmetal": 8042,
      "ĠdesgraÃ§a": 8043,
      "Ġassin": 8044,
      "Ġfinalizar": 8045,
      "ipse": 8046,
      "ĠinspiraÃ§Ã£o": 8047,
      "ĠSony": 8048,
      "ĠHeath": 8049,
      "HU": 8050,
      "night": 8051,
      "DAS": 8052,
      "Ġrecomen": 8053,
      "Ġutilizando": 8054,
      "Ġescolhido": 8055,
      "ĠmissÃ£o": 8056,
      "UNCA": 8057,
      "js": 8058,
      "Ġretratado": 8059,
      "Ġutilizado": 8060,
      "Ġquadro": 8061,
      "ylist": 8062,
      "Ġran": 8063,
      "ÃŃm": 8064,
      "Ġprometido": 8065,
      "Ġremete": 8066,
      "tÃŃssimo": 8067,
      "Ġperca": 8068,
      "istindo": 8069,
      "ĠameaÃ§a": 8070,
      "ĠperseguiÃ§Ã£o": 8071,
      "Baix": 8072,
      "Ġcabel": 8073,
      "AAAAAAAAAAAAAAAA": 8074,
      "Ġchuva": 8075,
      "ĠdestruiÃ§Ã£o": 8076,
      "Primeiro": 8077,
      "ĠCons": 8078,
      "Ġconvenceu": 8079,
      "Ġinspirado": 8080,
      "Ġentao": 8081,
      "Ġgeniais": 8082,
      "Ġigualmente": 8083,
      "ĠEddie": 8084,
      "cc": 8085,
      "ĠIs": 8086,
      "Ġmoderna": 8087,
      "Ġfilmo": 8088,
      "Ġpassava": 8089,
      "ĠNegra": 8090,
      "Ġvisce": 8091,
      "Ġpacote": 8092,
      "chos": 8093,
      "right": 8094,
      "2017": 8095,
      "kov": 8096,
      "Ġenfr": 8097,
      "You": 8098,
      "Ġmelancolia": 8099,
      "GEM": 8100,
      "xia": 8101,
      "ĠMuitas": 8102,
      "Ġcontraste": 8103,
      "Ġcombina": 8104,
      "Ġapa": 8105,
      "Ġsober": 8106,
      "Ġvolto": 8107,
      "Ġdevolver": 8108,
      "!!!!!!!!!!!!!!!!!!!!!!!!!!!!!!!!": 8109,
      "ĠsaÃŃda": 8110,
      "Ġsusto": 8111,
      "Ġ2012": 8112,
      "Ġexplicado": 8113,
      "Ġsemelhante": 8114,
      "ĠAMO": 8115,
      "Ġfone": 8116,
      "Ġsacri": 8117,
      "Ġmercadoria": 8118,
      "ĠStark": 8119,
      "ĠÃª": 8120,
      "Ġtratado": 8121,
      "Ġ197": 8122,
      "Ġopera": 8123,
      "urpreendente": 8124,
      "Ġexclus": 8125,
      "ĠintroduÃ§Ã£o": 8126,
      "ĠMARAVILHOSO": 8127,
      "wart": 8128,
      "Ġdeixe": 8129,
      "ĠcinematogrÃ¡fico": 8130,
      "ĠirÃ£o": 8131,
      "Ġapreciar": 8132,
      "Sabe": 8133,
      "Muita": 8134,
      "gÃ£o": 8135,
      "Ġsec": 8136,
      "ĠGol": 8137,
      "Ġlimpa": 8138,
      "Ins": 8139,
      "Show": 8140,
      "Tom": 8141,
      "Ġreche": 8142,
      "Ġdecepcionar": 8143,
      "ĠpÃ¡ginas": 8144,
      "cob": 8145,
      "Ġliguei": 8146,
      "ĠindÃºs": 8147,
      "ĠcompreensÃ£o": 8148,
      "Ġpsicopata": 8149,
      "ĠSUPER": 8150,
      "Ġjogador": 8151,
      "ĠAron": 8152,
      "Ġconstantemente": 8153,
      "Ġprofesso": 8154,
      "parado": 8155,
      "Ġfeminina": 8156,
      "issimo": 8157,
      "itando": 8158,
      "Ġoi": 8159,
      "Ġvieram": 8160,
      "Ġcriticar": 8161,
      "Ġinstalado": 8162,
      "Ġbomba": 8163,
      "Ġcomedia": 8164,
      "Ġcron": 8165,
      "Tive": 8166,
      "ĠdiferenÃ§as": 8167,
      "avier": 8168,
      "Ġaproxim": 8169,
      "Ġbrincadeira": 8170,
      "up": 8171,
      "Ġninguem": 8172,
      "Ġvim": 8173,
      "Ġmexe": 8174,
      "inf": 8175,
      "inci": 8176,
      "rix": 8177,
      "coes": 8178,
      "Ġviagens": 8179,
      "Ġespectadores": 8180,
      "Ġpensava": 8181,
      "cialmente": 8182,
      "pola": 8183,
      "ĠserÃ£o": 8184,
      "Ġjusti": 8185,
      "Ġadaptado": 8186,
      "Ġpreta": 8187,
      "Ġcrise": 8188,
      "Ġgratuita": 8189,
      "60": 8190,
      "Ã§aram": 8191,
      "Ġsupre": 8192,
      "hey": 8193,
      "Ġtocando": 8194,
      "Ġmarcado": 8195,
      "ĠCer": 8196,
      "ternidade": 8197,
      "Ã©tr": 8198,
      "iclo": 8199,
      "ĠOld": 8200,
      "ĠUl": 8201,
      "Finalmente": 8202,
      "Ġcontribui": 8203,
      "Ġtrio": 8204,
      "Ġrecentemente": 8205,
      "Ġnumero": 8206,
      "ype": 8207,
      "ĠSenti": 8208,
      "ocal": 8209,
      "âŃ": 8210,
      "ĠcaÃ§a": 8211,
      "Ġamou": 8212,
      "entam": 8213,
      "ĠsÃ©tima": 8214,
      "Ġcausou": 8215,
      "Ġevitar": 8216,
      "ĠASSIS": 8217,
      "ĠAnÃ©is": 8218,
      "ĠAlien": 8219,
      "Ġatitude": 8220,
      "Ġamantes": 8221,
      "Ġhabi": 8222,
      "Ã¢nica": 8223,
      "Ġenganosa": 8224,
      "Ġregras": 8225,
      "ĠÃ¢ngu": 8226,
      "ĠEva": 8227,
      "Ġhis": 8228,
      "Ġcartas": 8229,
      "Ġaba": 8230,
      "ĠinteraÃ§Ã£o": 8231,
      "ĠexplÃŃ": 8232,
      "Ġexecutado": 8233,
      "ĠIMA": 8234,
      "cker": 8235,
      "Ġsublime": 8236,
      "Tinha": 8237,
      "Ġ00": 8238,
      "Ġesti": 8239,
      "Ã³n": 8240,
      "Ġchegada": 8241,
      "Ġchora": 8242,
      "jango": 8243,
      "df": 8244,
      "Ġbeira": 8245,
      "Ġfama": 8246,
      "Ġprevista": 8247,
      "Ġleitor": 8248,
      "ĠAman": 8249,
      "Ġachado": 8250,
      "ĠGOS": 8251,
      "vore": 8252,
      "ĠRed": 8253,
      "ronto": 8254,
      "Ġkkkkkk": 8255,
      "ĠWaltz": 8256,
      "Ġretirar": 8257,
      "embol": 8258,
      "Ġcorreta": 8259,
      "Ġnovela": 8260,
      "âŃĲ": 8261,
      "Mo": 8262,
      "ĠHAHAHA": 8263,
      "Ġexces": 8264,
      "diei": 8265,
      "Ġinstante": 8266,
      "Ġexpan": 8267,
      "ĠFar": 8268,
      "Ġbelos": 8269,
      "Ġdemorado": 8270,
      "Ġ[/": 8271,
      "Ġpretendo": 8272,
      "Falta": 8273,
      "ĠmonÃ³tono": 8274,
      "doso": 8275,
      "ficou": 8276,
      "ĠÃºltimas": 8277,
      "ĠMerece": 8278,
      "Deveria": 8279,
      "ĠKeaton": 8280,
      "later": 8281,
      "ĠHen": 8282,
      "ĠEsperava": 8283,
      "Ġdelicioso": 8284,
      "vocÃª": 8285,
      "ssÃµes": 8286,
      "ĠNE": 8287,
      "Ġrapaz": 8288,
      "ĠBoy": 8289,
      "ĠDowney": 8290,
      "Ġhollywoo": 8291,
      "Ġbaixando": 8292,
      "Ġfria": 8293,
      "Ġrock": 8294,
      "Ġif": 8295,
      "ĠmanhÃ£": 8296,
      "Ġdistante": 8297,
      "Ġadorou": 8298,
      "Ġsubes": 8299,
      "ĠPhoenix": 8300,
      "ĠHum": 8301,
      "Ġpubl": 8302,
      "Ġigre": 8303,
      "ĠFAZ": 8304,
      "MI": 8305,
      "uspense": 8306,
      "una": 8307,
      "INE": 8308,
      "Ġousa": 8309,
      "amal": 8310,
      "entais": 8311,
      "Ġburo": 8312,
      "Ġvs": 8313,
      "Ġpad": 8314,
      "Ġadulta": 8315,
      "ĠNossa": 8316,
      "tander": 8317,
      "Ġpostar": 8318,
      "boy": 8319,
      "Ġrea": 8320,
      "Ġsons": 8321,
      "Ġgostosa": 8322,
      "Ġfeminino": 8323,
      "rro": 8324,
      "ĠPrem": 8325,
      "ĠPÃ©ssimo": 8326,
      "Ġchin": 8327,
      "ĠGreen": 8328,
      "Ġescrita": 8329,
      "Ġestaria": 8330,
      "ĠCharlize": 8331,
      "ensar": 8332,
      "ĠTrans": 8333,
      "Ġesperei": 8334,
      "ĠcomeÃ§am": 8335,
      "ĠParker": 8336,
      "istencial": 8337,
      "Ġbic": 8338,
      "Ġatuar": 8339,
      "Ġparecendo": 8340,
      "Ġtrailers": 8341,
      "Ġembaixo": 8342,
      "Ġperdida": 8343,
      "âĻ¥âĻ¥âĻ¥âĻ¥": 8344,
      "On": 8345,
      "uca": 8346,
      "Ġoferecer": 8347,
      "Ġodeio": 8348,
      "Ġfiltro": 8349,
      "Ġtranquilo": 8350,
      "Ġblockbuster": 8351,
      "Ġdesligar": 8352,
      "eitu": 8353,
      "azer": 8354,
      "Ġestudar": 8355,
      "Ġvirtual": 8356,
      "Ġtemp": 8357,
      "ĠMcAvoy": 8358,
      "CIA": 8359,
      "bia": 8360,
      "Ġesten": 8361,
      "leo": 8362,
      "Ġ22": 8363,
      "Ġromances": 8364,
      "ĠBran": 8365,
      "Ġrola": 8366,
      "Ġati": 8367,
      "Ġcorrer": 8368,
      "Ġesteve": 8369,
      "INAL": 8370,
      "Ġconversas": 8371,
      "Ġartistas": 8372,
      "picos": 8373,
      "ĠcanÃ§Ãµes": 8374,
      "Ġagress": 8375,
      "ĠBergman": 8376,
      "ELO": 8377,
      "Ġfron": 8378,
      "Ela": 8379,
      "ut": 8380,
      "rega": 8381,
      "Ġgi": 8382,
      "ĠconfusÃ£o": 8383,
      "Ġconfirma": 8384,
      "Ġfilmow": 8385,
      "Ġconter": 8386,
      "Ġplaylist": 8387,
      "istes": 8388,
      "Ġdevas": 8389,
      "Ġfacul": 8390,
      "ĠSpar": 8391,
      "ĠforÃ§ada": 8392,
      "Ġcondiz": 8393,
      "0000000000000000": 8394,
      "Ġremoto": 8395,
      ".,": 8396,
      "ĠBab": 8397,
      "ganta": 8398,
      "Ġcomprem": 8399,
      "Ġgerar": 8400,
      "Ġsingular": 8401,
      "Ġteatro": 8402,
      "ĠÃĢ": 8403,
      "Ġconcen": 8404,
      "ĠnÃŃ": 8405,
      "out": 8406,
      "Ġmeninas": 8407,
      "ous": 8408,
      "euve": 8409,
      "Ġconfun": 8410,
      "Ġfuck": 8411,
      "ĠlocalizaÃ§Ã£o": 8412,
      "ĠindÃºstria": 8413,
      "IG": 8414,
      "Ġcag": 8415,
      "row": 8416,
      "Ġpron": 8417,
      "ĠtÃ©cnicas": 8418,
      "ĠStewart": 8419,
      "Ġhomossexual": 8420,
      "Ġfenomenal": 8421,
      "Ġautori": 8422,
      "Ġflui": 8423,
      "Ġquente": 8424,
      "Ġinsano": 8425,
      "deiras": 8426,
      "iiiiiiiiiiiiiiii": 8427,
      "Ġentediante": 8428,
      "Ġencantado": 8429,
      "Ġpossivel": 8430,
      "Ġinterno": 8431,
      "Ġverificar": 8432,
      "filo": 8433,
      "izo": 8434,
      "ĠcÃ´m": 8435,
      "Ġcontinuam": 8436,
      "Ã¡sico": 8437,
      "ĠLogo": 8438,
      "ĠrepresentaÃ§Ã£o": 8439,
      "Ġrastre": 8440,
      "Ġsacan": 8441,
      "Ġpaisagens": 8442,
      "ĠTarde": 8443,
      "ĠtrajetÃ³ria": 8444,
      "ENA": 8445,
      "Ġsofrer": 8446,
      "âĻ¥ï¸ı": 8447,
      "anche": 8448,
      "Ġultimo": 8449,
      "Ġfes": 8450,
      "Ġfol": 8451,
      "ĠVamos": 8452,
      "Ġsegurar": 8453,
      "Ġinterpretando": 8454,
      "Ġauxil": 8455,
      "ĠHardy": 8456,
      "sal": 8457,
      "sando": 8458,
      "tentes": 8459,
      "Ġarreb": 8460,
      "Ġarrepia": 8461,
      "Ġsaudades": 8462,
      "iando": 8463,
      "mino": 8464,
      "Ġpano": 8465,
      "Ġnovidade": 8466,
      "Ġconden": 8467,
      "ĠJos": 8468,
      "Ġdisponibil": 8469,
      "Ġatempo": 8470,
      "ans": 8471,
      "ĠMun": 8472,
      "Ġasso": 8473,
      "Ġamig": 8474,
      "ĠbotÃµes": 8475,
      "Ġentregaram": 8476,
      "ĠdesnecessÃ¡ria": 8477,
      "Ġavan": 8478,
      "Ġenvio": 8479,
      "Ġusada": 8480,
      "vd": 8481,
      "ĠOk": 8482,
      "ĠFassbender": 8483,
      "conhe": 8484,
      "Ġmergu": 8485,
      "Ġdispositivo": 8486,
      "ĠdÃª": 8487,
      "ĠBaix": 8488,
      "omo": 8489,
      "Ġfilm": 8490,
      "Ġtons": 8491,
      "ĠincÃ´": 8492,
      "ÃŃncipe": 8493,
      "Mano": 8494,
      "ĠlÃª": 8495,
      "ĠClu": 8496,
      "Ġfragil": 8497,
      "rumem": 8498,
      "Ġexerc": 8499,
      "onas": 8500,
      "ĠEfeitos": 8501,
      "Ġcontrolar": 8502,
      "Ġpalmas": 8503,
      "ibson": 8504,
      "Ġenfrentar": 8505,
      "pÃºsculo": 8506,
      "Ai": 8507,
      "Ġcomida": 8508,
      "Apenas": 8509,
      "ĠJulie": 8510,
      "ĠnotificaÃ§Ã£o": 8511,
      "13": 8512,
      "ĠKate": 8513,
      "eed": 8514,
      "Ġabordado": 8515,
      "ĠSamuel": 8516,
      "Ġdelicada": 8517,
      "Ġcirc": 8518,
      "ĠlÃŃngua": 8519,
      "vÃŃdu": 8520,
      "Ġfilmografia": 8521,
      "Ġfacebook": 8522,
      "ĠFir": 8523,
      "Ġdizia": 8524,
      "Ġansiedade": 8525,
      "ImpossÃŃvel": 8526,
      "Ġdete": 8527,
      "Assim": 8528,
      "Ġespecifica": 8529,
      "Ġdestruir": 8530,
      "ĠpÃ´": 8531,
      "ĠÃ©pica": 8532,
      "Ġdai": 8533,
      "diÃµes": 8534,
      "Ġfalei": 8535,
      "Ġconseguimos": 8536,
      "Ġliberar": 8537,
      "lausos": 8538,
      "fra": 8539,
      "miga": 8540,
      "Ġsalvo": 8541,
      "ĠMatt": 8542,
      "cracia": 8543,
      "Ġqueda": 8544,
      "Ġarquivo": 8545,
      "ĠinÃºtil": 8546,
      "Ġcm": 8547,
      "ald": 8548,
      "AI": 8549,
      "Cada": 8550,
      "pida": 8551,
      "ĠapariÃ§Ã£o": 8552,
      "Ġrevolta": 8553,
      "Ġatro": 8554,
      "Ġvoltando": 8555,
      "Ġvisualizar": 8556,
      "ĠaquisiÃ§Ã£o": 8557,
      "Ġnoj": 8558,
      "indows": 8559,
      "Ġlinhas": 8560,
      "ĠPreÃ§o": 8561,
      "Ġgarganta": 8562,
      "ato": 8563,
      "Ġpontas": 8564,
      "Ġfraquinho": 8565,
      "Ãķ": 8566,
      "Ġreembol": 8567,
      "ĠMAR": 8568,
      "Ġtempera": 8569,
      "Ġpersonalidades": 8570,
      "orado": 8571,
      "Ġpopular": 8572,
      "Ġdeslumbrante": 8573,
      "tragem": 8574,
      "ĠContudo": 8575,
      "Ġindicados": 8576,
      "Ġdescobr": 8577,
      "ĠOri": 8578,
      "Ġviajar": 8579,
      "Ġarrasa": 8580,
      "Ġzoom": 8581,
      "CAR": 8582,
      "Ġfuncionalidade": 8583,
      "reta": 8584,
      "Ġdemorar": 8585,
      "Ġvoando": 8586,
      "Ġsexualidade": 8587,
      "Ġvidro": 8588,
      "UTA": 8589,
      "itei": 8590,
      "Ã³lica": 8591,
      "Ġperco": 8592,
      "aliza": 8593,
      "Pode": 8594,
      "dri": 8595,
      "yy": 8596,
      "gers": 8597,
      "ĠTirando": 8598,
      "Ġvul": 8599,
      "Ġtomadas": 8600,
      "Sobre": 8601,
      "Ġtristes": 8602,
      "stru": 8603,
      "Ġretratada": 8604,
      "ĠtransformaÃ§Ã£o": 8605,
      "Ġnerv": 8606,
      "Ġinacredi": 8607,
      "ĠBela": 8608,
      "ĠGran": 8609,
      "Ġfator": 8610,
      "Ġcaindo": 8611,
      "ĠFAL": 8612,
      "Ġatualizei": 8613,
      "ĠFranco": 8614,
      "ofsky": 8615,
      "ĠGus": 8616,
      "ĠHP": 8617,
      "Ġprincesa": 8618,
      "Ġbriga": 8619,
      "ide": 8620,
      "zel": 8621,
      "Ġtortura": 8622,
      "Ġdesejos": 8623,
      "ĠElenco": 8624,
      "ĠTop": 8625,
      "ĠmemÃ³rias": 8626,
      "ĠindivÃŃdu": 8627,
      "Ġflashback": 8628,
      "ĠJones": 8629,
      "ĠLar": 8630,
      "ĠKristen": 8631,
      "ĠQualidade": 8632,
      "Ġacontecido": 8633,
      "Ġdeno": 8634,
      "Ġaprecia": 8635,
      "ĠconfiguraÃ§Ãµes": 8636,
      "Ġaterror": 8637,
      "ĠPR": 8638,
      "ĠrÃ¡dio": 8639,
      "ĠSessÃ£o": 8640,
      "ĠpotÃªncia": 8641,
      "Ġorganizado": 8642,
      "Ġreconhece": 8643,
      "imes": 8644,
      "ĠJoseph": 8645,
      "Ġestabel": 8646,
      "Entre": 8647,
      "PP": 8648,
      "TRO": 8649,
      "diana": 8650,
      "zaki": 8651,
      "Ġpergunto": 8652,
      "ApÃ³s": 8653,
      "ĠGordon": 8654,
      "ĠNicole": 8655,
      "Ġequipamento": 8656,
      "15": 8657,
      "Ġjogado": 8658,
      "Ġcriticas": 8659,
      "rent": 8660,
      "Ġcontudo": 8661,
      "Ġdespreten": 8662,
      "Ġlida": 8663,
      "ĠCP": 8664,
      "ĠJesus": 8665,
      "Ġanunciado": 8666,
      "Ġdur": 8667,
      "Ġregular": 8668,
      "RAM": 8669,
      "idra": 8670,
      "Ġpolicia": 8671,
      "ĠfaÃ§am": 8672,
      "Ġarmazenamento": 8673,
      "Cha": 8674,
      "Ġata": 8675,
      "ĠgÃªneros": 8676,
      "Ġsurpreendido": 8677,
      "ĠnÃºmeros": 8678,
      "Ġdivertidos": 8679,
      "ĠNUNCA": 8680,
      "ĠgrÃ¡fica": 8681,
      "vvvv": 8682,
      "EZ": 8683,
      "endido": 8684,
      "Ġcriaturas": 8685,
      "entada": 8686,
      "ĠSegu": 8687,
      "Ġcoadjuvantes": 8688,
      "tain": 8689,
      "Ġestr": 8690,
      "Ġexcluir": 8691,
      "Ġartificial": 8692,
      "Ġcoreo": 8693,
      "Ġocupa": 8694,
      "Ġreduz": 8695,
      "Ġgoste": 8696,
      "Ġrotina": 8697,
      "Ġlembrava": 8698,
      "ĠXavier": 8699,
      "ĠpsicolÃ³gica": 8700,
      "Ġigreja": 8701,
      "JA": 8702,
      "lum": 8703,
      "rime": 8704,
      "Ġexistencial": 8705,
      "side": 8706,
      "izados": 8707,
      "Ġpensado": 8708,
      "Ġtosco": 8709,
      "Ġvoces": 8710,
      "Ġespectativas": 8711,
      "ĠtÃ©dio": 8712,
      "ĠconsideraÃ§Ã£o": 8713,
      "ĊĊĊĊĊĊĊĊ": 8714,
      "Ġhipo": 8715,
      "-'": 8716,
      "TÃ´": 8717,
      "Ġpegando": 8718,
      "ĠcontinuaÃ§Ãµes": 8719,
      "Ġcla": 8720,
      "ĠcafÃ©": 8721,
      "umbl": 8722,
      "lares": 8723,
      "ĠFilmow": 8724,
      "cÃ£o": 8725,
      "Ġalar": 8726,
      "Ġfuga": 8727,
      "Ġcrescer": 8728,
      "Ġidioma": 8729,
      "17": 8730,
      "yamal": 8731,
      "Ġcump": 8732,
      "Ġressaltar": 8733,
      "Ġaprende": 8734,
      "Ġfoca": 8735,
      "ĠTur": 8736,
      "mt": 8737,
      "ĠpressÃ£o": 8738,
      "Ġrelevante": 8739,
      "Ġserio": 8740,
      "Ġvivido": 8741,
      "ĠMuitos": 8742,
      "ĠLuke": 8743,
      "ĠâĸĪ": 8744,
      "Ġocul": 8745,
      "pool": 8746,
      "Ġdesafi": 8747,
      "Ġparceria": 8748,
      "Ġcontatos": 8749,
      "ULAR": 8750,
      "Ġdaquilo": 8751,
      "ĠdÃ©cadas": 8752,
      "Ġacidente": 8753,
      "show": 8754,
      "Ġresumo": 8755,
      "Ġficamos": 8756,
      "Ġmadu": 8757,
      "ĠMaria": 8758,
      "Ġbanho": 8759,
      "ĠFacil": 8760,
      "Ġinsupor": 8761,
      "ĠnÃŃveis": 8762,
      "Ġestando": 8763,
      "ĠAma": 8764,
      "Ġajudem": 8765,
      "John": 8766,
      "yamalan": 8767,
      "ĠCi": 8768,
      "Ġpedidos": 8769,
      "Ġtente": 8770,
      "Ġnaturalidade": 8771,
      "Ġparceiro": 8772,
      "ĠengraÃ§ados": 8773,
      ".''": 8774,
      "hem": 8775,
      "ĠPq": 8776,
      "ĠPs": 8777,
      "Ġjulgar": 8778,
      "Ġintim": 8779,
      "Ġarr": 8780,
      "ĠESTA": 8781,
      "todos": 8782,
      "ÃŃdio": 8783,
      "ĠMac": 8784,
      "ĠCome": 8785,
      "Ġreconhecer": 8786,
      "Funciona": 8787,
      "LO": 8788,
      "ĠPatrick": 8789,
      "estÃ¡": 8790,
      "gues": 8791,
      "Ġcortar": 8792,
      "ĠEmily": 8793,
      "Ġaprovado": 8794,
      "ĠHobbit": 8795,
      "belle": 8796,
      "yazaki": 8797,
      "ĠdecisÃµes": 8798,
      "Ġdistin": 8799,
      "Ġinferno": 8800,
      "Ġweb": 8801,
      "ĠPAR": 8802,
      "Ġelemento": 8803,
      "Ġrem": 8804,
      "Ġlinear": 8805,
      "ramentos": 8806,
      "ĠGibson": 8807,
      "TES": 8808,
      "Ġestragar": 8809,
      "laustro": 8810,
      "ilda": 8811,
      "ĠAquele": 8812,
      "Ġmedos": 8813,
      "ĠÃĵTIMO": 8814,
      "Mto": 8815,
      "_*": 8816,
      "ĠWa": 8817,
      "Ġmostrada": 8818,
      "ĠJulia": 8819,
      "ĠmotivaÃ§Ã£o": 8820,
      "ish": 8821,
      "Ġapresentando": 8822,
      "Ġpreconceitos": 8823,
      "Bon": 8824,
      "ĠCla": 8825,
      "ĠJÃģ": 8826,
      "Ġesqueci": 8827,
      "Ġgaleria": 8828,
      "Ġconcorrentes": 8829,
      "Ġcomplem": 8830,
      "Ġnacionais": 8831,
      "Ġdisp": 8832,
      "Ġlembrando": 8833,
      "ĠbÃ¡sico": 8834,
      "ĠJogos": 8835,
      "ĠgrÃ¡fico": 8836,
      "Ġfabric": 8837,
      "ĠPat": 8838,
      "poderia": 8839,
      "Ġatuou": 8840,
      "Ġconheci": 8841,
      "Ġexibi": 8842,
      "Ġaceito": 8843,
      "ang": 8844,
      "ciosa": 8845,
      "Ġdescoberta": 8846,
      "Ġsubje": 8847,
      "ĠHop": 8848,
      "Ġrsrsrs": 8849,
      "ĠmÃ¡scara": 8850,
      "UR": 8851,
      "Vai": 8852,
      "Ġbul": 8853,
      "Ġrebel": 8854,
      "uns": 8855,
      "Ġdono": 8856,
      "hs": 8857,
      "Ġinsegu": 8858,
      "ĠCAR": 8859,
      "ĠNick": 8860,
      "Ġbrilha": 8861,
      "umblr": 8862,
      "Ġhttps": 8863,
      "Ġdirigir": 8864,
      "Ã©ritos": 8865,
      "ssssssss": 8866,
      "Ġnatal": 8867,
      "diu": 8868,
      "RIO": 8869,
      "Preciso": 8870,
      "Ġaviso": 8871,
      "gicamente": 8872,
      "ĠcartÃµes": 8873,
      "Ġsurpreso": 8874,
      "Ġcaptar": 8875,
      "Ġbilheteria": 8876,
      "Cor": 8877,
      "La": 8878,
      "Ġproce": 8879,
      "ĠLinda": 8880,
      "ble": 8881,
      "ket": 8882,
      "ĠcrÃŃticos": 8883,
      "Ġsh": 8884,
      "Ġdedo": 8885,
      "oster": 8886,
      "Ġparada": 8887,
      "inger": 8888,
      "igual": 8889,
      "Ġconcre": 8890,
      "Quase": 8891,
      "ĠAnthony": 8892,
      "2013": 8893,
      "ĠQUALIDADE": 8894,
      "Ġsci": 8895,
      "ĠÃºteis": 8896,
      "Ġanuncios": 8897,
      "ĠJohansson": 8898,
      "Ġesquis": 8899,
      "hadas": 8900,
      "cinema": 8901,
      "Ġacerca": 8902,
      "kkkkkkkkkkkkkkkkkkkkkkkkkkkkkkkk": 8903,
      "Ġcere": 8904,
      "Ġvag": 8905,
      "ĠEvan": 8906,
      "Ġfeel": 8907,
      ");": 8908,
      "Ġapocal": 8909,
      "ĠRio": 8910,
      "Ġarco": 8911,
      "Ġmandando": 8912,
      "Ġfaculdade": 8913,
      "lÃ³g": 8914,
      "Ġmarvel": 8915,
      "Ġcompletar": 8916,
      "ĠconstruÃŃdos": 8917,
      "Ġdocumentos": 8918,
      "ĠSteven": 8919,
      "Ġdesconhecido": 8920,
      "Â¬Â¬": 8921,
      "ĠStory": 8922,
      "Ġmapa": 8923,
      "ĠKy": 8924,
      "sicos": 8925,
      "nister": 8926,
      "):": 8927,
      "ĠSr": 8928,
      "sigo": 8929,
      "tinhos": 8930,
      "Ġestraga": 8931,
      "ĠmÃ¡gica": 8932,
      "Ġ=/": 8933,
      "Ġbraw": 8934,
      "Ġrecebido": 8935,
      "ĠCHE": 8936,
      "ĠTinha": 8937,
      "Ġsoa": 8938,
      "light": 8939,
      "Ġbaseada": 8940,
      "Ġ198": 8941,
      "Ġbrincar": 8942,
      "Ġofertas": 8943,
      "ÃķES": 8944,
      "niss": 8945,
      "river": 8946,
      "Ġprog": 8947,
      "ĠmatÃ©": 8948,
      "Ġdistra": 8949,
      "olÃ³gica": 8950,
      "Ġindes": 8951,
      "ect": 8952,
      "Ġpuder": 8953,
      "Ġargumento": 8954,
      "Ġtradicional": 8955,
      "Ġinqui": 8956,
      "ĠAINDA": 8957,
      "Ġperten": 8958,
      "Ġsaem": 8959,
      "Ġcredito": 8960,
      "DÃ¡": 8961,
      "Gu": 8962,
      "Ġany": 8963,
      "SSIMO": 8964,
      "ĠFrances": 8965,
      "eles": 8966,
      "ENS": 8967,
      "Ġnecessariamente": 8968,
      "MAS": 8969,
      "Ãºmeros": 8970,
      "Divertido": 8971,
      "Ġhype": 8972,
      "Ġpagamentos": 8973,
      "Ġpositiva": 8974,
      "Ġblog": 8975,
      "ĠcapÃŃtulo": 8976,
      "ĠamanhÃ£": 8977,
      ")...": 8978,
      "ĠciÃªncia": 8979,
      "Ġcativou": 8980,
      "Ġprofissionais": 8981,
      "Ġvisceral": 8982,
      "Ġimpro": 8983,
      "ĠJam": 8984,
      "BA": 8985,
      "Ġ99": 8986,
      "AtuaÃ§Ãµes": 8987,
      "Ġamarra": 8988,
      "Ġlutando": 8989,
      "Ġsensual": 8990,
      "ĠalÃŃvio": 8991,
      "ĠMr": 8992,
      "Ġmoda": 8993,
      "Ġdiretora": 8994,
      "ĠdiscussÃµes": 8995,
      "Ġmole": 8996,
      "uo": 8997,
      "xi": 8998,
      "Ġsolo": 8999,
      "ĠContinu": 9000,
      "Ġaproxima": 9001,
      "Ġadmitir": 9002,
      "ĠligaÃ§Ãµes": 9003,
      "Ġhumilde": 9004,
      "REM": 9005,
      "Ã¡logos": 9006,
      "Come": 9007,
      "Ġnegra": 9008,
      "ĠiluminaÃ§Ã£o": 9009,
      "Ġpeito": 9010,
      "porÃ©m": 9011,
      "Ġluc": 9012,
      "tizar": 9013,
      "Ġpessimo": 9014,
      "tÃ¢ne": 9015,
      "Ġfaro": 9016,
      "Ġplan": 9017,
      "ĠColin": 9018,
      "Ġplaca": 9019,
      "ĠWall": 9020,
      "eco": 9021,
      "ĠStu": 9022,
      "ĠFUN": 9023,
      "Ġprecisei": 9024,
      "Ġdesapon": 9025,
      "Ġagua": 9026,
      "Ġsecre": 9027,
      "Ġcuidar": 9028,
      "Ġlis": 9029,
      "Ġpublico": 9030,
      "ĠCop": 9031,
      "Ġestas": 9032,
      "Quanto": 9033,
      "Ġbonitos": 9034,
      "ĠnavegaÃ§Ã£o": 9035,
      "Ãªntr": 9036,
      "TIVO": 9037,
      "ĠMichelle": 9038,
      "!?": 9039,
      "wa": 9040,
      "Ġbicho": 9041,
      "Ġcolocaram": 9042,
      "Ġintroduz": 9043,
      "Ġtemporada": 9044,
      "ĠPersonagens": 9045,
      "Ġsobrena": 9046,
      "ĠinevitÃ¡vel": 9047,
      "Man": 9048,
      "icol": 9049,
      "desco": 9050,
      "EITA": 9051,
      "ĠhilÃ¡rio": 9052,
      "Ã§oso": 9053,
      "ecn": 9054,
      "eet": 9055,
      "Ġapresentados": 9056,
      "ĠTemos": 9057,
      "reiro": 9058,
      "Ġmelhorem": 9059,
      "ĠâĢĺ": 9060,
      "ĠGuar": 9061,
      "ĠFalta": 9062,
      "ĠtrÃ¡gico": 9063,
      "Ġtru": 9064,
      "ather": 9065,
      "pira": 9066,
      "Ġparei": 9067,
      "ĠCarrie": 9068,
      "ĠAPA": 9069,
      "Ġserviu": 9070,
      "bon": 9071,
      "mons": 9072,
      "Ġpoderosa": 9073,
      "Ġdever": 9074,
      "isne": 9075,
      "Ġout": 9076,
      "Ġlongos": 9077,
      "ĠRECE": 9078,
      "Ġalucin": 9079,
      "Ġcabelos": 9080,
      "cesse": 9081,
      "mto": 9082,
      "deia": 9083,
      "Ġplayer": 9084,
      "Ġpreocupa": 9085,
      "ĠRidley": 9086,
      "Ġatemporal": 9087,
      "Ġousado": 9088,
      "ĠMere": 9089,
      "Ġencontram": 9090,
      "Ġmandaram": 9091,
      "Ġaprendizado": 9092,
      "Ġsuspeita": 9093,
      "Nos": 9094,
      "ĠVocÃªs": 9095,
      "Ġnamorado": 9096,
      "Ġpodcas": 9097,
      "âĺĨâĺĨ": 9098,
      "ĠMundo": 9099,
      "Ġruas": 9100,
      "renal": 9101,
      "Ġcampe": 9102,
      "ĠJavier": 9103,
      "Ġcoerente": 9104,
      "aughey": 9105,
      "Am": 9106,
      "passa": 9107,
      "Ġcapazes": 9108,
      "ĠChaplin": 9109,
      "ĠÃªx": 9110,
      "Ġtaxa": 9111,
      "Ġlevam": 9112,
      "Ġtouch": 9113,
      "ĠautomÃ¡tico": 9114,
      "Ġsecund": 9115,
      "Ġafia": 9116,
      "Ġurg": 9117,
      "ĠinfluÃªncia": 9118,
      "GAR": 9119,
      "Ġdeva": 9120,
      "Ġinfluencia": 9121,
      "ĠsÃŃmb": 9122,
      "ĠsugestÃ£o": 9123,
      "red": 9124,
      "ĠTÃ´": 9125,
      "Ġcresce": 9126,
      "UHA": 9127,
      "Ġmara": 9128,
      "Ġdiariamente": 9129,
      "Ġcomprando": 9130,
      "Ġcorte": 9131,
      "Ġsince": 9132,
      "EntÃ£o": 9133,
      "ĠNew": 9134,
      "Ġdecide": 9135,
[...]
