{
  "version": "1.0",
  "truncation": null,
  "padding": null,
  "added_tokens": [
    {
      "id": 0,
      "content": "<pad>",
      "single_word": false,
      "lstrip": false,
      "rstrip": false,
      "normalized": false,
      "special": true
    },
    {
      "id": 1,
      "content": "<s>",
      "single_word": false,
      "lstrip": false,
      "rstrip": false,
      "normalized": false,
      "special": true
    },
    {
      "id": 2,
      "content": "</s>",
      "single_word": false,
      "lstrip": false,
      "rstrip": false,
      "normalized": false,
      "special": true
    },
    {
      "id": 3,
      "content": "<mask>",
      "single_word": false,
      "lstrip": false,
      "rstrip": false,
      "normalized": false,
      "special": true
    },
    {
      "id": 4,
      "content": "<cls>",
      "single_word": false,
      "lstrip": false,
      "rstrip": false,
      "normalized": false,
      "special": true
    },
    {
      "id": 5,
      "content": "<question>",
      "single_word": false,
      "lstrip": false,
      "rstrip": false,
      "normalized": false,
      "special": true
    },
    {
      "id": 6,
      "content": "<answer>",
      "single_word": false,
      "lstrip": false,
      "rstrip": false,
      "normalized": false,
      "special": true
    },
    {
      "id": 7,
      "content": "<unk>",
      "single_word": false,
      "lstrip": false,
      "rstrip": false,
      "normalized": false,
      "special": true
    }
  ],
  "normalizer": {
    "type": "Sequence",
    "normalizers": [
      {
        "type": "Replace",
        "pattern": {
          "String": "\n(.)\n"
        },
        "content": "\n"
      },
      {
        "type": "Replace",
        "pattern": {
          "String": "[\n\n]+"
        },
        "content": "\n\n"
      }
    ]
  },
  "pre_tokenizer": {
    "type": "ByteLevel",
    "add_prefix_space": false,
    "trim_offsets": true,
    "use_regex": true
  },
  "post_processor": null,
  "decoder": {
    "type": "ByteLevel",
    "add_prefix_space": true,
    "trim_offsets": true,
    "use_regex": true
  },
  "model": {
    "type": "BPE",
    "dropout": null,
    "unk_token": null,
    "continuing_subword_prefix": null,
    "end_of_word_suffix": null,
    "fuse_unk": false,
    "byte_fallback": false,
    "vocab": {
      "<pad>": 0,
      "<s>": 1,
      "</s>": 2,
      "<mask>": 3,
      "<cls>": 4,
      "<question>": 5,
      "<answer>": 6,
      "<unk>": 7,
      "!": 8,
      "\"": 9,
      "#": 10,
      "$": 11,
      "%": 12,
      "&": 13,
      "'": 14,
      "(": 15,
      ")": 16,
      "*": 17,
      "+": 18,
      ",": 19,
      "-": 20,
      ".": 21,
      "/": 22,
      "0": 23,
      "1": 24,
      "2": 25,
      "3": 26,
      "4": 27,
      "5": 28,
      "6": 29,
      "7": 30,
      "8": 31,
      "9": 32,
      ":": 33,
      ";": 34,
      "<": 35,
      "=": 36,
      ">": 37,
      "?": 38,
      "@": 39,
      "A": 40,
      "B": 41,
      "C": 42,
      "D": 43,
      "E": 44,
      "F": 45,
      "G": 46,
      "H": 47,
      "I": 48,
      "J": 49,
      "K": 50,
      "L": 51,
      "M": 52,
      "N": 53,
      "O": 54,
      "P": 55,
      "Q": 56,
      "R": 57,
      "S": 58,
      "T": 59,
      "U": 60,
      "V": 61,
      "W": 62,
      "X": 63,
      "Y": 64,
      "Z": 65,
      "[": 66,
      "\\": 67,
      "]": 68,
      "^": 69,
      "_": 70,
      "`": 71,
      "a": 72,
      "b": 73,
      "c": 74,
      "d": 75,
      "e": 76,
      "f": 77,
      "g": 78,
      "h": 79,
      "i": 80,
      "j": 81,
      "k": 82,
      "l": 83,
      "m": 84,
      "n": 85,
      "o": 86,
      "p": 87,
      "q": 88,
      "r": 89,
      "s": 90,
      "t": 91,
      "u": 92,
      "v": 93,
      "w": 94,
      "x": 95,
      "y": 96,
      "z": 97,
      "{": 98,
      "|": 99,
      "}": 100,
      "~": 101,
      "¡": 102,
      "¢": 103,
      "£": 104,
      "¤": 105,
      "¥": 106,
      "¦": 107,
      "§": 108,
      "¨": 109,
      "©": 110,
      "ª": 111,
      "«": 112,
      "¬": 113,
      "®": 114,
      "¯": 115,
      "°": 116,
      "±": 117,
      "²": 118,
      "³": 119,
      "´": 120,
      "µ": 121,
      "¶": 122,
      "·": 123,
      "¸": 124,
      "¹": 125,
      "º": 126,
      "»": 127,
      "¼": 128,
      "½": 129,
      "¿": 130,
      "Â": 131,
      "Ã": 132,
      "Ä": 133,
      "Å": 134,
      "Ê": 135,
      "Ë": 136,
      "Í": 137,
      "á": 138,
      "â": 139,
      "ã": 140,
      "î": 141,
      "ï": 142,
      "ð": 143,
      "Ĉ": 144,
      "ĉ": 145,
      "Ċ": 146,
      "Ġ": 147,
      "Ģ": 148,
      "ģ": 149,
      "Ĥ": 150,
      "ĥ": 151,
      "Ħ": 152,
      "ħ": 153,
      "Ĩ": 154,
      "ĩ": 155,
      "Ī": 156,
      "ī": 157,
      "Ĭ": 158,
      "ĭ": 159,
      "Į": 160,
      "į": 161,
      "İ": 162,
      "ı": 163,
      "Ĳ": 164,
      "ĳ": 165,
      "Ĵ": 166,
      "ĵ": 167,
      "Ķ": 168,
      "ķ": 169,
      "ĸ": 170,
      "Ĺ": 171,
      "ĺ": 172,
      "Ļ": 173,
      "ļ": 174,
      "Ľ": 175,
      "ľ": 176,
      "Ŀ": 177,
      "ŀ": 178,
      "Ł": 179,
      "ł": 180,
      "Ń": 181,
      "Ġe": 182,
      "Ġp": 183,
      "Ġd": 184,
      "te": 185,
      "Ġa": 186,
      "to": 187,
      "Ġc": 188,
      "ra": 189,
      "Ġm": 190,
      "re": 191,
      "qu": 192,
      "om": 193,
      "Ġn": 194,
      "os": 195,
      "Ġqu": 196,
      "Ġde": 197,
      "en": 198,
      "do": 199,
      "Ã£": 200,
      "Ã£o": 201,
      "Ġs": 202,
      "ro": 203,
      "Ġque": 204,
      "Ġo": 205,
      "ta": 206,
      "as": 207,
      "Ġf": 208,
      "da": 209,
      "in": 210,
      "er": 211,
      "is": 212,
      "Ġcom": 213,
      "Ġb": 214,
      "..": 215,
      "Ã©": 216,
      "on": 217,
      "ma": 218,
      "Ġu": 219,
      "ti": 220,
      "ito": 221,
      "ar": 222,
      "de": 223,
      "al": 224,
      "Ġg": 225,
      "el": 226,
      "or": 227,
      "ĠnÃ£o": 228,
      "Ġpro": 229,
      "Ã¡": 230,
      "uto": 231,
      "ci": 232,
      "es": 233,
      "duto": 234,
      "Ã§": 235,
      "em": 236,
      "tei": 237,
      "Ġv": 238,
      "ostei": 239,
      "Ġre": 240,
      "uito": 241,
      "ca": 242,
      "Ġes": 243,
      "ara": 244,
      "Ġgostei": 245,
      "ĠÃ©": 246,
      "Ġproduto": 247,
      "ei": 248,
      "ente": 249,
      "ri": 250,
      "Ġte": 251,
      "Ġmuito": 252,
      "an": 253,
      "Ġl": 254,
      "ida": 255,
      "Ġdo": 256,
      "ho": 257,
      "Ġum": 258,
      "Ġpara": 259,
      "Ġen": 260,
      "ĠA": 261,
      "mo": 262,
      "Ġcomp": 263,
      "Ġcon": 264,
      "Ã³": 265,
      "ou": 266,
      "idade": 267,
      "ga": 268,
      "!!": 269,
      "Ġem": 270,
      "Ġna": 271,
      "Ġt": 272,
      "ĠP": 273,
      "ia": 274,
      "ĠE": 275,
      "Ã§Ã£o": 276,
      "....": 277,
      "Ġno": 278,
      "Ġrec": 279,
      "le": 280,
      "Ġda": 281,
      "gu": 282,
      "la": 283,
      "tre": 284,
      "ha": 285,
      "Ġma": 286,
      "so": 287,
      "im": 288,
      "Ġse": 289,
      "co": 290,
      "nte": 291,
      "Ġex": 292,
      "endo": 293,
      "Ġin": 294,
      "ec": 295,
      "ica": 296,
      "ĠN": 297,
      "Ġbom": 298,
      "Ġpra": 299,
      "il": 300,
      "un": 301,
      "Ġuma": 302,
      "Ġpre": 303,
      "Ġme": 304,
      "ĠC": 305,
      "Ġdes": 306,
      "ĠM": 307,
      "Ġap": 308,
      "Ġqual": 309,
      "Ġtem": 310,
      "us": 311,
      "ĠS": 312,
      "ÃŃ": 313,
      "Ġentre": 314,
      "Ġas": 315,
      "Ġj": 316,
      "Ġpor": 317,
      "omendo": 318,
      "Ġfo": 319,
      "tiv": 320,
      "Ġmais": 321,
      "mente": 322,
      "cel": 323,
      "sa": 324,
      "Ġpo": 325,
      "ĠD": 326,
      "ento": 327,
      "Ġdi": 328,
      "he": 329,
      "pre": 330,
      "Ġqualidade": 331,
      "Ġcompra": 332,
      "Ġto": 333,
      "Ġsu": 334,
      "ĠO": 335,
      "rÃ¡": 336,
      "tra": 337,
      "celente": 338,
      "se": 339,
      "ĠT": 340,
      "Ġfa": 341,
      "Ġca": 342,
      "ol": 343,
      "va": 344,
      "timo": 345,
      "era": 346,
      "Ġou": 347,
      "di": 348,
      "fe": 349,
      "inha": 350,
      "Ġi": 351,
      "Ġbem": 352,
      "Ã§o": 353,
      "ĠÃ³": 354,
      "ria": 355,
      "Ġmas": 356,
      "are": 357,
      "cion": 358,
      "ĠÃ": 359,
      "zo": 360,
      "go": 361,
      "ul": 362,
      "ĠR": 363,
      "ix": 364,
      "um": 365,
      "Ġper": 366,
      "roduto": 367,
      "Ãª": 368,
      "Ġal": 369,
      "Ġbo": 370,
      "ando": 371,
      "ten": 372,
      "Ġta": 373,
      "cil": 374,
      "Ġser": 375,
      "fi": 376,
      "heg": 377,
      "Ġentrega": 378,
      "iz": 379,
      "Ã©m": 380,
      "eb": 381,
      "Ġsa": 382,
      "Ġprazo": 383,
      "ve": 384,
      "rei": 385,
      "........": 386,
      "vel": 387,
      "Ġfun": 388,
      "Ġsem": 389,
      "Ġrecomendo": 390,
      "Ġac": 391,
      "dos": 392,
      "Ġeu": 393,
      "ĠF": 394,
      "ura": 395,
      "gem": 396,
      "Ġmes": 397,
      "ntes": 398,
      "si": 399,
      "po": 400,
      "Ġfoi": 401,
      "...": 402,
      "am": 403,
      "tro": 404,
      "hegou": 405,
      "ido": 406,
      "Ġ1": 407,
      "cia": 408,
      "res": 409,
      "Ġexcelente": 410,
      "per": 411,
      "tou": 412,
      "inda": 413,
      "ĠB": 414,
      "Ġos": 415,
      "ĠĠ": 416,
      "Ġpel": 417,
      "Ãµ": 418,
      "Ġboa": 419,
      "xx": 420,
      "tima": 421,
      "Ġesp": 422,
      "feito": 423,
      "ndo": 424,
      "Ġcomo": 425,
      "Ãµes": 426,
      "Ġantes": 427,
      "TO": 428,
      "eio": 429,
      "ĠrÃ¡": 430,
      "ado": 431,
      "Ġpe": 432,
      "Produto": 433,
      "ui": 434,
      "ĠrÃ¡p": 435,
      "Ġ,": 436,
      "Ġesta": 437,
      "Ġat": 438,
      "tÃ¡": 439,
      "das": 440,
      "ce": 441,
      "Ġele": 442,
      "ig": 443,
      "Ġba": 444,
      "nho": 445,
      "RA": 446,
      "Ġapare": 447,
      "Ġreceb": 448,
      "Ġmeu": 449,
      "Ġima": 450,
      "Ġmel": 451,
      "lho": 452,
      "Ġ2": 453,
      "ran": 454,
      "Ġchegou": 455,
      "Ġminha": 456,
      "eita": 457,
      "ĠpreÃ§o": 458,
      "Ġpos": 459,
      "00": 460,
      "cio": 461,
      "Ġlo": 462,
      "ter": 463,
      "ja": 464,
      "Ġfuncion": 465,
      "EN": 466,
      "dor": 467,
      "hor": 468,
      "der": 469,
      "Ġmo": 470,
      "Ã§Ãµes": 471,
      "Ġres": 472,
      "Ġam": 473,
      "Ġpois": 474,
      "inh": 475,
      "tis": 476,
      "ĠjÃ¡": 477,
      "!!!!": 478,
      "udo": 479,
      "OM": 480,
      "ĠL": 481,
      "Ġman": 482,
      "usto": 483,
      "ĠQ": 484,
      "Ġan": 485,
      "imp": 486,
      "Ġmesmo": 487,
      "Ġ(": 488,
      "ver": 489,
      "Ġaten": 490,
      "Ġainda": 491,
      "Ġter": 492,
      "Ġpou": 493,
      "tar": 494,
      "ĠÃ³timo": 495,
      "for": 496,
      "ĠatÃ©": 497,
      "Ġbon": 498,
      "nas": 499,
      "Ġus": 500,
      "Ġjo": 501,
      "ĠNÃ£o": 502,
      "ecomendo": 503,
      "Ġaparelho": 504,
      "car": 505,
      "Ġdia": 506,
      "ĠU": 507,
      "Ã¡cil": 508,
      "Ġco": 509,
      "Ġ3": 510,
      "pa": 511,
      "erica": 512,
      "Ġle": 513,
      "Ġfaz": 514,
      "Ã§a": 515,
      "Ġcomprar": 516,
      "ncia": 517,
      "lo": 518,
      "ĠDE": 519,
      "Ġfi": 520,
      "Ġsuper": 521,
      "Ġimagem": 522,
      "Ġao": 523,
      "ĠV": 524,
      "feita": 525,
      "Ġnada": 526,
      "Ġmar": 527,
      "ez": 528,
      "DO": 529,
      "RO": 530,
      "Ġrecebi": 531,
      "ericanas": 532,
      "Ġsatis": 533,
      "que": 534,
      "Ġmelhor": 535,
      "oo": 536,
      "ĠsÃ³": 537,
      "ene": 538,
      "Ġcusto": 539,
      "ĠI": 540,
      "Ġprob": 541,
      "tal": 542,
      "RE": 543,
      "qui": 544,
      "Ġcar": 545,
      "ixa": 546,
      "ite": 547,
      "rou": 548,
      "ual": 549,
      "ĠÃ³tima": 550,
      "vi": 551,
      "ras": 552,
      "Ġcor": 553,
      "ĊĊ": 554,
      "Ġpa": 555,
      "ram": 556,
      "ess": 557,
      "xcelente": 558,
      "tos": 559,
      "ular": 560,
      "Ġfal": 561,
      "ada": 562,
      "kk": 563,
      "Ġpouco": 564,
      "Ġtenho": 565,
      "Ġexp": 566,
      "til": 567,
      "Ġar": 568,
      "Ġveio": 569,
      "ina": 570,
      "TE": 571,
      "Ã¢": 572,
      "Ġnao": 573,
      "ĠfÃ¡cil": 574,
      "dade": 575,
      "Ġvi": 576,
      "ĠG": 577,
      "ecta": 578,
      "Ġtudo": 579,
      "ompre": 580,
      "Ġesse": 581,
      "Ġpr": 582,
      "Ġuso": 583,
      "amento": 584,
      "isso": 585,
      "................": 586,
      "tico": 587,
      "ros": 588,
      "Ġsom": 589,
      "Ġh": 590,
      "con": 591,
      "Ġpes": 592,
      "indo": 593,
      "Ãĥ": 594,
      "Ġso": 595,
      "no": 596,
      "Ġfor": 597,
      "ÃĥO": 598,
      "Ġestou": 599,
      "omprei": 600,
      "inhas": 601,
      "les": 602,
      "tÃ£o": 603,
      "ĠestÃ¡": 604,
      "Ġass": 605,
      "teria": 606,
      "ĠRecomendo": 607,
      "!!!": 608,
      "ign": 609,
      "ena": 610,
      "Ġtra": 611,
      "elular": 612,
      "ectativ": 613,
      "ĠsÃ£o": 614,
      "DA": 615,
      "mera": 616,
      "Ãªncia": 617,
      "gue": 618,
      "gar": 619,
      "Ġdura": 620,
      "Ġcomprei": 621,
      "Ġpelo": 622,
      "Ġho": 623,
      "Ġtodos": 624,
      "na": 625,
      "ER": 626,
      "hos": 627,
      "ns": 628,
      "ĠÃī": 629,
      "Ġval": 630,
      "xxxx": 631,
      "Ġdias": 632,
      "Ġeste": 633,
      "mb": 634,
      "enh": 635,
      "fÃŃ": 636,
      "me": 637,
      "eiro": 638,
      "bil": 639,
      "mar": 640,
      "bri": 641,
      "iste": 642,
      "cas": 643,
      "Ġdos": 644,
      "Ġmarca": 645,
      "pen": 646,
      "ru": 647,
      "ĠrÃ¡pido": 648,
      "Ġquem": 649,
      "Ġli": 650,
      "Ġop": 651,
      "ĠrÃ¡pida": 652,
      "cis": 653,
      "bal": 654,
      "Ġexpectativ": 655,
      "Ġfica": 656,
      "Ġminhas": 657,
      "Ġ.": 658,
      "Ġcelular": 659,
      "vis": 660,
      "Ġver": 661,
      "Ġtempo": 662,
      "Ġra": 663,
      "oc": 664,
      "Ġmen": 665,
      "gora": 666,
      "osta": 667,
      "Ġdas": 668,
      "ÃŃvel": 669,
      "li": 670,
      "Ãĵ": 671,
      "TA": 672,
      "Muito": 673,
      "Ġtiv": 674,
      "Ġbateria": 675,
      "Ġfil": 676,
      "Ġbonito": 677,
      "Ġbene": 678,
      "Ġcas": 679,
      "ĠH": 680,
      "ĠQU": 681,
      "ur": 682,
      "ĠEs": 683,
      "Ã¡ri": 684,
      "Ġloja": 685,
      "pe": 686,
      "Ġisso": 687,
      "Ġvez": 688,
      "Ġcer": 689,
      "Ġfacil": 690,
      "ĠCOM": 691,
      "enta": 692,
      "ens": 693,
      "Ġusar": 694,
      "AS": 695,
      "ĠTV": 696,
      "Ġtamb": 697,
      "almente": 698,
      "ĠAm": 699,
      "lema": 700,
      "Ġquando": 701,
      "Ġnem": 702,
      "one": 703,
      "Ġespera": 704,
      "Ġprecis": 705,
      "eira": 706,
      "Ġproblema": 707,
      "tas": 708,
      "EM": 709,
      "Ġdis": 710,
      "Ġela": 711,
      "ON": 712,
      "Ġexpectativas": 713,
      "Ġsite": 714,
      "bilidade": 715,
      "NÃ£o": 716,
      "aa": 717,
      "fere": 718,
      "Ġagora": 719,
      "gi": 720,
      "Ġnenh": 721,
      "fÃŃcio": 722,
      "Ġinter": 723,
      "Ġalgu": 724,
      "Ġposs": 725,
      "ĠĠĠĠ": 726,
      "Ġdesign": 727,
      "Ġentregue": 728,
      "Ġcons": 729,
      "ior": 730,
      "por": 731,
      "Ġbas": 732,
      "Ġpar": 733,
      "Ġpela": 734,
      "Ġcab": 735,
      "ssi": 736,
      "inho": 737,
      "imento": 738,
      "tante": 739,
      "Ġpode": 740,
      "Ġoutra": 741,
      "tu": 742,
      "ch": 743,
      "deu": 744,
      "rem": 745,
      "Es": 746,
      "ocÃª": 747,
      "olo": 748,
      "mm": 749,
      "Ã¢mera": 750,
      "IS": 751,
      "com": 752,
      "AR": 753,
      "Ġconta": 754,
      "ĠtambÃ©m": 755,
      "Ãº": 756,
      "??": 757,
      "mento": 758,
      "Ġ4": 759,
      "Ġins": 760,
      "ES": 761,
      "Ġav": 762,
      "Ġti": 763,
      "ntre": 764,
      "Ġdev": 765,
      "Comprei": 766,
      "Ġven": 767,
      "Ãī": 768,
      "ita": 769,
      "et": 770,
      "lu": 771,
      "Ġtive": 772,
      "Ġq": 773,
      "ĠPRO": 774,
      "cab": 775,
      "gra": 776,
      "Ġperfeita": 777,
      "Ġtro": 778,
      "Ġutil": 779,
      "tura": 780,
      "elo": 781,
      "cado": 782,
      "Ġnec": 783,
      "ĠAmericanas": 784,
      "eu": 785,
      "IN": 786,
      "ĠJ": 787,
      "ni": 788,
      "ĠvocÃª": 789,
      "Ġch": 790,
      "mos": 791,
      "rande": 792,
      "Ġperfeito": 793,
      "MA": 794,
      "fica": 795,
      "lica": 796,
      "Ġpas": 797,
      "iza": 798,
      "quei": 799,
      "EL": 800,
      "Excelente": 801,
      "tivo": 802,
      "Ġpena": 803,
      "Ġreso": 804,
      "Ġden": 805,
      "AL": 806,
      "ITO": 807,
      "pois": 808,
      "OS": 809,
      "idades": 810,
      "je": 811,
      "Ġessa": 812,
      "tor": 813,
      "Ġcontra": 814,
      "ante": 815,
      "pon": 816,
      "rar": 817,
      "imples": 818,
      "Ġtela": 819,
      "Ġgrande": 820,
      "Ġdentro": 821,
      "ume": 822,
      "UTO": 823,
      "ĠcÃ¢mera": 824,
      "ĠMuito": 825,
      "enas": 826,
      "ela": 827,
      "mas": 828,
      "Ġpres": 829,
      "ĠÃº": 830,
      "anto": 831,
      "Ġnecess": 832,
      "ĠNÃĥO": 833,
      "inal": 834,
      "Ġtv": 835,
      "Ġsempre": 836,
      "Ġpoder": 837,
      "Ġpequ": 838,
      "tica": 839,
      "Ġsegu": 840,
      "Ġconfor": 841,
      "Ġsua": 842,
      "Ġera": 843,
      "DUTO": 844,
      "ome": 845,
      "Ġla": 846,
      "laÃ§Ã£o": 847,
      "vil": 848,
      "Ġacab": 849,
      "Ġfazer": 850,
      "Ġdu": 851,
      "Ġmui": 852,
      "Ġva": 853,
      "rim": 854,
      "OR": 855,
      "Gostei": 856,
      "Ġoutro": 857,
      "Ġfunciona": 858,
      "Ġrap": 859,
      "Ġpedi": 860,
      "ira": 861,
      "CA": 862,
      "manho": 863,
      "nto": 864,
      "01": 865,
      "omento": 866,
      "Ãĵtimo": 867,
      "cos": 868,
      "cidade": 869,
      "Ġproc": 870,
      "Ġpare": 871,
      "TI": 872,
      "Ġbastante": 873,
      "Ġru": 874,
      "Ġaval": 875,
      "Ġado": 876,
      "ĠQUE": 877,
      "aravil": 878,
      "Ġdefeito": 879,
      "ĠporÃ©m": 880,
      "Ġtec": 881,
      "ĠÃ¡": 882,
      "Ġcasa": 883,
      "Ġprevis": 884,
      "tado": 885,
      "Ġprodutos": 886,
      "forma": 887,
      "ss": 888,
      "Ġ\"": 889,
      "vo": 890,
      "quer": 891,
      "uma": 892,
      "ĠÃł": 893,
      "ĠprÃ¡": 894,
      "Ġtran": 895,
      "**": 896,
      "Ġestava": 897,
      "ntrega": 898,
      "Ġleve": 899,
      "ixo": 900,
      "EC": 901,
      "teri": 902,
      "Ġamericanas": 903,
      "Ġseu": 904,
      "Ġjogo": 905,
      "kkkk": 906,
      "tros": 907,
      "Ġembal": 908,
      "Ġcan": 909,
      "Ġfotos": 910,
      "Ġim": 911,
      "Ġrecla": 912,
      "Ġmomento": 913,
      "Ġconfi": 914,
      "Ã¡vel": 915,
      "aram": 916,
      "unca": 917,
      "Ġapenas": 918,
      "ĠES": 919,
      "Ġsatisfeito": 920,
      "IA": 921,
      "ĠPRODUTO": 922,
      "fici": 923,
      "aravilhos": 924,
      "DE": 925,
      "Ġsimples": 926,
      "fa": 927,
      "Ġnos": 928,
      "ais": 929,
      "Ġtamanho": 930,
      "jas": 931,
      "Ġach": 932,
      "!!!!!!!!": 933,
      "ĠbenefÃŃcio": 934,
      "bre": 935,
      "tivos": 936,
      "dimento": 937,
      "Ġdifere": 938,
      "Ãªs": 939,
      "Ġfra": 940,
      "Ġnas": 941,
      "Ãĩ": 942,
      "Ġsol": 943,
      "Ġprim": 944,
      "Ġporque": 945,
      "Ġmode": 946,
      "ercado": 947,
      "uper": 948,
      "las": 949,
      "tamente": 950,
      "Ġlindo": 951,
      "lem": 952,
      "Ġmanus": 953,
      "Ġ5": 954,
      "bÃ©": 955,
      "presa": 956,
      "gos": 957,
      "Ġpesso": 958,
      "bÃ©ns": 959,
      "Ġ10": 960,
      "gado": 961,
      "Ġsatisfeita": 962,
      "Ġtodas": 963,
      "Ġperf": 964,
      "gia": 965,
      "Ġnenhum": 966,
      "ir": 967,
      "Ġdemo": 968,
      "ĠÃĵ": 969,
      "Ã§as": 970,
      "Ġpossui": 971,
      "Ġsab": 972,
      "cios": 973,
      "Ġdiz": 974,
      "................................": 975,
      "Ġvol": 976,
      "ĠhÃ¡": 977,
      "Ġagu": 978,
      "Ġdevol": 979,
      "ĠCom": 980,
      "Ġmercado": 981,
      "ĠmÃ¡": 982,
      "Ġentra": 983,
      "Ġassim": 984,
      "lado": 985,
      "Ã©ssi": 986,
      "enda": 987,
      "nica": 988,
      "xxxxxxxx": 989,
      "guei": 990,
      "Ġcolo": 991,
      "quis": 992,
      "rio": 993,
      "bra": 994,
      "Ġfoto": 995,
      "Ã³ria": 996,
      "Ġassis": 997,
      "ĠNA": 998,
      "ĠMU": 999,
      "Ġvale": 1000,
      "net": 1001,
      "Ġconse": 1002,
      "sos": 1003,
      "Ġmaravilhos": 1004,
      "Ġdepois": 1005,
      "ĠalÃ©m": 1006,
      "Ġcois": 1007,
      ").": 1008,
      "Ġpon": 1009,
      "ĠProduto": 1010,
      "Ġ-": 1011,
      "ej": 1012,
      "Ġatra": 1013,
      "Ġlu": 1014,
      "essa": 1015,
      "Ġgra": 1016,
      "ini": 1017,
      "terial": 1018,
      "Ġotimo": 1019,
      "za": 1020,
      "Ġvis": 1021,
      "ĠfunÃ§Ãµes": 1022,
      "Ġmelho": 1023,
      "ARA": 1024,
      "tÃªncia": 1025,
      "Ġmem": 1026,
      "Ġespe": 1027,
      "rig": 1028,
      "Ġvai": 1029,
      "cul": 1030,
      "Ġinforma": 1031,
      "quina": 1032,
      "Ġmenos": 1033,
      "Ġqualquer": 1034,
      "ĠQu": 1035,
      "Ġja": 1036,
      "mais": 1037,
      "Ã³s": 1038,
      "Ġoutros": 1039,
      "Ġtrans": 1040,
      "ENTE": 1041,
      "Ġab": 1042,
      "Ġvezes": 1043,
      "Ġpoderia": 1044,
      "Ġmaior": 1045,
      "ll": 1046,
      "--": 1047,
      "ĠHD": 1048,
      "gan": 1049,
      "Ġhoje": 1050,
      "Ġvem": 1051,
      "mart": 1052,
      "EI": 1053,
      "Ġinc": 1054,
      "ficio": 1055,
      "Ġproblem": 1056,
      "Ġrealmente": 1057,
      "Ġfre": 1058,
      "Ġad": 1059,
      "Ġvc": 1060,
      "Ġruim": 1061,
      "Ġfalta": 1062,
      "pos": 1063,
      "Ġmon": 1064,
      "Ġ!": 1065,
      "Ġtele": 1066,
      "gens": 1067,
      "rr": 1068,
      "Ġcontato": 1069,
      "nn": 1070,
      "penho": 1071,
      "Ġespa": 1072,
      "ĠvÃ¡ri": 1073,
      "io": 1074,
      "Ġgosta": 1075,
      "cou": 1076,
      "Ġdeix": 1077,
      "Ġnunca": 1078,
      "Ġpresente": 1079,
      "Ġproblemas": 1080,
      "Ġachei": 1081,
      "ĠNada": 1082,
      "ii": 1083,
      "Ġimpre": 1084,
      "Ġencon": 1085,
      "Ġcontro": 1086,
      "CI": 1087,
      "Ġinternet": 1088,
      "ebi": 1089,
      "ĠCOMP": 1090,
      "Ġbara": 1091,
      "Ġdiver": 1092,
      "AN": 1093,
      "Ġimp": 1094,
      "ficiente": 1095,
      "ĠMUITO": 1096,
      "Ġvou": 1097,
      "Ġlimp": 1098,
      "empenho": 1099,
      "ac": 1100,
      "ici": 1101,
      "ĠprÃ¡tico": 1102,
      "oa": 1103,
      "uÃ§Ã£o": 1104,
      "izar": 1105,
      "cep": 1106,
      "Ġro": 1107,
      "Ġtinha": 1108,
      "Ġcha": 1109,
      "dro": 1110,
      "Ġempresa": 1111,
      "Ġatende": 1112,
      "Ãģ": 1113,
      "Ġ0": 1114,
      "izaÃ§Ã£o": 1115,
      "Ġten": 1116,
      "Ġperfume": 1117,
      "Ġcarre": 1118,
      "ĠMas": 1119,
      "ĠEstou": 1120,
      "Ġpedido": 1121,
      "Ġtroca": 1122,
      "cu": 1123,
      "ĠREC": 1124,
      "Ġfuncional": 1125,
      "Ġdois": 1126,
      "ook": 1127,
      "Ġpass": 1128,
      "veria": 1129,
      "Ġdeixa": 1130,
      "esso": 1131,
      "dar": 1132,
      "Ġaplica": 1133,
      "muito": 1134,
      "Ġsobre": 1135,
      "gua": 1136,
      "Ġseja": 1137,
      "Ġlojas": 1138,
      "tir": 1139,
      "Ġbar": 1140,
      "Ġcli": 1141,
      "Ġon": 1142,
      "Ġjogos": 1143,
      "esar": 1144,
      "Ġne": 1145,
      "tÃ©": 1146,
      "Ġusa": 1147,
      "Ġresol": 1148,
      "iar": 1149,
      "Ġw": 1150,
      "aaaa": 1151,
      "Ġdesempenho": 1152,
      "Ġanos": 1153,
      "Ġpequen": 1154,
      "nico": 1155,
      "produto": 1156,
      "ase": 1157,
      "id": 1158,
      "Ġvalor": 1159,
      "ĠNo": 1160,
      "Ġtrabal": 1161,
      "Ġgos": 1162,
      "Ġoutras": 1163,
      "Ġtodo": 1164,
      "ĠExcelente": 1165,
      "ĠW": 1166,
      "ĠtÃ£o": 1167,
      "ele": 1168,
      "Ġinte": 1169,
      "cional": 1170,
      "Ġdata": 1171,
      "ĠEN": 1172,
      "fer": 1173,
      "Ġrecur": 1174,
      "Recomendo": 1175,
      "deira": 1176,
      "ĠPara": 1177,
      "quiri": 1178,
      "Ġparte": 1179,
      "Eu": 1180,
      "Ġcomple": 1181,
      "oooo": 1182,
      "ĠPor": 1183,
      "Ġapres": 1184,
      "Ġinsta": 1185,
      "var": 1186,
      "ĊĊĊĊ": 1187,
      "Ã´": 1188,
      "Ġmuita": 1189,
      "ima": 1190,
      "),": 1191,
      "Ġaj": 1192,
      "Ġsen": 1193,
      "Ġatendeu": 1194,
      "cip": 1195,
      "inheiro": 1196,
      "Ġsur": 1197,
      "Ġbeneficio": 1198,
      "mmmm": 1199,
      "Ġfiz": 1200,
      "Ġmaterial": 1201,
      "tÃ¡vel": 1202,
      "Ġmeses": 1203,
      "Ġatendimento": 1204,
      "Ġesco": 1205,
      "eliz": 1206,
      "ic": 1207,
      "Ġmodelo": 1208,
      "Ġcapa": 1209,
      "Ġconsegu": 1210,
      "Ġmanuseio": 1211,
      "Ġprome": 1212,
      "entes": 1213,
      "sÃ£o": 1214,
      "Ġdesej": 1215,
      "dorei": 1216,
      "hone": 1217,
      "Ġcontrole": 1218,
      "eito": 1219,
      "ece": 1220,
      "ĠĠĠĠĠĠĠĠ": 1221,
      "ung": 1222,
      "Ġgara": 1223,
      "Ġnecessidades": 1224,
      "Ġconsi": 1225,
      "esse": 1226,
      "Ġprin": 1227,
      "via": 1228,
      "Ġprecisa": 1229,
      "Ã¡rio": 1230,
      "istema": 1231,
      "sung": 1232,
      "Ġdinheiro": 1233,
      "tiva": 1234,
      "Ġprevisto": 1235,
      "Ġparece": 1236,
      "IDA": 1237,
      "ĠpÃ©ssi": 1238,
      "ĠCON": 1239,
      "gil": 1240,
      "Ġforma": 1241,
      "Ġcorre": 1242,
      "Ġbaixo": 1243,
      "Ġcum": 1244,
      "Ġresp": 1245,
      "Ġauto": 1246,
      "Ġmim": 1247,
      "bi": 1248,
      "Ġarre": 1249,
      "cor": 1250,
      "Ġsendo": 1251,
      "veis": 1252,
      "Ġposso": 1253,
      "ps": 1254,
      "mail": 1255,
      "book": 1256,
      "Ġmanual": 1257,
      "Ġquer": 1258,
      "uu": 1259,
      "Ġficar": 1260,
      "istente": 1261,
      "rado": 1262,
      "Ġdecep": 1263,
      "Ġacabamento": 1264,
      "ĠUM": 1265,
      "Ġaguar": 1266,
      "ĠespaÃ§o": 1267,
      "Ġmoder": 1268,
      "Ġob": 1269,
      "dio": 1270,
      "Ġtanto": 1271,
      "Ġquase": 1272,
      "ĠmemÃ³ria": 1273,
      "Ġx": 1274,
      "HO": 1275,
      "Ġnota": 1276,
      "Ġcheg": 1277,
      "Ġdeveria": 1278,
      "MO": 1279,
      "Ġavaliar": 1280,
      "Ġcoisa": 1281,
      "Ġacess": 1282,
      "Ġenvi": 1283,
      "Ġcri": 1284,
      "ĠrelaÃ§Ã£o": 1285,
      "Ġnenhuma": 1286,
      "Ġindi": 1287,
      "Ġer": 1288,
      "Ġdemais": 1289,
      "Ġrecursos": 1290,
      "tem": 1291,
      "Ġotima": 1292,
      "ĠÃ¡gua": 1293,
      "ilen": 1294,
      "Ġcondi": 1295,
      "Ġ6": 1296,
      "Ġenca": 1297,
      "Ġficou": 1298,
      "ĠtÃ©": 1299,
      "Ġtotal": 1300,
      "Ġdele": 1301,
      "Com": 1302,
      "iÃ§Ã£o": 1303,
      "rin": 1304,
      "Ġduas": 1305,
      "Ġtoda": 1306,
      "ala": 1307,
      "Ġquanto": 1308,
      "Ġsim": 1309,
      "deo": 1310,
      "bene": 1311,
      "Chegou": 1312,
      "Ġdesc": 1313,
      "ĠdÃ¡": 1314,
      "AM": 1315,
      "pera": 1316,
      "nti": 1317,
      "ĠSuper": 1318,
      "ilencios": 1319,
      "ĠmÃªs": 1320,
      "Ġperfeitamente": 1321,
      "Ġhora": 1322,
      "Ġadquiri": 1323,
      "ĠCon": 1324,
      "ĠAp": 1325,
      "Ġdire": 1326,
      "Ġcaro": 1327,
      "ĠPARA": 1328,
      "ĠDO": 1329,
      "Ġmesma": 1330,
      "Ġsema": 1331,
      "ĠDes": 1332,
      "Ġreal": 1333,
      "ĠUS": 1334,
      "Ġcancel": 1335,
      "Estou": 1336,
      "Ġmaravilhoso": 1337,
      "Ġliv": 1338,
      "fone": 1339,
      "Ġorig": 1340,
      "ĠDe": 1341,
      "Entrega": 1342,
      "Um": 1343,
      "dia": 1344,
      "Ġsistema": 1345,
      "ĠvÃŃ": 1346,
      "gada": 1347,
      "Ġacho": 1348,
      "omenda": 1349,
      "Ġmelhores": 1350,
      "bo": 1351,
      "tador": 1352,
      "ĠEu": 1353,
      "Ġha": 1354,
      "QU": 1355,
      "brica": 1356,
      "Ġresolu": 1357,
      "Ġprincip": 1358,
      "Ġnova": 1359,
      "cal": 1360,
      "Ġdesejar": 1361,
      "201": 1362,
      "ĠtÃ©c": 1363,
      "OU": 1364,
      "Bom": 1365,
      "Ġche": 1366,
      "Ġprimeira": 1367,
      "Ġsei": 1368,
      "tido": 1369,
      "Ġlan": 1370,
      "Ġcont": 1371,
      "ff": 1372,
      "ecebi": 1373,
      "tando": 1374,
      "Ġatual": 1375,
      "Ġfora": 1376,
      "vv": 1377,
      "Ġresposta": 1378,
      "ĠAl": 1379,
      "Ġentreg": 1380,
      "Ġresistente": 1381,
      "Ġbarul": 1382,
      "Ġpequeno": 1383,
      "Ġbarato": 1384,
      "Ġecon": 1385,
      "torno": 1386,
      "Ġrespon": 1387,
      "sas": 1388,
      "Ġalto": 1389,
      "Ġembalado": 1390,
      "Ġfiquei": 1391,
      "Ġdemora": 1392,
      "GA": 1393,
      "tinho": 1394,
      "Ġeficiente": 1395,
      "tente": 1396,
      "????": 1397,
      "Ġfixa": 1398,
      "Ġcompara": 1399,
      "Ġcerto": 1400,
      "Ġaqu": 1401,
      "ĠSe": 1402,
      "lay": 1403,
      "Ġgaranti": 1404,
      "Ġalguns": 1405,
      "ĠJÃ¡": 1406,
      "ĠmÃ¡quina": 1407,
      "reÃ§o": 1408,
      "Ġaplicativos": 1409,
      "RI": 1410,
      "Ġcara": 1411,
      "Ġconforme": 1412,
      "ĠPo": 1413,
      "Ġsmart": 1414,
      "porte": 1415,
      "ine": 1416,
      "Ġtrava": 1417,
      "phone": 1418,
      "ĠresoluÃ§Ã£o": 1419,
      "Ġr": 1420,
      "ĠNO": 1421,
      "eza": 1422,
      "perou": 1423,
      "Ġnote": 1424,
      "0000": 1425,
      "Ġbonita": 1426,
      "Ġate": 1427,
      "Ġdar": 1428,
      "++": 1429,
      "Ġlinda": 1430,
      "ino": 1431,
      "teza": 1432,
      "GU": 1433,
      "Ġoriginal": 1434,
      "Ġcompro": 1435,
      "Ġeles": 1436,
      "Ġesperava": 1437,
      "Ġporta": 1438,
      "uda": 1439,
      "Ġonde": 1440,
      "Ġpessoas": 1441,
      "Ġ7": 1442,
      "Ġaqui": 1443,
      "Ġconfigu": 1444,
      "ale": 1445,
      "ĠSÃ³": 1446,
      "Ġtor": 1447,
      "oi": 1448,
      "ingu": 1449,
      "KK": 1450,
      "Ġcrian": 1451,
      "ĠparabÃ©ns": 1452,
      "Ġcamera": 1453,
      "rios": 1454,
      "du": 1455,
      "ĠEntrega": 1456,
      "Ġpl": 1457,
      "ari": 1458,
      "mi": 1459,
      "Ġrou": 1460,
      "Ġseus": 1461,
      "ENDO": 1462,
      "Ġgera": 1463,
      "Ġfalar": 1464,
      "nÃ£o": 1465,
      "rec": 1466,
      "let": 1467,
      "Ġsurpre": 1468,
      "Ġ8": 1469,
      "Ġdeu": 1470,
      "ĠMA": 1471,
      "Ġdigi": 1472,
      "lh": 1473,
      "Qu": 1474,
      "lha": 1475,
      "Ġmeus": 1476,
      "Ġpreciso": 1477,
      "ex": 1478,
      "ves": 1479,
      "agem": 1480,
      "cre": 1481,
      "mes": 1482,
      "Ġambi": 1483,
      "Ap": 1484,
      "ICA": 1485,
      "Ġfacilidade": 1486,
      "enho": 1487,
      "cido": 1488,
      "Ġdecepcion": 1489,
      "Ġanun": 1490,
      "Ã§os": 1491,
      "Ġcompac": 1492,
      "Ġdesse": 1493,
      "Ġchegar": 1494,
      "Ġagra": 1495,
      "Ġreclama": 1496,
      "rÃŃvel": 1497,
      "Ġreceber": 1498,
      "kkkkkkkk": 1499,
      "ĠEle": 1500,
      "Ġnega": 1501,
      "ĠentÃ£o": 1502,
      "Ġleg": 1503,
      ",,": 1504,
      "benefÃŃcio": 1505,
      "dando": 1506,
      "Ã©s": 1507,
      "ĠEM": 1508,
      "Ġsilencios": 1509,
      "Ġconhe": 1510,
      "Ġliga": 1511,
      "Ġesperado": 1512,
      "Ġmoderno": 1513,
      "sso": 1514,
      "Ġcerteza": 1515,
      "TRE": 1516,
      "Ġalta": 1517,
      "tes": 1518,
      "Ġvende": 1519,
      "Ġgosto": 1520,
      "Ġpu": 1521,
      "ĠBom": 1522,
      "inu": 1523,
      "Ġnovo": 1524,
      "Ġdurabilidade": 1525,
      "Ġdiferente": 1526,
      "ĠestÃ£o": 1527,
      "OL": 1528,
      "ĠNa": 1529,
      "Ġacon": 1530,
      "Ġprocessa": 1531,
      "Ġlig": 1532,
      "Ġdifi": 1533,
      "Ã¡s": 1534,
      "UN": 1535,
      "Ġmuitos": 1536,
      "Ġcaixa": 1537,
      "Ġcolocar": 1538,
      "Ġreclamar": 1539,
      "Ġningu": 1540,
      "Ġrecomenda": 1541,
      "tri": 1542,
      "Ġcomprado": 1543,
      "Ġponto": 1544,
      "Ġequi": 1545,
      "des": 1546,
      "Ġsuas": 1547,
      "lus": 1548,
      "Ġquero": 1549,
      "Ġpromete": 1550,
      "blet": 1551,
      "ualidade": 1552,
      "Ġpan": 1553,
      "nolo": 1554,
      "ĠfunÃ§Ã£o": 1555,
      "****": 1556,
      "ergia": 1557,
      "Ġestado": 1558,
      "ive": 1559,
      "ĠcartÃ£o": 1560,
      "Ġide": 1561,
      "Recebi": 1562,
      "Adorei": 1563,
      "ĠME": 1564,
      "ĠÃĵtimo": 1565,
      "Ġvolta": 1566,
      "ĠapÃ³s": 1567,
      "Ġsurpreen": 1568,
      "droid": 1569,
      "deos": 1570,
      "ĠinstalaÃ§Ã£o": 1571,
      "cer": 1572,
      "Ġfui": 1573,
      "OO": 1574,
      "ĠLG": 1575,
      "Ġcumpre": 1576,
      "Ġsai": 1577,
      "Ġano": 1578,
      "ĠassistÃªncia": 1579,
      "Ġaos": 1580,
      "ony": 1581,
      "ba": 1582,
      "ÃĩÃĥO": 1583,
      "fis": 1584,
      "Ġsatisfa": 1585,
      "corre": 1586,
      "IL": 1587,
      "ĠTem": 1588,
      "Ġarrepen": 1589,
      "ĠDA": 1590,
      "SS": 1591,
      "Ġnotebook": 1592,
      "HA": 1593,
      "Ġcliente": 1594,
      "ĠprÃ³": 1595,
      "Ġsomente": 1596,
      "Ġgarantia": 1597,
      "ĠComprei": 1598,
      "Ġindico": 1599,
      "ĠIN": 1600,
      "Ġsaber": 1601,
      "Ġrapida": 1602,
      "Ġconsegui": 1603,
      "Ġfabrica": 1604,
      "amsung": 1605,
      "IDADE": 1606,
      "Ġcu": 1607,
      "Ġseria": 1608,
      "ĠAs": 1609,
      "dendo": 1610,
      "Ġante": 1611,
      "Ġimagens": 1612,
      "Ġprocura": 1613,
      "ĠvÃ¡rios": 1614,
      "eram": 1615,
      "para": 1616,
      "Ġtipo": 1617,
      "Ġcada": 1618,
      "Ġcabo": 1619,
      "Ġenergia": 1620,
      "Ġigu": 1621,
      "Ġcabe": 1622,
      "Ġvia": 1623,
      "Ġadorei": 1624,
      "Ġsemana": 1625,
      "Ġcome": 1626,
      "ĠopÃ§Ã£o": 1627,
      "vado": 1628,
      "pas": 1629,
      "mei": 1630,
      "ĠChegou": 1631,
      "bb": 1632,
      "Ġprincipalmente": 1633,
      "Ġmuitas": 1634,
      "Ġopera": 1635,
      "ĠSE": 1636,
      "Ġtrabalho": 1637,
      "raÃ§Ã£o": 1638,
      "ĠSamsung": 1639,
      "ĠfixaÃ§Ã£o": 1640,
      "imo": 1641,
      "Ġinstal": 1642,
      "xxxxxxxxxxxxxxxx": 1643,
      "Ġir": 1644,
      "quanto": 1645,
      "Ġapro": 1646,
      "IM": 1647,
      "lhos": 1648,
      "ĠEX": 1649,
      "Ġapresenta": 1650,
      "Ġtecnolo": 1651,
      "US": 1652,
      "Ġfos": 1653,
      "gg": 1654,
      "Ġquebra": 1655,
      "Ġtelefone": 1656,
      "Ġconsum": 1657,
      "Ġk": 1658,
      "ĠpeÃ§as": 1659,
      "Ġtes": 1660,
      "Ġtrocar": 1661,
      "pamento": 1662,
      "umo": 1663,
      "Ġespeci": 1664,
      "dido": 1665,
      "ĠBOM": 1666,
      "Ġlegal": 1667,
      "Ġfilho": 1668,
      "zz": 1669,
      "Ġ...": 1670,
      "Ġavalia": 1671,
      "har": 1672,
      "Ġembalagem": 1673,
      "----": 1674,
      "ee": 1675,
      "osa": 1676,
      "Ġhoras": 1677,
      "Ġexper": 1678,
      "Ġpesquis": 1679,
      "Ġservi": 1680,
      "Ġcaso": 1681,
      "ĠUm": 1682,
      "ĠGostei": 1683,
      "Ġvari": 1684,
      "sti": 1685,
      "Ġdessa": 1686,
      "Ġvelo": 1687,
      "cha": 1688,
      "Ġlivro": 1689,
      "ing": 1690,
      "ĠdevoluÃ§Ã£o": 1691,
      "dei": 1692,
      "ĠconfortÃ¡vel": 1693,
      "Ġ100": 1694,
      "cho": 1695,
      "trei": 1696,
      "Ġfilha": 1697,
      "!!!!!!!!!!!!!!!!": 1698,
      "Ġref": 1699,
      "rrrr": 1700,
      "Ġgela": 1701,
      "OMENDO": 1702,
      "Ġpaguei": 1703,
      "vido": 1704,
      "Ġfeito": 1705,
      "chei": 1706,
      "Ã³gi": 1707,
      "rasil": 1708,
      "ĠSem": 1709,
      "Ġcorrei": 1710,
      "dica": 1711,
      "Ġrapido": 1712,
      "Ġconsigo": 1713,
      "Ã¢ncia": 1714,
      "2018": 1715,
      "ĠvÃ¡rias": 1716,
      "Ġfrete": 1717,
      "Ġconsumido": 1718,
      "izado": 1719,
      "Ġbrin": 1720,
      "oria": 1721,
      "Ġlogo": 1722,
      "Ġenquanto": 1723,
      "Ġigual": 1724,
      "ide": 1725,
      "it": 1726,
      "Ġtablet": 1727,
      "Ġexa": 1728,
      "unto": 1729,
      "elizmente": 1730,
      "ĠENTRE": 1731,
      "Ġbol": 1732,
      "vos": 1733,
      "mal": 1734,
      "ĠpÃ©ssima": 1735,
      "Ġideal": 1736,
      "Ġesqu": 1737,
      "ĠninguÃ©m": 1738,
      "ad": 1739,
      "Ġencontra": 1740,
      "ĠUMA": 1741,
      "Ġdeste": 1742,
      "Ġcompu": 1743,
      "pri": 1744,
      "inado": 1745,
      "Ġ15": 1746,
      "Ġlugar": 1747,
      "Ġcarrega": 1748,
      "Ġtecnologia": 1749,
      "ĠtÃ©cnica": 1750,
      "magem": 1751,
      "Ġinteres": 1752,
      "Ġdizer": 1753,
      "ĠÃ³ti": 1754,
      "Ġobri": 1755,
      "dito": 1756,
      "Ġpassa": 1757,
      "has": 1758,
      "igo": 1759,
      "zinha": 1760,
      "Ġapesar": 1761,
      "tendeu": 1762,
      "llll": 1763,
      "elente": 1764,
      "nis": 1765,
      "CO": 1766,
      "Ġretorno": 1767,
      "Ġsimplesmente": 1768,
      "ifi": 1769,
      "los": 1770,
      "Ġmeio": 1771,
      "Ġjogar": 1772,
      "Ġabri": 1773,
      "Ġfosse": 1774,
      "Ġimag": 1775,
      "vol": 1776,
      "Ġofere": 1777,
      "Ġremo": 1778,
      "TRA": 1779,
      "Ġpotente": 1780,
      "Ġsolici": 1781,
      "felizmente": 1782,
      "Ġ12": 1783,
      "Para": 1784,
      "Ġalgo": 1785,
      "Ġexiste": 1786,
      "Ġcompleto": 1787,
      "nnnn": 1788,
      "be": 1789,
      "Ġsilencioso": 1790,
      "ciona": 1791,
      "Ġparc": 1792,
      "Ġnor": 1793,
      "ĠPRE": 1794,
      "Ġet": 1795,
      "................................................................": 1796,
      "ĠfrÃ¡": 1797,
      "oss": 1798,
      "Ġopini": 1799,
      "ĠÃºnico": 1800,
      "ĠAlÃ©m": 1801,
      "Ġdisso": 1802,
      "tui": 1803,
      "Ġamei": 1804,
      "pu": 1805,
      "ĠEn": 1806,
      "ĠutilizaÃ§Ã£o": 1807,
      "tagem": 1808,
      "trema": 1809,
      "Ġdesta": 1810,
      "ĠUSB": 1811,
      "Ġdigital": 1812,
      "Ġengan": 1813,
      "Ġetc": 1814,
      "Ġverdade": 1815,
      "ĠCOMPRA": 1816,
      "Ġdescri": 1817,
      "JÃ¡": 1818,
      "ĠTEM": 1819,
      "Ġambiente": 1820,
      "pan": 1821,
      "arelho": 1822,
      "Ġpratico": 1823,
      "Ġcapacidade": 1824,
      "Ġvelocidade": 1825,
      "Ġesti": 1826,
      "Ġalgumas": 1827,
      "Ġusei": 1828,
      "Ġaguardando": 1829,
      "ne": 1830,
      "sion": 1831,
      "Ġcabelo": 1832,
      "ge": 1833,
      "Ġencontrei": 1834,
      "Ġpq": 1835,
      "Ġprote": 1836,
      "ĠduraÃ§Ã£o": 1837,
      "ĠDesign": 1838,
      "Ġteclado": 1839,
      "Ġtotalmente": 1840,
      "Ġcontinu": 1841,
      "ĠAP": 1842,
      "Ġcol": 1843,
      "Ġacesso": 1844,
      "Ġqueria": 1845,
      "Ġmarcas": 1846,
      "Ġpequena": 1847,
      "Ġcomb": 1848,
      "Ġequipamento": 1849,
      "ĠÃłs": 1850,
      "ĠAinda": 1851,
      "este": 1852,
      "vida": 1853,
      "ĠDES": 1854,
      "ĠIn": 1855,
      "lar": 1856,
      "Ġtranspor": 1857,
      "Ġprocessador": 1858,
      "ĠLo": 1859,
      "entar": 1860,
      "ĠPOR": 1861,
      "Ġ30": 1862,
      "XX": 1863,
      "ĠNenh": 1864,
      "Ġjoga": 1865,
      "Ġama": 1866,
      "Ġeconom": 1867,
      "Ã§ao": 1868,
      "Ġcompacto": 1869,
      "ĠBoa": 1870,
      "Ġdesde": 1871,
      "Ġ20": 1872,
      "peito": 1873,
      "Ġmin": 1874,
      "mou": 1875,
      "ĠgrÃ¡": 1876,
      "Ġbarulho": 1877,
      "ÃŃssi": 1878,
      "ĠMAIS": 1879,
      "ĠFA": 1880,
      "Ġajuda": 1881,
      "Ġcomputador": 1882,
      "hh": 1883,
      "ĠQUAL": 1884,
      "aaaaaaaa": 1885,
      "Ġsuperou": 1886,
      "tencia": 1887,
      "ĠvocÃªs": 1888,
      "Ġaconte": 1889,
      "ora": 1890,
      "Ġ9": 1891,
      "MI": 1892,
      "ensa": 1893,
      "ĠPRA": 1894,
      "iquei": 1895,
      "excelente": 1896,
      "Ġnovamente": 1897,
      "Ġforte": 1898,
      "Ġgeral": 1899,
      "Ġcur": 1900,
      "Ġfam": 1901,
      "udio": 1902,
      "aria": 1903,
      "Ġanti": 1904,
      "ĠRECOMENDO": 1905,
      "Ġaquis": 1906,
      "Ġfeita": 1907,
      "ĠFa": 1908,
      "Ġgas": 1909,
      "Ġalgum": 1910,
      "AA": 1911,
      "ĠNADA": 1912,
      "Ġconsumo": 1913,
      "Ġlon": 1914,
      "ĠdÃº": 1915,
      "ĠAtÃ©": 1916,
      "Ġras": 1917,
      "elho": 1918,
      "dem": 1919,
      "Ġutilizar": 1920,
      "ĠDI": 1921,
      "mmmmmmmm": 1922,
      "Ġligar": 1923,
      "mpa": 1924,
      "Ġsuporte": 1925,
      "como": 1926,
      "ximo": 1927,
      "ĠSA": 1928,
      "Ġdef": 1929,
      "Ġprimeiro": 1930,
      "Ġchega": 1931,
      "tÃµes": 1932,
      "REI": 1933,
      "timento": 1934,
      "Ġseca": 1935,
      "Ġvendedor": 1936,
      "ĠopiniÃ£o": 1937,
      "Ġexperi": 1938,
      "Ġdela": 1939,
      "ĠcondiÃ§Ãµes": 1940,
      "fission": 1941,
      "Ġtelevis": 1942,
      "Ġusando": 1943,
      "ĠComo": 1944,
      "ĠQuando": 1945,
      "ula": 1946,
      "Ġposi": 1947,
      "ĠParabÃ©ns": 1948,
      "ĠAn": 1949,
      "dd": 1950,
      "Ġdificul": 1951,
      "Ġcores": 1952,
      "Ġamig": 1953,
      "ĠfrÃ¡gil": 1954,
      "EB": 1955,
      "ED": 1956,
      "Ġfis": 1957,
      "Ġban": 1958,
      "pro": 1959,
      "Ġmos": 1960,
      "Ġnormal": 1961,
      "Ġestra": 1962,
      "tÃ³": 1963,
      "Ġvida": 1964,
      "ÃŃveis": 1965,
      "ficos": 1966,
      "ENTO": 1967,
      "ĠPO": 1968,
      "Ġlimpar": 1969,
      "ĊĊĊĊĊĊĊĊ": 1970,
      "CEL": 1971,
      "rando": 1972,
      "eiros": 1973,
      "Ġpessoa": 1974,
      "Ġinstalar": 1975,
      "tremamente": 1976,
      "Ġfilmes": 1977,
      "iiii": 1978,
      "Ġhor": 1979,
      "Ġsi": 1980,
      "Ġconex": 1981,
      "SA": 1982,
      "Ġdiferen": 1983,
      "Ġfuncionar": 1984,
      "Ġdispon": 1985,
      "ĠMo": 1986,
      "Ġaparelhos": 1987,
      "ĠAT": 1988,
      "Ãĵtima": 1989,
      "Ġentrada": 1990,
      "Ġchi": 1991,
      "Ġlimpeza": 1992,
      "gostei": 1993,
      "Ġ!!!": 1994,
      "ĠmÃ£": 1995,
      "Ġacom": 1996,
      "Ġmenor": 1997,
      "Ġbus": 1998,
      "ero": 1999,
      "gr": 2000,
      "Ġlava": 2001,
      "recomendo": 2002,
      "ĠAM": 2003,
      "ĠFO": 2004,
      "Ġtirar": 2005,
      "oooooooo": 2006,
      "emb": 2007,
      "ĠPreÃ§o": 2008,
      "Ġmal": 2009,
      "Ġesc": 2010,
      "Ġdetal": 2011,
      "Na": 2012,
      "ĠaquisiÃ§Ã£o": 2013,
      "12": 2014,
      "cionado": 2015,
      "Ġvir": 2016,
      "Ġarma": 2017,
      "cter": 2018,
      "Ġpossi": 2019,
      "Ġlinha": 2020,
      "ĠOs": 2021,
      "Ġcompre": 2022,
      "mada": 2023,
      "Ġcarro": 2024,
      "fÃŃcil": 2025,
      "Ġques": 2026,
      "ĠpossÃŃvel": 2027,
      "den": 2028,
      "fim": 2029,
      "nda": 2030,
      "ck": 2031,
      "icro": 2032,
      "Ġsinal": 2033,
      "LA": 2034,
      "Ġtr": 2035,
      "ĠTO": 2036,
      "Ġprevista": 2037,
      "Ġboas": 2038,
      "Ġdisse": 2039,
      "lig": 2040,
      "ĠdescriÃ§Ã£o": 2041,
      "at": 2042,
      "Ġade": 2043,
      "Ġtb": 2044,
      "idez": 2045,
      "inas": 2046,
      "essi": 2047,
      "mite": 2048,
      "Ġconsumidor": 2049,
      "pra": 2050,
      "Ġsou": 2051,
      "LE": 2052,
      "Ġfinal": 2053,
      "Ġfuncionando": 2054,
      "Ġnoite": 2055,
      "ĠSu": 2056,
      "03": 2057,
      "Ġconec": 2058,
      "Ġporem": 2059,
      "Ġbaixa": 2060,
      "Ġanuncia": 2061,
      "Ġacor": 2062,
      "Ã³gio": 2063,
      "ĠNenhum": 2064,
      "ple": 2065,
      "how": 2066,
      "Ġgam": 2067,
      "Ġestar": 2068,
      "Ġcuida": 2069,
      "Ġsof": 2070,
      "Ġfuncionalidades": 2071,
      "Ġpossu": 2072,
      "rada": 2073,
      "Ġfato": 2074,
      "nister": 2075,
      "ĠFÃ¡cil": 2076,
      "nta": 2077,
      "Ġtempera": 2078,
      "Ġmul": 2079,
      "Ġluz": 2080,
      "Ġpens": 2081,
      "elhor": 2082,
      "tru": 2083,
      "ticidade": 2084,
      "Ġvo": 2085,
      "ĠVale": 2086,
      "Ġcomprem": 2087,
      "Ainda": 2088,
      "ware": 2089,
      "ĠPro": 2090,
      "entou": 2091,
      "Ġmanuse": 2092,
      "ĠvÃŃdeo": 2093,
      "respon": 2094,
      "Ġcontras": 2095,
      "Ġimpress": 2096,
      "Ġprogra": 2097,
      "Ġprofission": 2098,
      "Ã³timo": 2099,
      "Ġexatamente": 2100,
      "Ġimpor": 2101,
      "ĠavaliaÃ§Ã£o": 2102,
      "Ġrespeito": 2103,
      "Ġdevido": 2104,
      "ĠÃºtil": 2105,
      "hil": 2106,
      "plo": 2107,
      "ĠMe": 2108,
      "ĠSU": 2109,
      "dida": 2110,
      "tade": 2111,
      "ĠSony": 2112,
      "VA": 2113,
      "Ġfeliz": 2114,
      "Ġfuncionou": 2115,
      "rito": 2116,
      "ĠX": 2117,
      "Ġcal": 2118,
      "satis": 2119,
      "Amei": 2120,
      "ĠpÃ©ssimo": 2121,
      "Ġtemperatura": 2122,
      "ĠBa": 2123,
      "Ġdeve": 2124,
      "Ġcam": 2125,
      "Ġquis": 2126,
      "Ġsmartphone": 2127,
      "ĠPer": 2128,
      "ĠmÃº": 2129,
      "ĠEm": 2130,
      "tende": 2131,
      "Ġinterna": 2132,
      "ĠcrianÃ§as": 2133,
      "ĠĠĠĠĠĠĠĠĠĠĠĠĠĠĠĠ": 2134,
      "Ġcertinho": 2135,
      "Ġmodo": 2136,
      "tendo": 2137,
      "ĠÃĵtima": 2138,
      "Ġvcs": 2139,
      "ĠQUALIDADE": 2140,
      "Ġadorou": 2141,
      "Ġacompan": 2142,
      "Ġnegativo": 2143,
      "ila": 2144,
      "dap": 2145,
      "ĠAN": 2146,
      "Ġlannister": 2147,
      "tanto": 2148,
      "Ġusado": 2149,
      "VE": 2150,
      "Ġfan": 2151,
      "ĠQualidade": 2152,
      "Ġcoisas": 2153,
      "Ġimpresso": 2154,
      "Ġhavia": 2155,
      "ncio": 2156,
      "Ġcaus": 2157,
      "Ġasp": 2158,
      "Ġemail": 2159,
      "ĠmÃ£o": 2160,
      "ĠLe": 2161,
      "Ġcaracter": 2162,
      "Ġremoto": 2163,
      "undo": 2164,
      "No": 2165,
      "elas": 2166,
      "04": 2167,
      "zen": 2168,
      "ĠCH": 2169,
      "Ġutiliz": 2170,
      "cial": 2171,
      "Ġnave": 2172,
      "Ġfacilita": 2173,
      "vvvv": 2174,
      "Ġfiscal": 2175,
      "Ġfone": 2176,
      "Ġbons": 2177,
      "ĠUma": 2178,
      "UM": 2179,
      "jj": 2180,
      "Ġpratica": 2181,
      "Ġficam": 2182,
      "ĠNAO": 2183,
      "ws": 2184,
      "TIMO": 2185,
      "Ġquan": 2186,
      "comprei": 2187,
      ".....": 2188,
      "ĠOU": 2189,
      "duz": 2190,
      "Ġesquenta": 2191,
      "GO": 2192,
      "th": 2193,
      "Ġpaga": 2194,
      "Ġson": 2195,
      "Ġfraco": 2196,
      "SE": 2197,
      "cimento": 2198,
      "Ġreti": 2199,
      "Ġmanda": 2200,
      "INHA": 2201,
      "ĠAndroid": 2202,
      "Ġbaix": 2203,
      "Ġamigos": 2204,
      "cias": 2205,
      "Como": 2206,
      "Ġregu": 2207,
      "Ġrel": 2208,
      "Ġmontar": 2209,
      "Ġqueb": 2210,
      "ĠRECEB": 2211,
      "Ġquar": 2212,
      "ĠanÃº": 2213,
      "Ġnecessidade": 2214,
      "Ġforn": 2215,
      "Ġextremamente": 2216,
      "Ġentregar": 2217,
      "ses": 2218,
      "onito": 2219,
      "ĠdifÃŃcil": 2220,
      "Ġesperando": 2221,
      "gante": 2222,
      "xy": 2223,
      "Ġpla": 2224,
      "Ġrapidez": 2225,
      "Ġadap": 2226,
      "Ġgu": 2227,
      "tadora": 2228,
      "Ġadquirir": 2229,
      "ĠRe": 2230,
      "Ġmercadoria": 2231,
      "Ġcozinha": 2232,
      "bom": 2233,
      "tida": 2234,
      "ĠK": 2235,
      "lara": 2236,
      "Ġdescon": 2237,
      "taÃ§Ã£o": 2238,
      "Ġmaquina": 2239,
      "Ġpassar": 2240,
      "dente": 2241,
      "play": 2242,
      "Ġino": 2243,
      "Boa": 2244,
      "Ġinves": 2245,
      "Ġbeb": 2246,
      "Ġlim": 2247,
      "Ġforno": 2248,
      "Quando": 2249,
      "ostaria": 2250,
      "Ġcarregar": 2251,
      "Ġuns": 2252,
      "Ġdevolver": 2253,
      "Ġdeixar": 2254,
      "sur": 2255,
      "EITO": 2256,
      "Super": 2257,
      "Ġil": 2258,
      "anÃ§a": 2259,
      "Ġentrar": 2260,
      "Ġentregaram": 2261,
      "Ġlev": 2262,
      "Ġnum": 2263,
      "ron": 2264,
      "Ġbri": 2265,
      "ĠTudo": 2266,
      "ĠvÃŃdeos": 2267,
      "++++": 2268,
      "Ġvideo": 2269,
      "Ġcheiro": 2270,
      "Ġacordo": 2271,
      "Ġresolver": 2272,
      "ĠanÃºncio": 2273,
      "dÃ¡vel": 2274,
      "Ġinteress": 2275,
      "fetu": 2276,
      "Ġpermite": 2277,
      "Ġsin": 2278,
      "Ġok": 2279,
      "Ġexpectativa": 2280,
      "Ġtop": 2281,
      "Ġmaravilhosa": 2282,
      "ĠcomeÃ§": 2283,
      "fia": 2284,
      "Ġgan": 2285,
      "ĠprÃ¡tica": 2286,
      "Ġerrado": 2287,
      "CELENTE": 2288,
      "ĠbotÃµes": 2289,
      "ĠObri": 2290,
      "Ġindica": 2291,
      "Ġcompras": 2292,
      "Ġdireito": 2293,
      "tidade": 2294,
      "ÃĩO": 2295,
      "PS": 2296,
      "lusive": 2297,
      "ĠserviÃ§o": 2298,
      "ĠMa": 2299,
      "EG": 2300,
      "ico": 2301,
      "Ġmanusear": 2302,
      "De": 2303,
      "Ġprog": 2304,
      "ĠSEM": 2305,
      "Ġresul": 2306,
      "xa": 2307,
      "Ġtenha": 2308,
      "Ġfabricante": 2309,
      "sem": 2310,
      "Ġdor": 2311,
      "lue": 2312,
      "Ġacre": 2313,
      "Ġgostaria": 2314,
      "ĠpeÃ§a": 2315,
      "Ġlin": 2316,
      "oso": 2317,
      "deria": 2318,
      "KKKK": 2319,
      "Ġpen": 2320,
      "ĠImagem": 2321,
      "ĠÃºnica": 2322,
      "FI": 2323,
      "Ġ201": 2324,
      "Ġmostra": 2325,
      "ĠRES": 2326,
      "Ġmicro": 2327,
      "ĠimpressÃ£o": 2328,
      "esta": 2329,
      "Ġreais": 2330,
      "lash": 2331,
      "ven": 2332,
      "ĠPER": 2333,
      "Ġvisual": 2334,
      "UL": 2335,
      "20": 2336,
      "gando": 2337,
      "Ġexter": 2338,
      "ĠatenÃ§Ã£o": 2339,
      "gÃ£o": 2340,
      "teis": 2341,
      "Ġespecifica": 2342,
      "cc": 2343,
      "Ġfer": 2344,
      "Ã©ri": 2345,
      "ceu": 2346,
      "usta": 2347,
      "Ġtal": 2348,
      "Ġpouca": 2349,
      "Ġanunciado": 2350,
      "Ġtou": 2351,
      "ranÃ§a": 2352,
      "ĠEU": 2353,
      "Ġexcelentes": 2354,
      "ĠplÃ¡s": 2355,
      "antes": 2356,
      "Ġpior": 2357,
      "Ġvenda": 2358,
      "ficador": 2359,
      "lia": 2360,
      "Ġconsta": 2361,
      "vor": 2362,
      "Ġcorreios": 2363,
      "ĠopÃ§Ãµes": 2364,
      "INDA": 2365,
      "ICAN": 2366,
      "Ġfu": 2367,
      "000": 2368,
      "Ġpraticidade": 2369,
      "MENTE": 2370,
      "Ġfec": 2371,
      "Ġescolha": 2372,
      "Ġlevar": 2373,
      "CION": 2374,
      "Ġconside": 2375,
      "ap": 2376,
      "Ġdeci": 2377,
      "teira": 2378,
      "ĠacessÃŃvel": 2379,
      "ĠrelÃ³gio": 2380,
      "00000000": 2381,
      "ĠTo": 2382,
      "Con": 2383,
      "TRO": 2384,
      "ĠpotÃªncia": 2385,
      "pagan": 2386,
      "ĠincrÃŃvel": 2387,
      "tive": 2388,
      "Ġcoloca": 2389,
      "Ġassistir": 2390,
      "Ġwi": 2391,
      "Uma": 2392,
      "Ġaci": 2393,
      "ador": 2394,
      "Ġatraso": 2395,
      "Ġaber": 2396,
      "Ġimpressora": 2397,
      "vers": 2398,
      "Ġexem": 2399,
      "indows": 2400,
      "vÃ©s": 2401,
      "ERICAN": 2402,
      "Ġarmazen": 2403,
      "Ãį": 2404,
      "Ġusu": 2405,
      "Ġul": 2406,
      "ĠSmart": 2407,
      "Ġarqui": 2408,
      "Ġdurante": 2409,
      "Ġdesli": 2410,
      "Ġperc": 2411,
      "ĠbotÃ£o": 2412,
      "Ġdeixou": 2413,
      "11": 2414,
      "Ġsensa": 2415,
      "ĠreclamaÃ§Ã£o": 2416,
      "Ġmedo": 2417,
      "Meu": 2418,
      "Ġcen": 2419,
      "Ġlei": 2420,
      "ĠinformaÃ§Ãµes": 2421,
      "Esse": 2422,
      "rigera": 2423,
      "Ġbase": 2424,
      "ĠprÃ³p": 2425,
      "Ġpagar": 2426,
      "Ġperfeitas": 2427,
      "Ġlado": 2428,
      "sicas": 2429,
      "ĠconfiguraÃ§Ã£o": 2430,
      "18": 2431,
      "Ġcontar": 2432,
      "ramas": 2433,
      "Ġvolume": 2434,
      "Ġtransportadora": 2435,
      "Ġprograma": 2436,
      "entre": 2437,
      "Ġquantidade": 2438,
      "tt": 2439,
      "laro": 2440,
      "Ġchama": 2441,
      "ecedor": 2442,
      "Ġroupa": 2443,
      "SÃ³": 2444,
      "ĠAS": 2445,
      "ĠBrasil": 2446,
      "Ġelegante": 2447,
      "Ġestipu": 2448,
      "ĠAMERICAN": 2449,
      "Ġpodem": 2450,
      "mico": 2451,
      "paganda": 2452,
      "cao": 2453,
      "Ġenvia": 2454,
      "Ġdemorou": 2455,
      "Ġdificuldade": 2456,
      "Ġtouch": 2457,
      "Ġinsatis": 2458,
      "ĠCA": 2459,
      "ĠOu": 2460,
      "Ġmundo": 2461,
      "gou": 2462,
      "caria": 2463,
      "Ġfio": 2464,
      "encia": 2465,
      "cula": 2466,
      "Otimo": 2467,
      "tÃ³ria": 2468,
      "Ġfino": 2469,
      "Ġga": 2470,
      "Ġjeito": 2471,
      "ĠcrianÃ§a": 2472,
      "vas": 2473,
      "ĠTa": 2474,
      "Ġespero": 2475,
      "Ġinfer": 2476,
      "Ġimagina": 2477,
      "uuuu": 2478,
      "Ġshow": 2479,
      "RIA": 2480,
      "ffff": 2481,
      "ĠAdorei": 2482,
      "tÃ³rio": 2483,
      "OJ": 2484,
      "Ġjunto": 2485,
      "gas": 2486,
      "otimo": 2487,
      "ĠHDMI": 2488,
      "ĠconexÃ£o": 2489,
      "ull": 2490,
      "Ġcorreto": 2491,
      "ĠRec": 2492,
      "kkkkkkkkkkkkkkkk": 2493,
      "02": 2494,
      "Sem": 2495,
      "Ġrela": 2496,
      "Ġprom": 2497,
      "Ġgeladeira": 2498,
      "rola": 2499,
      "assa": 2500,
      "SO": 2501,
      "xima": 2502,
      "Ġescolh": 2503,
      "Ġesto": 2504,
      "IX": 2505,
      "ssion": 2506,
      "Ġjogabilidade": 2507,
      "Ġ:": 2508,
      "Ġquarto": 2509,
      "Ġsal": 2510,
      "Ġcuidado": 2511,
      "Ġcel": 2512,
      "ĠEx": 2513,
      "Ġpeso": 2514,
      "amos": 2515,
      "DI": 2516,
      "Ġforam": 2517,
      "Ġris": 2518,
      "Ġbla": 2519,
      "grÃ¢ncia": 2520,
      "Minha": 2521,
      "tera": 2522,
      "Ġor": 2523,
      "Ġencaix": 2524,
      "Ġminuto": 2525,
      "entÃ¡": 2526,
      "TOU": 2527,
      "Ġefetu": 2528,
      "Ġpil": 2529,
      "tr": 2530,
      "Ġsegundo": 2531,
      "lega": 2532,
      "ĠENTREGA": 2533,
      "ĠAMERICANAS": 2534,
      "ERA": 2535,
      "Tudo": 2536,
      "zinho": 2537,
      "too": 2538,
      "Al": 2539,
      "ĠAL": 2540,
      "Ġ16": 2541,
      "dores": 2542,
      "Ġun": 2543,
      "ARE": 2544,
      "Tenho": 2545,
      "ĠPe": 2546,
      "Ġmemoria": 2547,
      "Ġgrava": 2548,
      "Ġentregou": 2549,
      "????????": 2550,
      "fun": 2551,
      "Ġprop": 2552,
      "10": 2553,
      "Ġdan": 2554,
      "Ġexemplo": 2555,
      "ones": 2556,
      "ĠdiferenÃ§a": 2557,
      "ĠBO": 2558,
      "Este": 2559,
      "Ġguar": 2560,
      "Se": 2561,
      "zoom": 2562,
      "Ġestipulado": 2563,
      "COM": 2564,
      "itor": 2565,
      "Ġexelente": 2566,
      "son": 2567,
      "Ġalem": 2568,
      "Ġcorrespon": 2569,
      "Ġdecidi": 2570,
      "Ġmto": 2571,
      "Ġintui": 2572,
      "Ġapresentou": 2573,
      "PRE": 2574,
      "Ġnesse": 2575,
      "Ġtambem": 2576,
      "ossui": 2577,
      "Ġcartu": 2578,
      "ĠRECEBI": 2579,
      "luetoo": 2580,
      "riz": 2581,
      "Ġpontos": 2582,
      "Ġvidro": 2583,
      "Ġsegunda": 2584,
      "ĠLojas": 2585,
      "ĠfÃ¡": 2586,
      "Ġbor": 2587,
      "Ġdesigner": 2588,
      "ÃŃssimo": 2589,
      "ĠcomentÃ¡": 2590,
      "Ġfaltando": 2591,
      "Ġvarias": 2592,
      "Ġcombinado": 2593,
      "Ġfuncionamento": 2594,
      "********": 2595,
      "Ġdefini": 2596,
      "As": 2597,
      "ĠexperiÃªncia": 2598,
      "Ġconsegue": 2599,
      "ĠRE": 2600,
      "cular": 2601,
      "Ġabsur": 2602,
      "Ġinclusive": 2603,
      "Ġprogramas": 2604,
      "Des": 2605,
      "ĠRes": 2606,
      "isto": 2607,
      "Ġhd": 2608,
      "Ġconser": 2609,
      "tina": 2610,
      "Ġdesa": 2611,
      "ĠeconÃ´": 2612,
      "ifica": 2613,
      "Ġlavar": 2614,
      "ĠPra": 2615,
      "Ġfala": 2616,
      "GEM": 2617,
      "Ġbran": 2618,
      "fico": 2619,
      "ĠPorÃ©m": 2620,
      "Ġacima": 2621,
      "ĠplÃ¡stico": 2622,
      "Ġsub": 2623,
      "Ġcarregador": 2624,
      "Ġel": 2625,
      "Ġtampa": 2626,
      "Ġpelos": 2627,
      "\".": 2628,
      "luetooth": 2629,
      "Ġbel": 2630,
      "ĠseguranÃ§a": 2631,
      "Ġflash": 2632,
      "ĠSER": 2633,
      "pero": 2634,
      "Ġroupas": 2635,
      "mÃ¡": 2636,
      "Ġsido": 2637,
      "Ġrefrigera": 2638,
      "Per": 2639,
      "ĠMES": 2640,
      "VEL": 2641,
      "tividade": 2642,
      "Ġabrir": 2643,
      "Ġcopo": 2644,
      "ĠcaracterÃŃ": 2645,
      "In": 2646,
      "Ġzoom": 2647,
      "br": 2648,
      "man": 2649,
      "Ġpago": 2650,
      "Ġapa": 2651,
      "Ġprofissional": 2652,
      "FEITO": 2653,
      "ĠMAS": 2654,
      "ĠdÃºvida": 2655,
      "Ġag": 2656,
      "ÃŃlia": 2657,
      "ĠnecessÃ¡rio": 2658,
      "Ġbarulh": 2659,
      "rÃ¡s": 2660,
      "Ġalguma": 2661,
      "ANDO": 2662,
      "estou": 2663,
      "CIL": 2664,
      "05": 2665,
      "tÃ¡s": 2666,
      "ĠFun": 2667,
      "Ġpassei": 2668,
      "Aparelho": 2669,
      "Ġadequ": 2670,
      "par": 2671,
      "Ġfavor": 2672,
      "Ġespectativ": 2673,
      "Ġrazo": 2674,
      "Ġsuperior": 2675,
      "ĠtrÃªs": 2676,
      "hado": 2677,
      "Ġlento": 2678,
      "ĠfogÃ£o": 2679,
      "ĠmÃ©": 2680,
      "ren": 2681,
      "Ġmontagem": 2682,
      "ww": 2683,
      "vidas": 2684,
      "Ġmodelos": 2685,
      "PRO": 2686,
      "rs": 2687,
      "Ġadi": 2688,
      "Ġmensa": 2689,
      "culos": 2690,
      "Ġinferior": 2691,
      "Ġsala": 2692,
      "Ġserve": 2693,
      "Ġnele": 2694,
      "\",": 2695,
      "Ġpi": 2696,
      "Ġfotogra": 2697,
      "Ġ..": 2698,
      "inel": 2699,
      "ĠLED": 2700,
      "ĠcabeÃ§a": 2701,
      "jo": 2702,
      "Ġtendo": 2703,
      "ĠversÃ£o": 2704,
      "CE": 2705,
      "Ġamou": 2706,
      "Ġinterno": 2707,
      "Ġbusca": 2708,
      "Ġsens": 2709,
      "--------": 2710,
      "bbbb": 2711,
      "cle": 2712,
      "dr": 2713,
      "ĠFUN": 2714,
      "CD": 2715,
      "ĠFoi": 2716,
      "ĠsatisfaÃ§Ã£o": 2717,
      "SU": 2718,
      "ĠPhil": 2719,
      "Ġvaleu": 2720,
      "Ġobrigado": 2721,
      "Ġtorn": 2722,
      "Ġkit": 2723,
      "ĠEXCELENTE": 2724,
      "ADO": 2725,
      "ÃĬ": 2726,
      "ĠAC": 2727,
      "Ġinfor": 2728,
      "temp": 2729,
      "Ġminutos": 2730,
      "Ġtomada": 2731,
      "PO": 2732,
      "ĠPa": 2733,
      "Ġcausa": 2734,
      "Ġtar": 2735,
      "ĠfamÃŃlia": 2736,
      "Ġarquivos": 2737,
      "aÃ§Ã£o": 2738,
      "rrrrrrrr": 2739,
      "Ġclaro": 2740,
      "Ġroda": 2741,
      "inta": 2742,
      "Ġsurpreendeu": 2743,
      "Ġpagamento": 2744,
      "dura": 2745,
      "ĠPre": 2746,
      "CIA": 2747,
      "IZ": 2748,
      "Ġlocal": 2749,
      "AtÃ©": 2750,
      "Ġclientes": 2751,
      "gggg": 2752,
      "Ġplaca": 2753,
      "ips": 2754,
      "ÃŃni": 2755,
      "Ġ32": 2756,
      "Ġfrente": 2757,
      "Ġenten": 2758,
      "ÃŃdo": 2759,
      "dora": 2760,
      "ENHO": 2761,
      "sticas": 2762,
      "torola": 2763,
      "Ġmex": 2764,
      "ĠCor": 2765,
      "Ġoferece": 2766,
      "Ġpromo": 2767,
      "Ġneste": 2768,
      "Ele": 2769,
      "Ġmarcante": 2770,
      "Ġni": 2771,
      "Ġnessa": 2772,
      "imentos": 2773,
      "ssss": 2774,
      "ser": 2775,
      "Ġcompraria": 2776,
      "ĠÃ³timas": 2777,
      "TU": 2778,
      "Ġmus": 2779,
      "can": 2780,
      "rastemp": 2781,
      "Ġcancelamento": 2782,
      "ados": 2783,
      "ĠlanÃ§": 2784,
      "Ġarmazenamento": 2785,
      "Ġpropaganda": 2786,
      "Ġler": 2787,
      "OOOO": 2788,
      "ĠÃ³timos": 2789,
      "Ġrede": 2790,
      "ĠMEU": 2791,
      "Achei": 2792,
      "Ġteria": 2793,
      "Ġconcorre": 2794,
      "gaÃ§Ã£o": 2795,
      "Ġfazendo": 2796,
      "Ġ02": 2797,
      "ĠCHEG": 2798,
      "ĠiP": 2799,
      "Ġpap": 2800,
      "Ġimaginava": 2801,
      "NDO": 2802,
      "ĠAINDA": 2803,
      "ĠserÃ¡": 2804,
      "Ġrastre": 2805,
      "IDO": 2806,
      "ĠFOI": 2807,
      "ĠESTA": 2808,
      "fu": 2809,
      "Ġ!!": 2810,
      "II": 2811,
      "Ġnuma": 2812,
      "Ġamassa": 2813,
      "Ġ?": 2814,
      "Ġapar": 2815,
      "Ġprometido": 2816,
      "Ġbrinque": 2817,
      "ds": 2818,
      "Ġcima": 2819,
      "Ġpesado": 2820,
      "Atendeu": 2821,
      "ĠfaÃ§o": 2822,
      "ĠacessÃ³": 2823,
      "xxxxxxxxxxxxxxxxxxxxxxxxxxxxxxxx": 2824,
      "ĠBateria": 2825,
      "arre": 2826,
      "tens": 2827,
      "Ġesperar": 2828,
      "ĠAgora": 2829,
      "ĠÃ¡udio": 2830,
      "Apesar": 2831,
      "Ġinteressante": 2832,
      "Ġmil": 2833,
      "Ãªn": 2834,
      "Ã©ssimo": 2835,
      "Ġimpression": 2836,
      "Ġajus": 2837,
      "Ġarrependi": 2838,
      "fÃ©": 2839,
      "Ġmotor": 2840,
      "ĠEntre": 2841,
      "ĠMinha": 2842,
      "ĠinformaÃ§Ã£o": 2843,
      "cida": 2844,
      "Ġcompr": 2845,
      "Ġdecepcionada": 2846,
      "llllllll": 2847,
      "Ġtivesse": 2848,
      "Ġgrandes": 2849,
      "Foi": 2850,
      "ZO": 2851,
      "dis": 2852,
      "dÃªncia": 2853,
      "cionar": 2854,
      "Por": 2855,
      "alaxy": 2856,
      "Ġquiser": 2857,
      "ĠEla": 2858,
      "ĠmÃ¡ximo": 2859,
      "ĠAmei": 2860,
      "sica": 2861,
      "Ġlatera": 2862,
      "tam": 2863,
      "ELA": 2864,
      "Â´": 2865,
      "Ġtras": 2866,
      "chegou": 2867,
      "zer": 2868,
      "ĠLCD": 2869,
      "REM": 2870,
      "emos": 2871,
      "Ġcumpri": 2872,
      "Ġespectativas": 2873,
      "50": 2874,
      "Ġmaioria": 2875,
      "Ġinf": 2876,
      "licado": 2877,
      "Ġchip": 2878,
      "Ġescu": 2879,
      "inar": 2880,
      "!!!!!": 2881,
      "Ġvideos": 2882,
      "Ġrealiz": 2883,
      "Ġdec": 2884,
      "guar": 2885,
      "//": 2886,
      "rivel": 2887,
      "ĠCa": 2888,
      "ĠTenho": 2889,
      "Ġfiltro": 2890,
      "ĠMeu": 2891,
      "ĠSom": 2892,
      "zzzz": 2893,
      "nnnnnnnn": 2894,
      "val": 2895,
      "Ġplay": 2896,
      "Ġrecon": 2897,
      "Ġcorretamente": 2898,
      "ontade": 2899,
      "Ġve": 2900,
      "ĠOS": 2901,
      "mer": 2902,
      "Ġavis": 2903,
      "rior": 2904,
      "lux": 2905,
      "ĠsoluÃ§Ã£o": 2906,
      "kia": 2907,
      "tada": 2908,
      "Ġdesen": 2909,
      "iores": 2910,
      "ĠBOA": 2911,
      "ĠquestÃ£o": 2912,
      "PRODUTO": 2913,
      "Ġfez": 2914,
      "Ġdeslig": 2915,
      "inhos": 2916,
      "ĠInte": 2917,
      "ejo": 2918,
      "Ġtransporte": 2919,
      "Ġende": 2920,
      "Ġmu": 2921,
      "Ġvontade": 2922,
      "Ġ24": 2923,
      "eiras": 2924,
      "ĠfantÃ¡s": 2925,
      "ĠNao": 2926,
      "ĠmÃ£e": 2927,
      "Ġouvi": 2928,
      "ĠFiquei": 2929,
      "ĠWi": 2930,
      "Os": 2931,
      "ĠvÃ£o": 2932,
      "Ġdesliga": 2933,
      "nao": 2934,
      "Ġparede": 2935,
      "Ġpapel": 2936,
      "Ġgente": 2937,
      "ĠatravÃ©s": 2938,
      "Ġparceiro": 2939,
      "GB": 2940,
      "quinho": 2941,
      "Ġcomun": 2942,
      "Ġlou": 2943,
      "Ġmanu": 2944,
      "entrega": 2945,
      "Ġabsurdo": 2946,
      "Ġperson": 2947,
      ",,,,": 2948,
      "ITA": 2949,
      "PER": 2950,
      "Ġcos": 2951,
      "vez": 2952,
      "msung": 2953,
      "tware": 2954,
      "Ġz": 2955,
      "ĠMINHA": 2956,
      "Ġandroid": 2957,
      "gilidade": 2958,
      "Ġpequenos": 2959,
      "Ġresultado": 2960,
      "legadas": 2961,
      "tudo": 2962,
      "logi": 2963,
      "Ġdescrito": 2964,
      "apos": 2965,
      "Ġaguardo": 2966,
      "ĠsaÃŃ": 2967,
      "Ġpele": 2968,
      "Ġacredito": 2969,
      "ĠcomentÃ¡rios": 2970,
      "Fa": 2971,
      "tivas": 2972,
      "PA": 2973,
      "Ġtira": 2974,
      "Ġacaba": 2975,
      "Ġobje": 2976,
      "Ġai": 2977,
      "Ġmesa": 2978,
      "line": 2979,
      "Ġqueima": 2980,
      "ista": 2981,
      "Ġestiv": 2982,
      "Ġtoque": 2983,
      "mon": 2984,
      "alta": 2985,
      "Ã¡rios": 2986,
      "Ġautoriz": 2987,
      "gn": 2988,
      "Ġfron": 2989,
      "Ġcompensa": 2990,
      "icicle": 2991,
      "Ġquebrado": 2992,
      "ĠgrÃ¡ficos": 2993,
      "bu": 2994,
      "Ġcomprando": 2995,
      "Ġ14": 2996,
      "Ġpassou": 2997,
      "ecer": 2998,
      "inos": 2999,
      "Ġinici": 3000,
      "Ġdesco": 3001,
      "RES": 3002,
      "Ġvieram": 3003,
      "Ġtrav": 3004,
      "Ġcap": 3005,
      "Ġacompanha": 3006,
      "Ġnome": 3007,
      "Ġquente": 3008,
      "torn": 3009,
      "Ġesposa": 3010,
      "Ġrapidamente": 3011,
      "Ġinfelizmente": 3012,
      "ulares": 3013,
      "Ġgame": 3014,
      "Ġfornecedor": 3015,
      "Ġilum": 3016,
      "fume": 3017,
      "Ġaum": 3018,
      "ĠÃºteis": 3019,
      "TIMA": 3020,
      "Ġocorre": 3021,
      "Ġsuficiente": 3022,
      "dificador": 3023,
      "TEI": 3024,
      "Ġdireto": 3025,
      "Ġmedi": 3026,
      "ĠcafÃ©": 3027,
      "ciais": 3028,
      "ĠendereÃ§o": 3029,
      "ĠPossui": 3030,
      "80": 3031,
      "Ġdim": 3032,
      "ĠnÃº": 3033,
      "ĠlÃ¡": 3034,
      "Ġouvido": 3035,
      "posi": 3036,
      "Ġdivertido": 3037,
      "ĠhorrÃŃvel": 3038,
      "ber": 3039,
      "Ġsamsung": 3040,
      "Ġparou": 3041,
      "Ġdisplay": 3042,
      "Ġaba": 3043,
      "Ġcomparar": 3044,
      "ĠCOMO": 3045,
      "Ġfim": 3046,
      "Ġgel": 3047,
      "ĠSa": 3048,
      "Fiz": 3049,
      "pendo": 3050,
      "Ġdom": 3051,
      "ĠMar": 3052,
      "ĠtelevisÃ£o": 3053,
      "tenÃ§Ã£o": 3054,
      "ĠconfiÃ¡vel": 3055,
      "Ġencan": 3056,
      "Ġcidade": 3057,
      "implesmente": 3058,
      "Ġcelulares": 3059,
      "vei": 3060,
      "Ġconforto": 3061,
      "Ġdescas": 3062,
      "Ġamigo": 3063,
      "Ġpoucos": 3064,
      "osto": 3065,
      "Ġmenu": 3066,
      "Ġencontrar": 3067,
      "ĠCusto": 3068,
      "Ġdiversas": 3069,
      "ĠCHEGOU": 3070,
      "Ġcr": 3071,
      "ĠPA": 3072,
      "ĠÃºl": 3073,
      "ĠagradÃ¡vel": 3074,
      "tras": 3075,
      "Ġmov": 3076,
      "Ġpadr": 3077,
      "Ġpossibilidade": 3078,
      "fus": 3079,
      "hes": 3080,
      "Ġconfigura": 3081,
      "Ġhis": 3082,
      "Ġvista": 3083,
      "XXXX": 3084,
      "Ġcomigo": 3085,
      "Ġentradas": 3086,
      "Ġmulti": 3087,
      "ĠĊ": 3088,
      "Ġbeleza": 3089,
      "Celular": 3090,
      "Ġdescar": 3091,
      "ĠMO": 3092,
      "tivamente": 3093,
      "Ġresponde": 3094,
      "Ġoperacional": 3095,
      "Ġpraticamente": 3096,
      "istÃªncia": 3097,
      "Ġbone": 3098,
      "ĠFacil": 3099,
      "ĠIMA": 3100,
      "Ġpainel": 3101,
      "eeee": 3102,
      "ĠdefiniÃ§Ã£o": 3103,
      "Ġocu": 3104,
      "dou": 3105,
      "Su": 3106,
      "lÃ¡": 3107,
      "rÃ¡vel": 3108,
      "ericana": 3109,
      "ĠJo": 3110,
      "Ġfuncionalidade": 3111,
      "ĠMAR": 3112,
      "ELO": 3113,
      "Tem": 3114,
      "ticas": 3115,
      "elos": 3116,
      "Ġvaz": 3117,
      "!!!!!!!!!!!!!!!!!!!!!!!!!!!!!!!!": 3118,
      "Ġefici": 3119,
      "Ġporcaria": 3120,
      "TES": 3121,
      "Ġpanelas": 3122,
      "Ġleitura": 3123,
      "gon": 3124,
      "ias": 3125,
      "teg": 3126,
      "Ġexplica": 3127,
      "ĠespaÃ§os": 3128,
      "Ġanuncio": 3129,
      "Ġtbm": 3130,
      "Ġbaixar": 3131,
      "Ġbarulhento": 3132,
      "Ġjus": 3133,
      "penas": 3134,
      "Ġobtive": 3135,
      "Ġanterior": 3136,
      "Ġpequenas": 3137,
      "Po": 3138,
      "ĠZ": 3139,
      "dico": 3140,
      "ixel": 3141,
      "Ġnet": 3142,
      "ĠtÃ¡": 3143,
      "Ġinformado": 3144,
      "NÃĥO": 3145,
      "Ġconecta": 3146,
      "Ġcai": 3147,
      "mica": 3148,
      "ĠbÃ¡": 3149,
      "ĠposiÃ§Ã£o": 3150,
      "ĠfragrÃ¢ncia": 3151,
      "Ġsemanas": 3152,
      "ĠPoderia": 3153,
      "Ġrecomendado": 3154,
      "ĠPC": 3155,
      "AlÃ©m": 3156,
      "cesso": 3157,
      "tual": 3158,
      "Ġefeito": 3159,
      "Ġpropor": 3160,
      "Ġresi": 3161,
      "ĠBEM": 3162,
      "Ġarrependo": 3163,
      "Fiquei": 3164,
      "fl": 3165,
      "umpre": 3166,
      "Ġprecisar": 3167,
      "Ġbrinquedo": 3168,
      "rive": 3169,
      "ores": 3170,
      "Ã§oes": 3171,
      "Ġquebrou": 3172,
      "99": 3173,
      "eja": 3174,
      "tava": 3175,
      "ĠLOJ": 3176,
      "AAAA": 3177,
      "Ġbi": 3178,
      "TIV": 3179,
      "ĠPRAZO": 3180,
      "tados": 3181,
      "Ġpolegadas": 3182,
      "ĠautomÃ¡": 3183,
      "Ġenviar": 3184,
      "Ġliqui": 3185,
      "icicleta": 3186,
      "teiro": 3187,
      "ĠELE": 3188,
      "fo": 3189,
      "Ġcerta": 3190,
      "iso": 3191,
      "eles": 3192,
      "eia": 3193,
      "Ġrecebido": 3194,
      "DOS": 3195,
      "bora": 3196,
      "Ġinvestimento": 3197,
      "Ã©tri": 3198,
      "Ġarran": 3199,
      "Ġsabe": 3200,
      "Ġcama": 3201,
      "ĠDi": 3202,
      "ts": 3203,
      "Ġderam": 3204,
      "Ġpelas": 3205,
      "inaÃ§Ã£o": 3206,
      "ssim": 3207,
      "CON": 3208,
      "ĠCÃ¢mera": 3209,
      "Ġmotivo": 3210,
      "Ġsoftware": 3211,
      "anta": 3212,
      "ĠpreÃ§os": 3213,
      "Ġfrontal": 3214,
      "trolux": 3215,
      "Ġpartir": 3216,
      "aaaaaaaaaaaaaaaa": 3217,
      "tion": 3218,
      "ĠESTOU": 3219,
      "ĠdiversÃ£o": 3220,
      "ilia": 3221,
      "Ġaceita": 3222,
      "Ġfilme": 3223,
      "mmmmmmmmmmmmmmmm": 3224,
      "ĠcaracterÃŃsticas": 3225,
      "ĊĊĊĊĊĊĊĊĊĊĊĊĊĊĊĊ": 3226,
      "__": 3227,
      "Ġligado": 3228,
      "Ġcateg": 3229,
      "Ġ11": 3230,
      "ĠEsse": 3231,
      "Ġcorreio": 3232,
      "tel": 3233,
      "esmo": 3234,
      "ĠAtendeu": 3235,
      "ĠprevisÃ£o": 3236,
      "ĠVou": 3237,
      "Ġsuave": 3238,
      "Ã¡p": 3239,
      "Ġteve": 3240,
      "Ġdefeitos": 3241,
      "Ġaspec": 3242,
      "Ġsensacional": 3243,
      "Ġdeclara": 3244,
      "Ġentrei": 3245,
      "Ġmoch": 3246,
      "ĠLeve": 3247,
      "Ġ....": 3248,
      "Ġsony": 3249,
      "cana": 3250,
      "Ġtecido": 3251,
      "ulo": 3252,
      "Ġassistencia": 3253,
      "ĠPOIS": 3254,
      "Ġpreto": 3255,
      "EIO": 3256,
      "ĠPREÃĩO": 3257,
      "Ġdetalhes": 3258,
      "ĠĠĠ": 3259,
      "ĠacessÃ³rios": 3260,
      "Ġhou": 3261,
      "Ġdez": 3262,
      "ĠAchei": 3263,
      "Ġcompat": 3264,
      "Ġtri": 3265,
      "ĠaÃŃ": 3266,
      "Ġlixo": 3267,
      "DOR": 3268,
      "tugu": 3269,
      "Ġmandaram": 3270,
      "ano": 3271,
      "Ġpanela": 3272,
      "Ġaper": 3273,
      "ĠDU": 3274,
      "tÃ¡til": 3275,
      "Ġdiferentes": 3276,
      "ĠreclamaÃ§Ãµes": 3277,
      "Ġarrepender": 3278,
      "tus": 3279,
      "Ġ25": 3280,
      "ĠHP": 3281,
      "Ġbrilho": 3282,
      "ard": 3283,
      "Ġsair": 3284,
      "culo": 3285,
      "Ġresolve": 3286,
      "Em": 3287,
      "Me": 3288,
      "rÃ¡tico": 3289,
      "Ġerro": 3290,
      "Ġau": 3291,
      "Ġincomo": 3292,
      "ÃŃcula": 3293,
      "ĠBA": 3294,
      "Ġprocesso": 3295,
      "arra": 3296,
      "alha": 3297,
      "ĠconheÃ§o": 3298,
      "TIS": 3299,
      "Ġresto": 3300,
      "ĠAPARE": 3301,
      "chos": 3302,
      "isa": 3303,
      "tifica": 3304,
      "ĠATEN": 3305,
      "Ġcarga": 3306,
      "Ġrob": 3307,
      "hhhh": 3308,
      "ĠMAN": 3309,
      "Ġdiversos": 3310,
      "Ġsolicitei": 3311,
      "Ġsecador": 3312,
      "ĠrazoÃ¡vel": 3313,
      "Ġmexer": 3314,
      "ðŁ": 3315,
      "ĠcÃ³": 3316,
      "quil": 3317,
      "Ġfraca": 3318,
      "ĠbebÃª": 3319,
      "BL": 3320,
      "Entre": 3321,
      "Ġcusta": 3322,
      "orte": 3323,
      "ĠDIA": 3324,
      "ĠTv": 3325,
      "Ġliguei": 3326,
      "Ġsenti": 3327,
      "ok": 3328,
      "Ġfina": 3329,
      "VER": 3330,
      "arece": 3331,
      "ĠmÃºsicas": 3332,
      "bens": 3333,
      "ĠIMAGEM": 3334,
      "Ġcategoria": 3335,
      "df": 3336,
      "Ġmp": 3337,
      "ĠPOS": 3338,
      "Ġacessar": 3339,
      "ju": 3340,
      "Ġautorizada": 3341,
      "Ġseguro": 3342,
      "ĠTER": 3343,
      "ĠBrastemp": 3344,
      "Ġprecisava": 3345,
      "reve": 3346,
      "Ġ13": 3347,
      "ĠESP": 3348,
      "NO": 3349,
      "Ġaf": 3350,
      "Ġdificil": 3351,
      "DER": 3352,
      "ĠTENHO": 3353,
      "Ġsao": 3354,
      "rasco": 3355,
      "Re": 3356,
      "Ġros": 3357,
      "ocu": 3358,
      "Ġtiver": 3359,
      "Ġmelhorar": 3360,
      "Ġcondicionado": 3361,
      "embol": 3362,
      "ĠtÃª": 3363,
      "ĠBonito": 3364,
      "ĠWindows": 3365,
      "Ġenvio": 3366,
      "Ġconhecia": 3367,
      "CAR": 3368,
      "Ġbrasil": 3369,
      "ĠMP": 3370,
      "LHO": 3371,
      "Ġevi": 3372,
      "Ġjusto": 3373,
      "Ġfir": 3374,
      "Ġenviaram": 3375,
      "ĠApesar": 3376,
      "Veio": 3377,
      "ÃīM": 3378,
      "Ġretirar": 3379,
      "IG": 3380,
      "Ġexig": 3381,
      "poca": 3382,
      "Ġvisor": 3383,
      "sar": 3384,
      "Ġmega": 3385,
      "Ġisto": 3386,
      "Ġquerem": 3387,
      "Ġmini": 3388,
      "ĠTU": 3389,
      "Ġalimentos": 3390,
      "Ġverifi": 3391,
      "Ġinstru": 3392,
      "Ġeh": 3393,
      "ana": 3394,
      "ĠQuero": 3395,
      "Ġestoque": 3396,
      "yy": 3397,
      "Ġcabelos": 3398,
      "Ġgostou": 3399,
      "Ġexterno": 3400,
      "Ġmochila": 3401,
      "Ġcole": 3402,
      "Ġsozinho": 3403,
      "dddd": 3404,
      "itos": 3405,
      "Ġsubsti": 3406,
      "Ġ40": 3407,
      "Ġagua": 3408,
      "ĠatualizaÃ§Ã£o": 3409,
      "sado": 3410,
      "Ġventi": 3411,
      "Ġtentando": 3412,
      "Ġpilhas": 3413,
      "ĠpadrÃ£o": 3414,
      "damente": 3415,
      "Ġjan": 3416,
      "sico": 3417,
      "Ġaconteceu": 3418,
      "Ġquere": 3419,
      "Ġsitu": 3420,
      "Fi": 3421,
      "Fun": 3422,
      "Ġoti": 3423,
      "RAN": 3424,
      "Ġteclas": 3425,
      "ĠpromoÃ§Ã£o": 3426,
      "Ġcomum": 3427,
      "Ġ18": 3428,
      "Ġfacilmente": 3429,
      "ĠdecepÃ§Ã£o": 3430,
      "hei": 3431,
      "Ġqua": 3432,
      "ĠAV": 3433,
      "ĠEspero": 3434,
      "Ġsurpresa": 3435,
      "Ġcontinua": 3436,
      "ĠhistÃ³ria": 3437,
      "velmente": 3438,
      "INH": 3439,
      "EITA": 3440,
      "Ġmuda": 3441,
      "Ġbicicleta": 3442,
      "Ġdados": 3443,
      "ĠconfiguraÃ§Ãµes": 3444,
      "Ã¡veis": 3445,
      "Ġpega": 3446,
      "Ġfazem": 3447,
      "SI": 3448,
      "selho": 3449,
      "Ġaz": 3450,
      "Ġvisto": 3451,
      "Ġadquirido": 3452,
      "Ġcurto": 3453,
      "ĠATÃī": 3454,
      "13": 3455,
      "ceis": 3456,
      "NA": 3457,
      "tindo": 3458,
      "ĠpÃ©": 3459,
      "Ġaltura": 3460,
      "RAM": 3461,
      "ĠcomeÃ§ou": 3462,
      "Ġdeclarar": 3463,
      "Ġencom": 3464,
      "ĠFAL": 3465,
      "ĠeconÃ´mico": 3466,
      "ouse": 3467,
      "60": 3468,
      "Ġenfim": 3469,
      "Ġusb": 3470,
      "Ġdeles": 3471,
      "ĠatrÃ¡s": 3472,
      "ĠLi": 3473,
      "ĠGOS": 3474,
      "pete": 3475,
      "Ġcompacta": 3476,
      "Ġeconomia": 3477,
      "vvvvvvvv": 3478,
      "Ġcin": 3479,
      "Ġconcorrentes": 3480,
      "Ġextra": 3481,
      "ĠTI": 3482,
      "ĠproteÃ§Ã£o": 3483,
      "Ġconte": 3484,
      "ĠNunca": 3485,
      "Ġpreocu": 3486,
      "ĠMEL": 3487,
      "cionais": 3488,
      "Ġconseguir": 3489,
      "Ġmacio": 3490,
      "Ġsegura": 3491,
      "Ġdizendo": 3492,
      "ĠCOMPRAR": 3493,
      "Ġlimita": 3494,
      "cada": 3495,
      "Ġterc": 3496,
      "iiiiiiii": 3497,
      "Ãªncias": 3498,
      "entei": 3499,
      "ins": 3500,
      "Ġdirei": 3501,
      "Ġ50": 3502,
      "ÃŃssima": 3503,
      "oooooooooooooooo": 3504,
      "oma": 3505,
      "Ġdeseja": 3506,
      "ĠespecificaÃ§Ãµes": 3507,
      "Ġreembol": 3508,
      "Essa": 3509,
      "ĠelÃ©tri": 3510,
      "Melhor": 3511,
      "Ġesses": 3512,
      "ixon": 3513,
      "reios": 3514,
      "ĠApple": 3515,
      "Ġambientes": 3516,
      "Qualidade": 3517,
      "Ġportugu": 3518,
      "Ġbolso": 3519,
      "ĠFUNCION": 3520,
      "Ġouvir": 3521,
      "super": 3522,
      "Ġsupera": 3523,
      "icas": 3524,
      "tao": 3525,
      "Ġumas": 3526,
      "ENH": 3527,
      "ĠIsso": 3528,
      "TÃģ": 3529,
      "Ġmol": 3530,
      "ĠObrigada": 3531,
      "Ġliquidificador": 3532,
      "fas": 3533,
      "ĠsÃ©ri": 3534,
      "Ġvoce": 3535,
      "Ġregular": 3536,
      "ĠTUDO": 3537,
      "TV": 3538,
      "rinho": 3539,
      "Ġalcan": 3540,
      "Ġdeixando": 3541,
      "Ġsta": 3542,
      "Ġbal": 3543,
      "Ġpergu": 3544,
      "Ġespeta": 3545,
      "Ġprincipal": 3546,
      "Ġplas": 3547,
      "Ġagilidade": 3548,
      "Ġvejo": 3549,
      "Ġestre": 3550,
      "ĠFI": 3551,
      "pad": 3552,
      "ĠGalaxy": 3553,
      "ĠconfianÃ§a": 3554,
      "ĠtÃ©cnico": 3555,
      "Ġtorna": 3556,
      "ĠY": 3557,
      "pres": 3558,
      "Nao": 3559,
      "digo": 3560,
      "VD": 3561,
      "ĠMais": 3562,
      "ĠMotorola": 3563,
      "rel": 3564,
      "Ġincom": 3565,
      "Ġfecha": 3566,
      "ĠnÃŃ": 3567,
      "ĠAO": 3568,
      "ĠcÃ¢meras": 3569,
      "Ġmonitor": 3570,
      "ĠObrigado": 3571,
      "ĠeficiÃªncia": 3572,
      "Ġperde": 3573,
      "Ġinox": 3574,
      "ĠfÃ¡brica": 3575,
      "Ġtex": 3576,
      "Ġjogado": 3577,
      "ĠdurÃ¡vel": 3578,
      "Ġantigo": 3579,
      "++++++++": 3580,
      "Ġultra": 3581,
      "sou": 3582,
      "Ġled": 3583,
      "Ġcanais": 3584,
      "Ġpercebi": 3585,
      "Ma": 3586,
      "Ġcompar": 3587,
      "ĠÃ±": 3588,
      "ĠJÃģ": 3589,
      "Ġcompletamente": 3590,
      "Ġtestei": 3591,
      "Ġenviado": 3592,
      "MP": 3593,
      "gis": 3594,
      "Ġenor": 3595,
      "ĠportÃ¡til": 3596,
      "Ġcancelar": 3597,
      "Ġcomparado": 3598,
      "gb": 3599,
      "pp": 3600,
      "Ġdepen": 3601,
      "Ġiria": 3602,
      "ĠVeio": 3603,
      "ĠEste": 3604,
      "Ġimportante": 3605,
      "Ġsinto": 3606,
      "pla": 3607,
      "Ġproce": 3608,
      "Ġtinta": 3609,
      "Ġpude": 3610,
      "edade": 3611,
      "ĠnÃŃvel": 3612,
      "ĠmÃ£os": 3613,
      "ĠPhilips": 3614,
      "Ġboneca": 3615,
      "Ġ+": 3616,
      "Ġdando": 3617,
      "Ġapren": 3618,
      "Ġelogi": 3619,
      "Ġpin": 3620,
      "Ġder": 3621,
      "ĠSÃĵ": 3622,
      "ĠdÃºvidas": 3623,
      "Ġvers": 3624,
      "Ġnecessi": 3625,
      "Ex": 3626,
      "ĠpelÃŃcula": 3627,
      "EIRO": 3628,
      "ParabÃ©ns": 3629,
      "ĠsaÃŃda": 3630,
      "ĠNENH": 3631,
      "Ġaparece": 3632,
      "mero": 3633,
      "Ġbolsa": 3634,
      "ĠprÃ³pria": 3635,
      "Ġvender": 3636,
      "ĠaparÃªncia": 3637,
      "izo": 3638,
      "tun": 3639,
      "Ġdei": 3640,
      "ĠlÃ¢": 3641,
      "ĠDepois": 3642,
      "Sempre": 3643,
      "Ġtraseira": 3644,
      "Ġembora": 3645,
      "Ġbola": 3646,
      "ke": 3647,
      "pÃ©": 3648,
      "ĠGPS": 3649,
      "ĠCOMPREI": 3650,
      "Ġdesligar": 3651,
      "Vale": 3652,
      "aleu": 3653,
      "Ġsupor": 3654,
      "FÃ¡cil": 3655,
      "eno": 3656,
      "ĠfÃŃ": 3657,
      "ÃĩA": 3658,
      "Ġtarde": 3659,
      "sÃ³": 3660,
      "Ġrepro": 3661,
      "ĠAr": 3662,
      "Ġconc": 3663,
      "creen": 3664,
      "ĠMESMO": 3665,
      "ixels": 3666,
      "ĠCo": 3667,
      "amb": 3668,
      "Ġbate": 3669,
      "Ġtrata": 3670,
      "Ġdecepcionado": 3671,
      "ĠcompatÃŃvel": 3672,
      "Ãķ": 3673,
      "ĠBem": 3674,
      "inema": 3675,
      "KKKKKKKK": 3676,
      "her": 3677,
      "iga": 3678,
      "Ġaudio": 3679,
      "ĠCons": 3680,
      "Ġlavagem": 3681,
      "ĠusuÃ¡rio": 3682,
      "Ġpotencia": 3683,
      "ĠÃ³culos": 3684,
      "Ġmandar": 3685,
      "Ġguardar": 3686,
      "Ġexec": 3687,
      "ĠTela": 3688,
      "Ġcafe": 3689,
      "DAS": 3690,
      "sÃ¡vel": 3691,
      "Ġredes": 3692,
      "ĠmÃºsica": 3693,
      "trou": 3694,
      "Ġpeda": 3695,
      "Ġutiliza": 3696,
      "Ġobrigada": 3697,
      "Ġcartucho": 3698,
      "Ġentanto": 3699,
      "outu": 3700,
      "................................................................................................................................": 3701,
      "ĠPERF": 3702,
      "Ġhouve": 3703,
      "Ġleva": 3704,
      "Ġdurar": 3705,
      "BLEM": 3706,
      "ĠAguar": 3707,
      "Ġmaiores": 3708,
      "Ġcadeira": 3709,
      "simo": 3710,
      "QUI": 3711,
      "ĠMelhor": 3712,
      "Ġenganosa": 3713,
      "ticos": 3714,
      "ĠAPARELHO": 3715,
      "Ġpreju": 3716,
      "ENTA": 3717,
      "ĠNokia": 3718,
      "Ġestiver": 3719,
      "Âº": 3720,
      "Ġtraz": 3721,
      "ecep": 3722,
      "Ġrecomendaria": 3723,
      "SSI": 3724,
      "Ġconectar": 3725,
      "Ġocupa": 3726,
      "ep": 3727,
      "rea": 3728,
      "Ġitens": 3729,
      "Ġdisponi": 3730,
      "Pe": 3731,
      "Ġpis": 3732,
      "ĠPROBLEM": 3733,
      "Ġexc": 3734,
      "Ġdesing": 3735,
      "ustra": 3736,
      "ĠMARCA": 3737,
      "ĠPES": 3738,
      "lador": 3739,
      "ĠCh": 3740,
      "ezer": 3741,
      "Ġonline": 3742,
      "Ġresolvi": 3743,
      "Ġlum": 3744,
      "Ġconso": 3745,
      "ĠCO": 3746,
      "Ġtentei": 3747,
      "Ġadaptador": 3748,
      "Ġacen": 3749,
      "igi": 3750,
      "ĊĊĊ": 3751,
      "Ġapaixon": 3752,
      "Pra": 3753,
      "junto": 3754,
      "Ġcria": 3755,
      "Ġachar": 3756,
      "Ġaplicativo": 3757,
      "Ġencantou": 3758,
      "flix": 3759,
      "outube": 3760,
      "Ġdeter": 3761,
      "ĠSO": 3762,
      "ĠAparelho": 3763,
      "Pre": 3764,
      "......": 3765,
      "ĠruÃŃdo": 3766,
      "Ġvarios": 3767,
      "ĠnavegaÃ§Ã£o": 3768,
      "rg": 3769,
      "tavel": 3770,
      "RAS": 3771,
      "En": 3772,
      "Ġapena": 3773,
      "MU": 3774,
      "Ġiden": 3775,
      "Ġformato": 3776,
      "Ġtemos": 3777,
      "ĠTive": 3778,
      "cioso": 3779,
      "Ġfri": 3780,
      "Ġintegra": 3781,
      "Ġdeveriam": 3782,
      "vadora": 3783,
      "ĠFAZ": 3784,
      "nos": 3785,
      "ĠMan": 3786,
      "ĠRecebi": 3787,
      "gel": 3788,
      "ĠDVD": 3789,
      "deiras": 3790,
      "embro": 3791,
      "duÃ§Ã£o": 3792,
      "Ã¡ria": 3793,
      "Ġgostando": 3794,
      "Ġrealizar": 3795,
      "HOS": 3796,
      "ĠmÃŃni": 3797,
      "Ġpossa": 3798,
      "ĠcomparaÃ§Ã£o": 3799,
      "ĠSUPER": 3800,
      "cendo": 3801,
      "Ġbelo": 3802,
      "Ġestorno": 3803,
      "ĠAcho": 3804,
      "Ġfaixa": 3805,
      "adorei": 3806,
      "ĠNota": 3807,
      "ĠnÃºmero": 3808,
      "HOR": 3809,
      "Jo": 3810,
      "lis": 3811,
      "Ġestu": 3812,
      "Ġ17": 3813,
      "ĠalguÃ©m": 3814,
      "beneficio": 3815,
      "QUE": 3816,
      "UNCA": 3817,
      "Ġcolor": 3818,
      "Ġlongo": 3819,
      "ĠsÃ©rie": 3820,
      "Ġconh": 3821,
      "Ġespetacular": 3822,
      "Ġenorme": 3823,
      "Gostaria": 3824,
      "eta": 3825,
      "bilita": 3826,
      "USTO": 3827,
      "ĠANTES": 3828,
      "Ġdireitinho": 3829,
      "Ġmouse": 3830,
      "Ġdeli": 3831,
      "ĠPR": 3832,
      "Ġrecarre": 3833,
      "Ġtan": 3834,
      "ĠBON": 3835,
      "Ġpegar": 3836,
      "jjjj": 3837,
      "Ġmensagem": 3838,
      "AP": 3839,
      "ao": 3840,
      "idas": 3841,
      "eria": 3842,
      "Ġsepara": 3843,
      "Ġacos": 3844,
      "ferÃªncia": 3845,
      "ĠmÃ©dia": 3846,
      "Ġbluetooth": 3847,
      "ĠFiz": 3848,
      "Ġdisposi": 3849,
      "Ġchu": 3850,
      "Ġdetalhe": 3851,
      "ÃķES": 3852,
      "Ġterm": 3853,
      "CIO": 3854,
      "Ġagrada": 3855,
      "ft": 3856,
      "ĠAR": 3857,
      "Ġ22": 3858,
      "0000000000000000": 3859,
      "ĠInter": 3860,
      "ITE": 3861,
      "xo": 3862,
      "ĠSÃ£o": 3863,
      "Ġtoma": 3864,
      "Ġpartes": 3865,
      "ĠEnfim": 3866,
      "Ġintuitivos": 3867,
      "jÃ¡": 3868,
      "Ġpc": 3869,
      "GUE": 3870,
      "Ġaprov": 3871,
      "ĠCAR": 3872,
      "ĠVAL": 3873,
      "Ġfilma": 3874,
      "Ġpresta": 3875,
      "ĠpÃ¡": 3876,
      "sifica": 3877,
      "Ġadoro": 3878,
      "cccc": 3879,
      "Ġcre": 3880,
      "Ãµe": 3881,
      "ĠCONTRA": 3882,
      "Ġproje": 3883,
      "entos": 3884,
      "alav": 3885,
      "Ġrs": 3886,
      "ĠGostaria": 3887,
      "ticamente": 3888,
      "Ġdescobri": 3889,
      "FOR": 3890,
      "ĠNet": 3891,
      "ĠVi": 3892,
      "ficaz": 3893,
      "Ġprocurando": 3894,
      "antagem": 3895,
      "Ġtare": 3896,
      "ĠCOMPREM": 3897,
      "Ġsilenciosa": 3898,
      "reio": 3899,
      "Ġfundo": 3900,
      "ger": 3901,
      "Ġparafus": 3902,
      "TER": 3903,
      "Ġobser": 3904,
      "Ġdanifica": 3905,
      "Ġessas": 3906,
      "Ġemi": 3907,
      "Ġarro": 3908,
      "Ġlivros": 3909,
      "ĠFACIL": 3910,
      "Ġfamilia": 3911,
      "Design": 3912,
      "minha": 3913,
      "Ġmoto": 3914,
      "Ġamericana": 3915,
      "Ġcorpo": 3916,
      "Ġfrag": 3917,
      "Ġcompleta": 3918,
      "ĠSATIS": 3919,
      "Ġaspira": 3920,
      "Ġconter": 3921,
      "ĠFull": 3922,
      "uir": 3923,
      "Ġportanto": 3924,
      "Ġgastar": 3925,
      "Ġclara": 3926,
      "ondas": 3927,
      "Ġ19": 3928,
      "Ġinstalado": 3929,
      "ĠTamanho": 3930,
      "To": 3931,
      "Ġbacana": 3932,
      "Ġ26": 3933,
      "GORA": 3934,
      "ĠCorreios": 3935,
      "sei": 3936,
      "Ġnot": 3937,
      "Ġfaltou": 3938,
      "ĠEsta": 3939,
      "ĠESTE": 3940,
      "Ġprocessamento": 3941,
      "ffffffff": 3942,
      "Infelizmente": 3943,
      "ĠlanÃ§amento": 3944,
      "che": 3945,
      "Ġfin": 3946,
      "Ġmetade": 3947,
      "Ġsuj": 3948,
      "Ġwifi": 3949,
      "Ġpossuo": 3950,
      "ĠmanutenÃ§Ã£o": 3951,
      "ambÃ©m": 3952,
      "gancia": 3953,
      "Ġregula": 3954,
      "ĠprÃ©": 3955,
      "Ġvendido": 3956,
      "Ġtrabalhar": 3957,
      "Ġbu": 3958,
      "Ġjun": 3959,
      "paro": 3960,
      "Ġcoloquei": 3961,
      "Ġplayer": 3962,
      "Ġencomenda": 3963,
      "Ġ01": 3964,
      "ĠMesmo": 3965,
      "umindo": 3966,
      "Ġperforma": 3967,
      "ĠconteÃº": 3968,
      "Ġnesta": 3969,
      "emo": 3970,
      "Ġpalav": 3971,
      "inte": 3972,
      "Ġregis": 3973,
      "cam": 3974,
      "ĠSOM": 3975,
      "ĠQuanto": 3976,
      "Ġinstala": 3977,
      "Ġaju": 3978,
      "ĠdisponÃŃvel": 3979,
      "pli": 3980,
      "Ġale": 3981,
      "Ġpoucas": 3982,
      "aravilhoso": 3983,
      "Ġpesquisa": 3984,
      "Ġperceb": 3985,
      "Ca": 3986,
      "Ġperto": 3987,
      "Ġnossa": 3988,
      "AMENTO": 3989,
      "Ġnegativos": 3990,
      "Ġpensando": 3991,
      "VI": 3992,
      "omia": 3993,
      "Ġconjunto": 3994,
      "ĠcontrÃ¡": 3995,
      "Ġagrade": 3996,
      "Ġrealizada": 3997,
      "cem": 3998,
      "Ġy": 3999,
      "omen": 4000,
      "orre": 4001,
      "ĠPS": 4002,
      "imenta": 4003,
      "ĠFora": 4004,
      "Ġatualiza": 4005,
      "Ġsonho": 4006,
      "ĠautomÃ¡tico": 4007,
      "Ġdeterm": 4008,
      "ĠUso": 4009,
      "Ġatrap": 4010,
      "ĠĠĠĠĠĠĠĠĠĠĠĠĠĠĠĠĠĠĠĠĠĠĠĠĠĠĠĠĠĠĠĠ": 4011,
      "ĠASS": 4012,
      "ĠPlay": 4013,
      "vaÃ§Ã£o": 4014,
      "INA": 4015,
      "Ġelas": 4016,
      "ĠApenas": 4017,
      "tral": 4018,
      "Ġperder": 4019,
      "nicos": 4020,
      "Ġocorreu": 4021,
      "idos": 4022,
      "Ġcinema": 4023,
      "ÃŃcio": 4024,
      "Ġsociais": 4025,
      "Ġverm": 4026,
      "Ġcalor": 4027,
      "tÃŃvel": 4028,
      "Ġ!!!!": 4029,
      "Ġpul": 4030,
      "Ġfull": 4031,
      "Ġserem": 4032,
      "Ġmaneira": 4033,
      "ĠESSE": 4034,
      "Ġespecial": 4035,
      "ĠDIAS": 4036,
      "Ġchips": 4037,
      "ĠAGORA": 4038,
      "ĠrÃ¡dio": 4039,
      "Ġ21": 4040,
      "REC": 4041,
      "Ġcerca": 4042,
      "Ġdispen": 4043,
      "MUITO": 4044,
      "GOS": 4045,
      "pare": 4046,
      "vem": 4047,
      "Ġri": 4048,
      "ĠPE": 4049,
      "Ġatendendo": 4050,
      "Ġsites": 4051,
      "Ġdurou": 4052,
      "ĠdÃ£o": 4053,
      "Ġcenta": 4054,
      "Ġitem": 4055,
      "Ġfreezer": 4056,
      "Ġaqueles": 4057,
      "Ġvoz": 4058,
      "Ġeficaz": 4059,
      "vam": 4060,
      "Ġfuncionam": 4061,
      "Ġmandei": 4062,
      "Ġfico": 4063,
      "Ġsofis": 4064,
      "Ġbarata": 4065,
      "Ġ03": 4066,
      "Ġpensei": 4067,
      "ĠMELHOR": 4068,
      "Mas": 4069,
      "su": 4070,
      "Ġcomprou": 4071,
      "ĠligaÃ§Ã£o": 4072,
      "kkkkkkkkkkkkkkkkkkkkkkkkkkkkkkkk": 4073,
      "ĠsituaÃ§Ã£o": 4074,
      "umes": 4075,
      "Ġestamos": 4076,
      "Ġanal": 4077,
      "ĠpressÃ£o": 4078,
      "Ġrecurso": 4079,
      "Ġinsatisfeita": 4080,
      "LES": 4081,
      "MM": 4082,
      "âĢ": 4083,
      "Ã§ado": 4084,
      "ĠNUNCA": 4085,
      "ĠCOR": 4086,
      "Ġhj": 4087,
      "Ġintera": 4088,
      "Ġsaiu": 4089,
      "Ġlindas": 4090,
      "Ġgros": 4091,
      "sima": 4092,
      "Ġtipos": 4093,
      "Ġrefrigerador": 4094,
      "EZ": 4095,
      "Ġurg": 4096,
      "COMP": 4097,
      "Ġcorresponde": 4098,
      "Ġmt": 4099,
      "Ġfrio": 4100,
      "ĠAtende": 4101,
      "Ġestab": 4102,
      "ĠGB": 4103,
      "tuma": 4104,
      "ĠchÃ£o": 4105,
      "Ġconfir": 4106,
      "Ġaquece": 4107,
      "ntemente": 4108,
      "Ġpreta": 4109,
      "ĠSo": 4110,
      "ciso": 4111,
      "box": 4112,
      "ĠligaÃ§Ãµes": 4113,
      "Ġbranco": 4114,
      "ĠfantÃ¡stico": 4115,
      "Ġcomprarei": 4116,
      "ĠRÃ¡p": 4117,
      "Ġadora": 4118,
      "Ġdisseram": 4119,
      "Ġreembolso": 4120,
      "ainda": 4121,
      "nce": 4122,
      "Ġqualidades": 4123,
      "ĠÃĵTIMO": 4124,
      "ĠQue": 4125,
      "Ġgames": 4126,
      "ĠPerfeito": 4127,
      "ĠRESP": 4128,
      "Ġtalvez": 4129,
      "ĠprÃ³prio": 4130,
      "reless": 4131,
      "ĠcontrÃ¡rio": 4132,
      "ĠmÃ³": 4133,
      "Ġenvol": 4134,
      "Ġdesses": 4135,
      "Ã¡rias": 4136,
      "trÃ´": 4137,
      "Custo": 4138,
      "onte": 4139,
      "dÃ£o": 4140,
      "Ġamiga": 4141,
      "ĠVocÃª": 4142,
      "Ġfrequ": 4143,
      "Ġplena": 4144,
      "Ġopor": 4145,
      "Rec": 4146,
      "cto": 4147,
      "Ġnela": 4148,
      "Ġlar": 4149,
      "2017": 4150,
      "ĠPois": 4151,
      "ĠTODOS": 4152,
      "Ġconven": 4153,
      "Ġresponsa": 4154,
      "ĠFaz": 4155,
      "Ġencaixe": 4156,
      "Ġcomprome": 4157,
      "ĠiluminaÃ§Ã£o": 4158,
      "BRI": 4159,
      "Pro": 4160,
      "Ġ/": 4161,
      "Ġgelo": 4162,
      "Ġcobra": 4163,
      "???": 4164,
      "Ġcheio": 4165,
      "Ġtranquil": 4166,
      "Ġpessoal": 4167,
      "Ġimpec": 4168,
      "Ġparceira": 4169,
      "ĠinstruÃ§Ãµes": 4170,
      "iva": 4171,
      "Ġfrasco": 4172,
      "Ġconvers": 4173,
      "ĠOtimo": 4174,
      "Ġacabado": 4175,
      "Ġlimpa": 4176,
      "Ġcancelado": 4177,
      "Ġorgan": 4178,
      "ĠcÃ³digo": 4179,
      "andos": 4180,
      "chas": 4181,
      "Ġantena": 4182,
      "Ġunidades": 4183,
      ".\"": 4184,
      "eve": 4185,
      "Ġativ": 4186,
      "ques": 4187,
      "Ġcaix": 4188,
      "Ġacabei": 4189,
      "posiÃ§Ã£o": 4190,
      "Ġirm": 4191,
      "Ġsubstitui": 4192,
      "ME": 4193,
      "Ġsan": 4194,
      "Ġprova": 4195,
      "ĠSIM": 4196,
      "Ġcorri": 4197,
      "facil": 4198,
      "Ġescova": 4199,
      "Ġencaixa": 4200,
      "Ġ1000": 4201,
      "ĠSempre": 4202,
      "Ġpossuem": 4203,
      "LI": 4204,
      "vador": 4205,
      "Ġconfigurar": 4206,
      "ĠDei": 4207,
      "ĠDura": 4208,
      "ĠFalta": 4209,
      "Ġpedir": 4210,
      "Ġimposs": 4211,
      "Ġ60": 4212,
      "Ġprocurar": 4213,
      "Ġstatus": 4214,
      "Ġoportun": 4215,
      "]]": 4216,
      "fria": 4217,
      "Ġinteiro": 4218,
      "ĠNEM": 4219,
      "Ġestilo": 4220,
      "Ġdescarre": 4221,
      "iv": 4222,
      "Ġpoderiam": 4223,
      "Ġabaixo": 4224,
      "Ġcentavo": 4225,
      "Ġedi": 4226,
      "Ġpri": 4227,
      "ĠpÃ©s": 4228,
      "Ġretorn": 4229,
      "ĠPOU": 4230,
      "Ġtomar": 4231,
      "Ġdiscre": 4232,
      "Ġcomenta": 4233,
      "Ġadequado": 4234,
      "rias": 4235,
      "Ġini": 4236,
      "Ġaproveita": 4237,
      "88": 4238,
      "Atende": 4239,
      "Ġcm": 4240,
      "Ġestabele": 4241,
      "cessa": 4242,
      "sor": 4243,
      "ĠinÃº": 4244,
      "ĠVI": 4245,
      "Ġweb": 4246,
      "ĠPode": 4247,
      "Ġtarefas": 4248,
      "Ġsabor": 4249,
      "Ġchate": 4250,
      "SSO": 4251,
      "Ġpositivo": 4252,
      "Ġcartuchos": 4253,
      "Ġsimp": 4254,
      "Ġprovi": 4255,
      "Ġutilizado": 4256,
      "Ã©ssima": 4257,
      "boa": 4258,
      "Ġamo": 4259,
      "INDO": 4260,
      "Ġpossuir": 4261,
      "ĠLOJA": 4262,
      "EX": 4263,
      "Ġmudar": 4264,
      "nd": 4265,
      "Ġori": 4266,
      "ham": 4267,
      "cionamento": 4268,
      "ÃĩÃķES": 4269,
      "Ġapps": 4270,
      "ĠirÃ¡": 4271,
      "Perfeito": 4272,
      "Sa": 4273,
      "Ġescre": 4274,
      "Ġtapete": 4275,
      "Ġaguenta": 4276,
      "Ġ08": 4277,
      "ĠSmartphone": 4278,
      "rrrrrrrrrrrrrrrr": 4279,
      "Ġlaterais": 4280,
      "cera": 4281,
      "Ġolha": 4282,
      "tidas": 4283,
      "Esta": 4284,
      "ĠEntÃ£o": 4285,
      "****************": 4286,
      "bbbbbbbb": 4287,
      "Ã¡til": 4288,
      "ĠAo": 4289,
      "imos": 4290,
      "Ġsobr": 4291,
      "Ġplenamente": 4292,
      "pi": 4293,
      "stica": 4294,
      "ĠCar": 4295,
      "Ġsucesso": 4296,
      "Ġautoma": 4297,
      "Superou": 4298,
      "Ġcomandos": 4299,
      "Ġconsul": 4300,
      "Ġlavadora": 4301,
      "Ġtenta": 4302,
      "Ġresolvido": 4303,
      "Ġwindows": 4304,
      "ĠSAC": 4305,
      "esquis": 4306,
      "ĠPelo": 4307,
      "Ġ200": 4308,
      "Ġgave": 4309,
      "Ġescolher": 4310,
      "----------------": 4311,
      "ĠimpossÃŃvel": 4312,
      "OC": 4313,
      "itar": 4314,
      "Ġunica": 4315,
      "ntem": 4316,
      "terior": 4317,
      "Ġcomunica": 4318,
      "ĠpÃ¡g": 4319,
      "Ġperformance": 4320,
      "enti": 4321,
      "Ġcomplicado": 4322,
      "ĠPÃ©ssimo": 4323,
      "Ġindis": 4324,
      "ĠGra": 4325,
      "Ġincrivel": 4326,
      "Jogo": 4327,
      "Pelo": 4328,
      "ĠfÃ£": 4329,
      "Ġpodia": 4330,
      "Ġaconselho": 4331,
      "Ġpesquisei": 4332,
      "Ġconectividade": 4333,
      "alidade": 4334,
      "ĠVER": 4335,
      "TAL": 4336,
      "Ġexistem": 4337,
      "ĠdomÃ©s": 4338,
      "ET": 4339,
      "Ġcompa": 4340,
      "Ġmomentos": 4341,
      "ĠInfelizmente": 4342,
      "ĠAguardo": 4343,
      "tamento": 4344,
      "Ġperdi": 4345,
      "Ġatender": 4346,
      "Ġadorando": 4347,
      "Ġtentar": 4348,
      "ĠdisponÃŃveis": 4349,
      "ĠSua": 4350,
      "gggggggg": 4351,
      "fuso": 4352,
      "dquiri": 4353,
      "Ġofer": 4354,
      "Ġlam": 4355,
      "ĠCan": 4356,
      "Ġpassado": 4357,
      "????????????????": 4358,
      "Ġazul": 4359,
      "Ġ;": 4360,
      "tec": 4361,
      "ĠTambÃ©m": 4362,
      "Ġacessi": 4363,
      "ĠeletrÃ´": 4364,
      "Ġatendente": 4365,
      "ramenta": 4366,
      "ilencioso": 4367,
      "ĠOUTRO": 4368,
      "gle": 4369,
      "Ġdual": 4370,
      "Ġdesenvol": 4371,
      "Ġirei": 4372,
      "ĠFi": 4373,
      "Ġsabia": 4374,
      "Ġluga": 4375,
      "ĠCONTA": 4376,
      "55": 4377,
      "Ġmis": 4378,
      "inei": 4379,
      "Ġ23": 4380,
      "ÃīSSI": 4381,
      "Ġvoltar": 4382,
      "Ġentender": 4383,
      "Ġia": 4384,
      "Ġportas": 4385,
      "ĠTec": 4386,
      "Ġconsole": 4387,
      "Ġparafusos": 4388,
      "Lindo": 4389,
      "izei": 4390,
      "Ġtrabalhos": 4391,
      "Ġninguem": 4392,
      "ADA": 4393,
      "ph": 4394,
      "Ġempre": 4395,
      "Ġapp": 4396,
      "Ġtradi": 4397,
      "Ġcondiz": 4398,
      "Ġquebrar": 4399,
      "Ġlateral": 4400,
      "IGN": 4401,
      "Ġoque": 4402,
      "tenho": 4403,
      "Ġaux": 4404,
      "sal": 4405,
      "ĠpÃ³": 4406,
      "Ġfr": 4407,
      "Ġnov": 4408,
      "Ġsequer": 4409,
      "ĠSITE": 4410,
      "ĠValeu": 4411,
      "ĠforÃ§a": 4412,
      "Ġlonga": 4413,
      "Ġmaravil": 4414,
      "leto": 4415,
      "Ġerrada": 4416,
      "Ġdescaso": 4417,
      "Ġlugares": 4418,
      "Ġconfia": 4419,
      "trole": 4420,
      "Ġatendido": 4421,
      "Ġlonge": 4422,
      "ĠFunciona": 4423,
      "llllllllllllllll": 4424,
      "ĠInternet": 4425,
      "elh": 4426,
      "cando": 4427,
      "Ġduvida": 4428,
      "Ġquebrada": 4429,
      "Ġbuscar": 4430,
      "Ġ27": 4431,
      "Ġmoderna": 4432,
      "ĠUSO": 4433,
      "Ġagenda": 4434,
      "Ġreconh": 4435,
      "Material": 4436,
      "ciar": 4437,
      "ĠSol": 4438,
      "Ġcaros": 4439,
      "Ġperfumes": 4440,
      "Ġtestar": 4441,
      "33": 4442,
      "mp": 4443,
      "Ġgru": 4444,
      "Ġacer": 4445,
      "Ġelevado": 4446,
      "ĠusÃ¡": 4447,
      "Ġpesados": 4448,
      "Ġavali": 4449,
      "Ġrobusto": 4450,
      "GAN": 4451,
      "ĠPEN": 4452,
      "Ġexcep": 4453,
      "ĠMEN": 4454,
      "ĠJa": 4455,
      "Ġmensagens": 4456,
      "ĠFOR": 4457,
      "ĠBluetooth": 4458,
      "Ġani": 4459,
      "ĠJO": 4460,
      "Ġlac": 4461,
      "ĠÃ¡rea": 4462,
      "emora": 4463,
      "Ġcoz": 4464,
      "Ġfalando": 4465,
      "Ġindicado": 4466,
      "ĠmÃŃnimo": 4467,
      "oje": 4468,
      "Ġolh": 4469,
      "dez": 4470,
      "Ġpretendo": 4471,
      "ĠFra": 4472,
      "Ġexpan": 4473,
      "Ġsolu": 4474,
      "ciosa": 4475,
      "Ġchave": 4476,
      "Ġtelevisor": 4477,
      "Ġutilizando": 4478,
      "Ġescuro": 4479,
      "ĠconteÃºdo": 4480,
      "Ġoportunidade": 4481,
      ".,": 4482,
      "TEN": 4483,
      "Ġtre": 4484,
      "ĠLI": 4485,
      "face": 4486,
      "ĠRealmente": 4487,
      "Ġproporciona": 4488,
      "ĠimpecÃ¡vel": 4489,
      "ctrolux": 4490,
      "tebook": 4491,
      "Ġped": 4492,
      "Ġcentral": 4493,
      "Ġinsatisfeito": 4494,
      "Ġborra": 4495,
      "DES": 4496,
      "Ġren": 4497,
      "Ġparabens": 4498,
      "Ġmadeira": 4499,
      "ĠSer": 4500,
      "Ġfoco": 4501,
      "tendimento": 4502,
      "Ġsurpreendi": 4503,
      "ĠENTREGUE": 4504,
      "ĠresidÃªncia": 4505,
      "17": 4506,
      "top": 4507,
      "Ġquei": 4508,
      "Ġfix": 4509,
      "elha": 4510,
      "Ġdesmon": 4511,
      "Ġnosso": 4512,
      "Ġinstalei": 4513,
      "Ġconserto": 4514,
      "zzzzzzzz": 4515,
      "hi": 4516,
      "esa": 4517,
      "ĠCUSTO": 4518,
      "Ġ28": 4519,
      "Ġnavegar": 4520,
      "ĠSatis": 4521,
      "Ġelogios": 4522,
      "BO": 4523,
      "ĠDecep": 4524,
      "meu": 4525,
      "Ġtecnica": 4526,
      "Ġtelef": 4527,
      "Ġaquele": 4528,
      "ĠgeraÃ§Ã£o": 4529,
      "ĠprÃ³ximo": 4530,
      "ĠMaterial": 4531,
      "Lo": 4532,
      "udou": 4533,
      "ĠVEIO": 4534,
      "ĠESTÃģ": 4535,
      "Ġenviei": 4536,
      "Ġescrito": 4537,
      "Ġdorm": 4538,
      "Ġcontente": 4539,
      "Ã³tima": 4540,
      "ĠOTIMO": 4541,
      "Ġstar": 4542,
      "cipa": 4543,
      "nnnnnnnnnnnnnnnn": 4544,
      "Ġprecisando": 4545,
      "Ġferramenta": 4546,
      "OOOOOOOO": 4547,
      "Ġms": 4548,
      "quem": 4549,
      "Ġrapid": 4550,
      "Ġacontece": 4551,
      "ssssssss": 4552,
      "ardware": 4553,
      "hando": 4554,
      "ĠnÃ©": 4555,
      "Ġrecep": 4556,
      "ESS": 4557,
      "Ġtransportar": 4558,
      "Ġescri": 4559,
      "mara": 4560,
      "ĠPou": 4561,
      "ĠRÃģ": 4562,
      "Ġaroma": 4563,
      "Ġsozinha": 4564,
      "Ġbasta": 4565,
      "Ġacredi": 4566,
      "ĠgravaÃ§Ã£o": 4567,
      "Ġcostura": 4568,
      "Facil": 4569,
      "VIL": 4570,
      "bol": 4571,
      "ãħ": 4572,
      "Ġ)": 4573,
      "Ġbreve": 4574,
      "Ġlente": 4575,
      "ĠLE": 4576,
      "Ġachando": 4577,
      "ĠportuguÃªs": 4578,
      "ãħ¤": 4579,
      "isti": 4580,
      "heres": 4581,
      "fiquei": 4582,
      "ENE": 4583,
      "Ġcanal": 4584,
      "Ġintelig": 4585,
      "Ġprofissionais": 4586,
      "Ġaberta": 4587,
      "Ġestabelecido": 4588,
      "Ġfres": 4589,
      "Ġpratel": 4590,
      "oogle": 4591,
      "Ġchegaram": 4592,
      "Ġgostoso": 4593,
      "Ġcontraste": 4594,
      "IXA": 4595,
      "Ġalcance": 4596,
      "ĠversÃ¡til": 4597,
      "DADE": 4598,
      "recebi": 4599,
      "Ġparceiros": 4600,
      "ĠPROBLEMA": 4601,
      "ceramente": 4602,
      "ãħ¤ãħ¤": 4603,
      "iente": 4604,
      "Ġdeco": 4605,
      "Ġrefere": 4606,
      "lex": 4607,
      "TIL": 4608,
      "Ġcolch": 4609,
      "ĠSuperou": 4610,
      "ĠÃŃ": 4611,
      "Ġclas": 4612,
      "ĠsÃ©": 4613,
      "Ġnovos": 4614,
      "ĠÃļ": 4615,
      "ĠFo": 4616,
      "Ġcola": 4617,
      "Ġefetuar": 4618,
      "Ġinformar": 4619,
      "NTE": 4620,
      "Ġmedida": 4621,
      "ĠresistÃªncia": 4622,
      "quila": 4623,
      "Ġpaco": 4624,
      "Ġhome": 4625,
      "Ġficaram": 4626,
      "Ġexperiencia": 4627,
      "Ġcafeteira": 4628,
      "Ġeconomico": 4629,
      "Ġrisco": 4630,
      "Ġfonte": 4631,
      "Ġconver": 4632,
      "ĠPELO": 4633,
      "ĠDis": 4634,
      "ĠBon": 4635,
      "Ġboni": 4636,
      "ĠQuem": 4637,
      "Ġfotografia": 4638,
      "nia": 4639,
      "Ġcul": 4640,
      "Ġfilhos": 4641,
      "Ġ04": 4642,
      "ĠbÃ¡sico": 4643,
      ";;": 4644,
      "cÃŃ": 4645,
      "the": 4646,
      "ossi": 4647,
      "doro": 4648,
      "ord": 4649,
      "desse": 4650,
      "ĠcomeÃ§o": 4651,
      "ĠRÃģP": 4652,
      "BB": 4653,
      "Ġestima": 4654,
      "ĠAcab": 4655,
      "terna": 4656,
      "ĠDESIGN": 4657,
      "Ġnormalmente": 4658,
      "30": 4659,
      "Ġeletro": 4660,
      "TICO": 4661,
      "Ġpesquisar": 4662,
      "Ġganhar": 4663,
      "Ġcomprom": 4664,
      "ĠtÃªm": 4665,
      "PÃ©ssimo": 4666,
      "UMA": 4667,
      "foi": 4668,
      "Ġamando": 4669,
      "ULAR": 4670,
      "Ġpensa": 4671,
      "Ġgal": 4672,
      "Ġapos": 4673,
      "ulas": 4674,
      "Ġleitor": 4675,
      "Ġfios": 4676,
      "Ġmarido": 4677,
      "ĠISSO": 4678,
      "ĠJA": 4679,
      "Ġfragancia": 4680,
      "IMENTO": 4681,
      "cessador": 4682,
      "TÃĥO": 4683,
      "agens": 4684,
      "Ġfura": 4685,
      "Ġcomer": 4686,
      "Ġvaria": 4687,
      "ĠAss": 4688,
      "ĠNem": 4689,
      "Ġcair": 4690,
      "Ġrecebe": 4691,
      "Ġinclu": 4692,
      "ĠRecomenda": 4693,
      "Ġmusicas": 4694,
      "ĠiPad": 4695,
      "Ġventilador": 4696,
      "Ġcho": 4697,
      "Ġvantagem": 4698,
      "Ġlenta": 4699,
      "Ġsolta": 4700,
      "OLO": 4701,
      "bem": 4702,
      "ĠSON": 4703,
      "Ġmanter": 4704,
      "Ġfalha": 4705,
      "imou": 4706,
      "ĠfÃ¡ceis": 4707,
      "jam": 4708,
      "Ġsorte": 4709,
      "ell": 4710,
      "Ġime": 4711,
      "Ġcorreta": 4712,
      "credito": 4713,
      "Ġess": 4714,
      "Ġprefer": 4715,
      "Ġtranquila": 4716,
      "Ġpresentear": 4717,
      "Ġbranca": 4718,
      "POR": 4719,
      "Ġof": 4720,
      "tibilidade": 4721,
      "ĠRAM": 4722,
      "ĠEssa": 4723,
      "Ġdesigne": 4724,
      "Ġdizem": 4725,
      "ĠCompra": 4726,
      "ĠconexÃµes": 4727,
      "Ġaspecto": 4728,
      "ĠNENHUM": 4729,
      "EU": 4730,
      "Ġaque": 4731,
      "Ġperfeitos": 4732,
      "ĠiPhone": 4733,
      "Acho": 4734,
      "Gosto": 4735,
      "iro": 4736,
      "amei": 4737,
      "Ġparti": 4738,
      "Ġqdo": 4739,
      "ĠÃĵTIMA": 4740,
      "Ġcaiu": 4741,
      "CH": 4742,
      "FA": 4743,
      "ĠVEN": 4744,
      "ĠTVs": 4745,
      "Ġ42": 4746,
      "Ġpasso": 4747,
      "Ġconfortavel": 4748,
      "Ġdiferencia": 4749,
      "Ġaguardar": 4750,
      "Ġexterna": 4751,
      "Ġverificar": 4752,
      "dj": 4753,
      "Ġabre": 4754,
      "Ġcomplica": 4755,
      "ĠCam": 4756,
      "Ġparcel": 4757,
      "Ġ48": 4758,
      "Ġmicroondas": 4759,
      "ĠaÃ§Ã£o": 4760,
      "Ġbra": 4761,
      "Ġgira": 4762,
      "Ġterei": 4763,
      "ISA": 4764,
      "Ġprocu": 4765,
      "ĠCompa": 4766,
      "Ġ05": 4767,
      "Ġtriste": 4768,
      "Ġajudar": 4769,
      "40": 4770,
      "IO": 4771,
      "jado": 4772,
      "Ġolhos": 4773,
      "TOS": 4774,
      "TERIA": 4775,
      "priu": 4776,
      "ĠLoja": 4777,
      "Ġ:)": 4778,
      "Ġguarda": 4779,
      "gre": 4780,
      "Ġqueimou": 4781,
      "Ġuni": 4782,
      "ĠAB": 4783,
      "ouch": 4784,
      "gador": 4785,
      "Ġtu": 4786,
      "ĠDEV": 4787,
      "ĠsatisfatÃ³rio": 4788,
      "Ġunidade": 4789,
      "Ġmedidas": 4790,
      "ĠPOUCO": 4791,
      "Simplesmente": 4792,
      "ral": 4793,
      "Ġpronto": 4794,
      "cionada": 4795,
      "Ġdistri": 4796,
      "Ġcabos": 4797,
      "Ġgraficos": 4798,
      "Ġplan": 4799,
      "Ġvariedade": 4800,
      "Ġsuporta": 4801,
      "Ġexcepcional": 4802,
      "Ġenj": 4803,
      "ĠinÃŃcio": 4804,
      "ĠCas": 4805,
      "ĠSD": 4806,
      "ĠTra": 4807,
      "ĠFica": 4808,
      "gir": 4809,
      "Ġdiferencial": 4810,
      "Ġamassada": 4811,
      "ĠÃºltima": 4812,
      "GAR": 4813,
      "Ġquesito": 4814,
      "Ġpend": 4815,
      "Ġaspirador": 4816,
      "phones": 4817,
      "66": 4818,
      "otima": 4819,
      "entemente": 4820,
      "Ġnovas": 4821,
      "Ġdado": 4822,
      "ebook": 4823,
      "Quero": 4824,
      "Ġantiga": 4825,
      "ĠpropÃµe": 4826,
      "ĠfantÃ¡stica": 4827,
      "adas": 4828,
      "cina": 4829,
      "ty": 4830,
      "Ġsus": 4831,
      "ĠlÃŃ": 4832,
      "Ġdoc": 4833,
      "Ġreceita": 4834,
      "Ġrecomen": 4835,
      "hada": 4836,
      "OLU": 4837,
      "Ġimporta": 4838,
      ",,,,,,,,": 4839,
      "Ġgelada": 4840,
      "Ġincomoda": 4841,
      "Ġstark": 4842,
      "quando": 4843,
      "osi": 4844,
      "Ġembu": 4845,
      "leo": 4846,
      "icitei": 4847,
      "Ġportabilidade": 4848,
      "Ġaprovado": 4849,
      "Ġferro": 4850,
      "ÃŃnio": 4851,
      "Ġmovimento": 4852,
      "Ġpalavras": 4853,
      "fei": 4854,
      "vendo": 4855,
      "ario": 4856,
      "ĠAGU": 4857,
      "ĠPrÃ¡tico": 4858,
      "ĠCelular": 4859,
      "ĠCumpre": 4860,
      "Ġponta": 4861,
      "Ġgravar": 4862,
      "Ġwireless": 4863,
      "Ġsele": 4864,
      "ĠVA": 4865,
      "ÃĬN": 4866,
      "ĠNetflix": 4867,
      "Ġimedia": 4868,
      "ater": 4869,
      "didade": 4870,
      "Ġquad": 4871,
      "Ġunico": 4872,
      "Ġacabou": 4873,
      "Ġdevolvi": 4874,
      "Ġgarantida": 4875,
      "Ġdeterminado": 4876,
      "Ġrecomento": 4877,
      "colo": 4878,
      "ĠTA": 4879,
      "ĠTRA": 4880,
      "Ġ220": 4881,
      "ĠFacilidade": 4882,
      "dÃŃssimo": 4883,
      "ĠpÃ³s": 4884,
      "Ġvindo": 4885,
      "ĠPÃīSSI": 4886,
      "Ġpreco": 4887,
      "ĠQUANDO": 4888,
      "Ġsensi": 4889,
      "ĠApÃ³s": 4890,
      "Ġpudesse": 4891,
      "UNG": 4892,
      "Ã©dito": 4893,
      "Ġreduz": 4894,
      "gura": 4895,
      "sada": 4896,
      "Ġacha": 4897,
      "Ġrecebo": 4898,
      "Ġmusica": 4899,
      "____": 4900,
      "Res": 4901,
      "garam": 4902,
      "rece": 4903,
      "Ġench": 4904,
      "ĠPED": 4905,
      "enefÃŃcio": 4906,
      "Ġchar": 4907,
      "Ġcorrespondeu": 4908,
      "Ġreconhe": 4909,
      "CAS": 4910,
      "SUNG": 4911,
      "Ġcou": 4912,
      "Ġmach": 4913,
      "Ġpodendo": 4914,
      "xxxxxxxxxxxxxxxxxxxxxxxxxxxxxxxxxxxxxxxxxxxxxxxxxxxxxxxxxxxxxxxx": 4915,
      "AAAAAAAA": 4916,
      "cd": 4917,
      ".......": 4918,
      "Ġmancha": 4919,
      "inais": 4920,
      "ELE": 4921,
      "Ġtvs": 4922,
      "***": 4923,
      "Ġcontroles": 4924,
      "Depois": 4925,
      "XXXXXXXX": 4926,
      "COMPREI": 4927,
      "ĠcolchÃ£o": 4928,
      "Ġenjoa": 4929,
      "kg": 4930,
      "uais": 4931,
      "Ġdoce": 4932,
      "ĠDIS": 4933,
      "izador": 4934,
      "ĠIndico": 4935,
      "Ba": 4936,
      "Ġcongel": 4937,
      "Ġpren": 4938,
      "ĠMARA": 4939,
      "ĠsensaÃ§Ã£o": 4940,
      "Ġrastreamento": 4941,
      "Ġconversor": 4942,
      "ner": 4943,
      "Ġ#": 4944,
      "timos": 4945,
      "ĠTRO": 4946,
      "Ġfalsifica": 4947,
      "Ġconstante": 4948,
      "Ġtimer": 4949,
      "Ġseguinte": 4950,
      "lhas": 4951,
      "BIL": 4952,
      "NS": 4953,
      "ĠvÃª": 4954,
      "TOR": 4955,
      "Ġtecla": 4956,
      "idra": 4957,
      "ĠelÃ©trica": 4958,
      "Ġnecessita": 4959,
      "bs": 4960,
      "entÃ¡vel": 4961,
      "ĠCEL": 4962,
      "Ġiphone": 4963,
      "uita": 4964,
      "ĠLindo": 4965,
      "Ġpouquinho": 4966,
      "ĠEstÃ¡": 4967,
      "CADO": 4968,
      "Ġagradou": 4969,
      "Ġconsumidores": 4970,
      "Ġaspectos": 4971,
      "Ġsujeira": 4972,
      "Ġregulagem": 4973,
      "VILHOS": 4974,
      "ris": 4975,
      "ĠCD": 4976,
      "ĠSeu": 4977,
      "mails": 4978,
      "Ġutilizei": 4979,
      "ĠOutro": 4980,
      "Perfume": 4981,
      "ĠAVAL": 4982,
      "esquisei": 4983,
      "pixels": 4984,
      "Ġdrive": 4985,
      "Ġce": 4986,
      "ĠParece": 4987,
      "ĠDa": 4988,
      "Ġmassa": 4989,
      "ĠESSA": 4990,
      "Ġaproxima": 4991,
      "Ġgasta": 4992,
      "ĠDURA": 4993,
      "Ġquatro": 4994,
      "Ġcompartimento": 4995,
      "Bem": 4996,
      "FER": 4997,
      "vd": 4998,
      "hop": 4999,
      "Ġprepara": 5000,
      "Ġaparentemente": 5001,
      "ROU": 5002,
      "Ġficando": 5003,
      "ĠeconÃ´mica": 5004,
      "Ġaumenta": 5005,
      "$$": 5006,
      "veram": 5007,
      "Ġproduz": 5008,
      "emin": 5009,
      "gueira": 5010,
      "ÃŃli": 5011,
      "fir": 5012,
      "ĠDEFEITO": 5013,
      "Ġcarrinho": 5014,
      "Ġhardware": 5015,
      "Ġvergon": 5016,
      "Ġimprim": 5017,
      "Ġcaracteris": 5018,
      "ĊĊĊĊĊĊĊĊĊĊĊĊĊĊĊĊĊĊĊĊĊĊĊĊĊĊĊĊĊĊĊĊ": 5019,
      "500": 5020,
      "Ela": 5021,
      "Ġ=": 5022,
      "Ġentregam": 5023,
      "ĠFÃģ": 5024,
      "culdade": 5025,
      "Ġtrabalha": 5026,
      "ĠTEMPO": 5027,
      "ÃĬS": 5028,
      "ĠcrÃ©dito": 5029,
      "Ġpergun": 5030,
      "Ġacessivel": 5031,
      "Nunca": 5032,
      "bro": 5033,
      "cm": 5034,
      "fh": 5035,
      "into": 5036,
      "dedor": 5037,
      "Ġlega": 5038,
      "ĠprÃ³xima": 5039,
      "ĠsofÃ¡": 5040,
      "Ġdormir": 5041,
      "Obri": 5042,
      "far": 5043,
      "hz": 5044,
      "tÃ©m": 5045,
      "Ġfran": 5046,
      "Ġexi": 5047,
      "ilar": 5048,
      "Ġdesenho": 5049,
      "fortÃ¡vel": 5050,
      "ĠresponsÃ¡vel": 5051,
      "Ġadequada": 5052,
      "Ġsensor": 5053,
      "ĠEntrei": 5054,
      "Ġdimin": 5055,
      "Ta": 5056,
      "dom": 5057,
      "Ġontem": 5058,
      "asse": 5059,
      "Ġfru": 5060,
      "ticado": 5061,
      "ĠCAS": 5062,
      "ĠFIL": 5063,
      "Ġprecisei": 5064,
      "Ġusada": 5065,
      "ĠNatal": 5066,
      "Ġpensar": 5067,
      "Ġresultados": 5068,
      "Ġquerendo": 5069,
      "grÃ¡": 5070,
      "sta": 5071,
      "wer": 5072,
      "tais": 5073,
      "hou": 5074,
      "ĠDAS": 5075,
      "Ġali": 5076,
      "Ġjoguei": 5077,
      "ixaÃ§Ã£o": 5078,
      "gary": 5079,
      "ĠQUEM": 5080,
      "mentos": 5081,
      "Ġviagem": 5082,
      "Ġoperar": 5083,
      "Ġregistra": 5084,
      "ky": 5085,
      "Ġocas": 5086,
      "Ġreini": 5087,
      "ĠSimplesmente": 5088,
      "Ġtirando": 5089,
      "ĠAlgu": 5090,
      "eeeeeeee": 5091,
      "ĠespaÃ§oso": 5092,
      "theon": 5093,
      "Adquiri": 5094,
      "Ġblo": 5095,
      "cidos": 5096,
      "Ġcompon": 5097,
      "Ġtempos": 5098,
      "Ġpermi": 5099,
      "ramos": 5100,
      "Ġavaria": 5101,
      "Ġbrinca": 5102,
      "UME": 5103,
      "Ġmicrofone": 5104,
      "oft": 5105,
      "vou": 5106,
      "ĠterÃ¡": 5107,
      "Ġnamo": 5108,
      "Ġtrin": 5109,
      "Ġadqui": 5110,
      "Ġfantas": 5111,
      "uuuuuuuu": 5112,
      "Satis": 5113,
      "JA": 5114,
      "ip": 5115,
      "quinas": 5116,
      "Ġlg": 5117,
      "ANTO": 5118,
      "Ġpilha": 5119,
      "Ġpipoca": 5120,
      "Ġamassado": 5121,
      "ðŁĳ": 5122,
      "garyen": 5123,
      "Ġvamos": 5124,
      "ĠvisÃ£o": 5125,
      "ĠCONSU": 5126,
      "ĠDeveria": 5127,
      "Ġintuitivo": 5128,
      "ĠBATERIA": 5129,
      "Ġtranquilo": 5130,
      "Tive": 5131,
      "fal": 5132,
      "rindo": 5133,
      "Ã§ar": 5134,
      "rido": 5135,
      "ĠPAR": 5136,
      "tivel": 5137,
      "Ġbater": 5138,
      "ĠLa": 5139,
      "Ġfique": 5140,
      "Ġarru": 5141,
      "ĠMarca": 5142,
      "Ġtexto": 5143,
      "Ġreproduz": 5144,
      "men": 5145,
      "Ã§ada": 5146,
      "ĠEXP": 5147,
      "dencia": 5148,
      "ÃįVEL": 5149,
      "ĠsensÃŃvel": 5150,
      "aaaaaaaaaaaaaaaaaaaaaaaaaaaaaaaa": 5151,
      "Ġexclus": 5152,
      "Ġdiscreto": 5153,
      "gs": 5154,
      "izada": 5155,
      "Ġrecebimento": 5156,
      "EIRA": 5157,
      "Ġresponder": 5158,
      "Ġyoutube": 5159,
      "ndos": 5160,
      "onic": 5161,
      "ecas": 5162,
      "Ġsemelh": 5163,
      "ĠFal": 5164,
      "Ġ29": 5165,
      "Ġtermos": 5166,
      "essura": 5167,
      "Ġrodar": 5168,
      "ĠserviÃ§os": 5169,
      "Ġpossibilita": 5170,
      "ĠOUTRA": 5171,
      "meros": 5172,
      "ĠlouÃ§a": 5173,
      "Ġdependendo": 5174,
      "Ġanivers": 5175,
      "Ġrapidinho": 5176,
      "cta": 5177,
      "odo": 5178,
      "tidez": 5179,
      "Ġressal": 5180,
      "ĠLA": 5181,
      "TAR": 5182,
      "Ġinterface": 5183,
      "Ġdecepcionei": 5184,
      "ĠRÃ¡pido": 5185,
      "100": 5186,
      "ĠreposiÃ§Ã£o": 5187,
      "Ġentrou": 5188,
      "Ġexcel": 5189,
      "ĠBo": 5190,
      "nicas": 5191,
      "ĠCOMPRE": 5192,
      "trifu": 5193,
      "Realmente": 5194,
      "Ġfirme": 5195,
      "Ġidenti": 5196,
      "Cumpre": 5197,
      "Liv": 5198,
      "ĠSou": 5199,
      "Ġdiv": 5200,
      "ĠTEC": 5201,
      "ĠIm": 5202,
      "ĠgrÃ¡fica": 5203,
      "Ġescura": 5204,
      "ĠlÃ¢mpa": 5205,
      "Ġcompromisso": 5206,
      "Hz": 5207,
      "PreÃ§o": 5208,
      "rÃŃveis": 5209,
      "Ġplu": 5210,
      "ĠCER": 5211,
      "ĠDu": 5212,
      "Ġmelhora": 5213,
      "Ġinovador": 5214,
      "Ġ2017": 5215,
      "Entregue": 5216,
      "Ġresponsabilidade": 5217,
      "Ġlegais": 5218,
      "Ġemp": 5219,
      "Ġapo": 5220,
      "ĠHoje": 5221,
      "Ġteste": 5222,
      "Ġexperim": 5223,
      "Ġimpressionante": 5224,
      "Ġocasi": 5225,
      "Ġocor": 5226,
      "ĠgÃ¡s": 5227,
      "Ġmoro": 5228,
      "!!!!!!": 5229,
      "Ġhaver": 5230,
      "ĠcomeÃ§ar": 5231,
      "Funciona": 5232,
      "Ġdispositivo": 5233,
      "Ġpacote": 5234,
      "Bonito": 5235,
      "HD": 5236,
      "ÃĤ": 5237,
      "rancia": 5238,
      "Ġbaratheon": 5239,
      "AMSUNG": 5240,
      "Ġbebe": 5241,
      "IXO": 5242,
      "ĠGOSTEI": 5243,
      "emorou": 5244,
      "Am": 5245,
      "Imagem": 5246,
      "deal": 5247,
      "Ġemb": 5248,
      "Ġnatura": 5249,
      "Ġpodemos": 5250,
      "ĠÃ¡gil": 5251,
      "ilares": 5252,
      "rsrs": 5253,
      "ĠtrÃ¡s": 5254,
      "Ġinver": 5255,
      "Ġrealidade": 5256,
      "Ġligou": 5257,
      "Ġviagens": 5258,
      "Ġimaginei": 5259,
      "Ġquerer": 5260,
      "INHAS": 5261,
      "ĠnÃŃtida": 5262,
      "igital": 5263,
      "iu": 5264,
      "ĠAssim": 5265,
      "Ġtur": 5266,
      "solu": 5267,
      "ĠSilencioso": 5268,
      "Ġamb": 5269,
      "OMENTO": 5270,
      "Ġcob": 5271,
      "Ġenviou": 5272,
      "Ġcontinuar": 5273,
      "ĠPERFEITO": 5274,
      "ÃĬNCIA": 5275,
      ");": 5276,
      "sd": 5277,
      "ĠtÃŃ": 5278,
      "ĠELA": 5279,
      "coes": 5280,
      "ĠÃģ": 5281,
      "fice": 5282,
      "forme": 5283,
      "Ġinvestir": 5284,
      "ĠTIVE": 5285,
      "Maravilhoso": 5286,
      "Pa": 5287,
      "ĠTAM": 5288,
      "izando": 5289,
      "Ġutilizo": 5290,
      "faÃ§Ã£o": 5291,
      "Ġpassaram": 5292,
      "ĠElectrolux": 5293,
      "baixo": 5294,
      "Ġsalgado": 5295,
      "ĠPequ": 5296,
      "90": 5297,
      "gica": 5298,
      "oda": 5299,
      "ĠOP": 5300,
      "Ġdemorado": 5301,
      "Ġinformando": 5302,
      "Ġgostam": 5303,
      "Ġimpe": 5304,
      "Ġfizeram": 5305,
      "Ġconhecida": 5306,
      "POIS": 5307,
      "RECOMENDO": 5308,
      "fre": 5309,
      "ios": 5310,
      "heater": 5311,
      "ficar": 5312,
      "Ġsaem": 5313,
      "Ġpesada": 5314,
      "medi": 5315,
      "Ġ500": 5316,
      "ĠcomeÃ§a": 5317,
      "Ġrelativamente": 5318,
      "mmmmmmmmmmmmmmmmmmmmmmmmmmmmmmmm": 5319,
      "ĠSONY": 5320,
      "Dei": 5321,
      "vale": 5322,
      "Ġsimilares": 5323,
      "Ġinformou": 5324,
      "Livro": 5325,
      "dinha": 5326,
      "hÃ£": 5327,
      "tulo": 5328,
      "Ġfemin": 5329,
      "ecei": 5330,
      "Ġdesper": 5331,
      "ĠSan": 5332,
      "ĠFICA": 5333,
      "metro": 5334,
      "Ġsegundos": 5335,
      "ĠPerfume": 5336,
      "Ġevitar": 5337,
      "Ġestimado": 5338,
      "LO": 5339,
      "cs": 5340,
      "ht": 5341,
      "ĠCompre": 5342,
      "Ġdessas": 5343,
      "ĠDo": 5344,
      "ĠVOC": 5345,
      "MAN": 5346,
      "Ġsolicitado": 5347,
      "Ġtargaryen": 5348,
      "vvvvvvvvvvvvvvvv": 5349,
      "ĠConsul": 5350,
      "ĠBONITO": 5351,
      "lada": 5352,
      "ĠCAN": 5353,
      "segu": 5354,
      "ĠfunÃ§oes": 5355,
      "Ġanda": 5356,
      "Ġpaci": 5357,
      "Ġdisponibil": 5358,
      "ĠCELULAR": 5359,
      "ĠFÃģCIL": 5360,
      "atÃ©": 5361,
      "Ġdica": 5362,
      "Ġcompe": 5363,
      "ĠSistema": 5364,
      "ĠSAMSUNG": 5365,
      "Ġpol": 5366,
      "ĠDigital": 5367,
      "Ġcadeiras": 5368,
      "ferir": 5369,
      "Ġdiretamente": 5370,
      "nomia": 5371,
      "Ġgarra": 5372,
      "Ġenro": 5373,
      "Ġsecar": 5374,
      "arei": 5375,
      "Ġesteja": 5376,
      "tadores": 5377,
      "GUEI": 5378,
      "Ġmulher": 5379,
      "Ġcentrifu": 5380,
      "ĠprogramaÃ§Ã£o": 5381,
      "hhhhhhhh": 5382,
      "Ġpreocupa": 5383,
      "Ġempresas": 5384,
      "Ġmec": 5385,
      "ĠPI": 5386,
      "ĠRU": 5387,
      "ĠRAP": 5388,
      "Ġtam": 5389,
      "ĠBENE": 5390,
      "Ġhidra": 5391,
      "Ġtravar": 5392,
      "Ġconstru": 5393,
      "ĠavanÃ§a": 5394,
      "Ġcheia": 5395,
      "Ġestavam": 5396,
      "arias": 5397,
      "ĠoperaÃ§Ã£o": 5398,
      "ĠgrÃ¡fico": 5399,
      "ĠTodos": 5400,
      "Ġchamadas": 5401,
      "yyyy": 5402,
      "Ġvergonha": 5403,
      "://": 5404,
      "nÃ§a": 5405,
      "Ġvas": 5406,
      "cara": 5407,
      "Ġalum": 5408,
      "reiro": 5409,
      "ĠVEZ": 5410,
      "mbora": 5411,
      "ĠUSAR": 5412,
      "OJE": 5413,
      "Ġconectado": 5414,
      "ĠESPERA": 5415,
      "Ġpedindo": 5416,
      "CU": 5417,
      "MAR": 5418,
      "usca": 5419,
      "ĠperÃŃ": 5420,
      "grade": 5421,
      "icros": 5422,
      "RIO": 5423,
      "Ġsurpreendente": 5424,
      "Ġaberto": 5425,
      "Ġjusti": 5426,
      "presenta": 5427,
      "ĠPELA": 5428,
      "Ġtanta": 5429,
      "sivo": 5430,
      "Ġmangueira": 5431,
      "Ġcortina": 5432,
      "ĠHOJE": 5433,
      "ĠfabricaÃ§Ã£o": 5434,
      "Ġnitidez": 5435,
      "++++++++++++++++": 5436,
      "ĠdomÃ©stico": 5437,
      "chor": 5438,
      "Ġafir": 5439,
      "Ġcus": 5440,
      "firo": 5441,
      "Ġconfiar": 5442,
      "IIII": 5443,
      "ĠMARAVILHOS": 5444,
      "VIS": 5445,
      "bli": 5446,
      "fesso": 5447,
      "ie": 5448,
      "Ġprofun": 5449,
      "ĠPena": 5450,
      "ĠTentei": 5451,
      "Ġalte": 5452,
      "Ġtaman": 5453,
      "Ġmesmas": 5454,
      "ĠVem": 5455,
      "Ġformatos": 5456,
      "Ġnegativa": 5457,
      "ĠPREC": 5458,
      "Ġabertura": 5459,
      "EXCELENTE": 5460,
      "achei": 5461,
      "teador": 5462,
      "esto": 5463,
      "Ġing": 5464,
      "ÃŃzo": 5465,
      "Ġpagando": 5466,
      "Ġutilidade": 5467,
      "ECTA": 5468,
      "Ġdemorar": 5469,
      "Ġobter": 5470,
      "Ġatualizado": 5471,
      "Ġacompanhar": 5472,
      "Ġajuste": 5473,
      "Ġculpa": 5474,
      "EGA": 5475,
      "mis": 5476,
      "Ġedu": 5477,
      "cais": 5478,
      "Ġcachor": 5479,
      "Ġboleto": 5480,
      "Ġreser": 5481,
      "ĠQUERO": 5482,
      "Ġnossas": 5483,
      "Ġrastreio": 5484,
      "ĠATEND": 5485,
      "Ġotimos": 5486,
      "Ġplastico": 5487,
      "rom": 5488,
      "tÃ¢ncia": 5489,
      "Ġphil": 5490,
      "ĠnÃ³s": 5491,
      "Ġfas": 5492,
      "ona": 5493,
      "ĠinvÃ©s": 5494,
      "INAL": 5495,
      "Ġapresentar": 5496,
      "Ġpano": 5497,
      "pleto": 5498,
      "xyxy": 5499,
      "Ġlimite": 5500,
      "Ġ2018": 5501,
      "ĠusuÃ¡rios": 5502,
      "tÃŃssimo": 5503,
      "tÃŃssima": 5504,
      "queira": 5505,
      "Ġparar": 5506,
      "Ġinten": 5507,
      "ĠDOS": 5508,
      "Ġdivi": 5509,
      "ĠOtima": 5510,
      "Ġsob": 5511,
      "Ġdeixam": 5512,
      "Ġ64": 5513,
      "Ġoperadora": 5514,
      "ĠPhilco": 5515,
      "Ġobjetivo": 5516,
      "Ġsofisticado": 5517,
      "Ġatividades": 5518,
      "ĠPENA": 5519,
      "VO": 5520,
      "fÃ¡cil": 5521,
      "asonic": 5522,
      "tim": 5523,
      "iado": 5524,
      "Ġexer": 5525,
      "ĠÃ³leo": 5526,
      "Ġespec": 5527,
      "Ġprimeiros": 5528,
      "Ġaquela": 5529,
      "Ġsatisfaz": 5530,
      "Ġdimens": 5531,
      "TIVO": 5532,
      "dddddddd": 5533,
      "Ġacostuma": 5534,
      "ĠirmÃ£": 5535,
      "dÃŃ": 5536,
      "Ġgri": 5537,
      "eitu": 5538,
      "ĠATE": 5539,
      "ĠNF": 5540,
      "ĠWal": 5541,
      "Ġchegado": 5542,
      "Ġvoltagem": 5543,
      "Faz": 5544,
      "Ġdescarrega": 5545,
      "Ġorienta": 5546,
      "STA": 5547,
      "Ġdri": 5548,
      "Ġqueda": 5549,
      "Ġtd": 5550,
      "Ġdesl": 5551,
      "Ġduro": 5552,
      "Ġgostar": 5553,
      "Compra": 5554,
      "Ġpux": 5555,
      "ĠavaliaÃ§Ãµes": 5556,
      "Ġhdmi": 5557,
      "ĠVALE": 5558,
      "gela": 5559,
      "Ãļ": 5560,
      "ĠvÃ¡": 5561,
      "cionou": 5562,
      "Ġlevei": 5563,
      "Ġdezembro": 5564,
      "Ġato": 5565,
      "Ġmando": 5566,
      "entro": 5567,
      "Ġmetal": 5568,
      "sao": 5569,
      "Ġespessura": 5570,
      "Ġchamada": 5571,
      "Ġ06": 5572,
      "Ġlimpo": 5573,
      "ĠALGU": 5574,
      "ĠLOJAS": 5575,
      "Ġresolveu": 5576,
      "Ġdispensa": 5577,
      "Ġcomentarios": 5578,
      "Ġautomaticamente": 5579,
      "Ġge": 5580,
      "gues": 5581,
      "Ġhom": 5582,
      "ĠHÃ¡": 5583,
      "terias": 5584,
      "ĠsabÃ£o": 5585,
      "ĠMUITA": 5586,
      "Ġestranho": 5587,
      "ĠvisualizaÃ§Ã£o": 5588,
      "Ġtravou": 5589,
      "ĠbÃ¡sicas": 5590,
      "Ġconfirma": 5591,
      "ĠmÃ³vel": 5592,
      "Ġgor": 5593,
      "ĠMINHAS": 5594,
      "Ġtao": 5595,
      "Ġleves": 5596,
      "........................": 5597,
      "Ġoptei": 5598,
      "Ġcheiros": 5599,
      "Ġ09": 5600,
      "ĠControle": 5601,
      "Ġtorno": 5602,
      "Ġviaj": 5603,
      "Ġbrincar": 5604,
      "Ġcombina": 5605,
      "KKKKKKKKKKKKKKKK": 5606,
      "Ġcaixas": 5607,
      "##": 5608,
      "ĠADO": 5609,
      "Ġmotorola": 5610,
      "Ġentregas": 5611,
      "ĠsolicitaÃ§Ã£o": 5612,
      "ĠcomunicaÃ§Ã£o": 5613,
      "gh": 5614,
      "ĠestÃ©": 5615,
      "ĠAD": 5616,
      "ĠPan": 5617,
      "Ġ360": 5618,
      "vio": 5619,
      "Ġpai": 5620,
      "Ġimpossi": 5621,
      "ĠEMPRE": 5622,
      "Ġgasto": 5623,
      "Ġajustes": 5624,
      "!!!!!!!!!!!!!!!!!!!!!!!!!!!!!!!!!!!!!!!!!!!!!!!!!!!!!!!!!!!!!!!!": 5625,
      "ĠFUNCIONA": 5626,
      "Ġpintura": 5627,
      "Ġexecu": 5628,
      "Ġintegrado": 5629,
      "Âª": 5630,
      "ĠmÃŃ": 5631,
      "Ġscreen": 5632,
      "Ġvanta": 5633,
      "Ġfamos": 5634,
      "ĠFor": 5635,
      "Ġneg": 5636,
      "Ġescolhi": 5637,
      "Ġreceitas": 5638,
      "OLUÃĩÃĥO": 5639,
      "CÃ¢mera": 5640,
      "Â°": 5641,
      "Ġcomentar": 5642,
      "desi": 5643,
      "Ġproto": 5644,
      "Ġesque": 5645,
      "Ġnatal": 5646,
      "ĠPAS": 5647,
      "siva": 5648,
      "Ġfalaram": 5649,
      "Ġpessima": 5650,
      "Ġopinar": 5651,
      "Ġfilmagem": 5652,
      "Ġanterio": 5653,
      "Ġirri": 5654,
      "Ġmulheres": 5655,
      "Ġdificuldades": 5656,
      "ĠTablet": 5657,
      "mons": 5658,
      "okok": 5659,
      "ĠlÃ¢m": 5660,
      "Ġdelicioso": 5661,
      "plica": 5662,
      "Ġfones": 5663,
      "ĠcomprÃ¡": 5664,
      "ilo": 5665,
      "ĠMac": 5666,
      "Ġju": 5667,
      "ĠIns": 5668,
      "Ġligada": 5669,
      "Ġintermedi": 5670,
      "ISTE": 5671,
      "MAIS": 5672,
      "Ġfral": 5673,
      "ĠApro": 5674,
      "Ġsmartphones": 5675,
      "Ġamare": 5676,
      "trutura": 5677,
      "Ġultima": 5678,
      "Ġcumpriu": 5679,
      "Ġpersonagens": 5680,
      "Ġinicial": 5681,
      "Ġlacrado": 5682,
      "BAL": 5683,
      "Ġcic": 5684,
      "ismo": 5685,
      "itou": 5686,
      "Ġrequis": 5687,
      "Ġlas": 5688,
      "Ġconcor": 5689,
      "ĠDINH": 5690,
      "Ġtoca": 5691,
      "Ġinteresse": 5692,
      "Ġenganado": 5693,
      "Ġfechar": 5694,
      "Ġbike": 5695,
      "Ġjaneiro": 5696,
      "ĠprejuÃŃzo": 5697,
      "Ġluminos": 5698,
      "Ġcolorido": 5699,
      "Ġemitida": 5700,
      "Ġescrever": 5701,
      "Ġinteligente": 5702,
      "Ja": 5703,
      "tinu": 5704,
      "Ġlen": 5705,
      "inhar": 5706,
      "ĠVOU": 5707,
      "giu": 5708,
      "Ġdevo": 5709,
      "imagem": 5710,
      "Ġencanta": 5711,
      "ĠINFOR": 5712,
      "ĠINTER": 5713,
      "Ġpositivos": 5714,
      "Ġpossivel": 5715,
      "Ġilustra": 5716,
      "ĠSEMPRE": 5717,
      "Ġconsidero": 5718,
      "ĠconsideraÃ§Ã£o": 5719,
      "Ġpersonal": 5720,
      "Ġapertar": 5721,
      "imentaÃ§Ã£o": 5722,
      "Ġchateada": 5723,
      "Ġanteriores": 5724,
      "sse": 5725,
      "emÃ³ria": 5726,
      "Ġvendo": 5727,
      "Ġrefor": 5728,
      "Ġescorre": 5729,
      "ĠÃ©poca": 5730,
      "Ġlentes": 5731,
      "Ġexce": 5732,
      "Ġresfria": 5733,
      "Ġfalso": 5734,
      "Ã´mico": 5735,
      "Ġsentir": 5736,
      "Ġautonomia": 5737,
      "Ġlevando": 5738,
      "Ġjogando": 5739,
      "cisa": 5740,
      "Ġatraente": 5741,
      "Ã³gico": 5742,
      "Ġequipamentos": 5743,
      "1111": 5744,
      "Ġatrapalha": 5745,
      "ĠAGUAR": 5746,
      "ĠTAMB": 5747,
      "ĠDINHEIRO": 5748,
      "Otima": 5749,
      "som": 5750,
      "Ġselo": 5751,
      "Ġid": 5752,
      "Ġsaco": 5753,
      "ĠLu": 5754,
      "Ġreclamei": 5755,
      "ĠResol": 5756,
      "ĠespaÃ§osa": 5757,
      "ĠPERFEITA": 5758,
      "ĠatualizaÃ§Ãµes": 5759,
      "by": 5760,
      "tinha": 5761,
      "Ġdvd": 5762,
      "lack": 5763,
      "Ġpratos": 5764,
      "ĠMOMENTO": 5765,
      "ĠVer": 5766,
      "Ġcorte": 5767,
      "ĠverÃ£o": 5768,
      "Ġacabar": 5769,
      "Ġatualmente": 5770,
      "ĠperÃŃodo": 5771,
      "ĠespecÃŃ": 5772,
      "Dura": 5773,
      "UAL": 5774,
      "vando": 5775,
      "ĠcÃ¡": 5776,
      "ass": 5777,
      "Ġgig": 5778,
      "Ġvoc": 5779,
      "Ġliso": 5780,
      "Ġinde": 5781,
      "ĠVC": 5782,
      "Ġtranstorno": 5783,
      "ĠfÃŃsica": 5784,
      "Ġborracha": 5785,
      "Ġaquecimento": 5786,
      "oom": 5787,
      "qualidade": 5788,
      "Ġdemons": 5789,
      "Ġregi": 5790,
      "Ġfatura": 5791,
      "visÃ£o": 5792,
      "Ġdistor": 5793,
      "Ġadul": 5794,
      "Ġroteador": 5795,
      "geis": 5796,
      "Ġemails": 5797,
      "Ġlindos": 5798,
      "////": 5799,
      "Ġaumentar": 5800,
      "Ġnotur": 5801,
      "Ġenjoativo": 5802,
      "BenefÃŃcio": 5803,
      "dentes": 5804,
      "seira": 5805,
      "tin": 5806,
      "Ġ***": 5807,
      "Ġtrem": 5808,
      "ĠMER": 5809,
      "Ġatuais": 5810,
      "Ã´mo": 5811,
      "Ġchegada": 5812,
      "Ġprocurava": 5813,
      "Ġvelocidades": 5814,
      "Ġvirtual": 5815,
      "Ġbrilh": 5816,
      "Ġtravess": 5817,
      "plit": 5818,
      "ket": 5819,
      "quenta": 5820,
      "Ġvento": 5821,
      "Ġmesmos": 5822,
      "Ġmenus": 5823,
      "Ġinformaram": 5824,
      "Ġsimilar": 5825,
      "Ġverdadeiro": 5826,
      "Ġ90": 5827,
      "Ġnatural": 5828,
      "SD": 5829,
      "dinho": 5830,
      "veio": 5831,
      "intendo": 5832,
      "lare": 5833,
      "Ġdurado": 5834,
      "Ġcontatos": 5835,
      "ĠNOTA": 5836,
      "Ġapartamento": 5837,
      "Ġplasma": 5838,
      "ĠPH": 5839,
      "Ġreceio": 5840,
      "ĠDual": 5841,
      "Ġfabri": 5842,
      "Ġatrasado": 5843,
      "ĠincrÃŃveis": 5844,
      "QUEI": 5845,
      "Ġtorneira": 5846,
      "Ġaprender": 5847,
      "Ġlumin": 5848,
      "Ġpendrive": 5849,
      "od": 5850,
      "Ġapple": 5851,
      "ĠFU": 5852,
      "IST": 5853,
      "ĠPRODUTOS": 5854,
      "Ġvoltou": 5855,
      "xatamente": 5856,
      "Ġmaravilha": 5857,
      "BILIDADE": 5858,
      "Ġreserva": 5859,
      "Ġeram": 5860,
      "Ġmor": 5861,
      "Ġlis": 5862,
      "iam": 5863,
      "ĠSÃĥO": 5864,
      "dir": 5865,
      "difica": 5866,
      "ĠBRAS": 5867,
      "Ġresiste": 5868,
      "Ġressar": 5869,
      "Ġchur": 5870,
      "Ġbarra": 5871,
      "iiiiiiiiiiiiiiii": 5872,
      "Ġfrustra": 5873,
      "Ġreconhece": 5874,
      "bar": 5875,
      "tÃ¢": 5876,
      "ĠpÃ£o": 5877,
      "alvez": 5878,
      "embra": 5879,
      "ĠFM": 5880,
      "Ġatendida": 5881,
      "ĠPARAB": 5882,
      "ApÃ³s": 5883,
      "Ġtablets": 5884,
      "ĠMoto": 5885,
      "ĠATENDE": 5886,
      "Ġconhecer": 5887,
      "GOSTEI": 5888,
      "ĠediÃ§Ã£o": 5889,
      "uo": 5890,
      "vente": 5891,
      "Ġobra": 5892,
      "Ġgran": 5893,
      "ĠDemora": 5894,
      "ĠOTIMA": 5895,
      "Ġrecebeu": 5896,
      "Ġrestante": 5897,
      "Ġandar": 5898,
      "talmente": 5899,
      "ĠfotogrÃ¡": 5900,
      "Ġconhecimento": 5901,
      "sempre": 5902,
      "ĠFAZER": 5903,
      "Ġdocum": 5904,
      "Ġluminosidade": 5905,
      "ngu": 5906,
      "ĠclÃ¡": 5907,
      "endas": 5908,
      "ĠNi": 5909,
      "Ġcorta": 5910,
      "ÃĵTIMO": 5911,
      "umero": 5912,
      "Ġchato": 5913,
      "cipalmente": 5914,
      "Ġpuri": 5915,
      "Ġequipe": 5916,
      "Ġproteg": 5917,
      "TIVAS": 5918,
      "Ġbrasileiro": 5919,
      "oooooooooooooooooooooooooooooooo": 5920,
      "icrosoft": 5921,
      "200": 5922,
      "Adoro": 5923,
      "Tv": 5924,
      "Uso": 5925,
      "Ġnokia": 5926,
      "Ġsuco": 5927,
      "Ġtratar": 5928,
      "Ġcapinha": 5929,
      "ĠÃºltimo": 5930,
      "jjjjjjjj": 5931,
      "ĠCamera": 5932,
      "Americanas": 5933,
      "min": 5934,
      "rÃªncia": 5935,
      "tÃŃ": 5936,
      "Ġsil": 5937,
      "elÃ³gio": 5938,
      "arato": 5939,
      "Ġconcer": 5940,
      "Ġexten": 5941,
      "ĠSP": 5942,
      "Ġaparenta": 5943,
      "Ġmora": 5944,
      "ĠIPS": 5945,
      "ĠDeus": 5946,
      "00000000000000000000000000000000": 5947,
      "blo": 5948,
      "dÃ¡": 5949,
      "pinha": 5950,
      "Ġhe": 5951,
      "tore": 5952,
      "Ġinterior": 5953,
      "ĠRa": 5954,
      "quipamento": 5955,
      "Ġtroquei": 5956,
      "ĠgraÃ§a": 5957,
      "Ġlivre": 5958,
      "Ġbanho": 5959,
      "Ġafinal": 5960,
      "ĠCanon": 5961,
      "ĠMERCADO": 5962,
      "Linda": 5963,
      "RR": 5964,
      "So": 5965,
      "Ġpal": 5966,
      "Ġamar": 5967,
      "Ġestrutura": 5968,
      "eiÃ§Ã£o": 5969,
      "ĠAcredito": 5970,
      "Ġsemi": 5971,
      "Ġpeca": 5972,
      "ĠmantÃ©m": 5973,
      "Estava": 5974,
      "ALMENTE": 5975,
      "Ġgarante": 5976,
      "Ġdemorada": 5977,
      "ĠSAB": 5978,
      "ĠRecla": 5979,
      "Ġbordas": 5980,
      "Ġmegapixels": 5981,
      "Ġprocedimento": 5982,
      "cipais": 5983,
      "CL": 5984,
      "FICA": 5985,
      "ĠEra": 5986,
      "RAR": 5987,
      "ENAS": 5988,
      "giro": 5989,
      "TIVA": 5990,
      "Ġrespondem": 5991,
      "Ġdigitais": 5992,
      "ĠsatisfatÃ³ria": 5993,
      "Ġlevou": 5994,
      "ĠJogo": 5995,
      "Ġarrojado": 5996,
      "ĠRUIM": 5997,
      "FEITA": 5998,
      "MAS": 5999,
      "Sou": 6000,
      "quinha": 6001,
      "rime": 6002,
      "ĠmarÃ§o": 6003,
      "Ġviva": 6004,
      "Ġjogador": 6005,
      "Ġhorrivel": 6006,
      "ĠFALTA": 6007,
      "ĠFicou": 6008,
      "FF": 6009,
      "cro": 6010,
      "prin": 6011,
      "Ġlcd": 6012,
      "Ġparafuso": 6013,
      "ĠPÃ©ssima": 6014,
      "Ġmateria": 6015,
      "ĠCLI": 6016,
      "ĠFui": 6017,
      "Ġvibra": 6018,
      "Ġduvidas": 6019,
      "Ġruido": 6020,
      "Ġarrependimento": 6021,
      "Ġbande": 6022,
      "ĠResumindo": 6023,
      "Ġultrapas": 6024,
      "ĠVAI": 6025,
      "OlÃ¡": 6026,
      "PE": 6027,
      "PrÃ¡tico": 6028,
      "cess": 6029,
      "Ġram": 6030,
      "Ġmeia": 6031,
      "ĠTouch": 6032,
      "Ġfortes": 6033,
      "Ġchin": 6034,
      "Ġquadro": 6035,
      "design": 6036,
      "lou": 6037,
      "ml": 6038,
      "Ġnumero": 6039,
      "Ġpreparo": 6040,
      "ĠCAM": 6041,
      "Ġassa": 6042,
      "press": 6043,
      "Ġfac": 6044,
      "Ġ110": 6045,
      "Ġcober": 6046,
      "ĠVa": 6047,
      "Ġexplo": 6048,
      "Ġpessimo": 6049,
      "TICA": 6050,
      "Ġfragil": 6051,
      "grf": 6052,
      "ĠfragÃ¢ncia": 6053,
      "Ġvermelho": 6054,
      "Ġurgente": 6055,
      "ĠSolicitei": 6056,
      "Ġgruda": 6057,
      "Ġtranquilamente": 6058,
      "Ġsensibilidade": 6059,
      "ĠaniversÃ¡rio": 6060,
      "15": 6061,
      "Tra": 6062,
      "ube": 6063,
      "Ġ'": 6064,
      "Ġacionar": 6065,
      "Ġcreio": 6066,
      "Ġjarra": 6067,
      "RADO": 6068,
      "Ġparcer": 6069,
      "Ġimprimir": 6070,
      "Ġgalaxy": 6071,
      "Ġmacia": 6072,
      "ĠOp": 6073,
      "Ġcadas": 6074,
      "Ġcobre": 6075,
      "Ġpais": 6076,
      "ĠGRAN": 6077,
      "Ġlitros": 6078,
      "ONE": 6079,
      "Ġvenho": 6080,
      "DEI": 6081,
      "Ġrefres": 6082,
      "Poderia": 6083,
      "Ġtritura": 6084,
      "Ġrosa": 6085,
      "Ġterceira": 6086,
      "Ġcompatibilidade": 6087,
      "Ġmachu": 6088,
      "Acab": 6089,
      "Cor": 6090,
      "Mo": 6091,
      "if": 6092,
      "Ġcomecei": 6093,
      "ĠATRA": 6094,
      "ĠPon": 6095,
      "ĠEcon": 6096,
      "Ġpran": 6097,
      "Ġapara": 6098,
      "Ġbaterias": 6099,
      "Ġvendas": 6100,
      "Ġtinham": 6101,
      "Ġprincipais": 6102,
      "RIG": 6103,
      "Ġinteressantes": 6104,
      "Ġdireitos": 6105,
      "Ġriscos": 6106,
      "www": 6107,
      "ĠSomente": 6108,
      "Ġzero": 6109,
      "Ġefeitos": 6110,
      "cccccccc": 6111,
      "Ġcaracteristicas": 6112,
      "ĠnegÃ³": 6113,
      "lan": 6114,
      "fez": 6115,
      "Ġlocais": 6116,
      "Ġvaza": 6117,
      "rimeira": 6118,
      "faz": 6119,
      "Ġ07": 6120,
      "Ġrespeita": 6121,
      "ĠProcessador": 6122,
      "ĠPaguei": 6123,
      "Ġpiscina": 6124,
      "Ġarroz": 6125,
      "ffffffffffffffff": 6126,
      "evereiro": 6127,
      "Ġinicio": 6128,
      "Ġfalsificado": 6129,
      "ĠEMPRESA": 6130,
      "NICA": 6131,
      "Ou": 6132,
      "Possui": 6133,
      "Ġdin": 6134,
      "Ġquais": 6135,
      "Ġtoner": 6136,
      "ĠLINDO": 6137,
      "Ġcore": 6138,
      "INHO": 6139,
      "Ġparecia": 6140,
      "Ġnego": 6141,
      "Ġrespondeu": 6142,
      "tttt": 6143,
      "Ġtravando": 6144,
      "Ġdanificado": 6145,
      "ĠpÃ¡gina": 6146,
      "Loja": 6147,
      "ICO": 6148,
      "Ġincon": 6149,
      "Ġmetros": 6150,
      "presso": 6151,
      "ĠOK": 6152,
      "Ġvivas": 6153,
      "Ġfacilitar": 6154,
      "Ġavan": 6155,
      "Ġpesquisas": 6156,
      "Ġ120": 6157,
      "ĠNenhuma": 6158,
      "Ġsecagem": 6159,
      "Ġestragou": 6160,
      "Ġfornece": 6161,
      "ĠexplicaÃ§Ã£o": 6162,
      "ĠPERFUME": 6163,
      "Ġoferta": 6164,
      "Ġprateleiras": 6165,
      "Ġeduca": 6166,
      "PLES": 6167,
      "venda": 6168,
      "Ġpia": 6169,
      "tebol": 6170,
      "ĠaÃ§o": 6171,
      "Ġdetec": 6172,
      "istir": 6173,
      "ĠERA": 6174,
      "tÃ¡veis": 6175,
      "ĠGoogle": 6176,
      "ĠsenÃ£o": 6177,
      "QUINA": 6178,
      "Ġblack": 6179,
      "funcional": 6180,
      "Ġatrapal": 6181,
      "Ġprovavelmente": 6182,
      "irar": 6183,
      "quido": 6184,
      "Ġfeio": 6185,
      "leve": 6186,
      "Ġprazer": 6187,
      "ĠBlack": 6188,
      "ĠDESS": 6189,
      "Ġmenores": 6190,
      "Ġinformada": 6191,
      "ĠXbox": 6192,
      "ĠPreciso": 6193,
      "ĠescritÃ³rio": 6194,
      "Ġaproximadamente": 6195,
      "Ġapoio": 6196,
      "ĠjustiÃ§a": 6197,
      "grfgrf": 6198,
      "pia": 6199,
      "tora": 6200,
      "Ġsor": 6201,
      "Ġuteis": 6202,
      "Ġgen": 6203,
      "Ġgol": 6204,
      "ĠlÃª": 6205,
      "game": 6206,
      "Ġinteira": 6207,
      "ĠBusca": 6208,
      "ENDA": 6209,
      "ĠVOL": 6210,
      "Ġsegurar": 6211,
      "ĠmÃ¡xima": 6212,
      "perava": 6213,
      "nea": 6214,
      "ĠPODE": 6215,
      "ĠRESOL": 6216,
      "ĠPrazo": 6217,
      "ĠcaracterÃŃstica": 6218,
      "ĠmÃ©dio": 6219,
      "ĠYou": 6220,
      "Ġcobrado": 6221,
      "IAR": 6222,
      "Smart": 6223,
      "ges": 6224,
      "Ġnu": 6225,
      "Ġles": 6226,
      "Ġinta": 6227,
      "Ġentregues": 6228,
      "Ġporte": 6229,
      "ĠprÃ³s": 6230,
      "ĠmÃ¡s": 6231,
      "Ġcapaz": 6232,
      "Ġoriginais": 6233,
      "ĠPORQUE": 6234,
      "Ġsoub": 6235,
      "ĠSUA": 6236,
      "Ġtornando": 6237,
      "Ġpergunta": 6238,
      "Ġfragrancia": 6239,
      "]]]]": 6240,
      "ĠCLIENTE": 6241,
      "Som": 6242,
      "tia": 6243,
      "ĠAb": 6244,
      "arem": 6245,
      "ĠBas": 6246,
      "Ġraiva": 6247,
      "Ġvapor": 6248,
      "Ġincl": 6249,
      "Ġcancelei": 6250,
      "ðŁĺ": 6251,
      "ĠAcabamento": 6252,
      "Ġembutido": 6253,
      "Ġdemonstra": 6254,
      "@@": 6255,
      "GIA": 6256,
      "Mais": 6257,
      "heiro": 6258,
      "ry": 6259,
      "Ġenfer": 6260,
      "cionando": 6261,
      "Ġestabil": 6262,
      "ĠPROCON": 6263,
      "ĠWI": 6264,
      "Ġsurpreende": 6265,
      "Ġesquentar": 6266,
      "Ġdificulta": 6267,
      "Ġcuidados": 6268,
      "apesar": 6269,
      "Ġordem": 6270,
      "Ġrazoa": 6271,
      "Ġapaixonada": 6272,
      "ĠrecepÃ§Ã£o": 6273,
      "ðŁĳı": 6274,
      "bera": 6275,
      "bado": 6276,
      "rente": 6277,
      "Ġdelicado": 6278,
      "ance": 6279,
      "satil": 6280,
      "ĠDÃ¡": 6281,
      "Ġtoques": 6282,
      "ĠFRA": 6283,
      "Ġsabendo": 6284,
      "Ġatrativo": 6285,
      "Ġrespostas": 6286,
      "Ġbanco": 6287,
      "ĠTODAS": 6288,
      "Ġretirada": 6289,
      "Ġarranh": 6290,
      "Ġestrelas": 6291,
      "ĠEXPECTA": 6292,
      "solutamente": 6293,
      "Era": 6294,
      "pado": 6295,
      "vb": 6296,
      "cidas": 6297,
      "ĠMul": 6298,
      "ame": 6299,
      "Ġmanchas": 6300,
      "Ġestes": 6301,
      "Ġdevolvido": 6302,
      "Ġescola": 6303,
      "Ġchego": 6304,
      "Ġaquecer": 6305,
      "Ġrefle": 6306,
      "ariamente": 6307,
      "ĠTOTAL": 6308,
      "Ġmateriais": 6309,
      "IC": 6310,
      "lando": 6311,
      "pes": 6312,
      "encial": 6313,
      "tidos": 6314,
      "Ġdaqu": 6315,
      "Ġperman": 6316,
      "side": 6317,
      "ĠBar": 6318,
      "Ġfalhas": 6319,
      "Ġcolocado": 6320,
      "ĠNotebook": 6321,
      "uuuuu": 6322,
      "Ġqueimado": 6323,
      "Ġotimas": 6324,
      "Pedi": 6325,
      "ĠBonita": 6326,
      "ĠdimensÃµes": 6327,
      "Ġvoces": 6328,
      "Ġduradoura": 6329,
      "FÃį": 6330,
      "IR": 6331,
      "pira": 6332,
      "Ġps": 6333,
      "ĠcÃ¢": 6334,
      "ÃŃcia": 6335,
      "Ġhigi": 6336,
      "Ġtime": 6337,
      "ĠDIZ": 6338,
      "ĠbuscapÃ©": 6339,
      "ĠMANUS": 6340,
      "Ġcinco": 6341,
      "ĠSATISFEITO": 6342,
      "Ġsemelhante": 6343,
      "dre": 6344,
      "ray": 6345,
      "Ġsign": 6346,
      "Ġestil": 6347,
      "ÃŃs": 6348,
      "Ġsau": 6349,
      "ostas": 6350,
      "ĠHome": 6351,
      "Ġ1080": 6352,
      "posto": 6353,
      "ĠSegu": 6354,
      "ĠPedi": 6355,
      "douro": 6356,
      "ĠclÃ¡ssi": 6357,
      "RÃ¡p": 6358,
      "nidade": 6359,
      "Ġsel": 6360,
      "Ġgui": 6361,
      "Ġviz": 6362,
      "Ġrepe": 6363,
      "ĠVGA": 6364,
      "ĠGosto": 6365,
      "Ġmarcado": 6366,
      "ÃīNS": 6367,
      "Ġadoram": 6368,
      "Ġreclame": 6369,
      "Ġpositiva": 6370,
      "Ġvazamento": 6371,
      "ĠCore": 6372,
      "Ġdispositivos": 6373,
      "Ġbonitas": 6374,
      "ĠPÃīSSIMO": 6375,
      "VocÃª": 6376,
      "icar": 6377,
      "pelo": 6378,
      "Ġcomida": 6379,
      "Ġencos": 6380,
      "ĠAtt": 6381,
      "gabilidade": 6382,
      "Ġmau": 6383,
      "Ġsuja": 6384,
      "ĠfaÃ§a": 6385,
      "ĠUTIL": 6386,
      "Ġfalam": 6387,
      "ĠAmericana": 6388,
      "Ġatualizar": 6389,
      "ĠAsus": 6390,
      "ĠSEGU": 6391,
      "Ġserviu": 6392,
      "Ġoferecer": 6393,
      "Ġcamisa": 6394,
      "Ġadianta": 6395,
      "Ġentendimento": 6396,
      "ĠcoleÃ§Ã£o": 6397,
      "ĠNENHUMA": 6398,
      "ĠCONSUMI": 6399,
      "ĠalumÃŃnio": 6400,
      "Ġrequisitos": 6401,
      "ĠINFORMA": 6402,
      "ĠPHIL": 6403,
      "BA": 6404,
      "FE": 6405,
      "PEN": 6406,
      "ade": 6407,
      "Ġpixels": 6408,
      "ĠTalvez": 6409,
      "Ġmascul": 6410,
      "ĠVol": 6411,
      "Ġsobra": 6412,
      "Ġverde": 6413,
      "Ġcaneta": 6414,
      "Ġpontual": 6415,
      "Ġatras": 6416,
      "Ġatrasou": 6417,
      "ĠENTRA": 6418,
      "ĠPortanto": 6419,
      "Ġcheguei": 6420,
      "ĠfrÃ¡geis": 6421,
      "Ġsons": 6422,
      "Ġefetuei": 6423,
      "ĠelÃ©trico": 6424,
      "ĠreproduÃ§Ã£o": 6425,
      "Ġsobrinha": 6426,
      "ĠregiÃ£o": 6427,
      "nada": 6428,
      "screen": 6429,
      "xe": 6430,
      "zos": 6431,
      "Ġlemb": 6432,
      "Ġdoura": 6433,
      "ĠNEC": 6434,
      "ÃŃdos": 6435,
      "Ġentretanto": 6436,
      "vada": 6437,
      "dias": 6438,
      "hoso": 6439,
      "ĠprecisÃ£o": 6440,
      "ĠdistÃ¢ncia": 6441,
      "porÃ©m": 6442,
      "Ġdizia": 6443,
      "Ġconseguiu": 6444,
      "Ġfutebol": 6445,
      "ĠCONTATO": 6446,
      "Ao": 6447,
      "LAM": 6448,
      "neu": 6449,
      "Ġemo": 6450,
      "onde": 6451,
      "ĠPARE": 6452,
      "Ġarm": 6453,
      "Ġdisco": 6454,
      "Ġembalada": 6455,
      "Ġcansa": 6456,
      "Ġbaratos": 6457,
      "IDADES": 6458,
      "QUER": 6459,
      "ĠINDI": 6460,
      "ĠInc": 6461,
      "Ġcolocando": 6462,
      "MMMM": 6463,
      "Ġcomercial": 6464,
      "Ġfeminino": 6465,
      "Ġpron": 6466,
      "Ġentao": 6467,
      "ĠPRI": 6468,
      "ĠMen": 6469,
      "Ġmenti": 6470,
      "Ġvendendo": 6471,
      "mesmo": 6472,
      "Ġdecepcionou": 6473,
      "Ġpesquisando": 6474,
      "excelenteexcelente": 6475,
      "Ġrealizei": 6476,
      "Ġjanela": 6477,
      "Ġenvolvente": 6478,
      "Ġconvencional": 6479,
      "Ġgavetas": 6480,
      "Ġmandou": 6481,
      "UR": 6482,
      "cÃ¡": 6483,
      "gal": 6484,
      "lim": 6485,
      "lhe": 6486,
      "reo": 6487,
      "ĠAntes": 6488,
      "iliar": 6489,
      "ĠdiÃ¡rio": 6490,
      "Ġtocar": 6491,
      "ĠFixaÃ§Ã£o": 6492,
      "ĠGrande": 6493,
      "Ġlazer": 6494,
      "Ġpassando": 6495,
      "Ġcarregamento": 6496,
      "Ġeconomizar": 6497,
      "kkkkkkkkkkkkkkkkkkkkkkkkkkkkkkkkkkkkkkkkkkkkkkkkkkkkkkkkkkkkkkkk": 6498,
      "Ġaproveitar": 6499,
      "Ġvantagens": 6500,
      "DEM": 6501,
      "LU": 6502,
      "LAS": 6503,
      "ZA": 6504,
      "ks": 6505,
      "alhas": 6506,
      "ĠDell": 6507,
      "ĠalÃ§a": 6508,
      "Ġlog": 6509,
      "Ġformas": 6510,
      "OSA": 6511,
      "rimeiro": 6512,
      "Ġvisi": 6513,
      "Ġganhei": 6514,
      "Ġfotografar": 6515,
      "Ġterceiro": 6516,
      "Ġsoubesse": 6517,
      "Ġenferru": 6518,
      "Ġsignifica": 6519,
      "dÃªncias": 6520,
      "fou": 6521,
      "tuito": 6522,
      "Ġgre": 6523,
      "cante": 6524,
      "Ġcade": 6525,
      "ĠÃĢ": 6526,
      "Ġcartao": 6527,
      "ramon": 6528,
      "Ġabsor": 6529,
      "Ġdeixei": 6530,
      "icito": 6531,
      "Ġencontrado": 6532,
      "Ġcontinuo": 6533,
      "IZA": 6534,
      "Ġportugues": 6535,
      "Ġjogadores": 6536,
      "ĠPEDIDO": 6537,
      "ĠpaciÃªncia": 6538,
      "IMA": 6539,
      "MOS": 6540,
      "Posi": 6541,
      "ĠĊĊ": 6542,
      "Ġfevereiro": 6543,
      "Ġblu": 6544,
      "Ġgo": 6545,
      "TADO": 6546,
      "Ġclima": 6547,
      "Ġideia": 6548,
      "Ġcurta": 6549,
      "ĠPODER": 6550,
      "hiba": 6551,
      "ĠRÃģPIDA": 6552,
      "Ġbandeja": 6553,
      "ĠNECESS": 6554,
      "ramontina": 6555,
      "cen": 6556,
      "ĠâĢ": 6557,
      "Ġfar": 6558,
      "Ġmaximo": 6559,
      "Ġtaxa": 6560,
      "Ġ300": 6561,
      "ĠDEPOIS": 6562,
      "fÃŃcios": 6563,
      "licar": 6564,
      "Ġprecisam": 6565,
      "Ġtroco": 6566,
      "turas": 6567,
      "Ġpedidos": 6568,
      "Ġparecido": 6569,
      "Ġbrinde": 6570,
      "Ġacontecer": 6571,
      "Ġconsertar": 6572,
      "Ġparcela": 6573,
      "Ġprancha": 6574,
      "%.": 6575,
      "RÃģ": 6576,
      "bui": 6577,
      "bonito": 6578,
      "melhor": 6579,
      "nunca": 6580,
      "pio": 6581,
      "Ġ&": 6582,
      "cie": 6583,
      "Ġbox": 6584,
      "Ġapareceu": 6585,
      "vidos": 6586,
      "TAS": 6587,
      "Ġtranspare": 6588,
      "Ġencontro": 6589,
      "Ġaquecedor": 6590,
      "Ġdigitar": 6591,
      "Ġabril": 6592,
      "Ġcomuns": 6593,
      "Ġobjeto": 6594,
      "Ġanalis": 6595,
      "rrrrrrrrrrrrrrrrrrrrrrrrrrrrrrrr": 6596,
      "Ġtradicional": 6597,
      "Ġdivul": 6598,
      "ĠATENDIMENTO": 6599,
      "WW": 6600,
      "ivo": 6601,
      "tualidade": 6602,
      "Ġ........": 6603,
      "ĠAtendimento": 6604,
      "Ġsecado": 6605,
      "ĠCu": 6606,
      "ESTOU": 6607,
      "Ġchei": 6608,
      "Ġsatisfeitos": 6609,
      "ĠperfeiÃ§Ã£o": 6610,
      "ARAM": 6611,
      "Ġaquilo": 6612,
      "ĠPodem": 6613,
      "ĠProcon": 6614,
      "ĠindicaÃ§Ã£o": 6615,
      "Ġestivesse": 6616,
      "Ġperceber": 6617,
      "Facilidade": 6618,
      "Bateria": 6619,
      "ĠGRANDE": 6620,
      "atendeu": 6621,
      "dh": 6622,
      "lÃªs": 6623,
      "tv": 6624,
      "quece": 6625,
      "Ġber": 6626,
      "Ã¡quina": 6627,
      "ime": 6628,
      "Ġcomprarem": 6629,
      "Ġipad": 6630,
      "Ġatin": 6631,
      "pacidade": 6632,
      "ĠQUER": 6633,
      "Ġaviso": 6634,
      "Ġencher": 6635,
      "Ġcomponentes": 6636,
      "Ġbrincadeira": 6637,
      "Ġpurificador": 6638,
      "Fui": 6639,
      "Tube": 6640,
      "Ġquen": 6641,
      "doras": 6642,
      "Ġflex": 6643,
      "Ġprefiro": 6644,
      "ÃŃda": 6645,
      "ĠDEN": 6646,
      "Ġdigo": 6647,
      "ĠTELE": 6648,
      "Ġboca": 6649,
      "Ġbocas": 6650,
      "Ġconsome": 6651,
      "Ġavarias": 6652,
      "INGU": 6653,
      "Ġruins": 6654,
      "Ġiguais": 6655,
      "ĠlouÃ§as": 6656,
      "ĠLiguei": 6657,
      "Ġolhar": 6658,
      "BE": 6659,
      "GRA": 6660,
      "ug": 6661,
      "Ġseis": 6662,
      "ĠLU": 6663,
      "ĠIpad": 6664,
      "Ġlados": 6665,
      "Ġparecer": 6666,
      "ĠgraÃ§as": 6667,
      "Ġdivertir": 6668,
      "ĠaplicaÃ§Ã£o": 6669,
      "Ġdefin": 6670,
      "Ġconcorrente": 6671,
      "ĠIntel": 6672,
      "Ġrosto": 6673,
      "ĠManual": 6674,
      "Ġsimpli": 6675,
      "bbbbbbbbbbbbbbbb": 6676,
      "station": 6677,
      "Paguei": 6678,
      "ĠPequeno": 6679,
      "65": 6680,
      "ms": 6681,
      "²timo": 6682,
      "Ġidade": 6683,
      "Ġdou": 6684,
      "ĠTELA": 6685,
      "forto": 6686,
      "kkk": 6687,
      "GADO": 6688,
      "ĠgrÃ¡tis": 6689,
      "FICI": 6690,
      "Ġespecificado": 6691,
      "ĠpÃ¡ginas": 6692,
      "MANHO": 6693,
      "Ġprotocolo": 6694,
      "ĠYouTube": 6695,
      "'s": 6696,
      "32": 6697,
      "Demorou": 6698,
      "Falta": 6699,
      "aran": 6700,
      "Ġapre": 6701,
      "Ġfaculdade": 6702,
      "Ġcopos": 6703,
      "ĠVen": 6704,
      "Ġ400": 6705,
      "ĠmÃ¡quinas": 6706,
      "Ġchegando": 6707,
      "Ġindicaria": 6708,
      "Ġkg": 6709,
      "Ġobriga": 6710,
      "ĠAPENAS": 6711,
      "Ġestran": 6712,
      "Ġpersonagem": 6713,
      "ĠPESSO": 6714,
      "ĠfrequÃªncia": 6715,
      "Ġresistentes": 6716,
      "70": 6717,
      "Im": 6718,
      "IOR": 6719,
      "van": 6720,
      "Ġbrastemp": 6721,
      "idado": 6722,
      "Ġextrema": 6723,
      "Ġpote": 6724,
      "Ġdiariamente": 6725,
      "ĠOB": 6726,
      "ĠÃ¨": 6727,
      "Ġalimento": 6728,
      "Ġresis": 6729,
      "Ġfalante": 6730,
      "irando": 6731,
      "Ġrua": 6732,
      "Ġcancelaram": 6733,
      "lusÃ£o": 6734,
      "FICIO": 6735,
      "ĠcomentÃ¡rio": 6736,
      "lismente": 6737,
      "Ġsofistica": 6738,
      "ĠSIMPLES": 6739,
      "gggggggggggggggg": 6740,
      "Ġfralda": 6741,
      "wn": 6742,
      "Ġgb": 6743,
      "ĠAli": 6744,
      "ĠPar": 6745,
      "ĠSimples": 6746,
      "preÃ§o": 6747,
      "ĠON": 6748,
      "dial": 6749,
      "ĠBlu": 6750,
      "Ġcarros": 6751,
      "Ã¢mica": 6752,
      "MAIL": 6753,
      "acho": 6754,
      "Ġ600": 6755,
      "aparelho": 6756,
      "CEP": 6757,
      "Ġanteriormente": 6758,
      "Ġproceder": 6759,
      "Ġmsm": 6760,
      "Ġreferente": 6761,
      "Ġambos": 6762,
      "kon": 6763,
      "Ġci": 6764,
      "ciante": 6765,
      "Ġsupre": 6766,
      "ixar": 6767,
      "ENS": 6768,
      "Ġansi": 6769,
      "ĠIM": 6770,
      "Ġarti": 6771,
      "Ġraz": 6772,
      "Ġradio": 6773,
      "Ġcasal": 6774,
      "ĠAmÃ©ri": 6775,
      "Ġimper": 6776,
      "ARAN": 6777,
      "Ġrecomendar": 6778,
      "Ġsinceramente": 6779,
      "Ġmovimentos": 6780,
      "Ġprejudica": 6781,
      "Ġmistura": 6782,
      "ĠAVALIAR": 6783,
      "Ġarrumar": 6784,
      "Antes": 6785,
      "Car": 6786,
      "Mesmo": 6787,
      "dado": 6788,
      "Ġlhe": 6789,
      "ĠNAS": 6790,
      "ĠÃ¢": 6791,
      "Ġperdendo": 6792,
      "ĠmanhÃ£": 6793,
      "ĠIdeal": 6794,
      "Ġcortar": 6795,
      "Ġvivo": 6796,
      "Ġlibera": 6797,
      "CIDADE": 6798,
      "Quem": 6799,
      "ĠpropÃ³s": 6800,
      "wwww": 6801,
      "Ġresponderam": 6802,
      "ĠbalanÃ§a": 6803,
      "Ġpulseira": 6804,
      "Ġsubstituir": 6805,
      "llllllllllllllllllllllllllllllll": 6806,
      "maravil": 6807,
      "ĠrecomendÃ¡vel": 6808,
      "ĠTROCA": 6809,
      "ĠnegÃ³cio": 6810,
      "CUL": 6811,
      "gente": 6812,
      "gostaria": 6813,
      "uso": 6814,
      "Ġcomando": 6815,
      "demo": 6816,
      "Ġvelho": 6817,
      "Ġnotei": 6818,
      "ĠMon": 6819,
      "ĠMaravilhoso": 6820,
      "Produtos": 6821,
      "ĠUtil": 6822,
      "quero": 6823,
      "Ġsentido": 6824,
      "ĠPRES": 6825,
      "player": 6826,
      "Ġrastrear": 6827,
      "Ġjustifica": 6828,
      "1313": 6829,
      "Ġcinza": 6830,
      "Ġcredi": 6831,
      "Ġparticular": 6832,
      "TORNO": 6833,
      "Ġencantada": 6834,
      "BRE": 6835,
      "cri": 6836,
      "dinhas": 6837,
      "obri": 6838,
      "sÃŃvel": 6839,
      "Ġcd": 6840,
      "Ġdedica": 6841,
      "inada": 6842,
      "gual": 6843,
      "ecess": 6844,
      "fiz": 6845,
      "uitas": 6846,
      "ĠIphone": 6847,
      "Ġdevem": 6848,
      "gosto": 6849,
      "Ġsabem": 6850,
      "ĠRECLAM": 6851,
      "ĠlanÃ§ado": 6852,
      "ĠEntregue": 6853,
      "Ġcompartil": 6854,
      "Exelente": 6855,
      "Ġacostu": 6856,
      "Ġaleg": 6857,
      "ãħ¤ãħ¤ãħ¤ãħ¤": 6858,
      "ĠPanasonic": 6859,
      "\\\\": 6860,
      "lindo": 6861,
      "veiro": 6862,
      "ze": 6863,
      "Ġoq": 6864,
      "inceramente": 6865,
      "Ġenx": 6866,
      "Ġentendo": 6867,
      "dios": 6868,
      "Ġsaida": 6869,
      "respeito": 6870,
      "Ġespuma": 6871,
      "EstÃ¡": 6872,
      "Ġrodas": 6873,
      "Ġcorrer": 6874,
      "Ġergon": 6875,
      "ĠDesde": 6876,
      "Ġcomparando": 6877,
      "Ġcameras": 6878,
      "Ġluzes": 6879,
      "ĠMESES": 6880,
      "ĠPaulo": 6881,
      "Ġajustar": 6882,
      "--------------------------------": 6883,
      "ĠBuscapÃ©": 6884,
      "ĠarmÃ¡rio": 6885,
      "64": 6886,
      "Ġ*": 6887,
      "Ġdelica": 6888,
      "Ġsente": 6889,
      "riza": 6890,
      "ĠTe": 6891,
      "dicionado": 6892,
      "ENTRE": 6893,
      "Ġmodos": 6894,
      "Ġfalou": 6895,
      "Ġcertamente": 6896,
      "gias": 6897,
      "Ġvendi": 6898,
      "Ġ55": 6899,
      "nner": 6900,
      "psulas": 6901,
      "Comp": 6902,
      "Ġ80": 6903,
      "Quanto": 6904,
      "ĠapresentaÃ§Ã£o": 6905,
      "Ġveloz": 6906,
      "Ġverdadeira": 6907,
      "Ġconsiderando": 6908,
      "Ġindispen": 6909,
      "ĠAssistÃªncia": 6910,
      "AC": 6911,
      "RelÃ³gio": 6912,
      "cron": 6913,
      "huuuuu": 6914,
      "Ġclar": 6915,
      "Ġdelas": 6916,
      "alizei": 6917,
      "Ġcompor": 6918,
      "ĠNINGU": 6919,
      "ilha": 6920,
      "Ġsapa": 6921,
      "Ġsaindo": 6922,
      "ĠIma": 6923,
      "Ġbonitos": 6924,
      "Ġtrocado": 6925,
      "Ġgraves": 6926,
      "Ġreclamando": 6927,
      "Ġestraga": 6928,
      "Ġdanifi": 6929,
      "ĠACH": 6930,
      "Â´Â´": 6931,
      "Ġidentifica": 6932,
      "Ġgaveta": 6933,
      "Ġtamanhos": 6934,
      "Sol": 6935,
      "cra": 6936,
      "Ġaco": 6937,
      "Ġcesto": 6938,
      "Ġquesti": 6939,
      "Ġrelogi": 6940,
      "Ġembaixo": 6941,
      "Ġdesem": 6942,
      "Ġdesblo": 6943,
      "Ġfolhas": 6944,
      "Ġespor": 6945,
      "!!!!!!!": 6946,
      "conselho": 6947,
      "Ġchapinha": 6948,
      "ĠENGAN": 6949,
      "Ġdescre": 6950,
      "Ġnotebooks": 6951,
      "Ġfeitas": 6952,
      "ĠMega": 6953,
      "Ġfacilitando": 6954,
      "Ġsono": 6955,
      "ULL": 6956,
      "Ġencaixar": 6957,
      "nnnnnnnnnnnnnnnnnnnnnnnnnnnnnnnn": 6958,
      "Ġinverno": 6959,
      "Ġtransparente": 6960,
      "22": 6961,
      "BOM": 6962,
      "pido": 6963,
      "Ġdel": 6964,
      "Ġsplit": 6965,
      "Ġgreve": 6966,
      "Ã§am": 6967,
      "cadas": 6968,
      "Ġtres": 6969,
      "heÃ§o": 6970,
      "rÃ¡tica": 6971,
      "ĠTRAN": 6972,
      "logia": 6973,
      "ooo": 6974,
      "Ġalguem": 6975,
      "ESSE": 6976,
      "Ġparecem": 6977,
      "Ġcarregando": 6978,
      "Ġbarba": 6979,
      "ĠCONS": 6980,
      "ĠSEU": 6981,
      "Ġtestes": 6982,
      "Ġespecialmente": 6983,
      "panha": 6984,
      "Ġconfiavel": 6985,
      "Ġessencial": 6986,
      "Ġfrutas": 6987,
      "Ġocorrido": 6988,
      "ĠEXPECTATIVAS": 6989,
      "Ġagil": 6990,
      "tiz": 6991,
      "ĠACA": 6992,
      "Ġdescul": 6993,
      "ĠMicrosoft": 6994,
      "Ġfator": 6995,
      "tÃ¡rio": 6996,
      "Ġversatil": 6997,
      "Ġaven": 6998,
      "Ġtiro": 6999,
      "Ġgrave": 7000,
      "inux": 7001,
      "its": 7002,
      "Ġsolicitar": 7003,
      "Ġdestaque": 7004,
      "Ġprotetora": 7005,
      "Ġdesconto": 7006,
      "ĠagradeÃ§o": 7007,
      "Ġdiminui": 7008,
      "ĠinglÃªs": 7009,
      "ĠDENTRO": 7010,
      "Uhuuuuu": 7011,
      "VIA": 7012,
      "js": 7013,
      "Ġiso": 7014,
      "Ġmudou": 7015,
      "alÃ©m": 7016,
      "Ã§Ã§": 7017,
      "Ġreun": 7018,
      "Ġdaqui": 7019,
      "Ġsejam": 7020,
      "ect": 7021,
      "ĠCal": 7022,
      "ĠÃ³p": 7023,
      "Ġperda": 7024,
      "ĠaltÃŃssima": 7025,
      "Ġtab": 7026,
      "Ġeletri": 7027,
      "ĠLam": 7028,
      "ĠLIM": 7029,
      "versÃ£o": 7030,
      "Ġcarne": 7031,
      "meras": 7032,
      "tasse": 7033,
      "Ġsolto": 7034,
      "Ġatendem": 7035,
      "Ġficaria": 7036,
      "Ġxbox": 7037,
      "Ġprotege": 7038,
      "Ġfinalidade": 7039,
      "Ġnivel": 7040,
      "TURA": 7041,
      "ĠMOD": 7042,
      "VERIA": 7043,
      "ĠPOSI": 7044,
      "ĠGOSTA": 7045,
      "Ġconhece": 7046,
      "Ġqueimar": 7047,
      "zzzzzzzzzzzzzzzz": 7048,
      "ĠCASA": 7049,
      "Ġturbo": 7050,
      "ĠfotogrÃ¡fica": 7051,
      "Ġquestion": 7052,
      "HE": 7053,
      "Leve": 7054,
      "hs": 7055,
      "sto": 7056,
      "Ġqueira": 7057,
      "Ġrecar": 7058,
      "Ġprazos": 7059,
      "ĠSOL": 7060,
      "ĠRap": 7061,
      "tenimento": 7062,
      "veja": 7063,
      "ĠFULL": 7064,
      "Ġligo": 7065,
      "ĠEstava": 7066,
      "ĠJan": 7067,
      "Ġfuncionava": 7068,
      "ĠENTREG": 7069,
      "Ġfirm": 7070,
      "Ġsobrinho": 7071,
      "Ġdistribu": 7072,
      "Fo": 7073,
      "gÃ¢ncia": 7074,
      "Ġkkkk": 7075,
      "tela": 7076,
      "ossa": 7077,
      "ĠMemÃ³ria": 7078,
      "ĠFre": 7079,
      "Ġestao": 7080,
      "ĠGARAN": 7081,
      "Ġtiveram": 7082,
      "ĠbenefÃŃcios": 7083,
      "ĠHÃģ": 7084,
      "nologia": 7085,
      "surdo": 7086,
      "istoria": 7087,
      "ĠMODER": 7088,
      "ĠZoom": 7089,
      "Ġnetflix": 7090,
      "ĠlenÃ§": 7091,
      "MS": 7092,
      "NET": 7093,
      "Ġ.....": 7094,
      "Ġml": 7095,
      "erra": 7096,
      "ĠELES": 7097,
      "ĠCOLO": 7098,
      "Ġaler": 7099,
      "pod": 7100,
      "Ġampla": 7101,
      "ĠDEMO": 7102,
      "DANDO": 7103,
      "Ġ45": 7104,
      "ĠENCON": 7105,
      "inete": 7106,
      "ĠprÃ³x": 7107,
      "Ġantigos": 7108,
      "Ġarmazenar": 7109,
      "ttp": 7110,
      "Ġefetuada": 7111,
      "ĠnÃºmeros": 7112,
      "Ġderre": 7113,
      "ĠirmÃ£o": 7114,
      "ĠFragrÃ¢ncia": 7115,
      "Ġphilips": 7116,
      "ĠPARABÃīNS": 7117,
      "fri": 7118,
      "Ġdedos": 7119,
      "ĠMÃģ": 7120,
      "Ġcompramos": 7121,
      "Ġsup": 7122,
      "ĠalimentaÃ§Ã£o": 7123,
      "ĠFil": 7124,
      "derno": 7125,
      "ĠVis": 7126,
      "ĠHor": 7127,
      "ĠpossuÃŃ": 7128,
      "Ġnavegador": 7129,
      "Ġentendi": 7130,
      "ĠveÃŃ": 7131,
      "ĠPOSSU": 7132,
      "Ġlimitado": 7133,
      "ciosamente": 7134,
      "Ġcharme": 7135,
      "Ġgordura": 7136,
      "Compre": 7137,
      "ERO": 7138,
      "ces": 7139,
      "sÃµes": 7140,
      "Ġprodu": 7141,
      "Ġrep": 7142,
      "ĠAQUI": 7143,
      "Ġrecor": 7144,
      "Ġacessa": 7145,
      "ĠGRA": 7146,
      "rost": 7147,
      "Ġpesa": 7148,
      "Ġjato": 7149,
      "ĠtransferÃªncia": 7150,
      "culado": 7151,
      "Ġcompletar": 7152,
      "Ġ800": 7153,
      "Ġaprovei": 7154,
      "Ġapresentado": 7155,
      "Ġoferecido": 7156,
      "Ġcoloc": 7157,
      "Ġescolhido": 7158,
      "Ġcumprido": 7159,
      "Ġveda": 7160,
      "ĠtÃªnis": 7161,
      "Ġinstalados": 7162,
      "ĠTeclado": 7163,
      "Ġdiferenciado": 7164,
      "Ġparceria": 7165,
      "08": 7166,
      "Ġevol": 7167,
      "Ġpneu": 7168,
      "Ġfia": 7169,
      "Ġlembra": 7170,
      "Ġtheater": 7171,
      "trada": 7172,
      "Ġalterna": 7173,
      "veu": 7174,
      "ĠBAS": 7175,
      "itado": 7176,
      "ĠCONFOR": 7177,
      "Ġfutu": 7178,
      "ĠPAGUEI": 7179,
      "dfsd": 7180,
      "QUIRI": 7181,
      "Ġclaras": 7182,
      "ĠTAMBÃīM": 7183,
      "Gb": 7184,
      "ID": 7185,
      "fg": 7186,
      "kj": 7187,
      "lon": 7188,
      "ob": 7189,
      "up": 7190,
      "tadas": 7191,
      "Ġesfor": 7192,
      "ĠAqui": 7193,
      "Ġconfuso": 7194,
      "ĠER": 7195,
      "eceu": 7196,
      "ĠMicro": 7197,
      "ĠSim": 7198,
      "Ġfogo": 7199,
      "Ġespelho": 7200,
      "Ġamor": 7201,
      "ĠIP": 7202,
      "oloquei": 7203,
      "Ġprocess": 7204,
      "Ġajudou": 7205,
      "Ġtravamentos": 7206,
      "ĠirÃ£o": 7207,
      "ĠopiniÃµes": 7208,
      "Ġprogramado": 7209,
      "Ġexige": 7210,
      "ĠnÃŃtidas": 7211,
      "kype": 7212,
      "ĠlÃ¢mpada": 7213,
      "Ġciclo": 7214,
      "ĠPRIM": 7215,
      "ĠÃ¢ngu": 7216,
      "Embora": 7217,
      "Ġflu": 7218,
      "Ġbela": 7219,
      "Ġens": 7220,
      "ĠAuto": 7221,
      "iao": 7222,
      "Ġdava": 7223,
      "ÃŃstica": 7224,
      "Ġsupriu": 7225,
      "cionante": 7226,
      "Ġalmo": 7227,
      "ensei": 7228,
      "Ġpessoalmente": 7229,
      "Ġresolva": 7230,
      "ĠCONFI": 7231,
      "Ġfabricantes": 7232,
      "Ġprogramar": 7233,
      "Ġcaminho": 7234,
      "********************************": 7235,
      "ĠTAMANHO": 7236,
      "Ġdocumentos": 7237,
      "ĠclÃ¡ssico": 7238,
      "EJ": 7239,
      "Nada": 7240,
      "PÃ©ssima": 7241,
      "Pesquisei": 7242,
      "Ven": 7243,
      "bon": 7244,
      "custo": 7245,
      "erem": 7246,
      "Ġaus": 7247,
      "osiÃ§Ã£o": 7248,
      "gaz": 7249,
      "ĠPlus": 7250,
      "Ġsex": 7251,
      "Ġmerece": 7252,
      "Ġanima": 7253,
      "TERI": 7254,
      "liga": 7255,
      "Ġdista": 7256,
      "Ġcancelada": 7257,
      "ĠtÃ©cnicas": 7258,
      "Ġcomparada": 7259,
      "chado": 7260,
      "Ġinteressa": 7261,
      "Ġsofre": 7262,
      "ĠOutra": 7263,
      "Ġestoura": 7264,
      "ĠacessÃ³rio": 7265,
      "Ġinfan": 7266,
      "Ġcostuma": 7267,
      "Ġpossibilidades": 7268,
      "Ġverifiquei": 7269,
      "ĠversÃµes": 7270,
      "Ġagradecer": 7271,
      "ĠprovidÃªncias": 7272,
      "ĠLEVE": 7273,
      "MART": 7274,
      "FÃįCIO": 7275,
      "LICA": 7276,
      "Vou": 7277,
      "osso": 7278,
      "Ã£es": 7279,
      "Ġinim": 7280,
      "vamos": 7281,
      "Ġback": 7282,
      "Ġarris": 7283,
      "ĠGela": 7284,
      "Ġopin": 7285,
      "izados": 7286,
      "ĠCONSE": 7287,
      "RIOS": 7288,
      "ĠEletrolux": 7289,
      "ĠTOP": 7290,
      "Ġutilizada": 7291,
      "Ġlink": 7292,
      "Pode": 7293,
      "ĠinÃºmeras": 7294,
      "Ġfabricado": 7295,
      "19": 7296,
      "25": 7297,
      "Di": 7298,
      "PARA": 7299,
      "Tela": 7300,
      "Ġaca": 7301,
      "tores": 7302,
      "Ġdentre": 7303,
      "Ġolho": 7304,
      "taram": 7305,
      "Ġben": 7306,
      "Ġvei": 7307,
      "Ġterem": 7308,
      "Ġcompri": 7309,
      "Ġnacional": 7310,
      "Ġextre": 7311,
      "rans": 7312,
      "cone": 7313,
      "ĠEstÃ£o": 7314,
      "Ġdevia": 7315,
      "ficial": 7316,
      "Ġfuros": 7317,
      "Ġdesapon": 7318,
      "ĠYoutube": 7319,
      "âĢĿ": 7320,
      "ĠRÃģPIDO": 7321,
      "ĠCompacto": 7322,
      "Ġprende": 7323,
      "ĠMARAVILHOSO": 7324,
      "Ġrelogio": 7325,
      "07": 7326,
      "Tec": 7327,
      "taÃ§Ãµes": 7328,
      "cialmente": 7329,
      "Ġves": 7330,
      "Ġmedia": 7331,
      "Ġaltamente": 7332,
      "Ġaparencia": 7333,
      "Ġassunto": 7334,
      "TANTE": 7335,
      "Ãºde": 7336,
      "Ġajusta": 7337,
      "Ġportatil": 7338,
      "Ġvendem": 7339,
      "Ġantece": 7340,
      "CIONAL": 7341,
      "ĠinsatisfaÃ§Ã£o": 7342,
      "Ġdanos": 7343,
      "ssimos": 7344,
      "Ġsentidos": 7345,
      "Ġbatedeira": 7346,
      "ĠPROBLEMAS": 7347,
      "Ġagradavel": 7348,
      "Ġburo": 7349,
      "ĠMENOS": 7350,
      "OOOOOOOOOOOOOOOO": 7351,
      "Ġcedo": 7352,
      "Obrigada": 7353,
      "Ġregistrar": 7354,
      "POS": 7355,
      "Tele": 7356,
      "Ġom": 7357,
      "Ġpura": 7358,
      "Ġpronta": 7359,
      "ĠSHO": 7360,
      "Ġdivis": 7361,
      "ĠOf": 7362,
      "ĠRio": 7363,
      "Ġtava": 7364,
      "resc": 7365,
      "paÃ§o": 7366,
      "ĠDEMAIS": 7367,
      "TEMP": 7368,
      "Ġviol": 7369,
      "Ġatrasada": 7370,
      "Ġtransmis": 7371,
      "Ġcriar": 7372,
      "Ġatualidade": 7373,
      "Ġcaras": 7374,
      "Ġeconomica": 7375,
      "Ġacende": 7376,
      "Ġseparado": 7377,
      "ĠDuraÃ§Ã£o": 7378,
      "????????????????????????????????": 7379,
      "Ġcouro": 7380,
      "ĠGARANTI": 7381,
      "?!": 7382,
      "Agora": 7383,
      "IPS": 7384,
      "bas": 7385,
      "gno": 7386,
      "Ġvim": 7387,
      "ĠCarre": 7388,
      "peria": 7389,
      "perfeito": 7390,
      "ĠDEVERIA": 7391,
      "ĠVIS": 7392,
      "ĠHO": 7393,
      "Ġinsu": 7394,
      "Ġconseguindo": 7395,
      "Ġdesejo": 7396,
      "Ġ70": 7397,
      "Ġpuder": 7398,
      "neus": 7399,
      "fetuei": 7400,
      "Ġganha": 7401,
      "Ġinfin": 7402,
      "Ġdepende": 7403,
      "ĠDeixa": 7404,
      "ĠexcelÃªncia": 7405,
      "Ġindepen": 7406,
      "Ġcredibilidade": 7407,
      "24": 7408,
      "aÃ§Ãµes": 7409,
      "vimento": 7410,
      "tique": 7411,
      "eli": 7412,
      "caÃ§a": 7413,
      "imas": 7414,
      "ĠDECEP": 7415,
      "Ġfiel": 7416,
      "Ġmarcada": 7417,
      "INI": 7418,
      "Ġabsolutamente": 7419,
      "ĠPEQU": 7420,
      "Recomenda": 7421,
      "ĠBENEFICIO": 7422,
      "ĠPRECIS": 7423,
      "Fal": 7424,
      "rados": 7425,
      "taria": 7426,
      "Ġup": 7427,
      "canas": 7428,
      "Ġtelas": 7429,
      "ĠMEM": 7430,
      "Ġentretenimento": 7431,
      "ĠDS": 7432,
      "Ġtoalhas": 7433,
      "OME": 7434,
      "Ġ35": 7435,
      "Ġletras": 7436,
      "Ġpau": 7437,
      "Ġvio": 7438,
      "ĠGrÃ¡": 7439,
      "ferencia": 7440,
      "ciosos": 7441,
      "ĠComp": 7442,
      "Ġgrafico": 7443,
      "Ġaquelas": 7444,
      "ĠdigitaÃ§Ã£o": 7445,
      "Ġamigas": 7446,
      "ĠutilizÃ¡": 7447,
      "Ġchamado": 7448,
      "dsds": 7449,
      "Ġiniciantes": 7450,
      "ĠPOSSO": 7451,
      "Ġminimo": 7452,
      "Ġtantas": 7453,
      "ĠVALOR": 7454,
      "Ġdesmontar": 7455,
      "Ġferramentas": 7456,
      "ssssssssssssssss": 7457,
      "Ġconstantemente": 7458,
      "ĠCANCEL": 7459,
      "Ġcheiroso": 7460,
      "Mar": 7461,
      "âĿ": 7462,
      "Ġev": 7463,
      "Ġbico": 7464,
      "Ã©l": 7465,
      "ciando": 7466,
      "Ġesquer": 7467,
      "Ġlista": 7468,
      "Ġseco": 7469,
      "cola": 7470,
      "usa": 7471,
      "ĠSEN": 7472,
      "ĠRA": 7473,
      "izou": 7474,
      "ĠsaÃºde": 7475,
      "ĠLinda": 7476,
      "ĠQual": 7477,
      "Ġfita": 7478,
      "TAMENTE": 7479,
      "Ġpontas": 7480,
      "Ġpontualidade": 7481,
      "Ġjamais": 7482,
      "ĠtÃ©r": 7483,
      "Ġcomputadores": 7484,
      "ĠPREVIS": 7485,
      "Ġarranha": 7486,
      "................................................................................................................................................................................................................................................................": 7487,
      "Ġsansung": 7488,
      "Ġwebcam": 7489,
      "Ġtelefon": 7490,
      "________": 7491,
      "ĠconcorrÃªncia": 7492,
      "Ġfacebook": 7493,
      "DF": 7494,
      "Parece": 7495,
      "ben": 7496,
      "lidade": 7497,
      "ÃĹ": 7498,
      "Ġpio": 7499,
      "Ġbura": 7500,
      "Ġparado": 7501,
      "Ġcompres": 7502,
      "ĠCCE": 7503,
      "ĠMON": 7504,
      "ĠRu": 7505,
      "pode": 7506,
      "ĠrÃ¡pidos": 7507,
      "Ġestas": 7508,
      "ight": 7509,
      "queado": 7510,
      "Ġfalei": 7511,
      "istem": 7512,
      "ercadoria": 7513,
      "Ġmaravilhosos": 7514,
      "Ġmonte": 7515,
      "ÃģVEL": 7516,
      "Ġdemorando": 7517,
      "exelente": 7518,
      ",,,": 7519,
      "ĠespecificaÃ§Ã£o": 7520,
      "ĠrefrigeraÃ§Ã£o": 7521,
      "Ġincompleto": 7522,
      "8888": 7523,
      "ĠdecoraÃ§Ã£o": 7524,
      ";;;;": 7525,
      "Ġcongelador": 7526,
      "ĠtÃŃtulo": 7527,
      "Ġprofundidade": 7528,
      "Ġtravesseiro": 7529,
      "gazine": 7530,
      "14": 7531,
      "Cam": 7532,
      "au": 7533,
      "ate": 7534,
      "Ġcenas": 7535,
      "Ġnes": 7536,
      "eleza": 7537,
      "Ġprocon": 7538,
      "Ã§amento": 7539,
      "Ġrequer": 7540,
      "Ġlinhas": 7541,
      "Ġdobro": 7542,
      "ĠAten": 7543,
      "Ġconce": 7544,
      "core": 7545,
      "Ġpoli": 7546,
      "ĠDifi": 7547,
      "ĠFac": 7548,
      "DAR": 7549,
      "Ġpediram": 7550,
      "Ġgratuito": 7551,
      "ack": 7552,
      "Ġchamar": 7553,
      "Ġrom": 7554,
      "ĠrÃ©": 7555,
      "Ġvoltarei": 7556,
      "Ġplata": 7557,
      "Ġgelar": 7558,
      "ĠSATISFEITA": 7559,
      "Ġcomprometimento": 7560,
      "Ġincluso": 7561,
      "Ġtubo": 7562,
      "ĠaliÃ¡s": 7563,
      "Ã´modo": 7564,
      "ĠPRESENTE": 7565,
      "âĿ¤": 7566,
      "LL": 7567,
      "PON": 7568,
      "Vi": 7569,
      "Valeu": 7570,
      "cÃ£o": 7571,
      "Ġmun": 7572,
      "qual": 7573,
      "enÃ§a": 7574,
      "eso": 7575,
      "Ġrea": 7576,
      "ĠNintendo": 7577,
      "Ġprato": 7578,
      "ĠTramontina": 7579,
      "ĠFIZ": 7580,
      "ĠBARA": 7581,
      "Ġmotivos": 7582,
      "Ġcontrario": 7583,
      "Ġcoloco": 7584,
      "volt": 7585,
      "ĠQUALQUER": 7586,
      "Ġimportado": 7587,
      "Ġbarulhenta": 7588,
      "Ġsubstitu": 7589,
      "Ġfrita": 7590,
      "Ġrecarreg": 7591,
      "Ġchurras": 7592,
      "Ġprotegido": 7593,
      "Fra": 7594,
      "cura": 7595,
      "Ġpira": 7596,
      "Ġbe": 7597,
      "Ġrecado": 7598,
      "Ġreves": 7599,
      "Ġesten": 7600,
      "ĠNOS": 7601,
      "Ġpraia": 7602,
      "Ġacei": 7603,
      "ĠrÃ¡pidas": 7604,
      "Ġlegu": 7605,
      "Ġhistoria": 7606,
      "Ġdure": 7607,
      "Ġesperei": 7608,
      "ĠPerfeita": 7609,
      "Ġsincron": 7610,
      "ĠSOBRE": 7611,
      "Ġestudar": 7612,
      "Ġchuva": 7613,
      "ĠRESPOS": 7614,
      "Ġcaixinha": 7615,
      "ĠeletrÃ´nico": 7616,
      "Ġcozinhar": 7617,
      "ĠSatisfeito": 7618,
      "ĠbraÃ§o": 7619,
      "ĠCaso": 7620,
      "AAAAAAAAAAAAAAAA": 7621,
      "ĠintermediÃ¡rio": 7622,
      "Ġadultos": 7623,
      "ĠâĢľ": 7624,
      "06": 7625,
      "cin": 7626,
      "timas": 7627,
      "Ġreparo": 7628,
      "Ġlaran": 7629,
      "ĠAUTO": 7630,
      "Ġtrou": 7631,
      "ĠcartÃµes": 7632,
      "Ġcasamento": 7633,
      "Ġvisita": 7634,
      "Ġimprime": 7635,
      "Ġsatisfato": 7636,
      "Ġapresentando": 7637,
      "ĠANOS": 7638,
      "Ġganhou": 7639,
      "Ġvisualizar": 7640,
      "Ġsensual": 7641,
      "Ġilumina": 7642,
      "Ġpreocupar": 7643,
      "ĠPRÃģ": 7644,
      "Ġrsrs": 7645,
      "Ġinteratividade": 7646,
      "Ġauxilia": 7647,
      "Ġconfiabilidade": 7648,
      "Ġsolucionar": 7649,
      "Ġprocurei": 7650,
      "Ġgarrafa": 7651,
      "ĠACAB": 7652,
      "ÃĹÃĹ": 7653,
      "atende": 7654,
      "fj": 7655,
      "Ġaonde": 7656,
      "Ġestorn": 7657,
      "anhei": 7658,
      "ĠCara": 7659,
      "Ġdiri": 7660,
      "Ġdiante": 7661,
      "Ġfunda": 7662,
      "Ġmonito": 7663,
      "Ġimpres": 7664,
      "ĠimpressÃµes": 7665,
      "Ġarquivo": 7666,
      "Ġnetbook": 7667,
      "Ġresidencia": 7668,
      "pppp": 7669,
      "ĠRESPON": 7670,
      "ĠeletrÃ´nica": 7671,
      "gradeÃ§o": 7672,
      "Ġgrill": 7673,
      "ĠPODERIA": 7674,
      "uggi": 7675,
      "Ġalegria": 7676,
      "Aguar": 7677,
      "rÃ£o": 7678,
      "zena": 7679,
      "Ġdeixo": 7680,
      "Ġrepresenta": 7681,
      "Ġconferir": 7682,
      "ĠPON": 7683,
      "Ġdesv": 7684,
      "ROS": 7685,
      "Ġvive": 7686,
      "izadas": 7687,
      "Ġtecn": 7688,
      "Ġmodem": 7689,
      "Ġgrade": 7690,
      "Ġusava": 7691,
      "Ġresolveram": 7692,
      "Ġmostrou": 7693,
      "ĠdesconfortÃ¡vel": 7694,
      "Ġadian": 7695,
      "Ġconceitu": 7696,
      "ĠASSIM": 7697,
      "ĠRÃ¡pida": 7698,
      "Ġprateleira": 7699,
      "Obrigado": 7700,
      "ĠBRASTEMP": 7701,
      "MB": 7702,
      "Man": 7703,
      "Pon": 7704,
      "RU": 7705,
      "cÃ§Ã£o": 7706,
      "nem": 7707,
      "Ġetique": 7708,
      "Ġcres": 7709,
      "Ġsd": 7710,
      "Ġfl": 7711,
      "ĠPen": 7712,
      "ĠMIM": 7713,
      "ĠSendo": 7714,
      "Ġaltos": 7715,
      "fias": 7716,
      "igos": 7717,
      "Ġsatisfez": 7718,
      "ESTE": 7719,
      "Ġfree": 7720,
      "ĠCONSI": 7721,
      "Ġindign": 7722,
      "AMENTE": 7723,
      "ĠAlta": 7724,
      "Ġfeitos": 7725,
      "Ġ:(": 7726,
      "Ġdesagra": 7727,
      "ĠFUNÃĩÃķES": 7728,
      "Ġnitida": 7729,
      "ĠmudanÃ§a": 7730,
      "Ġvermelha": 7731,
      "ĠSobre": 7732,
      "Ġcorrida": 7733,
      "Ġproviden": 7734,
      "Ġrendimento": 7735,
      ",,,,,,,,,,,,,,,,": 7736,
      "ĊĊĊĊĊĊĊĊĊĊĊĊĊĊĊĊĊĊĊĊĊĊĊĊĊĊĊĊĊĊĊĊĊĊĊĊĊĊĊĊĊĊĊĊĊĊĊĊĊĊĊĊĊĊĊĊĊĊĊĊĊĊĊĊ": 7737,
      "Ġbrilhante": 7738,
      "ĠCAMERA": 7739,
      "DEIRA": 7740,
      "ĠrazÃ£o": 7741,
      "Ġopiniao": 7742,
      "fra": 7743,
      "util": 7744,
      "Ġabra": 7745,
      "quia": 7746,
      "Ġdep": 7747,
      "Ġquedas": 7748,
      "Ġfinas": 7749,
      "Ġproposto": 7750,
      "Ġtento": 7751,
      "fio": 7752,
      "load": 7753,
      "Ġsombra": 7754,
      "Ġficava": 7755,
      "Ġprestado": 7756,
      "Ġmaravilhosas": 7757,
      "ĠCOMPRO": 7758,
      "Ġchamou": 7759,
      "Ġcontudo": 7760,
      "Ġlegendas": 7761,
      "Ġbanheiro": 7762,
      "Ġconector": 7763,
      "Ġgravador": 7764,
      "Ġjustamente": 7765,
      "Ġadoraram": 7766,
      "Ġbonitinho": 7767,
      "BBBB": 7768,
      "Ġdistribui": 7769,
      "ĠreservatÃ³rio": 7770,
      "ĠTRANS": 7771,
      "ĠMODELO": 7772,
      "&&": 7773,
      "300": 7774,
      "48": 7775,
      "Gente": 7776,
      "hu": 7777,
      "op": 7778,
      "Ġefe": 7779,
      "Ġfeira": 7780,
      "Ġbits": 7781,
      "tiu": 7782,
      "hot": 7783,
      "Ġenc": 7784,
      "ĠAcer": 7785,
      "Ġcontas": 7786,
      "Ã³gica": 7787,
      "Ġdesgas": 7788,
      "ENCIA": 7789,
      "Ġfazia": 7790,
      "ĠVEM": 7791,
      "Ġpag": 7792,
      "Ġvitam": 7793,
      "Ġvenha": 7794,
      "Ġmelhorou": 7795,
      "Ġmontado": 7796,
      "Ġchamas": 7797,
      "Ġneto": 7798,
      "ĠBaixo": 7799,
      "Ġprogres": 7800,
      "Ġproposta": 7801,
      "Desde": 7802,
      "Ġelim": 7803,
      "Ġapaga": 7804,
      "Ġpipo": 7805,
      "ĠsÃ©rio": 7806,
      "Tamanho": 7807,
      "ĠINTERNET": 7808,
      "HÃ¡": 7809,
      "Util": 7810,
      "pria": 7811,
      "Ġcra": 7812,
      "inc": 7813,
      "Ġrecorre": 7814,
      "ĠDL": 7815,
      "Ġalar": 7816,
      "Ġpede": 7817,
      "Ġestando": 7818,
      "Ġestabilidade": 7819,
      "ÃĵS": 7820,
      "ĠEsquenta": 7821,
      "ĠĠĠĠĠ": 7822,
      "OSO": 7823,
      "ĠRECLA": 7824,
      "Ġautoriza": 7825,
      "Ġsimul": 7826,
      "volvi": 7827,
      "Ġposicionamento": 7828,
      "ĠFOTO": 7829,
      "ĠEmpresa": 7830,
      "Ġgrosso": 7831,
      "hampo": 7832,
      "Ġnamorado": 7833,
      "ĠADQUIRI": 7834,
      "ĠMANUSEIO": 7835,
      "COU": 7836,
      "Le": 7837,
      "Usei": 7838,
      "ay": 7839,
      "mem": 7840,
      "melho": 7841,
      "Ġpec": 7842,
      "ĠnÃŃveis": 7843,
      "Ġflo": 7844,
      "Ġgoogle": 7845,
      "orra": 7846,
      "Ġdobra": 7847,
      "ĠEles": 7848,
      "Ġassi": 7849,
      "Ġmobilidade": 7850,
      "Ġdisp": 7851,
      "Ġconfio": 7852,
      "ĠESC": 7853,
      "ÃĩAS": 7854,
      "Ġoperadoras": 7855,
      "Ġsolicitando": 7856,
      "Ġescutar": 7857,
      "Ġiniciar": 7858,
      "ĠautomÃ¡tica": 7859,
      "NAO": 7860,
      "Ġtantos": 7861,
      "Ġobservei": 7862,
      "Ġcharmos": 7863,
      "Ġexperimentar": 7864,
      "ĠLamentÃ¡vel": 7865,
      "ICI": 7866,
      "JU": 7867,
      "ion": 7868,
      "Ġcir": 7869,
      "istas": 7870,
      "Ã©is": 7871,
      "tio": 7872,
      "Ġrevol": 7873,
      "Ġtel": 7874,
      "Ġlida": 7875,
      "ĠPr": 7876,
      "celular": 7877,
      "Ġsujo": 7878,
      "ĠTanto": 7879,
      "ulho": 7880,
      "ĠIMP": 7881,
      "talei": 7882,
      "ĠestÃ¡vel": 7883,
      "Ġduravel": 7884,
      "Ġvalores": 7885,
      "gic": 7886,
      "tude": 7887,
      "Espero": 7888,
      "ESSA": 7889,
      "Ġtido": 7890,
      "Ġpediu": 7891,
      "ĠprincÃŃ": 7892,
      "putador": 7893,
      "Ġenganada": 7894,
      "Ġcontinue": 7895,
      "ĠDIG": 7896,
      "tÃ³rios": 7897,
      "Ġmandam": 7898,
      "Ġvideogame": 7899,
      "Ġborda": 7900,
      "Ġobjetos": 7901,
      "ĠChina": 7902,
      "Preciso": 7903,
      "ĠconstruÃ§Ã£o": 7904,
      "ĠPASS": 7905,
      "Smartphone": 7906,
      "Ġencosto": 7907,
      "ĠberÃ§o": 7908,
      "ĠlenÃ§ol": 7909,
      "MENTO": 7910,
      "Ser": 7911,
      "binete": 7912,
      "pou": 7913,
      "oshiba": 7914,
      "Ġslo": 7915,
      "Ġindo": 7916,
      "Ġpoeira": 7917,
      "ĠFu": 7918,
      "Ġcomodidade": 7919,
      "Ġpeguei": 7920,
      "Ġ31": 7921,
      "ĠVal": 7922,
      "Ġdevida": 7923,
      "Ġtransforma": 7924,
      "Ġdesejado": 7925,
      "Ġrealizado": 7926,
      "ĠenganaÃ§Ã£o": 7927,
      "Ġpositivamente": 7928,
      "ĠTODO": 7929,
      "ĠcalÃ§a": 7930,
      "Notebook": 7931,
      "Ġapaixonei": 7932,
      "Ġrecarregar": 7933,
      "Ġtomadas": 7934,
      "Ġdescobrir": 7935,
      "Ġlargura": 7936,
      "BRICA": 7937,
      "Ġqueiram": 7938,
      "Ġcompeti": 7939,
      "ĠantecedÃªncia": 7940,
      "Ġlegumes": 7941,
      "OTIMO": 7942,
      "tabilidade": 7943,
      "Ġsete": 7944,
      "ĠCha": 7945,
      "Ġdestina": 7946,
      "Ġdesrespeito": 7947,
      "ĠROU": 7948,
      "vela": 7949,
      "Ġacresc": 7950,
      "Ġrestri": 7951,
      "Ġvalidade": 7952,
      "char": 7953,
      "ESSO": 7954,
      "elocidade": 7955,
      "ELIZ": 7956,
      "Ġseguida": 7957,
      "Ġcontrolar": 7958,
      "Ġcarregado": 7959,
      "ĠaplicaÃ§Ãµes": 7960,
      "ĠcondiÃ§Ã£o": 7961,
      "ĠDesempenho": 7962,
      "Ġdaria": 7963,
      "bateria": 7964,
      "ossuo": 7965,
      "Ġtelevisao": 7966,
      "Ġfacilitam": 7967,
      "ĠcomeÃ§ando": 7968,
      "Ġfechado": 7969,
      "Ġmultim": 7970,
      "Ġincomodar": 7971,
      "Ġprima": 7972,
      "Ġ0800": 7973,
      "Ġtentativa": 7974,
      "ĠÃļnico": 7975,
      "Ġimportantes": 7976,
      "ĠAGUARDANDO": 7977,
      "ĠResoluÃ§Ã£o": 7978,
      "ĠNikon": 7979,
      "ĠPonto": 7980,
      "Ġcheirinho": 7981,
      "ĠpropÃ³sito": 7982,
      "ĠÃ³ptico": 7983,
      "16": 7984,
      "35": 7985,
      "AIS": 7986,
      "Exatamente": 7987,
      "fado": 7988,
      "gni": 7989,
      "Ġpente": 7990,
      "Ġgps": 7991,
      "Ġdores": 7992,
      "Ġeng": 7993,
      "Ã³r": 7994,
      "Ġnotas": 7995,
      "ĠNe": 7996,
      "Ġbomba": 7997,
      "ĠDia": 7998,
      "ulos": 7999,
      "ENCI": 8000,
      "ĠcarcaÃ§a": 8001,
      "Ġarras": 8002,
      "Ġassento": 8003,
      "Ġmeninos": 8004,
      "ursos": 8005,
      "Ġimpac": 8006,
      "Ġrodinhas": 8007,
      "ĠCONT": 8008,
      "Ġpassada": 8009,
      "essimo": 8010,
      "respondeu": 8011,
      "Ã©rico": 8012,
      "positiva": 8013,
      "ĠĠĠĠĠĠĠĠĠĠĠĠĠĠĠĠĠĠĠĠĠĠĠĠĠĠĠĠĠĠĠĠĠĠĠĠĠĠĠĠĠĠĠĠĠĠĠĠĠĠĠĠĠĠĠĠĠĠĠĠĠĠĠĠ": 8014,
      "parei": 8015,
      "ĠurgÃªncia": 8016,
      "ĠFotos": 8017,
      "ĠVEZES": 8018,
      "Ġcachorro": 8019,
      "Ġviajar": 8020,
      "ĠlogÃŃstica": 8021,
      "Ġquentinho": 8022,
      "ĠindispensÃ¡vel": 8023,
      "Ġrecarga": 8024,
      "ĠMODERNO": 8025,
      "ĠRECLAMA": 8026,
      ">>": 8027,
      "Atendimento": 8028,
      "Nem": 8029,
      "UU": 8030,
      "gera": 8031,
      "Ġpneus": 8032,
      "Ġvel": 8033,
      "cados": 8034,
      "Ġespre": 8035,
      "Ġine": 8036,
      "ĠOBRI": 8037,
      "ĠORIG": 8038,
      "Ġface": 8039,
      "Ġtais": 8040,
      "ĠFRE": 8041,
      "sicos": 8042,
      "ĠBarato": 8043,
      "tÃ¡ria": 8044,
      "Ġpostagem": 8045,
      "pada": 8046,
      "viei": 8047,
      "Ġpros": 8048,
      "Ġhi": 8049,
      "Ġcasos": 8050,
      "Ġvendeu": 8051,
      "ĠruÃŃdos": 8052,
      "Ġleveza": 8053,
      "Ġimba": 8054,
      "ĠSEJA": 8055,
      "ĠDIFER": 8056,
      "ĠhorÃ¡rio": 8057,
      "ĠLed": 8058,
      "Ġtouchscreen": 8059,
      "Ġmanuais": 8060,
      "Ġacendimento": 8061,
      "ĠARRE": 8062,
      "entidÃ£o": 8063,
      "ĠlÃŃquido": 8064,
      "ĠCONSUMIDOR": 8065,
      "FICIENTE": 8066,
      "wnload": 8067,
      "ĠACHEI": 8068,
      "ĠJaneiro": 8069,
      "Ġsexta": 8070,
      "Ġburocra": 8071,
      "Ġtecnol": 8072,
      "Ã©c": 8073,
      "ĠtÃ´": 8074,
      "ĠSENDO": 8075,
      "ĠToshiba": 8076,
      "ĠFlash": 8077,
      "Ġestaria": 8078,
      "gico": 8079,
      "Ġparecendo": 8080,
      "Ġgraus": 8081,
      "Ġgaran": 8082,
      "ĠContinu": 8083,
      "Ġpanor": 8084,
      "Ġ150": 8085,
      "Ġacontecendo": 8086,
      "ĠFORA": 8087,
      "Ġadaptar": 8088,
      "Deveria": 8089,
      "Ġcentro": 8090,
      "ĠCARO": 8091,
      "Indico": 8092,
      "ĠFunÃ§Ãµes": 8093,
      "ĠWiFi": 8094,
      "ĠcrÃŃ": 8095,
      "ĠdescartÃ¡vel": 8096,
      "canagem": 8097,
      "Ġfechados": 8098,
      "ĠPlayer": 8099,
      "ĠJOGO": 8100,
      "ĠexpansÃ£o": 8101,
      "ĠOffice": 8102,
      "Demora": 8103,
      "EE": 8104,
      "PU": 8105,
      "RIN": 8106,
      "dra": 8107,
      "Ġata": 8108,
      "Ġfria": 8109,
      "manda": 8110,
      "Ã§ando": 8111,
      "Ġconfus": 8112,
      "Ġsera": 8113,
      "Ġdestes": 8114,
      "ĠOn": 8115,
      "ĠTÃī": 8116,
      "reira": 8117,
      "ĠpeÃ§o": 8118,
      "Ġatencioso": 8119,
      "Ġtirei": 8120,
      "irinha": 8121,
      "ĠRECOM": 8122,
      "ĠDOIS": 8123,
      "Ġtecnologias": 8124,
      "Ġdesligado": 8125,
      "Algu": 8126,
      "funciona": 8127,
      "ĠJogabilidade": 8128,
      "Ġarranhado": 8129,
      "Ġjuntos": 8130,
      "ĠDurabilidade": 8131,
      "TENCIA": 8132,
      "ĠPIP": 8133,
      "Ġintenso": 8134,
      "gestÃ£o": 8135,
      "ĠarranhÃµes": 8136,
      "ĠGARANTIA": 8137,
      "ĠRESPOSTA": 8138,
      "Ġcanto": 8139,
      "Ġmer": 8140,
      "Ġmuu": 8141,
      "ĠPrin": 8142,
      "icamente": 8143,
      "celei": 8144,
      "Ġcachos": 8145,
      "ĠLINDA": 8146,
      "ĠpaÃŃs": 8147,
      "Ġpasta": 8148,
      "ĠpresenÃ§a": 8149,
      "ĠQUEB": 8150,
      "Ġ2012": 8151,
      "ĠPainel": 8152,
      "ĠFIQUEI": 8153,
      "ĠCOISA": 8154,
      "Ġestuda": 8155,
      "Ġchateado": 8156,
      "Ġ;)": 8157,
      "pressora": 8158,
      "Ġmasculino": 8159,
      "ĠdelÃŃcia": 8160,
      "ĠPEQUEN": 8161,
      "Ġcompressor": 8162,
      "600": 8163,
      "95": 8164,
      "linda": 8165,
      "ncias": 8166,
      "Ġdon": 8167,
      "Ġcostas": 8168,
      "Ġness": 8169,
      "Ã¡gua": 8170,
      "gam": 8171,
      "Ġrecentemente": 8172,
      "colh": 8173,
      "ĠNET": 8174,
      "ĠMuita": 8175,
      "Ġcomprador": 8176,
      "Ġcapas": 8177,
      "ficas": 8178,
      "Ġform": 8179,
      "Ġtivemos": 8180,
      "ĠHOR": 8181,
      "Ãºs": 8182,
      "ECE": 8183,
      "Ġdeixaram": 8184,
      "ĠEletro": 8185,
      "Ġpuro": 8186,
      "ensacional": 8187,
      "ĠANUN": 8188,
      "duras": 8189,
      "ĠESTAVA": 8190,
      "ĠEntretanto": 8191,
      "Ġcaptura": 8192,
      "ĠsituaÃ§Ãµes": 8193,
      "Ġtextos": 8194,
      "Ġpalavra": 8195,
      "Receb": 8196,
      "Ġsimplismente": 8197,
      "Ġcompativel": 8198,
      "ĠOUTROS": 8199,
      "XXXXXXXXXXXXXXXX": 8200,
      "$$$$": 8201,
      "ĠFaltou": 8202,
      "ĠconfirmaÃ§Ã£o": 8203,
      "ĠVOLTA": 8204,
      "Ġmentira": 8205,
      "Positiva": 8206,
      "ĠesforÃ§o": 8207,
      "Dis": 8208,
      "Equipamento": 8209,
      "agora": 8210,
      "ban": 8211,
      "inou": 8212,
      "material": 8213,
      "alem": 8214,
      "Ġrever": 8215,
      "Ġcompens": 8216,
      "ĠdaÃŃ": 8217,
      "ĠShow": 8218,
      "Ġpernas": 8219,
      "Ġaparecer": 8220,
      "Ġresumo": 8221,
      "mbala": 8222,
      "onex": 8223,
      "Ġsoltou": 8224,
      "Ġgrades": 8225,
      "zados": 8226,
      "ĠWar": 8227,
      "Ġnegativas": 8228,
      "cionados": 8229,
      "Ġquesitos": 8230,
      "Ġcaminh": 8231,
      "Entregou": 8232,
      "Ġfamiliares": 8233,
      "Ġdiminuir": 8234,
      "Ġafirmar": 8235,
      "ĠestÃ©tica": 8236,
      "ĠlÃ¢minas": 8237,
      "maravilhoso": 8238,
      "ĠprincÃŃpio": 8239,
      "44": 8240,
      "fr": 8241,
      "Ġ!!!!!": 8242,
      "Ġbolo": 8243,
      "Ã¡lis": 8244,
      "Ġrefer": 8245,
      "Ġrecip": 8246,
      "Ġestudo": 8247,
      "ĠAh": 8248,
      "ĠAQU": 8249,
      "Ġpreen": 8250,
      "Ġapon": 8251,
      "ĠObs": 8252,
      "Ġacum": 8253,
      "ĠBAR": 8254,
      "Ġresumindo": 8255,
      "Ġmarket": 8256,
      "ĠpoderÃ¡": 8257,
      "Ġdevolu": 8258,
      "ĠQuase": 8259,
      "ĠWii": 8260,
      "ĠficarÃ¡": 8261,
      "Ġencam": 8262,
      "Que": 8263,
      "Ġcompradores": 8264,
      "ĠPORÃīM": 8265,
      "Ġintuitiva": 8266,
      "Ġimpressionado": 8267,
      "ĠfÃŃsicas": 8268,
      "Ġterminar": 8269,
      "ĠVocÃªs": 8270,
      "ĠDecepcionada": 8271,
      "ĠPouca": 8272,
      "Ġoffice": 8273,
      "ĠTECN": 8274,
      "ðŁĳıðŁĳı": 8275,
      "RÃ¡pido": 8276,
      "Ġfuturo": 8277,
      "ĠÃ¢ngulo": 8278,
      "Ġlaranja": 8279,
      "mbalagem": 8280,
      "78": 8281,
      "Can": 8282,
      "COR": 8283,
      "VAR": 8284,
      "erg": 8285,
      "Ã©r": 8286,
      "Ġrele": 8287,
      "Ġnotifica": 8288,
      "guem": 8289,
      "Ġfol": 8290,
      "ĠTer": 8291,
      "ĠTrans": 8292,
      "ciado": 8293,
      "Ġseguir": 8294,
      "iii": 8295,
      "acre": 8296,
      "ĠxÃŃ": 8297,
      "Ġligando": 8298,
      "Ġgeralmente": 8299,
      "Ġcris": 8300,
      "Ġmultiplayer": 8301,
      "ĠBAIXO": 8302,
      "ĠMELHO": 8303,
      "ĠpedaÃ§os": 8304,
      "Ġrecarrega": 8305,
      "ĠobservaÃ§Ã£o": 8306,
      "ĠSatisfeita": 8307,
      "ĠLava": 8308,
      "ĠlÃ¢mpadas": 8309,
      "ĠVOCÃĬ": 8310,
      "Durabilidade": 8311,
      "ĠavanÃ§ado": 8312,
      "Ġindependente": 8313,
      "ĠFacebook": 8314,
      "For": 8315,
      "SÃ£o": 8316,
      "frigera": 8317,
      "ian": 8318,
      "vc": 8319,
      "Ã¨": 8320,
      "Ġmale": 8321,
      "Ġdedo": 8322,
      "delo": 8323,
      "Ġvinha": 8324,
      "Ġpression": 8325,
      "ĠOb": 8326,
      "Ġalisa": 8327,
      "Ġsac": 8328,
      "ĠBra": 8329,
      "ĠBan": 8330,
      "Ġpedem": 8331,
      "Ġating": 8332,
      "essem": 8333,
      "Ġvirar": 8334,
      "Ġforne": 8335,
      "Ġtratando": 8336,
      "Ġduram": 8337,
      "Ġluxo": 8338,
      "ĠENVI": 8339,
      "ĠtÃ©cnicos": 8340,
      "rect": 8341,
      "ĠMEUS": 8342,
      "ĠLogo": 8343,
      "Ġsonora": 8344,
      "Ġavisar": 8345,
      "Ġrsrsrs": 8346,
      "ĠASSIS": 8347,
      "Ġdesenvolvimento": 8348,
      "Ġeletrodom": 8349,
      "Ġgalho": 8350,
      "aaaaaaaaaaaaaaaaaaaaaaaaaaaaaaaaaaaaaaaaaaaaaaaaaaaaaaaaaaaaaaaa": 8351,
      "Ġidentifiquei": 8352,
      "ĠvÃ¡l": 8353,
      "ĠADOREI": 8354,
      "Ġacostumar": 8355,
      "Ġplataforma": 8356,
      "ĠDIGITA": 8357,
      "400": 8358,
      "ot": 8359,
      "vro": 8360,
      "Ġdecis": 8361,
      "Ġreen": 8362,
      "Ġdownload": 8363,
      "ĠAmo": 8364,
      "uste": 8365,
      "ĠSMART": 8366,
      "ĠTINHA": 8367,
      "xxx": 8368,
      "Ġampli": 8369,
      "Ġmanejo": 8370,
      "Ġdevendo": 8371,
      "Ġrodando": 8372,
      "Ġbarbe": 8373,
      "Ġerros": 8374,
      "Ġprotetor": 8375,
      "Ġgastei": 8376,
      "ĠTop": 8377,
      "ĠTodas": 8378,
      "ĠfÃŃsico": 8379,
      "ĠConsumo": 8380,
      "ĠsubstituiÃ§Ã£o": 8381,
      "ĠDeix": 8382,
      "Ġtentativas": 8383,
      "ĠDEVOL": 8384,
      "Ġimediatamente": 8385,
      "ÃĤM": 8386,
      "ĠcentrifugaÃ§Ã£o": 8387,
      "ĠINDICO": 8388,
      "ĠTÃīC": 8389,
      "23": 8390,
      "BR": 8391,
      "icone": 8392,
      "Ġpiso": 8393,
      "Ġrecol": 8394,
      "ĠMÃĬS": 8395,
      "ĠOpera": 8396,
      "Ġperdido": 8397,
      "Ġserie": 8398,
      "sivos": 8399,
      "ĠsuperfÃŃ": 8400,
      "Ġviu": 8401,
      "Ġassar": 8402,
      "compra": 8403,
      "ARI": 8404,
      "Ġdevolveram": 8405,
      "Ġlanterna": 8406,
      "Ġ720": 8407,
      "Ġtorta": 8408,
      "ĠDATA": 8409,
      "parado": 8410,
      "ĠEXISTE": 8411,
      "Ġfotografias": 8412,
      "Ġmultifuncional": 8413,
      "ĠventilaÃ§Ã£o": 8414,
      "ĠCARRE": 8415,
      "eeeeeeeeeeeeeeee": 8416,
      "Ġplug": 8417,
      "vvvvvvvvvvvvvvvvvvvvvvvvvvvvvvvv": 8418,
      "++++++++++++++++++++++++++++++++": 8419,
      "Ġimpossibilita": 8420,
      "ĠPHILIPS": 8421,
      "Ġlembrar": 8422,
      "Ġatingiu": 8423,
      "hampoo": 8424,
      "Decep": 8425,
      "db": 8426,
      "Ġoculos": 8427,
      "aser": 8428,
      "ĠlentidÃ£o": 8429,
      "una": 8430,
      "Ġpretende": 8431,
      "ĠSite": 8432,
      "ĠSEI": 8433,
      "ĠSSD": 8434,
      "Ġsucos": 8435,
      "Ġsugiro": 8436,
      "ĠTÃ©c": 8437,
      "Ġentregador": 8438,
      "ĠGa": 8439,
      "pensa": 8440,
      "ĠPROC": 8441,
      "Ġpoderoso": 8442,
      "Ġentraram": 8443,
      "Ġusam": 8444,
      "ĠCONTRO": 8445,
      "ĠContra": 8446,
      "board": 8447,
      "ĠPorem": 8448,
      "Ġrui": 8449,
      "profission": 8450,
      "Ġarmazena": 8451,
      "ĠTODA": 8452,
      "veniente": 8453,
      "ĠExelente": 8454,
      "COMO": 8455,
      "parÃ¡vel": 8456,
      "IZAR": 8457,
      "superou": 8458,
      "Ġcozimento": 8459,
      "ĠDURABILIDADE": 8460,
      "Ġacostumado": 8461,
      "Ġgigante": 8462,
      "Ġintacto": 8463,
      "ĠcÃ¢mara": 8464,
      "ĠAliÃ¡s": 8465,
      "Ġburocracia": 8466,
      "Co": 8467,
      "ETO": 8468,
      "Pr": 8469,
      "blema": 8470,
      "ib": 8471,
      "vindo": 8472,
      "ys": 8473,
      "Ġati": 8474,
      "Ġesca": 8475,
      "ĠAlem": 8476,
      "lagem": 8477,
      "hat": 8478,
      "ÃŃn": 8479,
      "ÃŃsticas": 8480,
      "Ġestarei": 8481,
      "nota": 8482,
      "Ġcase": 8483,
      "EMP": 8484,
      "Ġcantos": 8485,
      "Ġluta": 8486,
      "ĠcontÃ©m": 8487,
      "Ġsurpreso": 8488,
      "Ġrecomendada": 8489,
      "ĠINSTA": 8490,
      "Ġ99": 8491,
      "ĠDIRE": 8492,
      "SATIS": 8493,
      "SUR": 8494,
      "Ġboneco": 8495,
      "Ġexplicativo": 8496,
      "Ġsoftwares": 8497,
      "Ġrobusta": 8498,
      "Ġaprendi": 8499,
      "ÃĩAO": 8500,
      "Ġtratamento": 8501,
      "Pedido": 8502,
      "Prazo": 8503,
      "ĠmÃŃnima": 8504,
      "Ġchuveiro": 8505,
      "Ġcoube": 8506,
      "Satisfeito": 8507,
      "ĠOUTRAS": 8508,
      "Ġressalva": 8509,
      "ĠRAPIDA": 8510,
      "ĠAprovado": 8511,
      "68": 8512,
      "ed": 8513,
      "endei": 8514,
      "ĠAMI": 8515,
      "ĠBri": 8516,
      "Ġresta": 8517,
      "ĠUl": 8518,
      "ĠDEIX": 8519,
      "marino": 8520,
      "Ġ47": 8521,
      "ĠMuitos": 8522,
      "Ġnossos": 8523,
      "Ġespeciais": 8524,
      "Ġlegenda": 8525,
      "Ġdificultando": 8526,
      "Ġcumprir": 8527,
      "Ġdanificada": 8528,
      "ĠmÃ³veis": 8529,
      "ĠAlguns": 8530,
      "ĠlÃ¢mina": 8531,
      "ĠAbsurdo": 8532,
      "ENTREGA": 8533,
      "uggies": 8534,
      "Dentro": 8535,
      "bone": 8536,
      "ceiro": 8537,
      "jk": 8538,
      "nal": 8539,
      "ĠÂ´": 8540,
      "Ġdito": 8541,
      "radas": 8542,
      "Ġmi": 8543,
      "tamos": 8544,
      "antÃ¡s": 8545,
      "ĠSeria": 8546,
      "eraÃ§Ã£o": 8547,
      "Ġidos": 8548,
      "cionei": 8549,
      "idor": 8550,
      "perfume": 8551,
      "ĠanÃ¡lis": 8552,
      "ĠESPA": 8553,
      "aravilhosa": 8554,
      "ilenciosa": 8555,
      "Ġplana": 8556,
      "Ġaprovo": 8557,
      "Ġrefil": 8558,
      "Ġremov": 8559,
      "Ġtenham": 8560,
      "Ġpenso": 8561,
      "ĠsaÃŃdas": 8562,
      "enovo": 8563,
      "Ġretornar": 8564,
      "Ġcomplicada": 8565,
      "ĠPÃīSSIMA": 8566,
      "Ġimpede": 8567,
      "Ġguitar": 8568,
      "colate": 8569,
      "ĠBARATO": 8570,
      "Li": 8571,
      "apenas": 8572,
      "bum": 8573,
      "jh": 8574,
      "parece": 8575,
      "¸ı": 8576,
      "ï¸ı": 8577,
      "Ġxxxx": 8578,
      "ent": 8579,
      "Ġesper": 8580,
      "Ġempres": 8581,
      "ĠPas": 8582,
      "Ġmagn": 8583,
      "ĠNos": 8584,
      "ĠTE": 8585,
      "diei": 8586,
      "porem": 8587,
      "Ġespan": 8588,
      "Ġestampa": 8589,
      "Ġpouqu": 8590,
      "ĠUsei": 8591,
      "ĠDEU": 8592,
      "viÃ§o": 8593,
      "Ġassina": 8594,
      "Ġfiltros": 8595,
      "Ġprecisamos": 8596,
      "sson": 8597,
      "Ġusamos": 8598,
      "Compa": 8599,
      "Ġproteger": 8600,
      "ĠAPRES": 8601,
      "Ġcolcha": 8602,
      "Ġajudam": 8603,
      "ĠFOTOS": 8604,
      "Ġtemperaturas": 8605,
      "Nota": 8606,
      "Ġpendura": 8607,
      "Ġgabinete": 8608,
      "ĠREALMENTE": 8609,
      "ĠDUAS": 8610,
      "Ġevitando": 8611,
      "Ġincompa": 8612,
      "Ġavaliando": 8613,
      "ĠDecepÃ§Ã£o": 8614,
      "ĠCompraria": 8615,
      "ĠAlgumas": 8616,
      "Ġavariado": 8617,
      "ĠmecÃ¢": 8618,
      "KKKKKKKKKKKKKKKKKKKKKKKKKKKKKKKK": 8619,
      "Ġcadastro": 8620,
      "ĠCONSEGU": 8621,
      "Apenas": 8622,
      "Bon": 8623,
      "Olha": 8624,
      "fil": 8625,
      "fru": 8626,
      "Ġpalha": 8627,
      "Ġsenta": 8628,
      "Ġfs": 8629,
      "Ġfrost": 8630,
      "eros": 8631,
      "ciam": 8632,
      "Ġrem": 8633,
      "Ġlendo": 8634,
      "Ġline": 8635,
      "ĠSinto": 8636,
      "ĠTele": 8637,
      "Ġcapri": 8638,
      "Ġrecebemos": 8639,
      "Ġmole": 8640,
      "Ġresse": 8641,
      "ASE": 8642,
      "porque": 8643,
      "Ġfragilidade": 8644,
      "Ġsoltando": 8645,
      "Ġconseguimos": 8646,
      "Ġplano": 8647,
      "Ġroub": 8648,
      "ĠEMBAL": 8649,
      "Ã¡stico": 8650,
      "Ġnormais": 8651,
      "Ġtelevisores": 8652,
      "ĠSUR": 8653,
      "ĠRECEBER": 8654,
      "Ġmostrado": 8655,
      "Ġabertos": 8656,
      "Ġultimo": 8657,
      "DIO": 8658,
      "Ġpiano": 8659,
      "Ġvazando": 8660,
      "Ġeficiencia": 8661,
      "ĠexecuÃ§Ã£o": 8662,
      "Ġconvencionais": 8663,
      "IIIIIIII": 8664,
      "Ġressarcimento": 8665,
      "ĠsaudÃ¡vel": 8666,
      "Ġaventura": 8667,
      "Ġfirmware": 8668,
      "ly": 8669,
      "necess": 8670,
      "tinhos": 8671,
      "recom": 8672,
      "Ġquentes": 8673,
      "Ġfuma": 8674,
      "espero": 8675,
      "Ġreven": 8676,
      "ric": 8677,
      "ĠAdoro": 8678,
      "ĠPlas": 8679,
      "Ġrecente": 8680,
      "Ġmaio": 8681,
      "ĠNEGA": 8682,
      "ilhas": 8683,
      "ĠCOL": 8684,
      "ĠMB": 8685,
      "Ġpotes": 8686,
      "trar": 8687,
      "Ġcaindo": 8688,
      "ixas": 8689,
      "Ġaceito": 8690,
      "Ġesposo": 8691,
      "adores": 8692,
      "ders": 8693,
      "ĠUN": 8694,
      "ĠVelocidade": 8695,
      "remos": 8696,
      "Ġqq": 8697,
      "ĠPorque": 8698,
      "Ġcump": 8699,
      "ĠConfi": 8700,
      "Ġdecepciona": 8701,
      "Ġantecipa": 8702,
      "Ġapropria": 8703,
      "Ġservir": 8704,
      "Ġesclare": 8705,
      "Ġgama": 8706,
      "Ġrisca": 8707,
      "ssimas": 8708,
      "CARIA": 8709,
      "Ġevita": 8710,
      "Ġinterativo": 8711,
      "Ġgrossa": 8712,
      "Ġpermitindo": 8713,
      "ĠLAVA": 8714,
      "ĠpreocupaÃ§Ã£o": 8715,
      "ĠmÃŃdia": 8716,
      "ĠcÃ¡psulas": 8717,
      "ĠPARECE": 8718,
      "ĠINSTALA": 8719,
      "fini": 8720,
      "plas": 8721,
      "ÃĶ": 8722,
      "Ġequil": 8723,
      "Ġcro": 8724,
      "Ã³rias": 8725,
      "led": 8726,
      "lete": 8727,
      "Ġsequ": 8728,
      "set": 8729,
      "ultado": 8730,
      "ferente": 8731,
      "Ġassistindo": 8732,
      "ENTES": 8733,
      "essoal": 8734,
      "Ġcarac": 8735,
      "Ġligava": 8736,
      "LAY": 8737,
      "Ġadesivo": 8738,
      "ĠpapelÃ£o": 8739,
      "ĠhistÃ³": 8740,
      "ĠDifÃŃcil": 8741,
      "Ġtelefones": 8742,
      "Ġadequadamente": 8743,
      "Ġreiniciar": 8744,
      "mental": 8745,
      "ĠInsta": 8746,
      "////////": 8747,
      "Ġeducativo": 8748,
      "ĠONDE": 8749,
      "friar": 8750,
      "Ġinfantil": 8751,
      "Ġchurrasqueira": 8752,
      "Ġprogressiva": 8753,
      "ĠORIGINAL": 8754,
      "Acredito": 8755,
      "ibra": 8756,
      "Ġdever": 8757,
      "ers": 8758,
      "canner": 8759,
      "Ġcongela": 8760,
      "Ġextras": 8761,
      "Ġira": 8762,
      "TEM": 8763,
      "tuais": 8764,
      "Ġgoste": 8765,
      "Ġgaranto": 8766,
      "atual": 8767,
      "Ġ2010": 8768,
      "ĠcolocaÃ§Ã£o": 8769,
      "ĠExtremamente": 8770,
      "ĠALÃīM": 8771,
      "Ġtornou": 8772,
      "Ġavisa": 8773,
      "Ġdesenhos": 8774,
      "Ġqueimadores": 8775,
      "Realizei": 8776,
      "ĠFICOU": 8777,
      "Ġexecelente": 8778,
      "Ġcolorida": 8779,
      "Ġseparadamente": 8780,
      "Ġprojeto": 8781,
      "ĠFACILIDADE": 8782,
      "Ġindiscu": 8783,
      "ĠlamentÃ¡vel": 8784,
      "ĠDisplay": 8785,
      "Ġsusten": 8786,
      "Ġexperimentei": 8787,
      "####": 8788,
      "11111111": 8789,
      "ĠSABER": 8790,
      "Ġalarme": 8791,
      ".:": 8792,
      "75": 8793,
      "IT": 8794,
      "Nossa": 8795,
      "Ġnisso": 8796,
      "ĠsÃ¡": 8797,
      "Ġore": 8798,
      "Ã©ia": 8799,
      "Ġmeca": 8800,
      "ĠCARA": 8801,
      "Ġsaia": 8802,
      "ĠFis": 8803,
      "ĠBOL": 8804,
      "Ġpegada": 8805,
      "Ġeletrolux": 8806,
      "ĠHA": 8807,
      "Ġelabo": 8808,
      "Ġutilidades": 8809,
      "ĠCOMPLE": 8810,
      "Ġacessor": 8811,
      "Ġconhecido": 8812,
      "Ġequival": 8813,
      "Ġcolar": 8814,
      "Ġchegam": 8815,
      "ĠLevei": 8816,
      "Ġpermitem": 8817,
      "ĠResistente": 8818,
      "ĠPrecisa": 8819,
      "Ġimpressiona": 8820,
      "Ġacompanhamento": 8821,
      "ĠÃºltimos": 8822,
      "ĠinstruÃ§Ã£o": 8823,
      "ĠAOC": 8824,
      "Ġiriam": 8825,
      "Ġestudos": 8826,
      "Ġfinan": 8827,
      "Ġnovembro": 8828,
      "yyyyyyyy": 8829,
      "Ġsilicone": 8830,
      "ĠmÃ¡scara": 8831,
      "ĠveÃŃculo": 8832,
      "ĠBASTANTE": 8833,
      "ĠGrÃ¡ficos": 8834,
      "ĠAtenciosamente": 8835,
      "Ġdesvantagem": 8836,
      "ĠRECOMENDA": 8837,
      "Simples": 8838,
      "fs": 8839,
      "feira": 8840,
      "hum": 8841,
      "juda": 8842,
      "lin": 8843,
      "nes": 8844,
      "pida": 8845,
      "sando": 8846,
      "wit": 8847,
      "Ġedre": 8848,
      "repen": 8849,
      "Ġfe": 8850,
      "Ġfes": 8851,
      "Ġbro": 8852,
      "Ġbebi": 8853,
      "Ġconfere": 8854,
      "uns": 8855,
      "Ġsupri": 8856,
      "didas": 8857,
      "arentemente": 8858,
      "Ġperdeu": 8859,
      "ĠLO": 8860,
      "Ġangu": 8861,
      "Ġcook": 8862,
      "ĠVÃģ": 8863,
      "Ġvira": 8864,
      "ĠGELA": 8865,
      "Ġverifica": 8866,
      "Ġnecessito": 8867,
      "Ġtravamento": 8868,
      "Ġkm": 8869,
      "Ġeconomiza": 8870,
      "ĠFABRICA": 8871,
      "Ġhorro": 8872,
      "ĠXperia": 8873,
      "Ġmostrar": 8874,
      "ĠRecomento": 8875,
      "ĠRETORNO": 8876,
      "PAGAN": 8877,
      "ĠJogos": 8878,
      "ĠDirect": 8879,
      "ĠFALAR": 8880,
      "OLOGIA": 8881,
      "Ġimediato": 8882,
      "Ġreconhecimento": 8883,
      "Ġpreparar": 8884,
      "ĠavanÃ§ada": 8885,
      "ĠFUI": 8886,
      "Ġcadeirinha": 8887,
      "Ġrecipiente": 8888,
      "Ar": 8889,
      "AINDA": 8890,
      "COS": 8891,
      "Efetuei": 8892,
      "gna": 8893,
      "ivos": 8894,
      "zado": 8895,
      "Ġacel": 8896,
      "Ġdemanda": 8897,
      "Ġrevis": 8898,
      "ĠPesquisei": 8899,
      "Ġprata": 8900,
      "ĠCHA": 8901,
      "ĠClaro": 8902,
      "Ġdest": 8903,
      "ĠRELA": 8904,
      "Ġpeli": 8905,
      "Ġopni": 8906,
      "Ġinternas": 8907,
      "INE": 8908,
      "torna": 8909,
      "ĠnecessÃ¡rias": 8910,
      "Ġlap": 8911,
      "ĠESTÃĥO": 8912,
      "Ġvolto": 8913,
      "ANTE": 8914,
      "Ġengano": 8915,
      "Ġcurte": 8916,
      "Ġcamis": 8917,
      "ĠTotal": 8918,
      "mÃ¡tica": 8919,
      "Ġsuperando": 8920,
      "Ġtomando": 8921,
      "ĠinÃºmeros": 8922,
      "Ġauxiliar": 8923,
      "ĠPARC": 8924,
      "mmmmmmmmmmmmmmmmmmmmmmmmmmmmmmmmmmmmmmmmmmmmmmmmmmmmmmmmmmmmmmmm": 8925,
      "hhhhhhhhhhhhhhhh": 8926,
      "xyxyxyxy": 8927,
      "ĠATENDEU": 8928,
      "neamente": 8929,
      "Ġrazoavel": 8930,
      "Ġestiloso": 8931,
      "ĠMenu": 8932,
      "!.": 8933,
      ",.": 8934,
      "09": 8935,
      "Amo": 8936,
      "Bo": 8937,
      "iff": 8938,
      "Ġafia": 8939,
      "ĠfÃ©": 8940,
      "Ġuse": 8941,
      "estei": 8942,
      "Ġesgo": 8943,
      "Ġparal": 8944,
      "Ġsecre": 8945,
      "ĠintenÃ§Ã£o": 8946,
      "Ġdesisti": 8947,
      "ĠDAR": 8948,
      "ĠTom": 8949,
      "riamente": 8950,
      "ĠGu": 8951,
      "ensÃ£o": 8952,
      "ĠdisposiÃ§Ã£o": 8953,
      "Ġpoderei": 8954,
      "Ġinser": 8955,
      "inio": 8956,
      "Ġinclus": 8957,
      "Ġmodernos": 8958,
      "2012": 8959,
      "Ġpubli": 8960,
      "Ġarrependido": 8961,
      "Ġexagera": 8962,
      "cterÃŃsticas": 8963,
      "ĠALTA": 8964,
      "Ġkits": 8965,
      "ĠiPod": 8966,
      "ĠpadrÃµes": 8967,
      "ĠFUNCIONAL": 8968,
      "Prezados": 8969,
      "Ġfilmagens": 8970,
      "Ġfinalmente": 8971,
      "ĠCORREI": 8972,
      "Ġlarga": 8973,
      "BOX": 8974,
      "ordin": 8975,
      "ĠABSUR": 8976,
      "ĠAVALIA": 8977,
      "Ġescorrega": 8978,
      "ISTÃĬNCIA": 8979,
      "Ġestabilizador": 8980,
      "ĠIMPRE": 8981,
      "Ġparticularmente": 8982,
      "PAGANDA": 8983,
      "Assim": 8984,
      "CAL": 8985,
      "DU": 8986,
      "Gra": 8987,
      "KIA": 8988,
      "Primeira": 8989,
      "RS": 8990,
      "lor": 8991,
      "mula": 8992,
      "âĻ": 8993,
      "issÃ£o": 8994,
      "cador": 8995,
      "Ġesfre": 8996,
      "Ġrecus": 8997,
      "Ġinex": 8998,
      "Ġpop": 8999,
      "ĠRP": 9000,
      "Ġalis": 9001,
      "izam": 9002,
      "Ġmoda": 9003,
      "Ġcool": 9004,
      "ALA": 9005,
      "Ġfraquinho": 9006,
      "ĠINS": 9007,
      "ĠINTE": 9008,
      "Ġestragar": 9009,
      "ĠAMEI": 9010,
      "ĠadaptaÃ§Ã£o": 9011,
      "jogo": 9012,
      "Ġbrinquedos": 9013,
      "PorÃ©m": 9014,
      "Ġdomes": 9015,
      "Ġaperta": 9016,
      "ĠlimitaÃ§Ãµes": 9017,
      "Ġpercebe": 9018,
      "ĠridÃŃ": 9019,
      "3333": 9020,
      "Ġreceptor": 9021,
      "ĠTRABAL": 9022,
      "Ġemborra": 9023,
      "segui": 9024,
      "ĠReclame": 9025,
      "ĠNINGUÃīM": 9026,
      "ĠPRIMEIRA": 9027,
      "Ġconceituada": 9028,
      "ĠdistribuiÃ§Ã£o": 9029,
      "ĠARREPEN": 9030,
      "Ate": 9031,
      "MÃ¡quina": 9032,
      "Touch": 9033,
      "ka": 9034,
      "tur": 9035,
      "Ġis": 9036,
      "inando": 9037,
      "tical": 9038,
      "Ġretro": 9039,
      "ĠPL": 9040,
      "ĠPU": 9041,
      "ĠPosi": 9042,
      "ĠEmbora": 9043,
      "Ġfarei": 9044,
      "Ġpers": 9045,
      "touch": 9046,
      "ĠBUS": 9047,
      "Ġpedida": 9048,
      "ĠVamos": 9049,
[...]
