{
  "version": "1.0",
  "truncation": null,
  "padding": null,
  "added_tokens": [
    {
      "id": 0,
      "content": "<pad>",
      "single_word": false,
      "lstrip": false,
      "rstrip": false,
      "normalized": false,
      "special": true
    },
    {
      "id": 1,
      "content": "<s>",
      "single_word": false,
      "lstrip": false,
      "rstrip": false,
      "normalized": false,
      "special": true
    },
    {
      "id": 2,
      "content": "</s>",
      "single_word": false,
      "lstrip": false,
      "rstrip": false,
      "normalized": false,
      "special": true
    },
    {
      "id": 3,
      "content": "<mask>",
      "single_word": false,
      "lstrip": false,
      "rstrip": false,
      "normalized": false,
      "special": true
    },
    {
      "id": 4,
      "content": "<cls>",
      "single_word": false,
      "lstrip": false,
      "rstrip": false,
      "normalized": false,
      "special": true
    },
    {
      "id": 5,
      "content": "<question>",
      "single_word": false,
      "lstrip": false,
      "rstrip": false,
      "normalized": false,
      "special": true
    },
    {
      "id": 6,
      "content": "<answer>",
      "single_word": false,
      "lstrip": false,
      "rstrip": false,
      "normalized": false,
      "special": true
    },
    {
      "id": 7,
      "content": "<unk>",
      "single_word": false,
      "lstrip": false,
      "rstrip": false,
      "normalized": false,
      "special": true
    }
  ],
  "normalizer": {
    "type": "Sequence",
    "normalizers": [
      {
        "type": "Replace",
        "pattern": {
          "String": "\n(.)\n"
        },
        "content": "\n"
      },
      {
        "type": "Replace",
        "pattern": {
          "String": "[\n\n]+"
        },
        "content": "\n\n"
      },
      {
        "type": "NFKC"
      }
    ]
  },
  "pre_tokenizer": {
    "type": "ByteLevel",
    "add_prefix_space": false,
    "trim_offsets": true,
    "use_regex": true
  },
  "post_processor": null,
  "decoder": {
    "type": "ByteLevel",
    "add_prefix_space": true,
    "trim_offsets": true,
    "use_regex": true
  },
  "model": {
    "type": "BPE",
    "dropout": null,
    "unk_token": null,
    "continuing_subword_prefix": null,
    "end_of_word_suffix": null,
    "fuse_unk": false,
    "byte_fallback": false,
    "vocab": {
      "<pad>": 0,
      "<s>": 1,
      "</s>": 2,
      "<mask>": 3,
      "<cls>": 4,
      "<question>": 5,
      "<answer>": 6,
      "<unk>": 7,
      "!": 8,
      "\"": 9,
      "#": 10,
      "$": 11,
      "%": 12,
      "&": 13,
      "'": 14,
      "(": 15,
      ")": 16,
      "*": 17,
      "+": 18,
      ",": 19,
      "-": 20,
      ".": 21,
      "/": 22,
      "0": 23,
      "1": 24,
      "2": 25,
      "3": 26,
      "4": 27,
      "5": 28,
      "6": 29,
      "7": 30,
      "8": 31,
      "9": 32,
      ":": 33,
      ";": 34,
      "<": 35,
      "=": 36,
      ">": 37,
      "?": 38,
      "@": 39,
      "A": 40,
      "B": 41,
      "C": 42,
      "D": 43,
      "E": 44,
      "F": 45,
      "G": 46,
      "H": 47,
      "I": 48,
      "J": 49,
      "K": 50,
      "L": 51,
      "M": 52,
      "N": 53,
      "O": 54,
      "P": 55,
      "Q": 56,
      "R": 57,
      "S": 58,
      "T": 59,
      "U": 60,
      "V": 61,
      "W": 62,
      "X": 63,
      "Y": 64,
      "Z": 65,
      "[": 66,
      "\\": 67,
      "]": 68,
      "^": 69,
      "_": 70,
      "`": 71,
      "a": 72,
      "b": 73,
      "c": 74,
      "d": 75,
      "e": 76,
      "f": 77,
      "g": 78,
      "h": 79,
      "i": 80,
      "j": 81,
      "k": 82,
      "l": 83,
      "m": 84,
      "n": 85,
      "o": 86,
      "p": 87,
      "q": 88,
      "r": 89,
      "s": 90,
      "t": 91,
      "u": 92,
      "v": 93,
      "w": 94,
      "x": 95,
      "y": 96,
      "z": 97,
      "{": 98,
      "|": 99,
      "}": 100,
      "~": 101,
      "¡": 102,
      "¢": 103,
      "£": 104,
      "¤": 105,
      "¥": 106,
      "¦": 107,
      "§": 108,
      "¨": 109,
      "©": 110,
      "ª": 111,
      "«": 112,
      "¬": 113,
      "®": 114,
      "¯": 115,
      "°": 116,
      "±": 117,
      "²": 118,
      "³": 119,
      "´": 120,
      "µ": 121,
      "¶": 122,
      "·": 123,
      "¸": 124,
      "¹": 125,
      "º": 126,
      "»": 127,
      "¼": 128,
      "½": 129,
      "¾": 130,
      "¿": 131,
      "Â": 132,
      "Ã": 133,
      "Ä": 134,
      "Å": 135,
      "Æ": 136,
      "Ç": 137,
      "È": 138,
      "É": 139,
      "Ê": 140,
      "Ë": 141,
      "Ì": 142,
      "Í": 143,
      "Î": 144,
      "Ï": 145,
      "Ð": 146,
      "Ñ": 147,
      "Ò": 148,
      "Ó": 149,
      "Ô": 150,
      "Õ": 151,
      "Ö": 152,
      "×": 153,
      "Ø": 154,
      "Ù": 155,
      "Ú": 156,
      "Û": 157,
      "Ü": 158,
      "Ý": 159,
      "Þ": 160,
      "ß": 161,
      "à": 162,
      "á": 163,
      "â": 164,
      "ã": 165,
      "ä": 166,
      "å": 167,
      "æ": 168,
      "ç": 169,
      "è": 170,
      "é": 171,
      "ê": 172,
      "ë": 173,
      "ì": 174,
      "í": 175,
      "î": 176,
      "ï": 177,
      "ð": 178,
      "ó": 179,
      "ô": 180,
      "Ĉ": 181,
      "ĉ": 182,
      "Ċ": 183,
      "Ġ": 184,
      "ġ": 185,
      "Ģ": 186,
      "ģ": 187,
      "Ĥ": 188,
      "ĥ": 189,
      "Ħ": 190,
      "ħ": 191,
      "Ĩ": 192,
      "ĩ": 193,
      "Ī": 194,
      "ī": 195,
      "Ĭ": 196,
      "ĭ": 197,
      "Į": 198,
      "į": 199,
      "İ": 200,
      "ı": 201,
      "Ĳ": 202,
      "ĳ": 203,
      "Ĵ": 204,
      "ĵ": 205,
      "Ķ": 206,
      "ķ": 207,
      "ĸ": 208,
      "Ĺ": 209,
      "ĺ": 210,
      "Ļ": 211,
      "ļ": 212,
      "Ľ": 213,
      "ľ": 214,
      "Ŀ": 215,
      "ŀ": 216,
      "Ł": 217,
      "ł": 218,
      "Ń": 219,
      "Ġd": 220,
      "Ġa": 221,
      "Ġe": 222,
      "Ġp": 223,
      "Ġc": 224,
      "ra": 225,
      "os": 226,
      "Ġde": 227,
      "Ġ,": 228,
      "nt": 229,
      "re": 230,
      "Ġs": 231,
      "as": 232,
      "Ġm": 233,
      "Ġo": 234,
      "er": 235,
      "Ġn": 236,
      "qu": 237,
      "Ġco": 238,
      "Ã£": 239,
      "is": 240,
      "es": 241,
      "ad": 242,
      "Ã£o": 243,
      "Ġt": 244,
      "or": 245,
      "in": 246,
      "ar": 247,
      "Ġf": 248,
      "ia": 249,
      "Ġqu": 250,
      "Ġ.": 251,
      "Ã§": 252,
      "ent": 253,
      "ic": 254,
      "ro": 255,
      "al": 256,
      "um": 257,
      "Ã©": 258,
      "nd": 259,
      "id": 260,
      "Ġque": 261,
      "it": 262,
      "Ġcom": 263,
      "em": 264,
      "Ġdo": 265,
      "Ġ<": 266,
      "Ã¡": 267,
      "Ġ<\\": 268,
      "Ġv": 269,
      "st": 270,
      "el": 271,
      "am": 272,
      "im": 273,
      "Ġum": 274,
      "Ġse": 275,
      "Ġre": 276,
      "io": 277,
      "Ġl": 278,
      "Ġda": 279,
      "Ġem": 280,
      "Ã§Ã£o": 281,
      "en": 282,
      "Ġpa": 283,
      "Ġb": 284,
      "ÃŃ": 285,
      "an": 286,
      "il": 287,
      "Ġg": 288,
      "Ġno": 289,
      "ta": 290,
      "res": 291,
      "ul": 292,
      "ado": 293,
      "to": 294,
      "iv": 295,
      "ol": 296,
      "Ġpara": 297,
      "ndo": 298,
      "Ã³": 299,
      "Ġest": 300,
      "ei": 301,
      "ente": 302,
      "nc": 303,
      "Ġh": 304,
      "Ġin": 305,
      "Ġna": 306,
      "Ġ1": 307,
      "Ġma": 308,
      "Ġj": 309,
      "ĠÃ©": 310,
      "se": 311,
      "Ġos": 312,
      "ou": 313,
      "Ġpor": 314,
      "Ġas": 315,
      "ri": 316,
      "Ġes": 317,
      "on": 318,
      "gu": 319,
      "Ġuma": 320,
      "do": 321,
      "te": 322,
      "Ġsu": 323,
      "Ãª": 324,
      "ica": 325,
      "Ġpro": 326,
      "us": 327,
      "ec": 328,
      "Ġcon": 329,
      "ade": 330,
      "ĠnÃ£o": 331,
      "ut": 332,
      "Ġ(": 333,
      "Ġal": 334,
      "ram": 335,
      "âĢ": 336,
      "ist": 337,
      "od": 338,
      "ir": 339,
      "ant": 340,
      "ada": 341,
      "so": 342,
      "Ġfo": 343,
      "iz": 344,
      "aÃ§Ã£o": 345,
      "ha": 346,
      "ĠâĢ": 347,
      "Ãµ": 348,
      "Ġex": 349,
      "ento": 350,
      "om": 351,
      "Ãµes": 352,
      "le": 353,
      "Ġ2": 354,
      "ito": 355,
      "ig": 356,
      "at": 357,
      "oc": 358,
      "Ġ)": 359,
      "ras": 360,
      "idade": 361,
      "Ġdes": 362,
      "un": 363,
      "av": 364,
      "ho": 365,
      "ĠÃ": 366,
      "Ġap": 367,
      "Ġcomo": 368,
      "Ġpr": 369,
      "Ġdos": 370,
      "Ġpel": 371,
      "nte": 372,
      "ed": 373,
      "Ġat": 374,
      "era": 375,
      "po": 376,
      "ando": 377,
      "Ġmais": 378,
      "ura": 379,
      "Ġ\"": 380,
      "Ġser": 381,
      "ido": 382,
      "Ġi": 383,
      "et": 384,
      "Ġmu": 385,
      "Ġac": 386,
      "Ġao": 387,
      "Ġca": 388,
      "da": 389,
      "Ġan": 390,
      "ion": 391,
      "ados": 392,
      "ve": 393,
      "rio": 394,
      "Ġ-": 395,
      "Ãº": 396,
      "Ġcont": 397,
      "ac": 398,
      "Ã§Ãµes": 399,
      "ria": 400,
      "ico": 401,
      "ros": 402,
      "Ġper": 403,
      "Ġ:": 404,
      "Ġtra": 405,
      "ĠÃł": 406,
      "Ġent": 407,
      "Ġfoi": 408,
      "orm": 409,
      "Ã§a": 410,
      "Ġou": 411,
      "sa": 412,
      "ncia": 413,
      "ida": 414,
      "ob": 415,
      "de": 416,
      "mo": 417,
      "Ġpar": 418,
      "Ġtem": 419,
      "Ġdi": 420,
      "la": 421,
      "Ã©m": 422,
      "Ġar": 423,
      "he": 424,
      "go": 425,
      "00": 426,
      "Ġim": 427,
      "nde": 428,
      "Ġdas": 429,
      "ab": 430,
      "ce": 431,
      "ais": 432,
      "ru": 433,
      "ip": 434,
      "Ġter": 435,
      "Ġesp": 436,
      "Ġmas": 437,
      "Ġpre": 438,
      "ur": 439,
      "Ġpo": 440,
      "Ġ19": 441,
      "co": 442,
      "Ġsua": 443,
      "eiro": 444,
      "eira": 445,
      "ial": 446,
      "Ġpod": 447,
      "Ġam": 448,
      "Ġcomp": 449,
      "Ġnos": 450,
      "Ãªncia": 451,
      "Ġme": 452,
      "ern": 453,
      "ens": 454,
      "Ġres": 455,
      "Ġout": 456,
      "amente": 457,
      "Ġen": 458,
      "est": 459,
      "mente": 460,
      "ĠC": 461,
      "va": 462,
      "ĠsÃ£o": 463,
      "az": 464,
      "lo": 465,
      "Ġele": 466,
      "Ġseu": 467,
      "fe": 468,
      "Ġsem": 469,
      "vel": 470,
      "Ġgra": 471,
      "Ġint": 472,
      "ag": 473,
      "Ġsob": 474,
      "Ġmar": 475,
      "Ã¢": 476,
      "Ġmo": 477,
      "Ġdis": 478,
      "du": 479,
      "Ġle": 480,
      "Ġsegu": 481,
      "Ġcar": 482,
      "Ġimp": 483,
      "esso": 484,
      "if": 485,
      "ĠA": 486,
      "Ġve": 487,
      "ias": 488,
      "Ġcas": 489,
      "adas": 490,
      "bl": 491,
      "amb": 492,
      "Ġesc": 493,
      "que": 494,
      "ix": 495,
      "Ġass": 496,
      "ns": 497,
      "Ġab": 498,
      "imento": 499,
      "Ġr": 500,
      "Ġmes": 501,
      "inha": 502,
      "Ġentre": 503,
      "ista": 504,
      "ĠP": 505,
      "Ġob": 506,
      "Ġpelo": 507,
      "ĠâĢľ": 508,
      "ara": 509,
      "Ġte": 510,
      "Ã´": 511,
      "Ġpos": 512,
      "ĠS": 513,
      "ava": 514,
      "Ġtod": 515,
      "Ġro": 516,
      "Ġeu": 517,
      "Ġch": 518,
      "amento": 519,
      "ÃŃc": 520,
      "pe": 521,
      "ina": 522,
      "ios": 523,
      "me": 524,
      "Ġpela": 525,
      "Ġ;": 526,
      "ca": 527,
      "Ġcor": 528,
      "Ġ!": 529,
      "Ġver": 530,
      "ess": 531,
      "Ġant": 532,
      "Ġpas": 533,
      "iÃ§Ã£o": 534,
      "Ġprim": 535,
      "itu": 536,
      "Ġsobre": 537,
      "ib": 538,
      "Ġtamb": 539,
      "Ġis": 540,
      "ĠâĢĿ": 541,
      "ĠÃ¡": 542,
      "Ã¡rio": 543,
      "ĠtambÃ©m": 544,
      "Ġel": 545,
      "Ġ3": 546,
      "ita": 547,
      "ior": 548,
      "ulo": 549,
      "anto": 550,
      "01": 551,
      "Ġcons": 552,
      "Ġrec": 553,
      "Ġjo": 554,
      "Ã§o": 555,
      "tic": 556,
      "entos": 557,
      "orn": 558,
      "ont": 559,
      "ĠD": 560,
      "ud": 561,
      "ter": 562,
      "pos": 563,
      "nda": 564,
      "Ġfaz": 565,
      "Ġera": 566,
      "rem": 567,
      "Ġform": 568,
      "tu": 569,
      "Ġ?": 570,
      "Ġra": 571,
      "Ġpres": 572,
      "iu": 573,
      "rios": 574,
      "tiv": 575,
      "ional": 576,
      "Ġreg": 577,
      "ĠE": 578,
      "Ġad": 579,
      "Ġfil": 580,
      "tura": 581,
      "ira": 582,
      "ga": 583,
      "Ġnas": 584,
      "idos": 585,
      "min": 586,
      "ja": 587,
      "nto": 588,
      "rasil": 589,
      "ĠjÃ¡": 590,
      "Ġanos": 591,
      "Ġmuito": 592,
      "ĠM": 593,
      "ver": 594,
      "Ġlu": 595,
      "vo": 596,
      "ma": 597,
      "Ġquando": 598,
      "ÃŃs": 599,
      "itos": 600,
      "pres": 601,
      "Ã©c": 602,
      "Ġ'": 603,
      "ades": 604,
      "Ġfu": 605,
      "Ġun": 606,
      "tos": 607,
      "pre": 608,
      "Ġcl": 609,
      "Ãªs": 610,
      "Ġcam": 611,
      "Ġenc": 612,
      "Ġdia": 613,
      "emb": 614,
      "Ġdest": 615,
      "ĠestÃ¡": 616,
      "Ġinf": 617,
      "Ġpol": 618,
      "Ġbrasil": 619,
      "pa": 620,
      "ÃŃt": 621,
      "ĠatÃ©": 622,
      "entes": 623,
      "inda": 624,
      "Ġju": 625,
      "hos": 626,
      "Ġqual": 627,
      "eg": 628,
      "pl": 629,
      "Ġcr": 630,
      "ador": 631,
      "vol": 632,
      "Ã³s": 633,
      "inc": 634,
      "hec": 635,
      "ĠâĢĵ": 636,
      "icos": 637,
      "ran": 638,
      "je": 639,
      "aliz": 640,
      "Ġdire": 641,
      "bal": 642,
      "ĠĠ": 643,
      "Ġfe": 644,
      "Ġmil": 645,
      "Ġho": 646,
      "Ġba": 647,
      "per": 648,
      "ian": 649,
      "ntes": 650,
      "Ġmesmo": 651,
      "iver": 652,
      "Ġfal": 653,
      "Ġaqu": 654,
      "iam": 655,
      "orte": 656,
      "Ġinc": 657,
      "icas": 658,
      "Ġag": 659,
      "Ġainda": 660,
      "ima": 661,
      "ort": 662,
      "Ġseus": 663,
      "Ġto": 664,
      "sÃ£o": 665,
      "ov": 666,
      "ante": 667,
      "Ġpode": 668,
      "Ġrel": 669,
      "Ġgu": 670,
      "Ġvez": 671,
      "rig": 672,
      "Ġpesso": 673,
      "Ġsa": 674,
      "Ġconc": 675,
      "enc": 676,
      "Ġconst": 677,
      "Ġor": 678,
      "idades": 679,
      "Ġman": 680,
      "ing": 681,
      "Ġ200": 682,
      "ost": 683,
      "bo": 684,
      "iÃ£o": 685,
      "Ġ201": 686,
      "Ġus": 687,
      "Ġcer": 688,
      "Ġpra": 689,
      "Ġcap": 690,
      "Ġ4": 691,
      "amos": 692,
      "ino": 693,
      "ĠR": 694,
      "Ġaos": 695,
      "Ġtr": 696,
      "Ġtrabal": 697,
      "Ġcontra": 698,
      "Ġpl": 699,
      "almente": 700,
      "Ġche": 701,
      "Ġpart": 702,
      "Ġcol": 703,
      "rar": 704,
      "Ġproc": 705,
      "Ġbem": 706,
      "Ġmen": 707,
      "enas": 708,
      "fere": 709,
      "gar": 710,
      "Ġeste": 711,
      "Ġgrande": 712,
      "Ã³ria": 713,
      "indo": 714,
      "ĠF": 715,
      "za": 716,
      "Ġconf": 717,
      "Ġk": 718,
      "ele": 719,
      "Ġpass": 720,
      "Ġind": 721,
      "ano": 722,
      "inh": 723,
      "ÃŃvel": 724,
      "aria": 725,
      "Ġtempo": 726,
      "idas": 727,
      "ĠT": 728,
      "Ã§as": 729,
      "ĠsÃ³": 730,
      "ase": 731,
      "Ġdu": 732,
      "ana": 733,
      "pois": 734,
      "ĠhÃ¡": 735,
      "ite": 736,
      "Ã¡rios": 737,
      "fic": 738,
      "ĠB": 739,
      "Ġw": 740,
      "Ġart": 741,
      "raÃ§Ã£o": 742,
      "Ġonde": 743,
      "Ġdec": 744,
      "be": 745,
      "Ġtodos": 746,
      "Ġpe": 747,
      "Ġisso": 748,
      "ismo": 749,
      "Ġfin": 750,
      "lu": 751,
      "ĠÃº": 752,
      "igo": 753,
      "Ġoc": 754,
      "anh": 755,
      "tas": 756,
      "Ġforam": 757,
      "Ġ5": 758,
      "ela": 759,
      "eral": 760,
      "ivo": 761,
      "Ġdepois": 762,
      "ĠprÃ³": 763,
      "Ġhist": 764,
      "Ġaf": 765,
      "Ġnes": 766,
      "Ġhom": 767,
      "Ġela": 768,
      "gum": 769,
      "Ġprinc": 770,
      "udo": 771,
      "Ã´n": 772,
      "ema": 773,
      "ero": 774,
      "Ã©r": 775,
      "Ġmel": 776,
      "vi": 777,
      "Ġposs": 778,
      "Ġsoc": 779,
      "Ġmaior": 780,
      "eiros": 781,
      "Ġir": 782,
      "Ġtrans": 783,
      "rad": 784,
      "Ġvol": 785,
      "Ġcu": 786,
      "rias": 787,
      "Ġ18": 788,
      "ranc": 789,
      "imo": 790,
      "Ġpoder": 791,
      "rec": 792,
      "ĠI": 793,
      "Ãºbl": 794,
      "Ġval": 795,
      "Ġvoc": 796,
      "Ġdiz": 797,
      "ÃŃn": 798,
      "istas": 799,
      "Ġdesc": 800,
      "ral": 801,
      "Ġconhec": 802,
      "Ġmin": 803,
      "..": 804,
      "Ġparte": 805,
      "ato": 806,
      "iva": 807,
      "rado": 808,
      "Ġsuas": 809,
      "Ġsol": 810,
      "orre": 811,
      "ĠJ": 812,
      "og": 813,
      "erc": 814,
      "hor": 815,
      "rib": 816,
      "Ġnum": 817,
      "quer": 818,
      "Ã¡s": 819,
      "Ġsub": 820,
      "Ġassim": 821,
      "overn": 822,
      "ĠN": 823,
      "Ã©d": 824,
      "Ġinst": 825,
      "Ġped": 826,
      "inho": 827,
      "aÃ§Ãµes": 828,
      "ĠpaÃŃs": 829,
      "Ġencont": 830,
      "Ġgovern": 831,
      "ĠO": 832,
      "ĠÂ": 833,
      "rav": 834,
      "Ġop": 835,
      "Ġsim": 836,
      "antes": 837,
      "Ġdois": 838,
      "Ġsab": 839,
      "Ġid": 840,
      "ĠÃłs": 841,
      "ĠL": 842,
      "Ġinter": 843,
      "Ġav": 844,
      "ular": 845,
      "Ġano": 846,
      "tar": 847,
      "Ġvis": 848,
      "Ġpal": 849,
      "Ġ/": 850,
      "ord": 851,
      "Ġalgum": 852,
      "ch": 853,
      "Ġrep": 854,
      "Ġoutros": 855,
      "Ġsal": 856,
      "Ġvida": 857,
      "embro": 858,
      "Ġref": 859,
      "Ġtorn": 860,
      "Ġpou": 861,
      "adores": 862,
      "Ġcidade": 863,
      "Ã©s": 864,
      "Ã¡vel": 865,
      "Ġdura": 866,
      "Ġprodu": 867,
      "ge": 868,
      "ivers": 869,
      "Ġespec": 870,
      "Ġol": 871,
      "iliz": 872,
      "mos": 873,
      "Ġau": 874,
      "ber": 875,
      "ula": 876,
      "Ã³r": 877,
      "lia": 878,
      "agem": 879,
      "iais": 880,
      "Ġbo": 881,
      "Ġloc": 882,
      "Ġinte": 883,
      "enta": 884,
      "Ġesta": 885,
      "Ġprof": 886,
      "ign": 887,
      "Ġforma": 888,
      "Ġnov": 889,
      "rada": 890,
      "ific": 891,
      "int": 892,
      "ult": 893,
      "rou": 894,
      "itar": 895,
      "Ġ6": 896,
      "Ġcome": 897,
      "Ġcent": 898,
      "isa": 899,
      "itas": 900,
      "Ġpessoas": 901,
      "ifica": 902,
      "Ġmundo": 903,
      "orta": 904,
      "ai": 905,
      "Ġprincip": 906,
      "veis": 907,
      "ie": 908,
      "Ġapenas": 909,
      "gem": 910,
      "Ġinv": 911,
      "Ã¢n": 912,
      "Ġalgu": 913,
      "Ġlo": 914,
      "Ã¡t": 915,
      "Ġhav": 916,
      "anc": 917,
      "erra": 918,
      "Ġliv": 919,
      "Ġcham": 920,
      "Ġmod": 921,
      "Ġmed": 922,
      "Ġdesen": 923,
      "ncias": 924,
      "Ġfre": 925,
      "Ġfor": 926,
      "ba": 927,
      "Ġext": 928,
      "ard": 929,
      "Ġrece": 930,
      "tor": 931,
      "ital": 932,
      "Ġev": 933,
      "Ġsent": 934,
      "Ġquem": 935,
      "ĠvocÃª": 936,
      "are": 937,
      "Ġcond": 938,
      "Ġprimeiro": 939,
      "cional": 940,
      "Ġcul": 941,
      "Ġlev": 942,
      "Ġdeix": 943,
      "dade": 944,
      "Ġapres": 945,
      "ĠG": 946,
      "Ġsen": 947,
      "avam": 948,
      "ena": 949,
      "Ġaut": 950,
      "ola": 951,
      "ass": 952,
      "ual": 953,
      "Ġprov": 954,
      "Ġestado": 955,
      "Ġprec": 956,
      "Ãªm": 957,
      "segu": 958,
      "idente": 959,
      "Ġfazer": 960,
      "Ġbar": 961,
      "elo": 962,
      "Ġdem": 963,
      "Ã¡ria": 964,
      "Ġesse": 965,
      "Ġsempre": 966,
      "ece": 967,
      "Ġdurante": 968,
      "Ġx": 969,
      "no": 970,
      "ilidade": 971,
      "up": 972,
      "Ġnome": 973,
      "Ġpes": 974,
      "pon": 975,
      "son": 976,
      "erv": 977,
      "Ġessa": 978,
      "ju": 979,
      "Ġcada": 980,
      "Ġcria": 981,
      "gua": 982,
      "Ġso": 983,
      "man": 984,
      "Ġporque": 985,
      "anha": 986,
      "ÃŃcio": 987,
      "Ġ7": 988,
      "Ġequ": 989,
      "rac": 990,
      "ÃŃd": 991,
      "Ġtinha": 992,
      "na": 993,
      "Ġhoje": 994,
      "iÃ§Ãµes": 995,
      "Ġec": 996,
      "Ġdev": 997,
      "Ġfic": 998,
      "Ġeles": 999,
      "Ã§os": 1000,
      "Ġoutro": 1001,
      "lt": 1002,
      "ĠpÃºbl": 1003,
      "Ġtudo": 1004,
      "Ġpu": 1005,
      "Ġz": 1006,
      "Ġed": 1007,
      "inu": 1008,
      "Ġpois": 1009,
      "Ġ0": 1010,
      "Ġrealiz": 1011,
      "ĠentÃ£o": 1012,
      "Ġ8": 1013,
      "Ġru": 1014,
      "Ġ15": 1015,
      "ÃŃp": 1016,
      "Ġestava": 1017,
      "nder": 1018,
      "Ġtal": 1019,
      "Ġpop": 1020,
      "ive": 1021,
      "rit": 1022,
      "Ġten": 1023,
      "ĠV": 1024,
      "Ġsendo": 1025,
      "Ġsegundo": 1026,
      "esa": 1027,
      "sos": 1028,
      "gan": 1029,
      "Ġcasa": 1030,
      "Ġprimeira": 1031,
      "her": 1032,
      "oca": 1033,
      "plo": 1034,
      "idera": 1035,
      "Ġdef": 1036,
      "Ġprop": 1037,
      "ĠprÃ³p": 1038,
      "Ġ9": 1039,
      "tou": 1040,
      "Ġdifere": 1041,
      "ci": 1042,
      "Ġpartic": 1043,
      "Ġhum": 1044,
      "ĠalÃ©m": 1045,
      "Ġrio": 1046,
      "emos": 1047,
      "Ġcomun": 1048,
      "entar": 1049,
      "Ġdel": 1050,
      "Ġgru": 1051,
      "ecess": 1052,
      "Ġtodo": 1053,
      "Ġneg": 1054,
      "Ġdesde": 1055,
      "anÃ§": 1056,
      "Ġfam": 1057,
      "ĠapÃ³s": 1058,
      "Ġpelos": 1059,
      "volv": 1060,
      "ub": 1061,
      "ĠhistÃ³ria": 1062,
      "has": 1063,
      "Ġalguns": 1064,
      "ĠtrÃªs": 1065,
      "gos": 1066,
      "Ġdist": 1067,
      "unc": 1068,
      "rei": 1069,
      "gra": 1070,
      "Ġ199": 1071,
      "Ġnem": 1072,
      "Ġmul": 1073,
      "iar": 1074,
      "Ġ10": 1075,
      "iss": 1076,
      "izaÃ§Ã£o": 1077,
      "ĠâĢĶ": 1078,
      "Ġdiv": 1079,
      "jo": 1080,
      "Ã¢ncia": 1081,
      "Ãªncias": 1082,
      "Ġgoverno": 1083,
      "Ġintern": 1084,
      "Ġtrabalho": 1085,
      "Ġil": 1086,
      "ndes": 1087,
      "Ġlon": 1088,
      "Ġtom": 1089,
      "Ġduas": 1090,
      "Ã´m": 1091,
      "Ġess": 1092,
      "Ã¡c": 1093,
      "red": 1094,
      "Ġcal": 1095,
      "isÃ£o": 1096,
      "Ġla": 1097,
      "ress": 1098,
      "Ġnecess": 1099,
      "ne": 1100,
      "ĠÃºlt": 1101,
      "19": 1102,
      "tr": 1103,
      "Ġamb": 1104,
      "Ġantes": 1105,
      "Ġseja": 1106,
      "tal": 1107,
      "Ġvai": 1108,
      "jet": 1109,
      "art": 1110,
      "Ġmelhor": 1111,
      "Ġportu": 1112,
      "Ġconv": 1113,
      "ĠestÃ£o": 1114,
      "Ãºs": 1115,
      "Ã³rio": 1116,
      "Ġapro": 1117,
      "Ġsist": 1118,
      "imentos": 1119,
      "eiras": 1120,
      "Ġcin": 1121,
      "Ġfranc": 1122,
      "ulos": 1123,
      "Ġsom": 1124,
      "Ġdias": 1125,
      "Ġmeu": 1126,
      "Ġins": 1127,
      "Ġmeio": 1128,
      "Ġdeus": 1129,
      "Ġfac": 1130,
      "gora": 1131,
      "Ġdisc": 1132,
      "Ġimporta": 1133,
      "Ġvi": 1134,
      "ĠH": 1135,
      "pec": 1136,
      "Ġjan": 1137,
      "Ġmenos": 1138,
      "Ġmet": 1139,
      "Ġinform": 1140,
      "Ġdeve": 1141,
      "Ġinic": 1142,
      "Ġempres": 1143,
      "Ġ20": 1144,
      "Ġvo": 1145,
      "Ġcaso": 1146,
      "uÃ§Ã£o": 1147,
      "edade": 1148,
      "Ġut": 1149,
      "Ġaqui": 1150,
      "20": 1151,
      "Ġqualquer": 1152,
      "Ã³g": 1153,
      "Ġagora": 1154,
      "igu": 1155,
      "ÃŃst": 1156,
      "Ġoutras": 1157,
      "ĠsÃ©c": 1158,
      "enh": 1159,
      "Ġprog": 1160,
      "Ġand": 1161,
      "Ġing": 1162,
      "Ġsuper": 1163,
      "Ã©rio": 1164,
      "Ġ17": 1165,
      "Ġret": 1166,
      "Ġfund": 1167,
      "este": 1168,
      "Ġexist": 1169,
      "ĠpolÃŃt": 1170,
      "rito": 1171,
      "Ġjul": 1172,
      "Ġsant": 1173,
      "ilo": 1174,
      "Ġti": 1175,
      "elho": 1176,
      "Ġminha": 1177,
      "ĠÃ¡re": 1178,
      "unic": 1179,
      "Ãºm": 1180,
      "Ġecon": 1181,
      "enÃ§Ã£o": 1182,
      "nÃ§a": 1183,
      "Ġne": 1184,
      "emente": 1185,
      "Ġtro": 1186,
      "Ġnovo": 1187,
      "Ġdisse": 1188,
      "Ġcaus": 1189,
      "Ġconstru": 1190,
      "Ġcan": 1191,
      "Ġpouco": 1192,
      "Ã¢m": 1193,
      "Ġnova": 1194,
      "Ġbom": 1195,
      "eric": 1196,
      "Ġmarc": 1197,
      "Ġrest": 1198,
      "ribu": 1199,
      "Ġmost": 1200,
      "Ġexc": 1201,
      "Ã¡rias": 1202,
      "ime": 1203,
      "Ġbas": 1204,
      "Ġrepres": 1205,
      "Ġfinal": 1206,
      "har": 1207,
      "gia": 1208,
      "uc": 1209,
      "Ġpaulo": 1210,
      "Ġmal": 1211,
      "Ġconsegu": 1212,
      "rut": 1213,
      "ĠmÃ©d": 1214,
      "Ġof": 1215,
      "Ġautor": 1216,
      "Ãªn": 1217,
      "Ã£os": 1218,
      "ranÃ§a": 1219,
      "Ġcontinu": 1220,
      "esta": 1221,
      "Ġsur": 1222,
      "ÃŃlia": 1223,
      "Ġvia": 1224,
      "ĠtÃ£o": 1225,
      "imos": 1226,
      "Ġcur": 1227,
      "Ġ[": 1228,
      "ionais": 1229,
      "ĠlÃ¡": 1230,
      "Ġnacional": 1231,
      "anos": 1232,
      "ental": 1233,
      "Ġauto": 1234,
      "inal": 1235,
      "Ġfer": 1236,
      "dos": 1237,
      "Ġvezes": 1238,
      "ulaÃ§Ã£o": 1239,
      "Ġorig": 1240,
      "Ġtodas": 1241,
      "Ġatrav": 1242,
      "Ġconsidera": 1243,
      "endo": 1244,
      "abel": 1245,
      "ĠserÃ¡": 1246,
      "Ġhomem": 1247,
      "und": 1248,
      "Ġexem": 1249,
      "Ġpequ": 1250,
      "aro": 1251,
      "Ġcheg": 1252,
      "Ġutiliz": 1253,
      "Ġlib": 1254,
      "atro": 1255,
      "Ġtoda": 1256,
      "los": 1257,
      "Ġ16": 1258,
      "tiva": 1259,
      "Ġespecial": 1260,
      "igos": 1261,
      "ivos": 1262,
      "feira": 1263,
      "Ġquer": 1264,
      "nta": 1265,
      "inas": 1266,
      "enÃ§a": 1267,
      "ril": 1268,
      "eraÃ§Ã£o": 1269,
      "isc": 1270,
      "Ġmunic": 1271,
      "Ġsido": 1272,
      "icaÃ§Ã£o": 1273,
      "Ġlhe": 1274,
      "olog": 1275,
      "quanto": 1276,
      "Ġcorre": 1277,
      "Ġ12": 1278,
      "ordo": 1279,
      "Ġapresent": 1280,
      "Ġ11": 1281,
      "Ġhavia": 1282,
      "osto": 1283,
      "Ġmon": 1284,
      "gal": 1285,
      "Ġequip": 1286,
      "ixo": 1287,
      "para": 1288,
      "Ġce": 1289,
      "ust": 1290,
      "ide": 1291,
      "Ġorgan": 1292,
      "Ġatu": 1293,
      "resc": 1294,
      "Ġmaio": 1295,
      "Ġmom": 1296,
      "iente": 1297,
      "Ġparticip": 1298,
      "Ġet": 1299,
      "Ġlado": 1300,
      "Ġnada": 1301,
      "Ġpodem": 1302,
      "Ġoutra": 1303,
      "Ġpassa": 1304,
      "Ġdent": 1305,
      "Ġpresidente": 1306,
      "Ġcri": 1307,
      "Ġfica": 1308,
      "asse": 1309,
      "Ġsul": 1310,
      "ine": 1311,
      "Ġprobl": 1312,
      "Ġeram": 1313,
      "Ġfa": 1314,
      "lus": 1315,
      "Ġpartir": 1316,
      "iedade": 1317,
      "Ġeuro": 1318,
      "Ġescol": 1319,
      "Ġdez": 1320,
      "Ġdesta": 1321,
      "rÃ¡": 1322,
      "Ġmuitos": 1323,
      "Ġacont": 1324,
      "Ġpens": 1325,
      "Ġdesenvolv": 1326,
      "Ġmat": 1327,
      "Ġ198": 1328,
      "ĠcomeÃ§": 1329,
      "Ġ13": 1330,
      "ĠregiÃ£o": 1331,
      "rece": 1332,
      "Ġthe": 1333,
      "Ġgeral": 1334,
      "ĠsÃ©culo": 1335,
      "tamente": 1336,
      "Ġcultura": 1337,
      "aram": 1338,
      "irm": 1339,
      "Ġjust": 1340,
      "ĠmÃºs": 1341,
      "Ġsuc": 1342,
      "Ġcomple": 1343,
      "tivo": 1344,
      "ĠU": 1345,
      "fer": 1346,
      "Ġgrupo": 1347,
      "Ġlugar": 1348,
      "Ġenquanto": 1349,
      "Ġfim": 1350,
      "Ġsistema": 1351,
      "Ġguerra": 1352,
      "Ġsec": 1353,
      "Ġestud": 1354,
      "Ġservi": 1355,
      "mit": 1356,
      "iÃªncia": 1357,
      "osa": 1358,
      "Ġjaneiro": 1359,
      "Ġbase": 1360,
      "rama": 1361,
      "Ġreal": 1362,
      "Ã¡tica": 1363,
      "Ġ]": 1364,
      "Ã³d": 1365,
      "Ġ14": 1366,
      "Ġterra": 1367,
      "Ġig": 1368,
      "Ġedu": 1369,
      "and": 1370,
      "uro": 1371,
      "Ġnorte": 1372,
      "amentos": 1373,
      "por": 1374,
      "Ġpubl": 1375,
      "Ġconstitu": 1376,
      "issÃ£o": 1377,
      "Ġer": 1378,
      "Ġjorn": 1379,
      "oria": 1380,
      "eno": 1381,
      "Ġsitu": 1382,
      "utos": 1383,
      "ticas": 1384,
      "ingu": 1385,
      "ÃŃm": 1386,
      "Ġfez": 1387,
      "Ġquanto": 1388,
      "oso": 1389,
      "end": 1390,
      "Ġlig": 1391,
      "iano": 1392,
      "Ġprocesso": 1393,
      "jeto": 1394,
      "Ġquase": 1395,
      "Ġmud": 1396,
      "Ġobs": 1397,
      "Ã¡l": 1398,
      "iste": 1399,
      "gas": 1400,
      "ĠÃ©p": 1401,
      "ĠatravÃ©s": 1402,
      "Ġtex": 1403,
      "ren": 1404,
      "Ġacab": 1405,
      "form": 1406,
      "Ġnuma": 1407,
      "omp": 1408,
      "Ġalgumas": 1409,
      "taÃ§Ã£o": 1410,
      "Ġmov": 1411,
      "Ġbat": 1412,
      "ntos": 1413,
      "Ġsocial": 1414,
      "esse": 1415,
      "bol": 1416,
      "Ġgen": 1417,
      "iado": 1418,
      "Ġfato": 1419,
      "ĠnÃºm": 1420,
      "reira": 1421,
      "ron": 1422,
      "000": 1423,
      "emas": 1424,
      "osta": 1425,
      "Ã©t": 1426,
      "Ġ197": 1427,
      "Ġingl": 1428,
      "Ġvolta": 1429,
      "ise": 1430,
      "Ġteve": 1431,
      "arÃ¡": 1432,
      "Ġmerc": 1433,
      "Ġtur": 1434,
      "Ġfl": 1435,
      "Ġlim": 1436,
      "odo": 1437,
      "ret": 1438,
      "Ġta": 1439,
      "iaÃ§Ã£o": 1440,
      "Ġnatura": 1441,
      "ĠÃºn": 1442,
      "Ġlei": 1443,
      "ĠlanÃ§": 1444,
      "Ġofic": 1445,
      "Ġfilho": 1446,
      "Ġigre": 1447,
      "minist": 1448,
      "osÃ©": 1449,
      "Ġquest": 1450,
      "Ġlocal": 1451,
      "cio": 1452,
      "Ġgrandes": 1453,
      "tes": 1454,
      "ric": 1455,
      "dic": 1456,
      "tado": 1457,
      "ex": 1458,
      "Ġseria": 1459,
      "Ġdireito": 1460,
      "pend": 1461,
      "ĠperÃŃ": 1462,
      "fre": 1463,
      "Ġexemplo": 1464,
      "Ġnossa": 1465,
      "hÃµes": 1466,
      ").": 1467,
      "ĠÃ¡gua": 1468,
      "Ġdivers": 1469,
      "duz": 1470,
      "Ġtanto": 1471,
      "unca": 1472,
      "Ġpen": 1473,
      "Ġord": 1474,
      "Ġsegunda": 1475,
      "oro": 1476,
      "iram": 1477,
      "Ġfora": 1478,
      "Ġgl": 1479,
      "Ġdar": 1480,
      "ceu": 1481,
      "Ġprecis": 1482,
      "ÃŃf": 1483,
      "ane": 1484,
      "Ġpalav": 1485,
      "gado": 1486,
      "Ġarm": 1487,
      "Ġciv": 1488,
      "ĠÃ©poca": 1489,
      "Ġnunca": 1490,
      "acional": 1491,
      "ĠmÃ¡": 1492,
      "gue": 1493,
      "Ġmuitas": 1494,
      "Ã¼": 1495,
      "Ġexpl": 1496,
      "ĠpolÃŃtica": 1497,
      "Ġsil": 1498,
      "car": 1499,
      "Ġcentro": 1500,
      "ĠtÃªm": 1501,
      "Ġpossu": 1502,
      "Ġcontro": 1503,
      "pera": 1504,
      "Ġcorpo": 1505,
      "ĠprÃ³x": 1506,
      "bora": 1507,
      "Ġhab": 1508,
      "Ġder": 1509,
      "sas": 1510,
      "ĠrelaÃ§Ã£o": 1511,
      "Ġdentro": 1512,
      "ticos": 1513,
      "Ġsou": 1514,
      "fia": 1515,
      "isco": 1516,
      "Ġinclu": 1517,
      "Ġporta": 1518,
      "feito": 1519,
      "ila": 1520,
      "Ġben": 1521,
      "Ġali": 1522,
      "Ġtar": 1523,
      "Ġsign": 1524,
      "isas": 1525,
      "Ã³l": 1526,
      "Ġvalor": 1527,
      "tores": 1528,
      "Ġmant": 1529,
      "onhec": 1530,
      "ÃŃcia": 1531,
      "ĠsÃ©": 1532,
      "Ġbe": 1533,
      "Ġcat": 1534,
      "Ġativ": 1535,
      "roc": 1536,
      "orr": 1537,
      "zo": 1538,
      "agens": 1539,
      "Ġexp": 1540,
      "Ġpelas": 1541,
      "Ġmomento": 1542,
      "Ġmesma": 1543,
      "Ġneste": 1544,
      "Ġsex": 1545,
      "ĠfamÃŃlia": 1546,
      "Ġu": 1547,
      "Ġminist": 1548,
      "ĠÃ¡rea": 1549,
      "ons": 1550,
      "ast": 1551,
      "Ġrepresent": 1552,
      "ill": 1553,
      "Ġinstitu": 1554,
      "Ġaum": 1555,
      "Ġfilme": 1556,
      "ĠĠĠĠ": 1557,
      "Ġacordo": 1558,
      "enhum": 1559,
      "),": 1560,
      "inte": 1561,
      "Ã©l": 1562,
      "Ġdomin": 1563,
      "Ġprev": 1564,
      "Ġcir": 1565,
      "Ġcru": 1566,
      "ologia": 1567,
      "mes": 1568,
      "Ġobjet": 1569,
      "fo": 1570,
      "Ġdoc": 1571,
      "Ġconta": 1572,
      "Ġportugu": 1573,
      "Ã¡veis": 1574,
      "ĠperÃŃodo": 1575,
      "Ġnenhum": 1576,
      "Ġfed": 1577,
      "Ġnosso": 1578,
      "Ġlivro": 1579,
      "ton": 1580,
      "Ġlogo": 1581,
      "EN": 1582,
      "Ġ...": 1583,
      "Ġestados": 1584,
      "Ġpovo": 1585,
      "ÃŃveis": 1586,
      "Ġquatro": 1587,
      "Ġpesqu": 1588,
      "ice": 1589,
      "Ġsimpl": 1590,
      "Ġfunc": 1591,
      "Ġespera": 1592,
      "Ġcoisa": 1593,
      "das": 1594,
      "ĠpÃºblico": 1595,
      "atos": 1596,
      "Ġcoloc": 1597,
      "ÃŃpio": 1598,
      "Ġ196": 1599,
      "Ġgol": 1600,
      "ĠÃ³": 1601,
      "inos": 1602,
      "Ġdeste": 1603,
      "ap": 1604,
      "Ġregist": 1605,
      "Ġdele": 1606,
      "esar": 1607,
      "Ġpad": 1608,
      "Ġmorte": 1609,
      "Ġigreja": 1610,
      "elas": 1611,
      "Ġge": 1612,
      "iol": 1613,
      "ecer": 1614,
      "lhe": 1615,
      "Ġdeter": 1616,
      "ĠnÃºmero": 1617,
      "Ġunivers": 1618,
      "ĠnÃ³s": 1619,
      "Ġproduz": 1620,
      "ĠinÃŃcio": 1621,
      "bra": 1622,
      "ĠW": 1623,
      "Ġdever": 1624,
      "Ġapl": 1625,
      "Ġy": 1626,
      "ĠporÃ©m": 1627,
      "Ġtipo": 1628,
      "reza": 1629,
      "Ġanim": 1630,
      "reve": 1631,
      "Ġinvest": 1632,
      "iga": 1633,
      "isto": 1634,
      "Ġvar": 1635,
      "lam": 1636,
      "Ġresult": 1637,
      "Ġrev": 1638,
      "Ġsan": 1639,
      "ĠjosÃ©": 1640,
      "Ġtec": 1641,
      "rat": 1642,
      "Ġfos": 1643,
      "Ġbus": 1644,
      "Ġente": 1645,
      "inhas": 1646,
      "Ġisto": 1647,
      "eles": 1648,
      "Ġexper": 1649,
      "ĠjoÃ£o": 1650,
      "inhos": 1651,
      "Ã¡b": 1652,
      "Ġcarac": 1653,
      "Ġvit": 1654,
      "Ġmont": 1655,
      "26": 1656,
      "Ġestabel": 1657,
      "Ġpai": 1658,
      "Ġpap": 1659,
      "Ġponto": 1660,
      "Ġ30": 1661,
      "eses": 1662,
      "Ġleg": 1663,
      "Ġdizer": 1664,
      "Ġasso": 1665,
      "Ġimportante": 1666,
      "Ġestre": 1667,
      "rie": 1668,
      "Ġdep": 1669,
      "Ġadminist": 1670,
      "Ġmor": 1671,
      "Ġnorm": 1672,
      "Ġperson": 1673,
      "rom": 1674,
      "Ã©cn": 1675,
      "Ġrespon": 1676,
      "Ġcerca": 1677,
      "Ġvir": 1678,
      "ĠĠĠ": 1679,
      "iana": 1680,
      "pol": 1681,
      "Ġapo": 1682,
      "Ġboa": 1683,
      "ivas": 1684,
      "ĠÃŃ": 1685,
      "Ġata": 1686,
      "Ġverdade": 1687,
      "Ġempre": 1688,
      "Ġserv": 1689,
      "Ġjogo": 1690,
      "ze": 1691,
      "cos": 1692,
      "Ġcole": 1693,
      "ensÃ£o": 1694,
      "Ġsi": 1695,
      "Ġci": 1696,
      "icamente": 1697,
      "dio": 1698,
      "Ġson": 1699,
      "rados": 1700,
      "Ġjornal": 1701,
      "Ġquais": 1702,
      "Ġalem": 1703,
      "ĠvÃ¡rios": 1704,
      "Ġestar": 1705,
      "Ġembora": 1706,
      "Ġeduc": 1707,
      "ĠproduÃ§Ã£o": 1708,
      "Ġrelig": 1709,
      "Ġvel": 1710,
      "ham": 1711,
      "Ġquar": 1712,
      "Ġapare": 1713,
      "Ġdesenvolvimento": 1714,
      "Ġespa": 1715,
      "Ġexec": 1716,
      "ativa": 1717,
      "Ġirm": 1718,
      "ÃŃl": 1719,
      "ii": 1720,
      "pr": 1721,
      "Ġfun": 1722,
      "Ġarqu": 1723,
      "aval": 1724,
      "Ġlit": 1725,
      "Ġur": 1726,
      "ĠDE": 1727,
      "umo": 1728,
      "Ġinde": 1729,
      "Ġide": 1730,
      "Ġ25": 1731,
      "imas": 1732,
      "anÃ§a": 1733,
      "Ġdisp": 1734,
      "Ġnoite": 1735,
      "Ġrom": 1736,
      "Ġden": 1737,
      "ÃŃdo": 1738,
      "Ġcapital": 1739,
      "Ġpergu": 1740,
      "Ġuso": 1741,
      "Ġdefin": 1742,
      "posta": 1743,
      "Ġsubst": 1744,
      "Ġbra": 1745,
      "nos": 1746,
      "Ġprote": 1747,
      "Ġset": 1748,
      "fÃŃc": 1749,
      "jud": 1750,
      "ixa": 1751,
      "ona": 1752,
      "201": 1753,
      "Ġmund": 1754,
      "one": 1755,
      "ificaÃ§Ã£o": 1756,
      "ĠtÃ©cn": 1757,
      "ĠpopulaÃ§Ã£o": 1758,
      "Ġprod": 1759,
      "Ġjun": 1760,
      "Ġnot": 1761,
      "Ã©ia": 1762,
      "Ġdescob": 1763,
      "Ġsociedade": 1764,
      "Ġsimples": 1765,
      "onst": 1766,
      "Ġhomens": 1767,
      "nÃ§as": 1768,
      "Ġtent": 1769,
      "Ġtre": 1770,
      "Ġcaracter": 1771,
      "Ġocorre": 1772,
      "iÃ§a": 1773,
      "Ġban": 1774,
      "icar": 1775,
      "Ġros": 1776,
      "iou": 1777,
      "Ġflo": 1778,
      "Ġmulher": 1779,
      "ÃŃtulo": 1780,
      "Ġpessoa": 1781,
      "ĠpossÃŃvel": 1782,
      "Ġapesar": 1783,
      "__": 1784,
      "Ġinteress": 1785,
      "Ġrespe": 1786,
      "ulas": 1787,
      "Ġmaria": 1788,
      "Ġcrist": 1789,
      "Ġjov": 1790,
      "tante": 1791,
      "ell": 1792,
      "Ġrei": 1793,
      "Ġjog": 1794,
      "des": 1795,
      "Ġgal": 1796,
      "ire": 1797,
      "Ġhoras": 1798,
      "entemente": 1799,
      "Ġprojeto": 1800,
      "ĠdÃ©c": 1801,
      "reg": 1802,
      "Ġps": 1803,
      "Ġartigo": 1804,
      "Ġfav": 1805,
      "Ġesqu": 1806,
      "Ġdaqu": 1807,
      "Ġliber": 1808,
      "ĠespÃ©c": 1809,
      "Ġaber": 1810,
      "Ġven": 1811,
      "ea": 1812,
      "Ġtarde": 1813,
      "elh": 1814,
      "ĠmÃºsica": 1815,
      "Ġfuncion": 1816,
      "reiro": 1817,
      "ĠmilhÃµes": 1818,
      "Ġdocum": 1819,
      "Ġnesta": 1820,
      "ĠpaÃŃses": 1821,
      "eceu": 1822,
      "Ġempresa": 1823,
      "Ġdisso": 1824,
      "Ġprincipal": 1825,
      "Ġobra": 1826,
      "posiÃ§Ã£o": 1827,
      "Ġmaioria": 1828,
      "Ġmad": 1829,
      "uta": 1830,
      "Ġconver": 1831,
      "orme": 1832,
      "Ġoficial": 1833,
      "Ġparece": 1834,
      "inado": 1835,
      "Ġdetermin": 1836,
      "Ġfeito": 1837,
      "olÃ³g": 1838,
      "Ġit": 1839,
      "Ġcabe": 1840,
      "gio": 1841,
      "Ġcha": 1842,
      "Ġamor": 1843,
      "Ġori": 1844,
      "tivos": 1845,
      "ĠprÃ³prio": 1846,
      "Ġfrente": 1847,
      "23": 1848,
      "Ġlemb": 1849,
      "via": 1850,
      "rando": 1851,
      "Ġbranc": 1852,
      "Ġameric": 1853,
      "Ãºde": 1854,
      "ins": 1855,
      "vam": 1856,
      "Ġdom": 1857,
      "Ġbrasileiro": 1858,
      "Ġquad": 1859,
      "ques": 1860,
      "Ġobserv": 1861,
      "iÃµes": 1862,
      "ves": 1863,
      "Ġrecebe": 1864,
      "ik": 1865,
      "Ġfra": 1866,
      "ores": 1867,
      "Ġexpres": 1868,
      "Ġblo": 1869,
      "Ġtendo": 1870,
      "Ġsus": 1871,
      "Ġgera": 1872,
      "Ġren": 1873,
      "ibilidade": 1874,
      "Ġmodo": 1875,
      "acion": 1876,
      "Ġficou": 1877,
      "Ġdeu": 1878,
      "val": 1879,
      "com": 1880,
      "ind": 1881,
      "Ġsac": 1882,
      "Ġperd": 1883,
      "eu": 1884,
      "Ġgente": 1885,
      "Ġbr": 1886,
      "Ġcoisas": 1887,
      "Ġcausa": 1888,
      "ÃŃda": 1889,
      "',": 1890,
      "xo": 1891,
      "izado": 1892,
      "urso": 1893,
      "Ġ21": 1894,
      "Ġmelho": 1895,
      "qÃ¼": 1896,
      "Ġaleg": 1897,
      "Ġreconhec": 1898,
      "Ġsenhor": 1899,
      "dor": 1900,
      "Ġtexto": 1901,
      "Ġrespo": 1902,
      "Ġcresc": 1903,
      "Ġrelat": 1904,
      "ĠeconÃ´m": 1905,
      "Ġobrig": 1906,
      "Ġcast": 1907,
      "erna": 1908,
      "ĠaÃ§Ã£o": 1909,
      "ĠmÃ£": 1910,
      "hes": 1911,
      "Ġbal": 1912,
      "Ġher": 1913,
      "ĠsÃ©rie": 1914,
      "Ġens": 1915,
      "Ġresol": 1916,
      "Ġlongo": 1917,
      "Ġhou": 1918,
      "vida": 1919,
      "omia": 1920,
      "ĠvÃ¡rias": 1921,
      "Ġmorre": 1922,
      "entaÃ§Ã£o": 1923,
      "ĠforÃ§a": 1924,
      "Ġmater": 1925,
      "Ġcirc": 1926,
      "Ġacomp": 1927,
      "pira": 1928,
      "au": 1929,
      "Ġperman": 1930,
      "Ġprograma": 1931,
      "ĠsaÃºde": 1932,
      "Ġofere": 1933,
      "Ġdese": 1934,
      "Ġfort": 1935,
      "Ġacred": 1936,
      "inar": 1937,
      "Ġalc": 1938,
      "30": 1939,
      "fa": 1940,
      "Ġtenho": 1941,
      "Ġado": 1942,
      "Ã³n": 1943,
      "ies": 1944,
      "Ġfigu": 1945,
      "ĠAs": 1946,
      "ivamente": 1947,
      "las": 1948,
      "Ġident": 1949,
      "rest": 1950,
      "Ġrevol": 1951,
      "Ġdessa": 1952,
      "rica": 1953,
      "Ġef": 1954,
      "Ġrefer": 1955,
      "Ġpromo": 1956,
      "Ġconce": 1957,
      "Ġfel": 1958,
      "heres": 1959,
      "ang": 1960,
      "ĠrÃ¡": 1961,
      "Ġ195": 1962,
      "Ġpassou": 1963,
      "rutura": 1964,
      "Ġpublic": 1965,
      "Ġcivil": 1966,
      "anta": 1967,
      "Ġcinco": 1968,
      "Ġdiferentes": 1969,
      "Ġluz": 1970,
      "Ġcost": 1971,
      "Ġraz": 1972,
      "Ġfalta": 1973,
      "radas": 1974,
      "eros": 1975,
      "Ġ=": 1976,
      "Ġcamp": 1977,
      "Ġ194": 1978,
      "Ġentanto": 1979,
      "Ġfederal": 1980,
      "Ġdesa": 1981,
      "ubro": 1982,
      "ĠcomeÃ§ou": 1983,
      "Ġlocaliz": 1984,
      "Ġinflu": 1985,
      "Ġesses": 1986,
      "ich": 1987,
      "ume": 1988,
      "ramente": 1989,
      "ĠdÃ¡": 1990,
      "Ġreun": 1991,
      "ĠEst": 1992,
      "stria": 1993,
      "Ġsaber": 1994,
      "xim": 1995,
      "Ġprincipalmente": 1996,
      "Ġcab": 1997,
      "rir": 1998,
      "Ġtransform": 1999,
      "Ġnesse": 2000,
      "vio": 2001,
      "ense": 2002,
      "Ã´nio": 2003,
      "Ġanter": 2004,
      "Ġmundial": 2005,
      "Ġtor": 2006,
      "Ġgara": 2007,
      "ua": 2008,
      "Ġconte": 2009,
      "Ġterc": 2010,
      "Ġcampo": 2011,
      "Ġ24": 2012,
      "Ġverd": 2013,
      "Ġfiz": 2014,
      "Ġindepend": 2015,
      "Ġdesse": 2016,
      "Ġparec": 2017,
      "Ġgo": 2018,
      "Ã©u": 2019,
      "Ġestran": 2020,
      "Ġcomb": 2021,
      "Ġcruz": 2022,
      "Ġeng": 2023,
      "raÃ§Ãµes": 2024,
      "antas": 2025,
      "Ġfoto": 2026,
      "mas": 2027,
      "Ġace": 2028,
      "Ġcust": 2029,
      "ĠEm": 2030,
      "ĠpolÃŃ": 2031,
      "Ġsabe": 2032,
      "Ġprocura": 2033,
      "10": 2034,
      "Ġrua": 2035,
      "iqu": 2036,
      "Ġprincipais": 2037,
      "Ġouv": 2038,
      "Ġsignifica": 2039,
      "vez": 2040,
      "eria": 2041,
      "gens": 2042,
      "Ġparc": 2043,
      "ĠespaÃ§o": 2044,
      "ĠmÃ£e": 2045,
      "ndia": 2046,
      "Ġener": 2047,
      "Ġtraz": 2048,
      "inaÃ§Ã£o": 2049,
      "ĠK": 2050,
      "Ġrap": 2051,
      "Ġrela": 2052,
      "22": 2053,
      "Ãºblica": 2054,
      "Ã³p": 2055,
      "Ġpat": 2056,
      "Ġescola": 2057,
      "Ġsetembro": 2058,
      "Ġpet": 2059,
      "Ġalgo": 2060,
      "Ġate": 2061,
      "cas": 2062,
      "Ġmulheres": 2063,
      "Ġcla": 2064,
      "itor": 2065,
      "Ġvem": 2066,
      "Ġnatural": 2067,
      "inheiro": 2068,
      "anas": 2069,
      "Ġabs": 2070,
      "erno": 2071,
      "Ġapre": 2072,
      "rÃ£o": 2073,
      "ndeu": 2074,
      "Ġdezembro": 2075,
      "Ġcompanh": 2076,
      "Ġjulho": 2077,
      "Ã©rica": 2078,
      "Ġbrasileira": 2079,
      "Ġindiv": 2080,
      "Ġoutubro": 2081,
      "Ġalguma": 2082,
      "Ġaju": 2083,
      "Ġsentido": 2084,
      "itaÃ§Ã£o": 2085,
      "Ġpresente": 2086,
      "Ġmeses": 2087,
      "cia": 2088,
      "Ġtri": 2089,
      "Ġmercado": 2090,
      "inham": 2091,
      "Ġafirm": 2092,
      "Ġprest": 2093,
      "Ġpassado": 2094,
      "encial": 2095,
      "gn": 2096,
      "Ġtrat": 2097,
      "Ġmovimento": 2098,
      "unto": 2099,
      "Ġabril": 2100,
      "Ġarte": 2101,
      "duÃ§Ã£o": 2102,
      "18": 2103,
      "Ġpermit": 2104,
      "amp": 2105,
      "Ġconju": 2106,
      "Ġcompet": 2107,
      "Ġep": 2108,
      "Ġjunho": 2109,
      "ĠprÃ³pria": 2110,
      "Ġviol": 2111,
      "Ġpapel": 2112,
      "Ġcampe": 2113,
      "Ġdevido": 2114,
      "ndas": 2115,
      "Ġigu": 2116,
      "Ġconqu": 2117,
      "Ġbol": 2118,
      "Ġviv": 2119,
      "ĠAl": 2120,
      "Ġnasc": 2121,
      "riz": 2122,
      "ĠespÃŃ": 2123,
      "rais": 2124,
      "ĠmarÃ§o": 2125,
      "jam": 2126,
      "ST": 2127,
      "Ġgrav": 2128,
      "Ġfosse": 2129,
      "Ġ22": 2130,
      "Ġvista": 2131,
      "Ġtele": 2132,
      "Ġperce": 2133,
      "Ġsomente": 2134,
      "Ġtrabalh": 2135,
      "Ġtornou": 2136,
      "AR": 2137,
      "rÃ¡f": 2138,
      "Ã¡g": 2139,
      "ĠsituaÃ§Ã£o": 2140,
      "Ġmus": 2141,
      "200": 2142,
      "Ġfol": 2143,
      "Ġdirig": 2144,
      "Ġtrib": 2145,
      "Ġ23": 2146,
      "ĠCom": 2147,
      "Ġcomerc": 2148,
      "idÃªncia": 2149,
      "Ġestou": 2150,
      "Ġtest": 2151,
      "Ãĥ": 2152,
      "ĠhistÃ³r": 2153,
      "Ġcum": 2154,
      "Ġencontra": 2155,
      "ÃĥO": 2156,
      "remos": 2157,
      "Ġsp": 2158,
      "Ġseguir": 2159,
      "Ġrevel": 2160,
      "les": 2161,
      "Ġtotal": 2162,
      "Ãĩ": 2163,
      "tando": 2164,
      "Ġsemana": 2165,
      "Ġlar": 2166,
      "ĠÃ¡l": 2167,
      "enda": 2168,
      "Ġportugal": 2169,
      "elos": 2170,
      "Ġmim": 2171,
      "uras": 2172,
      "Ġst": 2173,
      "pas": 2174,
      "Ġsanta": 2175,
      "Ġproblemas": 2176,
      "Ġganh": 2177,
      "itado": 2178,
      "Ġelem": 2179,
      "Ġnovembro": 2180,
      "Ġquant": 2181,
      "ulares": 2182,
      "Ġessas": 2183,
      "Ġunidos": 2184,
      "gamento": 2185,
      "Ġestes": 2186,
      "Ġagosto": 2187,
      "Ġfut": 2188,
      "izar": 2189,
      "ursos": 2190,
      "ĠquestÃ£o": 2191,
      "ipe": 2192,
      "inta": 2193,
      "Ã¡tico": 2194,
      "iada": 2195,
      "Ġfinanc": 2196,
      "Ġverdad": 2197,
      "Ġpot": 2198,
      "Ġporto": 2199,
      "ÃŃde": 2200,
      "Ġclass": 2201,
      "Ġcant": 2202,
      "Ġlinha": 2203,
      "ique": 2204,
      "Ġpert": 2205,
      "Ġcaval": 2206,
      "Ġobras": 2207,
      "Ġseguinte": 2208,
      "Ġfalar": 2209,
      "Ġpontos": 2210,
      "Ġajud": 2211,
      "ENT": 2212,
      "Ġproblema": 2213,
      "Ġprofiss": 2214,
      "Ġfec": 2215,
      "Ġcarlos": 2216,
      "ĠserviÃ§o": 2217,
      "Ġja": 2218,
      "Ġopera": 2219,
      "Ġapa": 2220,
      "Ġnatu": 2221,
      "Ġmist": 2222,
      "Ġordem": 2223,
      "uais": 2224,
      "eta": 2225,
      "ardo": 2226,
      "ĠinformaÃ§Ãµes": 2227,
      "Ġhora": 2228,
      "Ġpoderia": 2229,
      "ĠeducaÃ§Ã£o": 2230,
      "Ġpropri": 2231,
      "ger": 2232,
      "Ġchegou": 2233,
      "Ġmilitar": 2234,
      "Ġjunto": 2235,
      "Ġassist": 2236,
      "ier": 2237,
      "Ġjes": 2238,
      "Ã´nia": 2239,
      "Ġinternacional": 2240,
      "Ġdim": 2241,
      "Ġestavam": 2242,
      "ĠconstruÃ§Ã£o": 2243,
      "Ġtenha": 2244,
      "Ġcompre": 2245,
      "Ġforte": 2246,
      "ilh": 2247,
      "Ġfavor": 2248,
      "essor": 2249,
      "adora": 2250,
      "ĠcomeÃ§a": 2251,
      "Ġgre": 2252,
      "oss": 2253,
      "br": 2254,
      "ĠNo": 2255,
      "11": 2256,
      "ival": 2257,
      "Ġidade": 2258,
      "adamente": 2259,
      "Ġ2010": 2260,
      "ĠmunicÃŃpio": 2261,
      "ph": 2262,
      "Ġgr": 2263,
      "bre": 2264,
      "ĠtÃŃtulo": 2265,
      "Ġhe": 2266,
      "Ġelas": 2267,
      "Ġpriv": 2268,
      "Ġexiste": 2269,
      "Ġ100": 2270,
      "Ġpais": 2271,
      "ĠRe": 2272,
      "Ã³rias": 2273,
      "Ġmanif": 2274,
      "Ġbastante": 2275,
      "Ġtalvez": 2276,
      "ĠfÃŃs": 2277,
      "Ġnatureza": 2278,
      "Ġmol": 2279,
      "Ġimpl": 2280,
      "volve": 2281,
      "ÃŃnio": 2282,
      "Ã¡ss": 2283,
      "Ġcomum": 2284,
      "Ġdados": 2285,
      "Ġterrit": 2286,
      "Ġon": 2287,
      "Ġcate": 2288,
      "Ġsof": 2289,
      "Ġsin": 2290,
      "Ġocup": 2291,
      "iores": 2292,
      "Ġimport": 2293,
      "Ġtemos": 2294,
      "Ġnaqu": 2295,
      "Ġconhecido": 2296,
      "edia": 2297,
      "Ġlou": 2298,
      "ÃŃss": 2299,
      "Ġolhos": 2300,
      "Ġcand": 2301,
      "Ġpedro": 2302,
      "ĠaÃŃ": 2303,
      "Ġtransp": 2304,
      "ĠÃºltimo": 2305,
      "Ġprocess": 2306,
      "Ġeuropa": 2307,
      "Ġningu": 2308,
      "ĠserviÃ§os": 2309,
      "Ġqualidade": 2310,
      "rim": 2311,
      "bar": 2312,
      "uto": 2313,
      "Ġficar": 2314,
      "Ġii": 2315,
      "Ġalto": 2316,
      "ĠfranÃ§a": 2317,
      "rique": 2318,
      "Ġmaneira": 2319,
      "Ġdefe": 2320,
      "Ġcentral": 2321,
      "Ġorigem": 2322,
      "ĠmÃ£o": 2323,
      "berto": 2324,
      "osp": 2325,
      "ĠmÃ©": 2326,
      "tebol": 2327,
      "enos": 2328,
      "tivas": 2329,
      "Ġcidades": 2330,
      "ĠcÃ¢m": 2331,
      "Ġequipe": 2332,
      "Ġrespeito": 2333,
      "Ġrelacion": 2334,
      "ĠÃºnico": 2335,
      "Ġsucesso": 2336,
      "ussÃ£o": 2337,
      "esc": 2338,
      "Ġdeles": 2339,
      "Ġ193": 2340,
      "sia": 2341,
      "resso": 2342,
      "Ġcarro": 2343,
      "Ġcaminho": 2344,
      "ientes": 2345,
      "xa": 2346,
      "ĠseguranÃ§a": 2347,
      "ay": 2348,
      "elmente": 2349,
      "Ġatual": 2350,
      "uma": 2351,
      "AL": 2352,
      "Ġdestac": 2353,
      "Ġinteg": 2354,
      "Ġtecn": 2355,
      "Ġportanto": 2356,
      "Ġprimeiros": 2357,
      "Ġcapac": 2358,
      "Ġfilhos": 2359,
      "Ġsat": 2360,
      "Ġmunicip": 2361,
      "jas": 2362,
      "Ġchamado": 2363,
      "15": 2364,
      "ĠjustiÃ§a": 2365,
      "Ã©ria": 2366,
      "Ġnovos": 2367,
      "ĠcondiÃ§Ãµes": 2368,
      "Ġplane": 2369,
      "ĠpolÃŃcia": 2370,
      "Ġtermos": 2371,
      "vereiro": 2372,
      "Ġetc": 2373,
      "ama": 2374,
      "Ġaquele": 2375,
      "ĠcabeÃ§a": 2376,
      "Ġdinheiro": 2377,
      "Ġcontribu": 2378,
      "Ġcient": 2379,
      "Ġfar": 2380,
      "Ġesf": 2381,
      "ĠninguÃ©m": 2382,
      "Ġ2011": 2383,
      "Ġrespons": 2384,
      "Ġcel": 2385,
      "ĠUn": 2386,
      "Ġinstal": 2387,
      "Ġmaiores": 2388,
      "Ġcre": 2389,
      "dores": 2390,
      "Ġestrutura": 2391,
      "itura": 2392,
      "ĠcrianÃ§as": 2393,
      "Ġdemais": 2394,
      "Ġenergia": 2395,
      "Ġtermin": 2396,
      "Ġjur": 2397,
      "Ġ26": 2398,
      "Ġresultado": 2399,
      "rum": 2400,
      "Ġexig": 2401,
      "alidade": 2402,
      "Ġdecla": 2403,
      "ube": 2404,
      "Ġating": 2405,
      "Ġcasos": 2406,
      "Ġcerto": 2407,
      "ĠpresenÃ§a": 2408,
      "Ġcompos": 2409,
      "Ġmic": 2410,
      "Ġaba": 2411,
      "Ġclaro": 2412,
      "tt": 2413,
      "Ġprepara": 2414,
      "alha": 2415,
      "iso": 2416,
      "Ġacompanh": 2417,
      "Ġtinham": 2418,
      "ĠcaracterÃŃst": 2419,
      "ĠEs": 2420,
      "Ġ28": 2421,
      "pÃ§Ã£o": 2422,
      "Ġhon": 2423,
      "Ġpalavras": 2424,
      "jos": 2425,
      "Ġgarant": 2426,
      "Ġgar": 2427,
      "entais": 2428,
      "ioso": 2429,
      "Ġreceb": 2430,
      "Ġ2012": 2431,
      "ĠrazÃ£o": 2432,
      "reto": 2433,
      "Ġmostra": 2434,
      "ĠCO": 2435,
      "Ġlat": 2436,
      "Ġroc": 2437,
      "Ġpopular": 2438,
      "iel": 2439,
      "Ġrod": 2440,
      "ificado": 2441,
      "eram": 2442,
      "ĠlÃŃn": 2443,
      "Ġhip": 2444,
      "ificar": 2445,
      "Ġdecid": 2446,
      "Ġfro": 2447,
      "erta": 2448,
      "Ġeleito": 2449,
      "Ġcontrole": 2450,
      "Ġfevereiro": 2451,
      "ĠformaÃ§Ã£o": 2452,
      "Ġsurg": 2453,
      "Ġconse": 2454,
      "resse": 2455,
      "Ġ50": 2456,
      "Ġcapit": 2457,
      "Ġprodutos": 2458,
      "Ġacima": 2459,
      "DO": 2460,
      "Ġsenho": 2461,
      "ĠPa": 2462,
      "ites": 2463,
      "ĠnÃŃvel": 2464,
      "ĠÃºltima": 2465,
      "vos": 2466,
      "Ġsup": 2467,
      "12": 2468,
      "iados": 2469,
      "Ã©tica": 2470,
      "Ġsei": 2471,
      "Ġimag": 2472,
      "Ġdiante": 2473,
      "Ġnovas": 2474,
      "Ġteria": 2475,
      "Ġinclus": 2476,
      "Ġpartido": 2477,
      "Ġtira": 2478,
      "Ġexerc": 2479,
      "Ġ27": 2480,
      "ĠdÃ©cada": 2481,
      "Ġaproxim": 2482,
      "Ġhor": 2483,
      "Ġdific": 2484,
      "Ġchega": 2485,
      "Ġ2009": 2486,
      "Ġempresas": 2487,
      "Ġpalavra": 2488,
      "ers": 2489,
      "Ġintel": 2490,
      "leo": 2491,
      "asc": 2492,
      "Ġmemb": 2493,
      "Ġdireitos": 2494,
      "Ġje": 2495,
      "Ġexecut": 2496,
      "Ġhosp": 2497,
      "Ġforn": 2498,
      "Ġsecret": 2499,
      "Ġpaul": 2500,
      "Ġtive": 2501,
      "hÃ£": 2502,
      "50": 2503,
      "Ġmuita": 2504,
      "ry": 2505,
      "ĠÃ¡reas": 2506,
      "Ġestad": 2507,
      "Ġcosta": 2508,
      "ÃŃg": 2509,
      "Ġdevem": 2510,
      "Ġsubstitu": 2511,
      "Ġsel": 2512,
      "...": 2513,
      "Ġdiretor": 2514,
      "Ġaval": 2515,
      "pla": 2516,
      "Ã¡lia": 2517,
      "Ġbon": 2518,
      "Ġcoment": 2519,
      "Ġinterior": 2520,
      "Ġobjetivo": 2521,
      "Ġrecursos": 2522,
      "ĠpÃºblica": 2523,
      "Ġtrata": 2524,
      "Ã©rc": 2525,
      "gues": 2526,
      "rov": 2527,
      "ora": 2528,
      "Ġalt": 2529,
      "Ġfutebol": 2530,
      "ĠvÃ£o": 2531,
      "Ġalte": 2532,
      "Ġuniversidade": 2533,
      "ecimento": 2534,
      "Ġchegar": 2535,
      "Ġpaci": 2536,
      "ke": 2537,
      "Ġpassar": 2538,
      "Ã¡st": 2539,
      "op": 2540,
      "Ã³rios": 2541,
      "17": 2542,
      "ff": 2543,
      "ilha": 2544,
      "idamente": 2545,
      "eiÃ§Ã£o": 2546,
      "Ġapoio": 2547,
      "Ġlivre": 2548,
      "izada": 2549,
      "ĠĊ": 2550,
      "Ġseis": 2551,
      "itantes": 2552,
      "Ġsuperior": 2553,
      "Ġjogos": 2554,
      "Ġglob": 2555,
      "Ġfamos": 2556,
      "ĠÃŃnd": 2557,
      "hn": 2558,
      "Ġconhecimento": 2559,
      "Ġmem": 2560,
      "Ġbac": 2561,
      "icion": 2562,
      "Ġjesus": 2563,
      "Ġdemoc": 2564,
      "Ġvale": 2565,
      "Ġpena": 2566,
      "Ġrede": 2567,
      "Ġanal": 2568,
      "ical": 2569,
      "Ġbair": 2570,
      "Ġeurope": 2571,
      "Ġgost": 2572,
      "ĠProc": 2573,
      "Ġdesp": 2574,
      "Ġpob": 2575,
      "Ġgrupos": 2576,
      "Ġpossui": 2577,
      "Ġmac": 2578,
      "mar": 2579,
      "Ġalta": 2580,
      "Ġsens": 2581,
      "quia": 2582,
      "ortun": 2583,
      "Ġreform": 2584,
      "uz": 2585,
      "ÂŃ": 2586,
      "ĠdÃº": 2587,
      "xe": 2588,
      "21": 2589,
      "Ġbanda": 2590,
      "Ġdan": 2591,
      "Ġestudo": 2592,
      "eios": 2593,
      "Ġfilha": 2594,
      "ĠprÃ³ximo": 2595,
      "ata": 2596,
      "Ġcinema": 2597,
      "Ġmaterial": 2598,
      "Ġambiente": 2599,
      "ĠÂĵ": 2600,
      "iosa": 2601,
      "Ġbene": 2602,
      "sem": 2603,
      "ĠcriaÃ§Ã£o": 2604,
      "Ġextra": 2605,
      "ĠcoraÃ§Ã£o": 2606,
      "Ġcuid": 2607,
      "ĠvitÃ³ria": 2608,
      "bate": 2609,
      "Ġfundam": 2610,
      "Ġplano": 2611,
      "met": 2612,
      "guas": 2613,
      "Ġram": 2614,
      "Ġfundo": 2615,
      "Ġdata": 2616,
      "Ġperf": 2617,
      "Ġlet": 2618,
      "Ġperde": 2619,
      "Ġfazendo": 2620,
      "Ġluta": 2621,
      "ĠposiÃ§Ã£o": 2622,
      "Ġamigos": 2623,
      "Ġamigo": 2624,
      "Ã©is": 2625,
      "Ġ29": 2626,
      "Ġresta": 2627,
      "Ġestas": 2628,
      "turas": 2629,
      "our": 2630,
      "tica": 2631,
      "erto": 2632,
      "Ġclube": 2633,
      "Ġcrim": 2634,
      "Ġcontr": 2635,
      "Ġdemonst": 2636,
      "Ġade": 2637,
      "ame": 2638,
      "iro": 2639,
      "Ġvoz": 2640,
      "th": 2641,
      "Ġimagem": 2642,
      "Ġsociais": 2643,
      "eias": 2644,
      "Ġeconomia": 2645,
      "Ġrefere": 2646,
      "ndimento": 2647,
      "Ġcong": 2648,
      "ĠpÃ¡g": 2649,
      "ĠespÃŃrito": 2650,
      "posto": 2651,
      "cion": 2652,
      "Ġilha": 2653,
      "Ã¡cio": 2654,
      "Ġnessa": 2655,
      "Ġfab": 2656,
      "Ġenf": 2657,
      "loc": 2658,
      "ĠmÃªs": 2659,
      "Ġprogram": 2660,
      "una": 2661,
      "Ġha": 2662,
      "Ġpartes": 2663,
      "Ġvou": 2664,
      "Ġinicial": 2665,
      "ĠrepÃºblica": 2666,
      "erg": 2667,
      "ĠDe": 2668,
      "ses": 2669,
      "Ġfase": 2670,
      "Ġdefesa": 2671,
      "ile": 2672,
      "Ġhouve": 2673,
      "idÃ£o": 2674,
      "Ġtam": 2675,
      "Ġseguida": 2676,
      "Ġ2008": 2677,
      "ĠSÃ£o": 2678,
      "Ġvig": 2679,
      "Ġacho": 2680,
      "ng": 2681,
      "Ġdeixar": 2682,
      "ĠvÃŃt": 2683,
      "UT": 2684,
      "Ġatividades": 2685,
      "ĠpolÃŃtico": 2686,
      "Ġsho": 2687,
      "ĠÃ³r": 2688,
      "Ġang": 2689,
      "ĠÂ«": 2690,
      "14": 2691,
      "Ġmand": 2692,
      "Ġatra": 2693,
      "Ġ2013": 2694,
      "ÂĶ": 2695,
      "itou": 2696,
      "isl": 2697,
      "Ġcara": 2698,
      "Ġfrancisco": 2699,
      "icaÃ§Ãµes": 2700,
      "Ġkm": 2701,
      "Ġtoc": 2702,
      "Ġsilva": 2703,
      "Ġtempos": 2704,
      "ĠmÃ©dia": 2705,
      "utor": 2706,
      "aterra": 2707,
      "Ġpesquisa": 2708,
      "Ġdistribu": 2709,
      "Ġperto": 2710,
      "into": 2711,
      "Ġsofre": 2712,
      "ĠÃºnica": 2713,
      "atura": 2714,
      "enso": 2715,
      "rita": 2716,
      "Ġelev": 2717,
      "Ġsanto": 2718,
      "Ġinicia": 2719,
      "Ġexistem": 2720,
      "Ġrealmente": 2721,
      "Ġfeita": 2722,
      "Ġaz": 2723,
      "gada": 2724,
      "Ġgas": 2725,
      "Ġmodelo": 2726,
      "Ġ40": 2727,
      "Ġpratic": 2728,
      "Ġvenc": 2729,
      "ĠfÃ©": 2730,
      "ĠatenÃ§Ã£o": 2731,
      "idad": 2732,
      "orge": 2733,
      "ĠmÃ£os": 2734,
      "Ġconjunto": 2735,
      "ĠnecessÃ¡rio": 2736,
      "Ġacus": 2737,
      "ĠalguÃ©m": 2738,
      "bilidade": 2739,
      "Ġapresenta": 2740,
      "Ġvive": 2741,
      "Ġdispon": 2742,
      "Ġital": 2743,
      "ĠsÃ¡b": 2744,
      "Ġjovem": 2745,
      "Ġsalv": 2746,
      "Ġsantos": 2747,
      "ti": 2748,
      "ÃŃdu": 2749,
      "ĠForo": 2750,
      "Ġpreoc": 2751,
      "Ġband": 2752,
      "ance": 2753,
      "ĠdireÃ§Ã£o": 2754,
      "Ġnossos": 2755,
      "Ġimportantes": 2756,
      "ĠserÃ£o": 2757,
      "Ġliberdade": 2758,
      "Ġnar": 2759,
      "ack": 2760,
      "gon": 2761,
      "ĠespÃ©cie": 2762,
      "ĠamÃ©rica": 2763,
      "Ġdiversos": 2764,
      "itada": 2765,
      "Ġinterpre": 2766,
      "Ġtiv": 2767,
      "UL": 2768,
      "ĠĠĠĠĠĠĠĠ": 2769,
      "Ġassass": 2770,
      "Ġprofessor": 2771,
      "essÃ£o": 2772,
      "ĠuniÃ£o": 2773,
      "americ": 2774,
      "RI": 2775,
      "Ã©re": 2776,
      "rÃ³": 2777,
      "Ġarg": 2778,
      "Ġopin": 2779,
      "ÃĩA": 2780,
      "Ġregistro": 2781,
      "Ġinteresse": 2782,
      "uda": 2783,
      "Ġtais": 2784,
      "Ġpergunt": 2785,
      "Ġmenor": 2786,
      "Ġdiversas": 2787,
      "ÃŃa": 2788,
      "16": 2789,
      "Ã³digo": 2790,
      "ĠÃ¡r": 2791,
      "ws": 2792,
      "riÃ§Ã£o": 2793,
      "ĠforÃ§as": 2794,
      "irma": 2795,
      "Ġmelhores": 2796,
      "Ġvelho": 2797,
      "Ġproced": 2798,
      "Ġoportun": 2799,
      "ĠAss": 2800,
      "Ġanimais": 2801,
      "Ġminutos": 2802,
      "Ġpreciso": 2803,
      "Ġvamos": 2804,
      "Ġtradic": 2805,
      "Ġcarta": 2806,
      "Ġprova": 2807,
      "\",": 2808,
      "icado": 2809,
      "Ġ2014": 2810,
      "ĠimportÃ¢ncia": 2811,
      "Ġpolic": 2812,
      "ĠÃºltimos": 2813,
      "Ġdeput": 2814,
      "ĠfunÃ§Ã£o": 2815,
      "Ġmembros": 2816,
      "Ã©tr": 2817,
      "Ġjunt": 2818,
      "Ġrefle": 2819,
      "05": 2820,
      "Ġblog": 2821,
      "Ġaspec": 2822,
      "Ã¢nt": 2823,
      "tada": 2824,
      "Ġsr": 2825,
      "hou": 2826,
      "estre": 2827,
      "Ġconforme": 2828,
      "Ġcriar": 2829,
      "Ġurb": 2830,
      "Ġfest": 2831,
      "Ġdivul": 2832,
      "Ġretorn": 2833,
      "Ġsepara": 2834,
      "ĠdecisÃ£o": 2835,
      "Ġmunicipal": 2836,
      "Ġassum": 2837,
      "Ġsust": 2838,
      "Ġnaturais": 2839,
      "Ġagu": 2840,
      "ĠmanhÃ£": 2841,
      "Ġestilo": 2842,
      "Ġmarca": 2843,
      "Ġrealidade": 2844,
      "Ġ&": 2845,
      "ultura": 2846,
      "Ġevol": 2847,
      "onato": 2848,
      "Ġestudos": 2849,
      "Ġdificul": 2850,
      "Ġtime": 2851,
      "ĠorganizaÃ§Ã£o": 2852,
      "arca": 2853,
      "RE": 2854,
      "Ġserem": 2855,
      "Ġvest": 2856,
      "Ġprete": 2857,
      "Ġjud": 2858,
      "Ġescre": 2859,
      "ĠcÃ¢mara": 2860,
      "Ġinvestig": 2861,
      "ensa": 2862,
      "Ġescreve": 2863,
      "aga": 2864,
      "Ã¡r": 2865,
      "erva": 2866,
      "Ġdesem": 2867,
      "kk": 2868,
      "Ġencontrar": 2869,
      "ĠanÃ¡l": 2870,
      "Ġespanh": 2871,
      "ĠexÃ©rc": 2872,
      "Ġresist": 2873,
      "ĠÃ¡lb": 2874,
      "Ġsemelh": 2875,
      "unal": 2876,
      "Em": 2877,
      "Ġcapaz": 2878,
      "Ġefet": 2879,
      "Ġbusca": 2880,
      "Ġcob": 2881,
      "Ġlivros": 2882,
      "ĠDO": 2883,
      "Ġajuda": 2884,
      "ativo": 2885,
      "rÃ¡s": 2886,
      "anÃ§as": 2887,
      "Ġlegisl": 2888,
      "Ġperc": 2889,
      "Ġacesso": 2890,
      "isso": 2891,
      "Ġparticular": 2892,
      "Ġsite": 2893,
      "ĠprÃ¡tica": 2894,
      "Ġmeus": 2895,
      "ĠdifÃŃc": 2896,
      "Ġnenhuma": 2897,
      "Ġpint": 2898,
      "Ãºc": 2899,
      "ĠdifÃŃcil": 2900,
      "hia": 2901,
      "idores": 2902,
      "alizaÃ§Ã£o": 2903,
      "Ġnecessidade": 2904,
      "Ġaquela": 2905,
      "ok": 2906,
      "Ġprojet": 2907,
      "ĠpÃ©": 2908,
      "Ġabaixo": 2909,
      "Ã¡ticas": 2910,
      "Ġesquer": 2911,
      "Ġampl": 2912,
      "Ġenvolv": 2913,
      "ht": 2914,
      "ÃŃpios": 2915,
      "Ġtratamento": 2916,
      "Ġvas": 2917,
      "Ġdela": 2918,
      "ĠprÃ©": 2919,
      "Ġcapacidade": 2920,
      "Ġpropor": 2921,
      "Ġpessoal": 2922,
      "Ġhen": 2923,
      "Ġeua": 2924,
      "UTC": 2925,
      "itando": 2926,
      "ĠinglÃªs": 2927,
      "Ġcrit": 2928,
      "ala": 2929,
      "tanto": 2930,
      "ot": 2931,
      "edor": 2932,
      "Ġlevant": 2933,
      "riu": 2934,
      "Ġalim": 2935,
      "ĠÃ¢": 2936,
      "Ġfilmes": 2937,
      "Ġpequena": 2938,
      "rel": 2939,
      "Ġinglaterra": 2940,
      "Ġreduz": 2941,
      "ĠMar": 2942,
      "ĠVara": 2943,
      "ĠediÃ§Ã£o": 2944,
      "ĠinformaÃ§Ã£o": 2945,
      "Ġpec": 2946,
      "ĠCl": 2947,
      "ormente": 2948,
      "Ġdestru": 2949,
      "Ġsede": 2950,
      "Ġdr": 2951,
      "Ġvont": 2952,
      "Ġleva": 2953,
      "Ġdiferente": 2954,
      "anho": 2955,
      "ĠlÃŃngua": 2956,
      "Ġconden": 2957,
      "orda": 2958,
      "respo": 2959,
      "feitos": 2960,
      "Ġaud": 2961,
      "Ġdomingo": 2962,
      "Ġsete": 2963,
      "ĠgÃªn": 2964,
      "Ġouro": 2965,
      "Ġbel": 2966,
      "Ġcarreira": 2967,
      "Ã£es": 2968,
      "Ġpequeno": 2969,
      "Ġpoucos": 2970,
      "ĠatrÃ¡s": 2971,
      "Ġaprov": 2972,
      "Ġuns": 2973,
      "Ġdig": 2974,
      "estÃ£o": 2975,
      "Ãµe": 2976,
      "Ã´nica": 2977,
      "Ġorganiz": 2978,
      "Ġambos": 2979,
      "ĠEx": 2980,
      "Ġefeito": 2981,
      "Ġveio": 2982,
      "ĠrÃ¡p": 2983,
      "ĠportuguÃªs": 2984,
      "Ġcomunidade": 2985,
      "Ġtu": 2986,
      "Ġproduto": 2987,
      "ecido": 2988,
      "Ġia": 2989,
      "Ġrecebeu": 2990,
      "Ġmult": 2991,
      "Ġfigura": 2992,
      "Ġcidad": 2993,
      "Ġextrem": 2994,
      "Ġvalores": 2995,
      "Ġviagem": 2996,
      "mb": 2997,
      "idor": 2998,
      "Ġpatr": 2999,
      "emin": 3000,
      "ĠÂ§": 3001,
      "Ã£s": 3002,
      "aca": 3003,
      "Ġaqueles": 3004,
      "Ġaparec": 3005,
      "pt": 3006,
      "Ġult": 3007,
      "ris": 3008,
      "hado": 3009,
      "Ġpodemos": 3010,
      "Ġinclusive": 3011,
      "Ġcola": 3012,
      "ĠÂ»": 3013,
      "Ġmanter": 3014,
      "âĢĿ": 3015,
      "Ġmedida": 3016,
      "ĠrelaÃ§Ãµes": 3017,
      "Ġcrescimento": 3018,
      "Ġalun": 3019,
      "Ġmec": 3020,
      "vas": 3021,
      "Ġfazem": 3022,
      "Ġatividade": 3023,
      "Ġexcel": 3024,
      "Ġocas": 3025,
      "Ġquinta": 3026,
      "Ġast": 3027,
      "ndendo": 3028,
      "Ġacontece": 3029,
      "Ġconsum": 3030,
      "Ġfala": 3031,
      "ĠcontrÃ¡rio": 3032,
      "ĠimpÃ©rio": 3033,
      "grafia": 3034,
      "Ġpla": 3035,
      "arda": 3036,
      "Ġimedia": 3037,
      "sÃµes": 3038,
      "ĠindÃº": 3039,
      "rog": 3040,
      "Ġconserv": 3041,
      "Ġconcent": 3042,
      "ĠparticipaÃ§Ã£o": 3043,
      "Ġcad": 3044,
      "iante": 3045,
      "Ġespecialmente": 3046,
      "Ġprecisa": 3047,
      "Ġdesign": 3048,
      "Ġ2007": 3049,
      "Ġfuturo": 3050,
      "Ġbairro": 3051,
      "ramento": 3052,
      "tel": 3053,
      "ÃŃcios": 3054,
      "Ġelementos": 3055,
      "Ġderro": 3056,
      "Ġevento": 3057,
      "ĠversÃ£o": 3058,
      "ĠministÃ©rio": 3059,
      "Ġtip": 3060,
      "Ġindu": 3061,
      "ven": 3062,
      "OS": 3063,
      "Ġestim": 3064,
      "iormente": 3065,
      "Ġcorr": 3066,
      "cont": 3067,
      "Ġvisto": 3068,
      "Ġperm": 3069,
      "Ġdivid": 3070,
      "ficiente": 3071,
      "24": 3072,
      "Ġvontade": 3073,
      "Ġtab": 3074,
      "alo": 3075,
      "Ġdeixou": 3076,
      "ADO": 3077,
      "Ġescrit": 3078,
      "Ġlonge": 3079,
      "Ġantigo": 3080,
      "Ġrestaura": 3081,
      "Ġcolon": 3082,
      "Ġpaz": 3083,
      "13": 3084,
      "Ġaprove": 3085,
      "itude": 3086,
      "Ġconselho": 3087,
      "ĠvÃª": 3088,
      "Ġdesses": 3089,
      "itivo": 3090,
      "uel": 3091,
      "Ġemp": 3092,
      "Ġ*": 3093,
      "Ġbio": 3094,
      "\".": 3095,
      "ĠJu": 3096,
      "Ġcorrespo": 3097,
      "ĠAr": 3098,
      "hÃ£o": 3099,
      "ilizaÃ§Ã£o": 3100,
      "Ġbi": 3101,
      "Ġfrequ": 3102,
      "Ġquarta": 3103,
      "Ġsexta": 3104,
      "diÃ§Ã£o": 3105,
      "Ġcateg": 3106,
      "unha": 3107,
      "Ġroman": 3108,
      "ianos": 3109,
      "Ġ2015": 3110,
      "Ġlidera": 3111,
      "Ġlocais": 3112,
      "Ġtema": 3113,
      "ĠexperiÃªncia": 3114,
      "Ġfront": 3115,
      "Ġinstrum": 3116,
      "entu": 3117,
      "Ġmanifesta": 3118,
      "Ġ2006": 3119,
      "--": 3120,
      "ĠSe": 3121,
      "Ġcultural": 3122,
      "Ġluc": 3123,
      "Ġincluindo": 3124,
      "Ġentrev": 3125,
      "etas": 3126,
      "enho": 3127,
      "Ġformas": 3128,
      "Ġverm": 3129,
      "Ġq": 3130,
      "Ã³c": 3131,
      "Ġdesf": 3132,
      "Ġjam": 3133,
      "Ġvila": 3134,
      "Ġexplo": 3135,
      "Ġestamos": 3136,
      "Ġabando": 3137,
      "Ġaumento": 3138,
      "Ġth": 3139,
      "Qu": 3140,
      "Ġposter": 3141,
      "ÃŃnc": 3142,
      "06": 3143,
      "Ġreceber": 3144,
      "Ġcep": 3145,
      "entou": 3146,
      "Ġcurso": 3147,
      "Ġbrit": 3148,
      "Ġlevar": 3149,
      "Ġzona": 3150,
      "cionais": 3151,
      "ĠexistÃªncia": 3152,
      "Ġmart": 3153,
      "Ġbaixo": 3154,
      "Ġcompl": 3155,
      "Ġaltura": 3156,
      "Ġress": 3157,
      "Ġconseguiu": 3158,
      "Ġhar": 3159,
      "ĠterritÃ³rio": 3160,
      "Ġesco": 3161,
      "Ġbis": 3162,
      "Ġusar": 3163,
      "Ġmetros": 3164,
      "____": 3165,
      "ler": 3166,
      "Ġlis": 3167,
      "ĠaÃ§Ãµes": 3168,
      "Ġcristo": 3169,
      "Ġentretanto": 3170,
      "Ġquis": 3171,
      "Ġadm": 3172,
      "Ġmag": 3173,
      "ez": 3174,
      "Ġtrabalha": 3175,
      "Ġmotor": 3176,
      "ese": 3177,
      "esas": 3178,
      "Ġresposta": 3179,
      "ĠexÃ©rcito": 3180,
      "Ġdenom": 3181,
      "Ġsangue": 3182,
      "Ġnovamente": 3183,
      "Ġigual": 3184,
      "Ġtemporada": 3185,
      "Ġrecom": 3186,
      "Ġdocumentos": 3187,
      "aco": 3188,
      "Ġnasceu": 3189,
      "usÃ£o": 3190,
      "ert": 3191,
      "Ã§ar": 3192,
      "Ġentrada": 3193,
      "lar": 3194,
      "ĠcatÃ³l": 3195,
      "Ġmuse": 3196,
      "boa": 3197,
      "inada": 3198,
      "ĠcÃ©l": 3199,
      "Ġenfre": 3200,
      "Ġreino": 3201,
      "ĠveÃŃc": 3202,
      "avelmente": 3203,
      "Ġconsci": 3204,
      "Ġamea": 3205,
      "Ġexce": 3206,
      "ĠmÃŃn": 3207,
      "Ġprazo": 3208,
      "Ġcomercial": 3209,
      "Ġensino": 3210,
      "Ġfonte": 3211,
      "Ġcontem": 3212,
      "Ġcompara": 3213,
      "ĠÃ³rg": 3214,
      "icidade": 3215,
      "Ġantiga": 3216,
      "ĠmÃ©to": 3217,
      "ini": 3218,
      "Ġesfor": 3219,
      "ritos": 3220,
      "ĠresponsÃ¡vel": 3221,
      "ly": 3222,
      "Ġbu": 3223,
      "ĠanÃ¡lise": 3224,
      "Ġchamada": 3225,
      "Ġpergunta": 3226,
      "Ġbaix": 3227,
      "ĠPor": 3228,
      "ĠBrasil": 3229,
      "radores": 3230,
      "Ġterr": 3231,
      "entado": 3232,
      "Ġ60": 3233,
      "olo": 3234,
      "rava": 3235,
      "undo": 3236,
      "encia": 3237,
      "Ã©rcio": 3238,
      "ĠÂĹ": 3239,
      "ans": 3240,
      "Ġreb": 3241,
      "Ġara": 3242,
      "ĠâĢĻ": 3243,
      "âĢĻ": 3244,
      "eiÃ§Ãµes": 3245,
      "Ġresul": 3246,
      "Ġbanco": 3247,
      "Ġoriginal": 3248,
      "ÃŃstica": 3249,
      "Ġclasse": 3250,
      "Ġindustria": 3251,
      "ste": 3252,
      "ator": 3253,
      "ĠÃ¡lbum": 3254,
      "Ġintro": 3255,
      "Ġacha": 3256,
      "Ġvos": 3257,
      "25": 3258,
      "Ġga": 3259,
      "tec": 3260,
      "tro": 3261,
      "Ġterras": 3262,
      "Ġatualmente": 3263,
      "ĠpoderÃ¡": 3264,
      "intes": 3265,
      "ĠcomunicaÃ§Ã£o": 3266,
      "'.": 3267,
      "Ġtempera": 3268,
      "iza": 3269,
      "Ġanterior": 3270,
      "ick": 3271,
      "Ġministro": 3272,
      "Ġseg": 3273,
      "Ġferro": 3274,
      "ÃŃfico": 3275,
      "Ġmassa": 3276,
      "Ġpare": 3277,
      "Ġconhecida": 3278,
      "Ġalma": 3279,
      "jar": 3280,
      "abilidade": 3281,
      "par": 3282,
      "Ġtorna": 3283,
      "Ġoferec": 3284,
      "Ġcampanha": 3285,
      "Ġabsol": 3286,
      "Ġcrise": 3287,
      "Ġapont": 3288,
      "Ġfamil": 3289,
      "Ġescrito": 3290,
      "Ġtran": 3291,
      "Ġbranco": 3292,
      "Ġgeralmente": 3293,
      "Ġlevou": 3294,
      "Ġconclu": 3295,
      "Ã©tico": 3296,
      "ork": 3297,
      "Ġsala": 3298,
      "ner": 3299,
      "Ġato": 3300,
      "Ġretira": 3301,
      "Ġestrang": 3302,
      "Ġpers": 3303,
      "rael": 3304,
      "ĠirmÃ£o": 3305,
      "ĠitÃ¡lia": 3306,
      "Ġpedido": 3307,
      "Ġdetal": 3308,
      "ĠindivÃŃdu": 3309,
      "Ġport": 3310,
      "Ġadqu": 3311,
      "Ġhaver": 3312,
      "Ġconfl": 3313,
      "Ġresultados": 3314,
      "Ġlitera": 3315,
      "Ġsenhora": 3316,
      "Ġcele": 3317,
      "Ġjovens": 3318,
      "Ġresponsa": 3319,
      "ĠclÃ¡ss": 3320,
      "Ġpac": 3321,
      "Ġterceiro": 3322,
      "upa": 3323,
      "Ã¢ne": 3324,
      "Ġcho": 3325,
      "Ġsejam": 3326,
      "land": 3327,
      "Ġimped": 3328,
      "Ġpreocup": 3329,
      "Ã¢nico": 3330,
      "Ġestrat": 3331,
      "ĠmÃ¡x": 3332,
      "ĠpolÃŃticas": 3333,
      "fÃ©": 3334,
      "ĠjurÃŃd": 3335,
      "ĠadministraÃ§Ã£o": 3336,
      "ÃŃb": 3337,
      "Ġguer": 3338,
      "Ġface": 3339,
      "Ġencontro": 3340,
      "ĠdoenÃ§a": 3341,
      "ativas": 3342,
      "ciaÃ§Ã£o": 3343,
      "Ġremo": 3344,
      "Ġexclus": 3345,
      "ipl": 3346,
      "ps": 3347,
      "Ġusu": 3348,
      "Ġagrad": 3349,
      "Ġred": 3350,
      "ĠâĢĺ": 3351,
      "Ġentrar": 3352,
      "ĠsÃ¡bado": 3353,
      "Ġgon": 3354,
      "ale": 3355,
      "Ġcart": 3356,
      "ianÃ§a": 3357,
      "ER": 3358,
      "Ġcima": 3359,
      "Ġbrasileiros": 3360,
      "ĠespÃ©cies": 3361,
      "Ã¡cil": 3362,
      "Ġqueria": 3363,
      "IT": 3364,
      "Ġconsiderado": 3365,
      "ĠmatÃ©ria": 3366,
      "Ġestat": 3367,
      "Ã¢ncias": 3368,
      "Ġhumanos": 3369,
      "etros": 3370,
      "Ġfeliz": 3371,
      "Ġprofesso": 3372,
      "ĠterÃ¡": 3373,
      "Ġassoci": 3374,
      "Ġdiminu": 3375,
      "ndido": 3376,
      "teza": 3377,
      "Ġflu": 3378,
      "Ġfesta": 3379,
      "ĠfÃ¡cil": 3380,
      "ÃŃdos": 3381,
      "ndem": 3382,
      "Ġarre": 3383,
      "Ġlin": 3384,
      "Ġsair": 3385,
      "ÃŃlio": 3386,
      "Ġlista": 3387,
      "Ġrus": 3388,
      "Ġautom": 3389,
      "Ġquil": 3390,
      "Ġcanto": 3391,
      "umb": 3392,
      "Ġfacil": 3393,
      "Ġlav": 3394,
      "ĠcaracterÃŃsticas": 3395,
      "ĠPA": 3396,
      "ĠciÃªncia": 3397,
      "itares": 3398,
      "Ġcampos": 3399,
      "Ġassunto": 3400,
      "Ġcompanhia": 3401,
      "Ġbor": 3402,
      "Ġtot": 3403,
      "Ġcrime": 3404,
      "Ġchu": 3405,
      "Ġquantidade": 3406,
      "ĠProcesso": 3407,
      "Ġespanha": 3408,
      "Ġ31": 3409,
      "Ġmedic": 3410,
      "Ġquarto": 3411,
      "Ġnota": 3412,
      "Ġacabou": 3413,
      "Ġacad": 3414,
      "Ġtv": 3415,
      "Ġcomand": 3416,
      "Ġcorte": 3417,
      "Ġfen": 3418,
      "ncio": 3419,
      "ernando": 3420,
      "Ġrem": 3421,
      "Ġimpera": 3422,
      "ĠregiÃµes": 3423,
      "Ġrevista": 3424,
      "Ġeg": 3425,
      "cul": 3426,
      "CA": 3427,
      "Ġargum": 3428,
      "Ġdin": 3429,
      "ĠestratÃ©": 3430,
      "itam": 3431,
      "Ã¢nica": 3432,
      "Ġdiver": 3433,
      "Ġcontrato": 3434,
      "Ġprofissional": 3435,
      "Ġsaud": 3436,
      "09": 3437,
      "Ġmensa": 3438,
      "Ġgeneral": 3439,
      "ĠcomÃ©rcio": 3440,
      "aqu": 3441,
      "ÃŃtica": 3442,
      "ÃŃr": 3443,
      "Ġpagamento": 3444,
      "Ġfran": 3445,
      "Ġdor": 3446,
      "ĠOs": 3447,
      "Ġviu": 3448,
      "Ġhumano": 3449,
      "jec": 3450,
      "Ġrisco": 3451,
      "ural": 3452,
      "ĠalcanÃ§": 3453,
      "Ġtrabalhos": 3454,
      "gaÃ§Ã£o": 3455,
      "Ġtermo": 3456,
      "Ġatribu": 3457,
      "ares": 3458,
      "Ġartes": 3459,
      "ĠIn": 3460,
      "hada": 3461,
      "all": 3462,
      "Ġfui": 3463,
      "tual": 3464,
      "Ġpodia": 3465,
      "ĠvisÃ£o": 3466,
      "Ġacer": 3467,
      "dades": 3468,
      "ĠantÃ´nio": 3469,
      "gares": 3470,
      "ĠprincÃŃpio": 3471,
      "amo": 3472,
      "ĠinfluÃªncia": 3473,
      "Ġont": 3474,
      "Ã³lo": 3475,
      "ka": 3476,
      "Ġcuja": 3477,
      "gados": 3478,
      "Ġespir": 3479,
      "iosos": 3480,
      "ĠopiniÃ£o": 3481,
      "Ġobt": 3482,
      "Ġada": 3483,
      "04": 3484,
      "Ġrespec": 3485,
      "Ġpersonagem": 3486,
      "Ġdado": 3487,
      "ĠfrancÃªs": 3488,
      "Ġflorest": 3489,
      "Ġalemanha": 3490,
      "Ġdil": 3491,
      "Ġmilitares": 3492,
      "Ġorigin": 3493,
      "vers": 3494,
      "Ġbanc": 3495,
      "Ġlut": 3496,
      "Ġtrabalhar": 3497,
      "ĠconstituiÃ§Ã£o": 3498,
      "Ġcic": 3499,
      "Ġhid": 3500,
      "Ġcomport": 3501,
      "ĠpÃ´": 3502,
      "ts": 3503,
      "Ġjard": 3504,
      "Ġambi": 3505,
      "eb": 3506,
      "03": 3507,
      "Ġocorr": 3508,
      "Ġexib": 3509,
      "zes": 3510,
      "acionais": 3511,
      "Ġpadre": 3512,
      "Ġanunc": 3513,
      "Ġpilo": 3514,
      "Ġdeveria": 3515,
      "ÃŃtulos": 3516,
      "Ġargent": 3517,
      "Ġtomar": 3518,
      "Ġxvi": 3519,
      "ï¿": 3520,
      "Ġmorreu": 3521,
      "ĠpolÃŃticos": 3522,
      "Ġliteratura": 3523,
      "Ġbil": 3524,
      "ï¿½": 3525,
      "Ġorg": 3526,
      "Ġoito": 3527,
      "Ġmis": 3528,
      "Ġhumana": 3529,
      "Ġinternet": 3530,
      "Ġnomes": 3531,
      "Ġescrav": 3532,
      "Ġbur": 3533,
      "Ġarquit": 3534,
      "rador": 3535,
      "Ġchefe": 3536,
      "Ġfemin": 3537,
      "Ġafirma": 3538,
      "Ġjudic": 3539,
      "ĠCh": 3540,
      "Ġcontato": 3541,
      "Ġprovoc": 3542,
      "Ġconfirm": 3543,
      "Ġprot": 3544,
      "Ã³dio": 3545,
      "Ãªnio": 3546,
      "Ġhospital": 3547,
      "ĠrÃ©": 3548,
      "Ġfix": 3549,
      "ĠCÃŃvel": 3550,
      "Ã³is": 3551,
      "Ġideia": 3552,
      "ĠidÃ©ia": 3553,
      "Ġcoro": 3554,
      "Ġbril": 3555,
      "enÃ¡rio": 3556,
      "riga": 3557,
      "Ġ2016": 3558,
      "Ġrepet": 3559,
      "Ġchar": 3560,
      "Ġaconteceu": 3561,
      "ki": 3562,
      "ĠrevoluÃ§Ã£o": 3563,
      "Ġmodern": 3564,
      "ÃŃder": 3565,
      "Ġenvi": 3566,
      "ĠvÃŃde": 3567,
      "Ġaus": 3568,
      "nia": 3569,
      "Ġregime": 3570,
      "Ġproposta": 3571,
      "Ġcarn": 3572,
      "Ġgovernador": 3573,
      "Ġlegal": 3574,
      "Ã§ado": 3575,
      "ĠcrianÃ§a": 3576,
      "frica": 3577,
      "Ġcurios": 3578,
      "ĠCo": 3579,
      "Ġ2005": 3580,
      "Ġteatro": 3581,
      "Ġtribunal": 3582,
      "Ġhabitantes": 3583,
      "cend": 3584,
      "tion": 3585,
      "ULO": 3586,
      "Ġ80": 3587,
      "ĠmÃ©dico": 3588,
      "Ġmoral": 3589,
      "Ġhomen": 3590,
      "gou": 3591,
      "Ġcontinua": 3592,
      "orden": 3593,
      "iveira": 3594,
      "postas": 3595,
      "Ġconhecer": 3596,
      "Ãªmio": 3597,
      "Ġgosto": 3598,
      "SS": 3599,
      "Ġefeitos": 3600,
      "IN": 3601,
      "Ġnotas": 3602,
      "rÃ©": 3603,
      "Ġdesemp": 3604,
      "Ġimagens": 3605,
      "Ġbeb": 3606,
      "Ġcargo": 3607,
      "redo": 3608,
      "ĠPaulo": 3609,
      "itores": 3610,
      "Ġaux": 3611,
      "Ġadministra": 3612,
      "Ġseguintes": 3613,
      "Ġ2000": 3614,
      "Ġpersonagens": 3615,
      "Ġplan": 3616,
      "Ġprefer": 3617,
      "Ġestadual": 3618,
      "Ġviver": 3619,
      "Ġpartida": 3620,
      "Ġunidade": 3621,
      "Ġminas": 3622,
      "Ġparis": 3623,
      "Ġisrael": 3624,
      "Ġtornar": 3625,
      "rente": 3626,
      "Ġteoria": 3627,
      "Ã³st": 3628,
      "Ġlugares": 3629,
      "Ġtipos": 3630,
      "Ġtorno": 3631,
      "ĠcomissÃ£o": 3632,
      "ortes": 3633,
      "Ġpeg": 3634,
      "ÃŃfica": 3635,
      "ĠvocÃªs": 3636,
      "Ġcerta": 3637,
      "Ġvaria": 3638,
      "Ġinspira": 3639,
      "Ġtransfer": 3640,
      "Ġdeixa": 3641,
      "ĠJo": 3642,
      "ĠÃ¡rvo": 3643,
      "Ġrot": 3644,
      "til": 3645,
      "Ġenfrent": 3646,
      "ĠhistÃ³rico": 3647,
      "encion": 3648,
      "Ġcedo": 3649,
      "Ġare": 3650,
      "Ġcasas": 3651,
      "Ġfogo": 3652,
      "UN": 3653,
      "Ã¢nia": 3654,
      "ĠPAULO": 3655,
      "Ġrib": 3656,
      "Ġcujo": 3657,
      "27": 3658,
      "ace": 3659,
      "ĠcÃ©u": 3660,
      "ĠGu": 3661,
      "Ġcasamento": 3662,
      "ley": 3663,
      "Ġinim": 3664,
      "Ġontem": 3665,
      "ĠSÃĥO": 3666,
      "rensa": 3667,
      "iros": 3668,
      "Ġger": 3669,
      "Ġimprensa": 3670,
      "Ġvice": 3671,
      "Ġber": 3672,
      "eiramente": 3673,
      "Ġquero": 3674,
      "atÃ³rio": 3675,
      "Ġhuman": 3676,
      "esto": 3677,
      "Ġesquerda": 3678,
      "Ġcerteza": 3679,
      "isÃµes": 3680,
      "Ġfisc": 3681,
      "Ġruas": 3682,
      "Ġusado": 3683,
      "ĠindÃºstria": 3684,
      "ĠCar": 3685,
      "Ġautos": 3686,
      "ĠClasse": 3687,
      "Ġnatal": 3688,
      "ividade": 3689,
      "Ġacresc": 3690,
      "ity": 3691,
      "Ãºn": 3692,
      "Ġora": 3693,
      "Ġpossibilidade": 3694,
      "itual": 3695,
      "Ġinstituto": 3696,
      "Ġpont": 3697,
      "Ġexter": 3698,
      "Ġsuspe": 3699,
      "Ġcampeonato": 3700,
      "Ġcomem": 3701,
      "Ġeletr": 3702,
      "ĠassociaÃ§Ã£o": 3703,
      "Ġadequ": 3704,
      "Ġlic": 3705,
      "Ġpern": 3706,
      "ĠlÃŃder": 3707,
      "Ġpun": 3708,
      "Ġrealizado": 3709,
      "Ġindivid": 3710,
      "Ġpasse": 3711,
      "08": 3712,
      "Ġtit": 3713,
      "28": 3714,
      "Ġdesapa": 3715,
      "Ġelim": 3716,
      "Ġprefe": 3717,
      "ug": 3718,
      "Ġdiss": 3719,
      "idar": 3720,
      "ocidade": 3721,
      "Ġmiss": 3722,
      "Ġabra": 3723,
      "Ġdessas": 3724,
      "pes": 3725,
      "Ġsolo": 3726,
      "Ġhistor": 3727,
      "ĠmudanÃ§a": 3728,
      "ĠeconÃ´mica": 3729,
      "tudo": 3730,
      "Ġvil": 3731,
      "Ġtelef": 3732,
      "emia": 3733,
      "Ġdisco": 3734,
      "ulado": 3735,
      "augu": 3736,
      "ww": 3737,
      "Ġler": 3738,
      "fica": 3739,
      "Â°": 3740,
      "Ġsetor": 3741,
      "Ġrealizada": 3742,
      "edades": 3743,
      "bit": 3744,
      "fl": 3745,
      "Ã©st": 3746,
      "Ġtel": 3747,
      "Ġverde": 3748,
      "omas": 3749,
      "essa": 3750,
      "MENT": 3751,
      "Ġsatis": 3752,
      "unt": 3753,
      "ĠpÃ©s": 3754,
      "Ġmetade": 3755,
      "gust": 3756,
      "Ġviz": 3757,
      "ĠbÃ¡s": 3758,
      "erais": 3759,
      "Ġtelev": 3760,
      "ĠdÃºvida": 3761,
      "Ġpasso": 3762,
      "ÃŃqu": 3763,
      "ene": 3764,
      "ĠÃ¡guas": 3765,
      "Ġepis": 3766,
      "ĠconteÃº": 3767,
      "Ġataque": 3768,
      "artamento": 3769,
      "Ġlisboa": 3770,
      "ose": 3771,
      "Ġfazia": 3772,
      "ĠexpressÃ£o": 3773,
      "Ġvoltar": 3774,
      "Ġtradicional": 3775,
      "Ġrecup": 3776,
      "Ġaparece": 3777,
      "ĠsÃŃ": 3778,
      "Ġolhar": 3779,
      "Ã©dia": 3780,
      "Ġ70": 3781,
      "29": 3782,
      "itiva": 3783,
      "Ġindic": 3784,
      "Ġrele": 3785,
      "antos": 3786,
      "Ġalunos": 3787,
      "Ġ189": 3788,
      "Ġentra": 3789,
      "Ġhenrique": 3790,
      "ismos": 3791,
      "Ġtim": 3792,
      "Ġencontram": 3793,
      "bert": 3794,
      "Ġnegoc": 3795,
      "Ġaltern": 3796,
      "Ġarmas": 3797,
      "Ġportuguesa": 3798,
      "ĠindependÃªncia": 3799,
      "Ġinaugu": 3800,
      "Ġprimeiras": 3801,
      "ĠdiferenÃ§a": 3802,
      "erar": 3803,
      "rop": 3804,
      "onia": 3805,
      "Ġfinalmente": 3806,
      "Ġcumpr": 3807,
      "Ġva": 3808,
      "Ġfug": 3809,
      "Ġsh": 3810,
      "Ġdando": 3811,
      "Ġdepe": 3812,
      "40": 3813,
      "Ġsobrev": 3814,
      "Ġsuje": 3815,
      "Ġlingu": 3816,
      "eda": 3817,
      "ĠterÃ§a": 3818,
      "ĠpraÃ§a": 3819,
      "Ġolha": 3820,
      "tados": 3821,
      "Ġvic": 3822,
      "ariamente": 3823,
      "che": 3824,
      "Ġsele": 3825,
      "Ġvc": 3826,
      "ĠprÃŃnc": 3827,
      "ĠprovÃŃ": 3828,
      "Ġalex": 3829,
      "ach": 3830,
      "Ġprojetos": 3831,
      "SP": 3832,
      "Ġpud": 3833,
      "Ġpensar": 3834,
      "Ġprefeito": 3835,
      "ĠtÃ©cnica": 3836,
      "Ġcontin": 3837,
      "arc": 3838,
      "ĠÂĸ": 3839,
      "iadas": 3840,
      "Ġintelig": 3841,
      "Ġamericano": 3842,
      "Ġengenh": 3843,
      "onte": 3844,
      "Ġbaixa": 3845,
      "vidas": 3846,
      "Ġpei": 3847,
      "ĠAssunto": 3848,
      "ĠcapitÃ£o": 3849,
      "Ġtecnologia": 3850,
      "Ġtrein": 3851,
      "bio": 3852,
      "ibil": 3853,
      "Ġdesaf": 3854,
      "Ã©dio": 3855,
      "Ġ2004": 3856,
      "ĠeleiÃ§Ãµes": 3857,
      "bat": 3858,
      "Ġrealizar": 3859,
      "Ġdedic": 3860,
      "Ġâ": 3861,
      "Ġguard": 3862,
      "Ġdesenvolve": 3863,
      "Ġentrou": 3864,
      "Ġpassagem": 3865,
      "igas": 3866,
      "Ġtestem": 3867,
      "Ġmotivo": 3868,
      "Ġabandon": 3869,
      "ĠprÃ³xima": 3870,
      "Ġpapa": 3871,
      "Ġpesquis": 3872,
      "Ġjuiz": 3873,
      "mail": 3874,
      "Ġsold": 3875,
      "ubl": 3876,
      "Ġprofund": 3877,
      "dia": 3878,
      "culo": 3879,
      "Ġmadeira": 3880,
      "Ġcriado": 3881,
      "Ġconduz": 3882,
      "199": 3883,
      "Ġ+": 3884,
      "Ġtransporte": 3885,
      "Ġpul": 3886,
      "Ġoeste": 3887,
      "Ġpossa": 3888,
      "Ġprovavelmente": 3889,
      "ĠCOM": 3890,
      "ĠdivisÃ£o": 3891,
      "ĠAm": 3892,
      "....": 3893,
      "Ġvoltou": 3894,
      "Ġdelas": 3895,
      "Ġcompree": 3896,
      "Ġmagn": 3897,
      "ider": 3898,
      "Ġconvid": 3899,
      "ĠpreÃ§o": 3900,
      "Ġjohn": 3901,
      "essem": 3902,
      "ÃŃcias": 3903,
      "onas": 3904,
      "Ġfizeram": 3905,
      "Ġbl": 3906,
      "Ġcomprom": 3907,
      "Ġesposa": 3908,
      "Ġsistemas": 3909,
      "uncia": 3910,
      "Ġsimplesmente": 3911,
      "Ġfernando": 3912,
      "Ġtotalmente": 3913,
      "Ġlab": 3914,
      "Ġgab": 3915,
      "ks": 3916,
      "Ġnossas": 3917,
      "tra": 3918,
      "Ġtextos": 3919,
      "Ġconfer": 3920,
      "Ġevitar": 3921,
      "Ġmuseu": 3922,
      "Ġaust": 3923,
      "Ġcolocar": 3924,
      "Ġflor": 3925,
      "Ġdireita": 3926,
      "ĠX": 3927,
      "Ġmarav": 3928,
      "Ġpm": 3929,
      "ash": 3930,
      "Ġindustrial": 3931,
      "Ġcontinuar": 3932,
      "Ġpermite": 3933,
      "Ġadol": 3934,
      "wn": 3935,
      "Ġtiveram": 3936,
      "ĠcÃ©lulas": 3937,
      "Ġmedo": 3938,
      "Ġvisita": 3939,
      "Ġmarido": 3940,
      "xto": 3941,
      "Ġarquitet": 3942,
      "identes": 3943,
      "Ġpsic": 3944,
      "ong": 3945,
      "teu": 3946,
      "Ġpeso": 3947,
      "sp": 3948,
      "Ġadvo": 3949,
      "Ġpraia": 3950,
      "Ġai": 3951,
      "Ġ35": 3952,
      "Ġsobretudo": 3953,
      "Ġvivo": 3954,
      "Ġpensamento": 3955,
      "Ġnave": 3956,
      "ĠquÃŃm": 3957,
      "Ġescolas": 3958,
      "Ġprocessos": 3959,
      "ĠoperaÃ§Ã£o": 3960,
      "Ġlonga": 3961,
      "Ġpedra": 3962,
      "Ġocid": 3963,
      "ĠY": 3964,
      "Ġsam": 3965,
      "Ġvira": 3966,
      "Ġganhou": 3967,
      "Ġvul": 3968,
      "ĠmemÃ³ria": 3969,
      "ÃŃbl": 3970,
      "Ġcaminh": 3971,
      "ÃŃlias": 3972,
      "ĠelÃ©tr": 3973,
      "ĠlanÃ§ado": 3974,
      "Ġrequer": 3975,
      "Ġestabelec": 3976,
      "anhas": 3977,
      "Ġeduardo": 3978,
      "Ġcoorden": 3979,
      "Ġimpac": 3980,
      "Ã¡ter": 3981,
      "Ġenvolve": 3982,
      "Ġobjeto": 3983,
      "Ġnaquele": 3984,
      "ĠquestÃµes": 3985,
      "Ġrepro": 3986,
      "Ġleis": 3987,
      "Ġajudar": 3988,
      "Ġfundamental": 3989,
      "iba": 3990,
      "Ġiv": 3991,
      "ĠfÃŃsica": 3992,
      "60": 3993,
      "grÃ¡f": 3994,
      "pia": 3995,
      "ĠÃ³t": 3996,
      "Ġign": 3997,
      "Ġamaz": 3998,
      "enÃ§as": 3999,
      "Ġmesmos": 4000,
      "oma": 4001,
      "Ġentender": 4002,
      "racia": 4003,
      "Ġbelo": 4004,
      "Ġsint": 4005,
      "Ġconsequ": 4006,
      "usa": 4007,
      "iÃ¡rio": 4008,
      "Ġpros": 4009,
      "ĠcrÃ©d": 4010,
      "Ġpresentes": 4011,
      "OR": 4012,
      "Ġtentar": 4013,
      "2023": 4014,
      "Ġcena": 4015,
      "onio": 4016,
      "Ġelabo": 4017,
      "Ġafirmou": 4018,
      "Ãºssia": 4019,
      "ĠpalÃ¡cio": 4020,
      "Ġcomando": 4021,
      "ogra": 4022,
      "Ġbarb": 4023,
      "olÃ³gico": 4024,
      "Ġsusp": 4025,
      "Ġcomput": 4026,
      "ĠfÃ¡b": 4027,
      "Ġresponsabilidade": 4028,
      "Ġjude": 4029,
      "Ġhel": 4030,
      "ĠprisÃ£o": 4031,
      "ides": 4032,
      "orias": 4033,
      "Ġinteressante": 4034,
      "ĠgestÃ£o": 4035,
      "Ġchina": 4036,
      "Ġdiscut": 4037,
      "ald": 4038,
      "Ġimper": 4039,
      "Ġdif": 4040,
      "Ġgerais": 4041,
      "Ġcandid": 4042,
      "Ġbras": 4043,
      "Ġmeta": 4044,
      "Ġbele": 4045,
      "ĠÃ¡frica": 4046,
      "ĠmudanÃ§as": 4047,
      "Ġsc": 4048,
      "Ġfotos": 4049,
      "tam": 4050,
      "Ġcopa": 4051,
      "Ġmistura": 4052,
      "Ġimposs": 4053,
      "vido": 4054,
      "inados": 4055,
      "ĠmÃ¡qu": 4056,
      "nce": 4057,
      "Ġcontudo": 4058,
      "Ġisol": 4059,
      "Ġcolo": 4060,
      "izados": 4061,
      "Ġreais": 4062,
      "zas": 4063,
      "Ġrock": 4064,
      "Ġembar": 4065,
      "Ġoportunidade": 4066,
      "ĠlanÃ§amento": 4067,
      "ĠgeraÃ§Ã£o": 4068,
      "ĠcÃ¢": 4069,
      "Ġdeputado": 4070,
      "Ġconseguir": 4071,
      "Ġleste": 4072,
      "ĠcafÃ©": 4073,
      "Ġoliveira": 4074,
      "Ġluiz": 4075,
      "Ã´nico": 4076,
      "Ġestrada": 4077,
      "han": 4078,
      "ĠrÃ¡dio": 4079,
      "Ġgosta": 4080,
      "itados": 4081,
      "ÃŃram": 4082,
      "ĠmÃ©dio": 4083,
      "ĠdeverÃ¡": 4084,
      "Ġmedidas": 4085,
      "Ġsag": 4086,
      "Ġguarda": 4087,
      "Ġpropriedade": 4088,
      "bur": 4089,
      "Ġparque": 4090,
      "Ġtaxa": 4091,
      "Ã§ada": 4092,
      "ragem": 4093,
      "zinho": 4094,
      "inÃ¡rio": 4095,
      "etro": 4096,
      "Ġenorme": 4097,
      "xx": 4098,
      "Ġuniver": 4099,
      "Ġcombate": 4100,
      "Ġintens": 4101,
      "Ġterceira": 4102,
      "ĠcarÃ¡ter": 4103,
      "ĠreligiÃ£o": 4104,
      "ĠexecuÃ§Ã£o": 4105,
      "Ġcostum": 4106,
      "Ã©rios": 4107,
      "Ġroma": 4108,
      "ĠpÃ³s": 4109,
      "volver": 4110,
      "Ġmomentos": 4111,
      "Ġdet": 4112,
      "Ġmach": 4113,
      "Ġapresentar": 4114,
      "Ġganha": 4115,
      "itÃ¡rio": 4116,
      "Ġfru": 4117,
      "Ġmeia": 4118,
      "ĠQu": 4119,
      "Ġiii": 4120,
      "Ġconceito": 4121,
      "Ãºr": 4122,
      "aran": 4123,
      "ressÃ£o": 4124,
      "Ġpacientes": 4125,
      "Ġtamanho": 4126,
      "Ġdro": 4127,
      "Ġfontes": 4128,
      "Ã³gica": 4129,
      "Ġposso": 4130,
      "Ġcac": 4131,
      "rimento": 4132,
      "ĠpÃ¡gina": 4133,
      "ĠbÃŃbl": 4134,
      "Ġpost": 4135,
      "Ġjogadores": 4136,
      "Ġtrabalhadores": 4137,
      "Ġmonte": 4138,
      "Ã³vel": 4139,
      "ÃŃdas": 4140,
      "Ġantec": 4141,
      "Ġdispos": 4142,
      "ĠaÃ©re": 4143,
      "ĠproteÃ§Ã£o": 4144,
      "Ġproib": 4145,
      "ĠpressÃ£o": 4146,
      "80": 4147,
      "elha": 4148,
      "istos": 4149,
      "Ġocorreu": 4150,
      "Ġinfer": 4151,
      "Ġclima": 4152,
      "Ġagric": 4153,
      "Ã¡ticos": 4154,
      "Ġ90": 4155,
      "ÃŃstico": 4156,
      "ĠfamÃŃlias": 4157,
      "mina": 4158,
      "Ġcres": 4159,
      "Ġsequ": 4160,
      "zer": 4161,
      "logia": 4162,
      "Ġescreveu": 4163,
      "Ġbro": 4164,
      "Ġinsc": 4165,
      "ĠgonÃ§": 4166,
      "ĠindÃŃg": 4167,
      "Ãºl": 4168,
      "Ġdistrito": 4169,
      "ĠII": 4170,
      "Ġrodri": 4171,
      "ney": 4172,
      "Ġmanda": 4173,
      "ÃŃamos": 4174,
      "Ġcober": 4175,
      "ilhos": 4176,
      "Ġvelocidade": 4177,
      "Ġrecol": 4178,
      "Ġeta": 4179,
      "Ġparal": 4180,
      "Ġoferece": 4181,
      "Ġatl": 4182,
      "ulho": 4183,
      "Ġ2003": 4184,
      "Ġsolic": 4185,
      "Ġazul": 4186,
      "Ġ2002": 4187,
      "Ġgil": 4188,
      "Ġbru": 4189,
      "Ġcandida": 4190,
      "Ã³veis": 4191,
      "Ġmeios": 4192,
      "Ġabertura": 4193,
      "Ġtend": 4194,
      "Ġconsumo": 4195,
      "Ġmencion": 4196,
      "ĠpÃºblicos": 4197,
      "zinha": 4198,
      "Ġcontar": 4199,
      "Ã©ias": 4200,
      "ĠDire": 4201,
      "Ġchin": 4202,
      "ys": 4203,
      "Ã³t": 4204,
      "Ġpequenos": 4205,
      "Ġescolh": 4206,
      "Ġjorge": 4207,
      "Ġimpress": 4208,
      "Ġfatos": 4209,
      "ĠtÃ©cnico": 4210,
      "Ġalegre": 4211,
      "Ã§am": 4212,
      "Ġescolha": 4213,
      "Ġamar": 4214,
      "ĠavanÃ§": 4215,
      "Ġpele": 4216,
      "Ġaer": 4217,
      "Ġlhes": 4218,
      "ĠsoluÃ§Ã£o": 4219,
      "Ġnao": 4220,
      "Ġadap": 4221,
      "Ġperder": 4222,
      "Ġfacul": 4223,
      "Ġpalest": 4224,
      "Ġserra": 4225,
      "Ġconced": 4226,
      "ĠeconÃ´mico": 4227,
      "ĠviolÃªncia": 4228,
      "Ġescrever": 4229,
      "Ġeventos": 4230,
      "Ġconclus": 4231,
      "AN": 4232,
      "Ġnu": 4233,
      "ĠreferÃªncia": 4234,
      "ĠreuniÃ£o": 4235,
      "iscussÃ£o": 4236,
      "Ġsabia": 4237,
      "Ġjogador": 4238,
      "Ġprofissionais": 4239,
      "bas": 4240,
      "ĠprÃŃncipe": 4241,
      "CI": 4242,
      "Ġcategoria": 4243,
      "Ġpan": 4244,
      "Ġjac": 4245,
      "icada": 4246,
      "Ġedif": 4247,
      "Ġles": 4248,
      "Ġagr": 4249,
      "ĠfreqÃ¼": 4250,
      "etes": 4251,
      "ĠsÃ©culos": 4252,
      "ĠfÃ³r": 4253,
      "Ġbatalha": 4254,
      "Ġmesa": 4255,
      "idez": 4256,
      "ĠmissÃ£o": 4257,
      "vid": 4258,
      "ĠrealizaÃ§Ã£o": 4259,
      "Ġencar": 4260,
      "Ġsaiu": 4261,
      "70": 4262,
      "Ġhaviam": 4263,
      "ence": 4264,
      "Ġana": 4265,
      "Ġatac": 4266,
      "Ġregul": 4267,
      "ĠdistÃ¢ncia": 4268,
      "icais": 4269,
      "Ġconsol": 4270,
      "Ġreforma": 4271,
      "35": 4272,
      "Ġbens": 4273,
      "Ġtivesse": 4274,
      "Ġquadro": 4275,
      "Ġprem": 4276,
      "apÃ£o": 4277,
      "Ġintegra": 4278,
      "Ġanalis": 4279,
      "Ġrad": 4280,
      "ĠvÃŃtima": 4281,
      "Ġpovos": 4282,
      "Ġlago": 4283,
      "ĠseleÃ§Ã£o": 4284,
      "Ġplaneta": 4285,
      "ave": 4286,
      "olÃ³gica": 4287,
      "ĠDI": 4288,
      "Ġtransm": 4289,
      "ucion": 4290,
      "Ġpagar": 4291,
      "aldo": 4292,
      "Ġsinal": 4293,
      "Ġantigos": 4294,
      "Ġparecia": 4295,
      "blio": 4296,
      "ĠirmÃ£os": 4297,
      "Ġplant": 4298,
      "pro": 4299,
      "ĠtradiÃ§Ã£o": 4300,
      "reno": 4301,
      "cap": 4302,
      "Ġrainha": 4303,
      "Ġpior": 4304,
      "ĠcondiÃ§Ã£o": 4305,
      "Ġfrut": 4306,
      "ĠsuperfÃŃc": 4307,
      "utr": 4308,
      "Ġaquilo": 4309,
      "Ġdestaque": 4310,
      "ĠEST": 4311,
      "eliz": 4312,
      "itava": 4313,
      "ĠgraÃ§as": 4314,
      "Ġplantas": 4315,
      "Ġdema": 4316,
      "ĠinstituiÃ§Ãµes": 4317,
      "taram": 4318,
      "sar": 4319,
      "ÃŃssimo": 4320,
      "Ġartigos": 4321,
      "ĠpeÃ§as": 4322,
      "Ġvaz": 4323,
      "45": 4324,
      "Ġcrio": 4325,
      "Ġpt": 4326,
      "Ġvid": 4327,
      "ev": 4328,
      "ilar": 4329,
      "Ġgros": 4330,
      "Ġboca": 4331,
      "Ġdestes": 4332,
      "pp": 4333,
      "Ġmestre": 4334,
      "Ġveja": 4335,
      "Ġshow": 4336,
      "Ġentrevista": 4337,
      "lex": 4338,
      "Ġlinhas": 4339,
      "ĠÃ´": 4340,
      "Ġconquista": 4341,
      "Ġaplica": 4342,
      "iguel": 4343,
      "pat": 4344,
      "Ġexperim": 4345,
      "ya": 4346,
      "Ġexempl": 4347,
      "ĠtÃŃtulos": 4348,
      "Ġquere": 4349,
      "ĠdaÃŃ": 4350,
      "Ġassin": 4351,
      "ĠevoluÃ§Ã£o": 4352,
      "Ġevang": 4353,
      "ĠdiscussÃ£o": 4354,
      "Ġacontec": 4355,
      "Ġ2001": 4356,
      "Ġflores": 4357,
      "Ġdaquele": 4358,
      "Ġcarros": 4359,
      "Ġvant": 4360,
      "ĠparÃ¡": 4361,
      "Ġregional": 4362,
      "eter": 4363,
      "Ġbeleza": 4364,
      "iosas": 4365,
      "ĠestaÃ§Ã£o": 4366,
      "Ġreserv": 4367,
      "Ġ01": 4368,
      "Ġaproximadamente": 4369,
      "Ġartistas": 4370,
      "ĠconsciÃªncia": 4371,
      "ĠconteÃºdo": 4372,
      "Ġcores": 4373,
      "ĠalemÃ£o": 4374,
      "Ġpraticamente": 4375,
      "rist": 4376,
      "irÃ¡": 4377,
      "lim": 4378,
      "Ġtriste": 4379,
      "enha": 4380,
      "Ġacess": 4381,
      "iria": 4382,
      "Ġexcelente": 4383,
      "Ġdiretamente": 4384,
      "Ġbons": 4385,
      "Ġindica": 4386,
      "Ġcompletamente": 4387,
      "Ġcabo": 4388,
      "Ġsta": 4389,
      "Ġliga": 4390,
      "Ġdign": 4391,
      "Ġvag": 4392,
      "Ġuniverso": 4393,
      "Ġilust": 4394,
      "Ġpreserv": 4395,
      "ĠJU": 4396,
      "Ġcanal": 4397,
      "ificada": 4398,
      "isp": 4399,
      "ĠmÃŃnimo": 4400,
      "Ġresto": 4401,
      "Ġprogramas": 4402,
      "Ġsurpre": 4403,
      "oo": 4404,
      "grafo": 4405,
      "Ġesteve": 4406,
      "Ġpequenas": 4407,
      "Ġdestino": 4408,
      "Ġaero": 4409,
      "Ġpag": 4410,
      "Ġrapidamente": 4411,
      "Ġhoriz": 4412,
      "vis": 4413,
      "ĠirÃ¡": 4414,
      "age": 4415,
      "Ġautora": 4416,
      "Ġsuficiente": 4417,
      "ĠprÃ³prios": 4418,
      "unda": 4419,
      "ĠsaÃŃda": 4420,
      "Ã©rito": 4421,
      "Ġfiloso": 4422,
      "ĠdÃŃ": 4423,
      "Ġmostrar": 4424,
      "Ġcongresso": 4425,
      "Ġcoron": 4426,
      "Ġhotel": 4427,
      "Ġimperador": 4428,
      "ones": 4429,
      "ife": 4430,
      "mento": 4431,
      "Ġbola": 4432,
      "Ġadolesc": 4433,
      "ĠluÃŃs": 4434,
      "ĠoposiÃ§Ã£o": 4435,
      "Ġleitura": 4436,
      "tivamente": 4437,
      "Ġatle": 4438,
      "rup": 4439,
      "log": 4440,
      "STI": 4441,
      "uito": 4442,
      "Ġste": 4443,
      "Ġjapon": 4444,
      "Ġexplica": 4445,
      "Ġcorrida": 4446,
      "36": 4447,
      "ĠaÃ§": 4448,
      "Ġcontas": 4449,
      "Ġpossibil": 4450,
      "Ġanimal": 4451,
      "Ġnob": 4452,
      "quis": 4453,
      "Ġexat": 4454,
      "34": 4455,
      "Ġaspectos": 4456,
      "ificados": 4457,
      "ndres": 4458,
      "Ġsorte": 4459,
      "Ġchama": 4460,
      "Ġmembro": 4461,
      "Ġton": 4462,
      "ĠvÃŃdeo": 4463,
      "Ġpertenc": 4464,
      "Ġdepend": 4465,
      "Ġrepresenta": 4466,
      "Ġceleb": 4467,
      "Ġautores": 4468,
      "ĠsÃŃm": 4469,
      "Ġverdadeiro": 4470,
      "ovi": 4471,
      "ĠaplicaÃ§Ã£o": 4472,
      "Ġgrau": 4473,
      "Ġclub": 4474,
      "Ġplanej": 4475,
      "ĠtelevisÃ£o": 4476,
      "iÃªncias": 4477,
      "Ġdizem": 4478,
      "Ġafinal": 4479,
      "ĠgÃªnero": 4480,
      "Ġmilha": 4481,
      "ĠocasiÃ£o": 4482,
      "xico": 4483,
      "ĠcÃ³digo": 4484,
      "Ã³cio": 4485,
      "Ġletras": 4486,
      "Ġcircun": 4487,
      "Ġsing": 4488,
      "ames": 4489,
      "icardo": 4490,
      "Ġdemo": 4491,
      "Ã³sito": 4492,
      "uÃ§Ãµes": 4493,
      "Ġdizia": 4494,
      "Ġmateriais": 4495,
      "cl": 4496,
      "RIB": 4497,
      "Ġdorm": 4498,
      "ĠhipÃ³": 4499,
      "ky": 4500,
      "Ġcert": 4501,
      "Ġach": 4502,
      "Ġouvir": 4503,
      "Ġsuced": 4504,
      "ure": 4505,
      "graf": 4506,
      "Ġmante": 4507,
      "entando": 4508,
      "Ġpotencial": 4509,
      "Ġ188": 4510,
      "Ġpassando": 4511,
      "Ġoce": 4512,
      "ixas": 4513,
      "ĠcÃ¡": 4514,
      "Ġposto": 4515,
      "ficiÃªncia": 4516,
      "umin": 4517,
      "Ġbandeira": 4518,
      "07": 4519,
      "of": 4520,
      "Ġjornalista": 4521,
      "ĠÃī": 4522,
      "Ġph": 4523,
      "ĠapresentaÃ§Ã£o": 4524,
      "Ġib": 4525,
      "Ġartista": 4526,
      "Ġconsegue": 4527,
      "Ġdesconhec": 4528,
      "Ġtrou": 4529,
      "gica": 4530,
      "Ġconquist": 4531,
      "ĠnÃºc": 4532,
      "Ġsch": 4533,
      "ome": 4534,
      "Ġescrita": 4535,
      "ater": 4536,
      "ania": 4537,
      "ĠfunÃ§Ãµes": 4538,
      "Ġperdeu": 4539,
      "ĠdomÃŃnio": 4540,
      "Ġalimentos": 4541,
      "ĠcrÃŃtica": 4542,
      "Ġassem": 4543,
      "Ġequil": 4544,
      "Ġmovimentos": 4545,
      "ĠESTADO": 4546,
      "Ġwill": 4547,
      "ĠcomeÃ§ar": 4548,
      "Ġportugueses": 4549,
      "ĠsÃŃmbol": 4550,
      "Ġdesper": 4551,
      "ĠThe": 4552,
      "Ġnord": 4553,
      "Ġfeitas": 4554,
      "ĠTRIB": 4555,
      "Ã©cia": 4556,
      "uno": 4557,
      "rato": 4558,
      "Ġvelha": 4559,
      "orpo": 4560,
      "Ġinvas": 4561,
      "ecion": 4562,
      "Ġvin": 4563,
      "Ġgaro": 4564,
      "Ġaven": 4565,
      "ÃŃmp": 4566,
      "Ġtol": 4567,
      "ĠhistÃ³rias": 4568,
      "Ġqueda": 4569,
      "Ġprefeitura": 4570,
      "Ġganhar": 4571,
      "Ġboas": 4572,
      "ker": 4573,
      "Ġterror": 4574,
      "ÃŃzo": 4575,
      "ARCA": 4576,
      "orrer": 4577,
      "Ġdisput": 4578,
      "Ġchegada": 4579,
      "erado": 4580,
      "ĠmÃ©todo": 4581,
      "Ġtroca": 4582,
      "Ġautoridade": 4583,
      "Ġpersegu": 4584,
      "ĠCOMARCA": 4585,
      "39": 4586,
      "Ġdesejo": 4587,
      "Ġcompra": 4588,
      "Ġvolume": 4589,
      "porto": 4590,
      "ĠEle": 4591,
      "Ġdoutr": 4592,
      "UNAL": 4593,
      "Ġcomprar": 4594,
      "ĠJUSTI": 4595,
      "rol": 4596,
      "ĠTRIBUNAL": 4597,
      "Ġvere": 4598,
      "ĠcrÃŃ": 4599,
      "ĠJUSTIÃĩA": 4600,
      "Ġnormal": 4601,
      "arte": 4602,
      "Ġcump": 4603,
      "Ġcomportamento": 4604,
      "ĠfundaÃ§Ã£o": 4605,
      "38": 4606,
      "âĢĵ": 4607,
      "Ġpresid": 4608,
      "Ġregular": 4609,
      "ĠcÃ¡l": 4610,
      "Ġtemperatura": 4611,
      "af": 4612,
      "eir": 4613,
      "Ġexped": 4614,
      "ĠdistribuiÃ§Ã£o": 4615,
      "Ġclara": 4616,
      "xas": 4617,
      "ĠexposiÃ§Ã£o": 4618,
      "ĠhipÃ³tes": 4619,
      "Ġpossuem": 4620,
      "Ġinfeliz": 4621,
      "Ġmusical": 4622,
      "recer": 4623,
      "Ġnaquela": 4624,
      "Ġminhas": 4625,
      "ĠDireito": 4626,
      "vios": 4627,
      "Ġbusc": 4628,
      "Ġacaba": 4629,
      "Ġdizendo": 4630,
      "Ġpassaram": 4631,
      "ĠpadrÃ£o": 4632,
      "Ġpoeta": 4633,
      "Ġutilizado": 4634,
      "Ġtare": 4635,
      "guai": 4636,
      "ĠresistÃªncia": 4637,
      "Ġpi": 4638,
      "ndida": 4639,
      "onso": 4640,
      "iter": 4641,
      "erante": 4642,
      "vÃ£o": 4643,
      "ĠsecretÃ¡rio": 4644,
      "ĠÃ´n": 4645,
      "omes": 4646,
      "ĠsuperfÃŃcie": 4647,
      "Ġperfe": 4648,
      "Ġrefor": 4649,
      "Ġbei": 4650,
      "Ġpereira": 4651,
      "itamente": 4652,
      "Ġusando": 4653,
      "Ġfid": 4654,
      "entada": 4655,
      "Ġafric": 4656,
      "Ġtentativa": 4657,
      "Ġ186": 4658,
      "Ġmob": 4659,
      "oi": 4660,
      "Ġvinte": 4661,
      "Ġ1990": 4662,
      "lin": 4663,
      "Ġmudar": 4664,
      "Ġmaj": 4665,
      "Ġhola": 4666,
      "enses": 4667,
      "Ġgostaria": 4668,
      "Ġnegro": 4669,
      "entas": 4670,
      "use": 4671,
      "Ġmata": 4672,
      "Ġcompleta": 4673,
      "Ġsubs": 4674,
      "elhos": 4675,
      "Ġcarne": 4676,
      "The": 4677,
      "Ġafas": 4678,
      "Ġemb": 4679,
      "Ġinteresses": 4680,
      "iquei": 4681,
      "Ġdevo": 4682,
      "Ġorden": 4683,
      "ĠnaÃ§Ãµes": 4684,
      "Ġdisputa": 4685,
      "Ġcaixa": 4686,
      "Ġevid": 4687,
      "ss": 4688,
      "Ġregras": 4689,
      "Ġbasta": 4690,
      "pi": 4691,
      "Ġjardim": 4692,
      "Ġprol": 4693,
      "Ġparticipar": 4694,
      "igra": 4695,
      "02": 4696,
      "ung": 4697,
      "Ġbranca": 4698,
      "Ġcontexto": 4699,
      "2022": 4700,
      "Ġquestion": 4701,
      "entura": 4702,
      "Ġglobo": 4703,
      "bro": 4704,
      "Ġrapaz": 4705,
      "Ġindependente": 4706,
      "ĠcomeÃ§aram": 4707,
      "Ġlinguagem": 4708,
      "itÃ¡ria": 4709,
      "Ġadul": 4710,
      "Ġideal": 4711,
      "isse": 4712,
      "Ġpatrim": 4713,
      "Ġmilhares": 4714,
      "Ġultra": 4715,
      "ue": 4716,
      "Ġtorre": 4717,
      "Ġvenda": 4718,
      "Ġaprend": 4719,
      "ĠquilÃ´m": 4720,
      "Ġness": 4721,
      "Ġintelec": 4722,
      "Ãªncio": 4723,
      "Ġcos": 4724,
      "Ġcastelo": 4725,
      "onf": 4726,
      "Ġdeixando": 4727,
      "ĠinstituiÃ§Ã£o": 4728,
      "Ġsemanas": 4729,
      "Ġfrancesa": 4730,
      "Ġperda": 4731,
      "Ġprovas": 4732,
      "Ã¢nea": 4733,
      "Ġfazenda": 4734,
      "Ã¡lo": 4735,
      "37": 4736,
      "Ġcomprov": 4737,
      "bito": 4738,
      "olas": 4739,
      "ĠnaÃ§Ã£o": 4740,
      "Ġcusto": 4741,
      "Ġapos": 4742,
      "Ġ|": 4743,
      "Ã³cios": 4744,
      "Ġantonio": 4745,
      "Ġobter": 4746,
      "Ġinstru": 4747,
      "ampe": 4748,
      "Ġnove": 4749,
      "Ġacontecer": 4750,
      "Ġsomos": 4751,
      "Ġfeitos": 4752,
      "ĠdÃ©cadas": 4753,
      "Ġfilosofia": 4754,
      "ĠfenÃ´m": 4755,
      "Ġdito": 4756,
      "culos": 4757,
      "Ġinterv": 4758,
      "ĠdÃ©": 4759,
      "Ġnormalmente": 4760,
      "iares": 4761,
      "Ġsar": 4762,
      "adura": 4763,
      "toc": 4764,
      "fÃŃcio": 4765,
      "ĠmÃ¡ximo": 4766,
      "Ġamare": 4767,
      "atu": 4768,
      "Ġvinho": 4769,
      "Ġcompart": 4770,
      "Ġargentina": 4771,
      "tom": 4772,
      "Ġcontrol": 4773,
      "Ġpreso": 4774,
      "omo": 4775,
      "Ġpaulista": 4776,
      "::": 4777,
      "Ġbiblio": 4778,
      "ĠpÃºblicas": 4779,
      "Ġtabel": 4780,
      "Ġmorto": 4781,
      "Ġsemelhante": 4782,
      "Ġdificuldades": 4783,
      "Ġcandidato": 4784,
      "Ã¢ndia": 4785,
      "icou": 4786,
      "Ġcura": 4787,
      "Ġilhas": 4788,
      "Ġconsul": 4789,
      "Ġnascimento": 4790,
      "ĠnotÃŃcia": 4791,
      "veu": 4792,
      "Ã©n": 4793,
      "Ġprofessores": 4794,
      "ĠpeÃ§a": 4795,
      "Ġautoridades": 4796,
      "Ġmortos": 4797,
      "Ġjulgamento": 4798,
      "Ġmc": 4799,
      "esia": 4800,
      "ĠprovÃŃncia": 4801,
      "db": 4802,
      "Ġabre": 4803,
      "uco": 4804,
      "Ġjogar": 4805,
      "Ġposse": 4806,
      "Ġoficiais": 4807,
      "ood": 4808,
      "ixÃ£o": 4809,
      "Ġaberto": 4810,
      "Ġcolabo": 4811,
      "Ġmente": 4812,
      "itivos": 4813,
      "Ġexterior": 4814,
      "ĠexercÃŃcio": 4815,
      "Ġescritor": 4816,
      "ĠcomeÃ§o": 4817,
      "ĠdoenÃ§as": 4818,
      "Ġunidades": 4819,
      "Ġbenefic": 4820,
      "Ġseres": 4821,
      "ENÃĩA": 4822,
      "Ġleite": 4823,
      "Ġposteriormente": 4824,
      "ĠdÃ³": 4825,
      "ÃŃdia": 4826,
      "Ġxx": 4827,
      "Ġdireto": 4828,
      "ĠavaliaÃ§Ã£o": 4829,
      "Ġfamoso": 4830,
      "32": 4831,
      "Ġhol": 4832,
      "Ġcasal": 4833,
      "ĠZ": 4834,
      "Ġnovel": 4835,
      "Ġtestemun": 4836,
      "ĠsentenÃ§a": 4837,
      "ĠcrÃ©dito": 4838,
      "Ġcav": 4839,
      "ĠtrÃ¡s": 4840,
      "ĠSENT": 4841,
      "ĠAp": 4842,
      "ĠprincÃŃpios": 4843,
      "Ġmanuel": 4844,
      "osos": 4845,
      "hi": 4846,
      "ĠCÃ³digo": 4847,
      "Ġtratado": 4848,
      "Ġdit": 4849,
      "iamento": 4850,
      "Ġmetal": 4851,
      "ĠSENTENÃĩA": 4852,
      "Ġsegue": 4853,
      "ĠLei": 4854,
      "ĠutilizaÃ§Ã£o": 4855,
      "Ġ36": 4856,
      "Ġobst": 4857,
      "Ġcriou": 4858,
      "Ġricardo": 4859,
      "Ġconsiderada": 4860,
      "Ġmiguel": 4861,
      "Ġnacionais": 4862,
      "ĠausÃªncia": 4863,
      "Ġgig": 4864,
      "Ġaparel": 4865,
      "polis": 4866,
      "ĠverÃ£o": 4867,
      "Ġexatamente": 4868,
      "Ġverdadeira": 4869,
      "Ġpublicado": 4870,
      "Ġvotos": 4871,
      "Ġobjetos": 4872,
      "Ġbreve": 4873,
      "Ġauxil": 4874,
      "ĠreduÃ§Ã£o": 4875,
      "diÃ§Ãµes": 4876,
      "valho": 4877,
      "Ġfatores": 4878,
      "icano": 4879,
      "48": 4880,
      "Ġaspecto": 4881,
      "taÃ§Ãµes": 4882,
      "yl": 4883,
      "uso": 4884,
      "Ã´s": 4885,
      "Ã¢ns": 4886,
      "Ġpress": 4887,
      "Ġjamais": 4888,
      "ÃŃdio": 4889,
      "Ġdocumento": 4890,
      "ulaÃ§Ãµes": 4891,
      "Ġambiental": 4892,
      "Ġanti": 4893,
      "Ġmanut": 4894,
      "Ġamericana": 4895,
      "Ġvirtu": 4896,
      "Ġaprec": 4897,
      "ĠcampeÃ£o": 4898,
      "Ġbahia": 4899,
      "Ġot": 4900,
      "Ġessencial": 4901,
      "Ġandar": 4902,
      "omb": 4903,
      "Ġcem": 4904,
      "Ġacord": 4905,
      "ĠÃ¡ra": 4906,
      "Ġroberto": 4907,
      "assem": 4908,
      "Ġ32": 4909,
      "Ġimpression": 4910,
      "Ġfantas": 4911,
      "Ġclar": 4912,
      "Ġpesquisas": 4913,
      "Ġsatisf": 4914,
      "ĠmunicÃŃpios": 4915,
      "Ġdipl": 4916,
      "ges": 4917,
      "Ġrecord": 4918,
      "ĠMa": 4919,
      "Ġpobre": 4920,
      "Ġsecretaria": 4921,
      "Ġfaixa": 4922,
      "ĠaliÃ¡s": 4923,
      "Ġintroduz": 4924,
      "Ġfortes": 4925,
      "Ġtropas": 4926,
      "Ġcorrente": 4927,
      "Ġtenham": 4928,
      "der": 4929,
      "ostos": 4930,
      "ĠcenÃ¡rio": 4931,
      "Ġresid": 4932,
      "Ġ45": 4933,
      "Ġlula": 4934,
      "ĠExec": 4935,
      "RA": 4936,
      "Ġdiscurso": 4937,
      "Ã¡cia": 4938,
      "Ġinternacionais": 4939,
      "ĠrÃ¡pido": 4940,
      "ĠpreÃ§os": 4941,
      "ĠnegÃ³cios": 4942,
      "*'": 4943,
      "Ġsovi": 4944,
      "Ġsor": 4945,
      "ĠesperanÃ§a": 4946,
      "78": 4947,
      "ann": 4948,
      "ravam": 4949,
      "ĠÃŃndios": 4950,
      "ington": 4951,
      "Ġbela": 4952,
      "Ġfis": 4953,
      "Ġpri": 4954,
      "Ġah": 4955,
      "ndos": 4956,
      "Ġtornando": 4957,
      "Ġcriada": 4958,
      "Ġrios": 4959,
      "ation": 4960,
      "Ġenfim": 4961,
      "Ġarran": 4962,
      "Ã¢mica": 4963,
      "Ġleve": 4964,
      "Ġ38": 4965,
      "ĠrelatÃ³rio": 4966,
      "Ġreis": 4967,
      "Ġconvenc": 4968,
      "enciais": 4969,
      "Ġpreto": 4970,
      "Ġtrec": 4971,
      "Ġatos": 4972,
      "ĠjapÃ£o": 4973,
      "Ġrique": 4974,
      "ĠmanutenÃ§Ã£o": 4975,
      "rade": 4976,
      "Ġequipa": 4977,
      "Ġ1980": 4978,
      "Ġdesej": 4979,
      "Ġciclo": 4980,
      "Ġ1999": 4981,
      "Ġassegu": 4982,
      "Ġobrigado": 4983,
      "ĠquilÃ´metros": 4984,
      "Ġocidental": 4985,
      "Ġapresentou": 4986,
      "Ġsurpres": 4987,
      "ĠpetrÃ³": 4988,
      "Ġdesemb": 4989,
      "ĠgraÃ§a": 4990,
      "Ã³f": 4991,
      "lig": 4992,
      "Ġrecentemente": 4993,
      "Ġadmira": 4994,
      "Ġfolha": 4995,
      "Ã¡culo": 4996,
      "Ġox": 4997,
      "ĠĠĠĠĠĠĠĠĠĠĠĠĠĠĠĠ": 4998,
      "Ġadvers": 4999,
      "Ġconstitucional": 5000,
      "Ġtransmit": 5001,
      "ĠrÃºssia": 5002,
      "Ġseriam": 5003,
      "Ġponta": 5004,
      "Ġjudeus": 5005,
      "Ġinfec": 5006,
      "ĠnÃŃveis": 5007,
      "ĠbilhÃµes": 5008,
      "ĠvÃŃtimas": 5009,
      "Ġrosto": 5010,
      "Ã¢neo": 5011,
      "ĠirmÃ£": 5012,
      "Le": 5013,
      "ĠCON": 5014,
      "Ġconflito": 5015,
      "Ġcalor": 5016,
      "Ġlua": 5017,
      "Ġfalando": 5018,
      "Ġpropriet": 5019,
      "Ġressal": 5020,
      "odos": 5021,
      "Ġsexo": 5022,
      "Ã©gio": 5023,
      "ĠcapÃŃtulo": 5024,
      "Ġescla": 5025,
      "ĠveÃŃculo": 5026,
      "Ġbic": 5027,
      "Ġacidente": 5028,
      "Ġtirar": 5029,
      "Ġextremamente": 5030,
      "Ġdecidiu": 5031,
      "Ġimplant": 5032,
      "ĠprÃªmio": 5033,
      "Ġhomenagem": 5034,
      "Ġante": 5035,
      "Ġliter": 5036,
      "Ġexpan": 5037,
      "Ġcertamente": 5038,
      "Ġcomemo": 5039,
      "Ġ1998": 5040,
      "ramos": 5041,
      "Ã©rias": 5042,
      "Ġrenda": 5043,
      "Ġnew": 5044,
      "avo": 5045,
      "ĠcomentÃ¡rios": 5046,
      "ĠopÃ§Ã£o": 5047,
      "Ġqueb": 5048,
      "55": 5049,
      "Ġredes": 5050,
      "Ãºlio": 5051,
      "rupÃ§Ã£o": 5052,
      "Ġproduzir": 5053,
      "Ġbloc": 5054,
      "Ãªnt": 5055,
      "Ġxix": 5056,
      "Ġeleitoral": 5057,
      "Ġalexand": 5058,
      "Ġlam": 5059,
      "imar": 5060,
      "Ġencer": 5061,
      "cha": 5062,
      "Ġimediatamente": 5063,
      "ĠÃ³rgÃ£os": 5064,
      "Ġtenta": 5065,
      "ibus": 5066,
      "ĠextensÃ£o": 5067,
      "ĠcatÃ³lica": 5068,
      "Ġapar": 5069,
      "Ġafet": 5070,
      "Ġexpress": 5071,
      "Ġiria": 5072,
      "Ġmudou": 5073,
      "Ġumas": 5074,
      "Ġment": 5075,
      "Ġestrelas": 5076,
      "ĠtÃ©cnicas": 5077,
      "ĠÃª": 5078,
      "Ġcomuns": 5079,
      "Ġreclam": 5080,
      "ĠnÃºmeros": 5081,
      "Ġfins": 5082,
      "Ġnuc": 5083,
      "ouro": 5084,
      "pot": 5085,
      "Ġbot": 5086,
      "Ġbara": 5087,
      "Ġfrac": 5088,
      "Ġlocalizado": 5089,
      "Ġpoliciais": 5090,
      "ativos": 5091,
      "ĠfuncionÃ¡rios": 5092,
      "Ġaper": 5093,
      "Ġ1970": 5094,
      "Ġmaravilhos": 5095,
      "Ġdemocracia": 5096,
      "Ġhumanidade": 5097,
      "Ġ48": 5098,
      "Ġaeron": 5099,
      "Ġarra": 5100,
      "Ġrit": 5101,
      "Ġemprego": 5102,
      "Ġfaculdade": 5103,
      "Ġdirec": 5104,
      "ĠindivÃŃduos": 5105,
      "Ġnest": 5106,
      "ĠeleiÃ§Ã£o": 5107,
      "ensÃµes": 5108,
      "bon": 5109,
      "Ġrig": 5110,
      "Ġfrag": 5111,
      "teca": 5112,
      "Ġsonho": 5113,
      "75": 5114,
      "ede": 5115,
      "tais": 5116,
      "Ġdada": 5117,
      "Ġformado": 5118,
      "osas": 5119,
      "Ġgrave": 5120,
      "Ġdanos": 5121,
      "Ġmodelos": 5122,
      "Ġnele": 5123,
      "ĠLe": 5124,
      "Ġinfant": 5125,
      "Ġcorrespond": 5126,
      "Ġlima": 5127,
      "Ġespeciais": 5128,
      "Ġalegria": 5129,
      "ille": 5130,
      "Ġsoldados": 5131,
      "Ġproporcion": 5132,
      "Ġdetalhes": 5133,
      "ificaÃ§Ãµes": 5134,
      "ĠcompetiÃ§Ã£o": 5135,
      "Ġri": 5136,
      "izou": 5137,
      "Ġponte": 5138,
      "ĠchÃ£o": 5139,
      "ĠÃ¡c": 5140,
      "tadas": 5141,
      "Ġmoderna": 5142,
      "Ã¢nsito": 5143,
      "Ġanteriores": 5144,
      "Ġdra": 5145,
      "ĠexpansÃ£o": 5146,
      "Ġerro": 5147,
      "Ġrecurso": 5148,
      "Ġsurgiu": 5149,
      "Ġsexual": 5150,
      "Ġlembrar": 5151,
      "Ġleon": 5152,
      "itora": 5153,
      "Ġmos": 5154,
      "Ġconstante": 5155,
      "Ġconhece": 5156,
      "ĠRio": 5157,
      "rata": 5158,
      "ografia": 5159,
      "Ġcrimes": 5160,
      "Ġitaliano": 5161,
      "ode": 5162,
      "Ġrosa": 5163,
      "Ġromance": 5164,
      "Ġincent": 5165,
      "Ġiniciativa": 5166,
      "ĠesforÃ§o": 5167,
      "ĠsituaÃ§Ãµes": 5168,
      "ĠoperaÃ§Ãµes": 5169,
      "Ġanc": 5170,
      "Ġficaram": 5171,
      "Ġaugust": 5172,
      "ĠDA": 5173,
      "rÃµes": 5174,
      "Ġficam": 5175,
      "Ġhonra": 5176,
      "Ġmecan": 5177,
      "Ġconversa": 5178,
      "alto": 5179,
      "ĠcomposiÃ§Ã£o": 5180,
      "ĠInt": 5181,
      "Ġespanhol": 5182,
      "Ġlauda": 5183,
      "ĠresoluÃ§Ã£o": 5184,
      "Ġinex": 5185,
      "Ġfestival": 5186,
      "Ġfronteira": 5187,
      "Ġusa": 5188,
      "Ġbispo": 5189,
      "ĠnotÃŃcias": 5190,
      "ĠtÃŃp": 5191,
      "irem": 5192,
      "Ġtemas": 5193,
      "Ġmer": 5194,
      "Ġdiscipl": 5195,
      "Ġesm": 5196,
      "Ġmort": 5197,
      "lamento": 5198,
      "Ġaumentar": 5199,
      "ÃŃtico": 5200,
      "Ġsentir": 5201,
      "emÃ¡tica": 5202,
      "Ġpercebe": 5203,
      "teis": 5204,
      "ÃŃna": 5205,
      "ĠâĢ¢": 5206,
      "Ġbrinc": 5207,
      "Ġvermelho": 5208,
      "Ġestudantes": 5209,
      "pass": 5210,
      "46": 5211,
      "Ġtomou": 5212,
      "Ġreconhecimento": 5213,
      "ulada": 5214,
      "berg": 5215,
      "Ġadv": 5216,
      "ĠData": 5217,
      "RO": 5218,
      "Ġmira": 5219,
      "Ġnavio": 5220,
      "ĠbrasÃŃlia": 5221,
      "Ġagricultura": 5222,
      "Ġherd": 5223,
      "Ġdesenvolver": 5224,
      "ĠUnivers": 5225,
      "atar": 5226,
      "istÃªncia": 5227,
      "Ġperspec": 5228,
      "47": 5229,
      "ĠatuaÃ§Ã£o": 5230,
      "hael": 5231,
      "Ġvinha": 5232,
      "33": 5233,
      "Ġmest": 5234,
      "Ġdentre": 5235,
      "ment": 5236,
      "Ġcoronel": 5237,
      "ĠpÃ¡t": 5238,
      "Ã³m": 5239,
      "usc": 5240,
      "Ġvoto": 5241,
      "Ġviaj": 5242,
      "uf": 5243,
      "Ġeconom": 5244,
      "Ġbern": 5245,
      "Ġcontempor": 5246,
      "ĠimpossÃŃvel": 5247,
      "Ġtan": 5248,
      "Ġdon": 5249,
      "DA": 5250,
      "Ġcerim": 5251,
      "Ġlembro": 5252,
      "Ġdepartamento": 5253,
      "Ġator": 5254,
      "Ġdaquela": 5255,
      "Ġmascul": 5256,
      "Ġ1997": 5257,
      "95": 5258,
      "ĠidÃ©ias": 5259,
      "Ġrelev": 5260,
      "ĠlÃŃqu": 5261,
      "uns": 5262,
      "li": 5263,
      "Ã³nio": 5264,
      "Ġjer": 5265,
      "ĠmÃºsicas": 5266,
      "ĠIm": 5267,
      "ĠsenÃ£o": 5268,
      "Ġcd": 5269,
      "Ġinferior": 5270,
      "inÃ§Ã£o": 5271,
      "Ġcatar": 5272,
      "iando": 5273,
      "ances": 5274,
      "Ġcircunst": 5275,
      "Ġmensagem": 5276,
      "lares": 5277,
      "Ġgratu": 5278,
      "Ġplanos": 5279,
      "Ġdesempenho": 5280,
      "Ġtrav": 5281,
      "Ġestiv": 5282,
      "Ġestrela": 5283,
      "Ġapaix": 5284,
      "ioc": 5285,
      "Ġlondres": 5286,
      "enn": 5287,
      "aso": 5288,
      "Ġhem": 5289,
      "Ġcompon": 5290,
      "uros": 5291,
      "Ġgolpe": 5292,
      "Ġelemento": 5293,
      "Ġyork": 5294,
      "Ġira": 5295,
      "Ġferram": 5296,
      "Ġrebel": 5297,
      "untos": 5298,
      "Ġmenores": 5299,
      "Ġchamar": 5300,
      "Ġjuntos": 5301,
      "Ġmenina": 5302,
      "mete": 5303,
      "Ġmostrou": 5304,
      "Ġinqu": 5305,
      "Ġperigos": 5306,
      "pecial": 5307,
      "Ġparlam": 5308,
      "king": 5309,
      "Ġpresc": 5310,
      "ĠSu": 5311,
      "Ġconstruir": 5312,
      "ĠagÃªncia": 5313,
      "Ġinicialmente": 5314,
      "Ġgarantir": 5315,
      "Ġ500": 5316,
      "ĠestÃº": 5317,
      "Ġdeco": 5318,
      "Ġrenov": 5319,
      "tividade": 5320,
      "Ġferreira": 5321,
      "Ġparceria": 5322,
      "ĠnegÃ³cio": 5323,
      "ES": 5324,
      "Ġfalou": 5325,
      "Ġabrir": 5326,
      "baix": 5327,
      "Ġrob": 5328,
      "ĠtrÃ¢nsito": 5329,
      "Ġlob": 5330,
      "Ġhi": 5331,
      "Ġpoesia": 5332,
      "fera": 5333,
      "Res": 5334,
      "orto": 5335,
      "chas": 5336,
      "ĠEstados": 5337,
      "ĠprÃ³ximos": 5338,
      "EI": 5339,
      "Ġsustent": 5340,
      "Ġavenida": 5341,
      "ĠveÃŃculos": 5342,
      "ĠandrÃ©": 5343,
      "ĠepisÃ³dio": 5344,
      "inÃ¡ria": 5345,
      "Ġalmo": 5346,
      "Ġamo": 5347,
      "Ġfone": 5348,
      "Ġcanad": 5349,
      "Ġcop": 5350,
      "Ġconhecidos": 5351,
      "ward": 5352,
      "iador": 5353,
      "mer": 5354,
      "ĠciÃªncias": 5355,
      "fÃŃcios": 5356,
      "Ġdoce": 5357,
      "Ġlimites": 5358,
      "Ġrespondeu": 5359,
      "ĠgÃ¡s": 5360,
      "Ġcontinuou": 5361,
      "ificou": 5362,
      "Ġmoradores": 5363,
      "ith": 5364,
      "Ġvence": 5365,
      "Ġjornais": 5366,
      "Ġsecre": 5367,
      "ĠÃ³rgÃ£o": 5368,
      "Ġreflex": 5369,
      "Ġromano": 5370,
      "Ġmotivos": 5371,
      "Ġpiloto": 5372,
      "ÃŃssima": 5373,
      "Ġchegaram": 5374,
      "ivil": 5375,
      "Ã¢ntico": 5376,
      "Ġmarco": 5377,
      "etos": 5378,
      "Ġincorpo": 5379,
      "Ġdescend": 5380,
      "Ġpernamb": 5381,
      "Ġapel": 5382,
      "Ġarquitetura": 5383,
      "ĠAnt": 5384,
      "Ġsed": 5385,
      "mon": 5386,
      "76": 5387,
      "ogrÃ¡f": 5388,
      "rid": 5389,
      "Ã¢nicos": 5390,
      "ĠtÃ¡": 5391,
      "Ġcade": 5392,
      "Ġconfigu": 5393,
      "ĠNa": 5394,
      "Ġapresentam": 5395,
      "Ġvan": 5396,
      "Ġeuropeus": 5397,
      "remo": 5398,
      "Ġcento": 5399,
      "ĠlanÃ§ou": 5400,
      "Ġmam": 5401,
      "Ġencontrado": 5402,
      "Ġadmit": 5403,
      "ĠcÃ©": 5404,
      "tagon": 5405,
      "Ġsum": 5406,
      "44": 5407,
      "Ġquerem": 5408,
      "Ġcomplem": 5409,
      "Ġidentidade": 5410,
      "Ġdebate": 5411,
      "Ġans": 5412,
      "ko": 5413,
      "oura": 5414,
      "uls": 5415,
      "Ġarro": 5416,
      "Ġemerg": 5417,
      "Ġgradu": 5418,
      "Ġileg": 5419,
      "rs": 5420,
      "Ġfrio": 5421,
      "Ġprazer": 5422,
      "Ġdona": 5423,
      "Ġinclui": 5424,
      "Ġcarga": 5425,
      "Ġmora": 5426,
      "ari": 5427,
      "iÃ¡ria": 5428,
      "Ġdupla": 5429,
      "Ġprom": 5430,
      "Ġpediu": 5431,
      "Ġded": 5432,
      "line": 5433,
      "Ġmicro": 5434,
      "ilhas": 5435,
      "Ġpav": 5436,
      "Ġrecente": 5437,
      "Ġdrogas": 5438,
      "riÃ§Ãµes": 5439,
      "dora": 5440,
      "Ġpobres": 5441,
      "Ã³i": 5442,
      "Ġgram": 5443,
      "Ġmetro": 5444,
      "Ġdecreto": 5445,
      "Ã©ns": 5446,
      "Ġequipamentos": 5447,
      "Ġtratar": 5448,
      "Ġvari": 5449,
      "ĠCent": 5450,
      "Ġobserva": 5451,
      "Ġjuntamente": 5452,
      "entares": 5453,
      "Ġnasce": 5454,
      "bi": 5455,
      "Ġculturais": 5456,
      "Ġvac": 5457,
      "ĠconseqÃ¼": 5458,
      "ĠinÃº": 5459,
      "Ġmit": 5460,
      "Ġpoucas": 5461,
      "ĠcristÃ£os": 5462,
      "Ġfirm": 5463,
      "Ġvento": 5464,
      "ntemente": 5465,
      "Ġamericanos": 5466,
      "Ġnecessidades": 5467,
      "Ġnordeste": 5468,
      "Ġalf": 5469,
      "Ġrac": 5470,
      "Ġvege": 5471,
      "zar": 5472,
      "orou": 5473,
      "Ġloja": 5474,
      "Ġintim": 5475,
      "atÃ³ria": 5476,
      "ĠpetrÃ³leo": 5477,
      "Ġcro": 5478,
      "Ġguil": 5479,
      "Ġteu": 5480,
      "Ġdesloc": 5481,
      "Ġcontou": 5482,
      "Ġinfra": 5483,
      "Ġacompanha": 5484,
      "Ġlevando": 5485,
      "Ġlembra": 5486,
      "ĠReg": 5487,
      "Ġespor": 5488,
      "ĠGra": 5489,
      "Ġsert": 5490,
      "Ġpedir": 5491,
      "ĠclÃŃn": 5492,
      "Ġprejud": 5493,
      "ĠcanÃ§Ã£o": 5494,
      "Ġgrego": 5495,
      "Ġdificuldade": 5496,
      "presidente": 5497,
      "itadas": 5498,
      "Ġsai": 5499,
      "Ġfossem": 5500,
      "we": 5501,
      "ĠÃ¡rvores": 5502,
      "Ġbloque": 5503,
      "Ġpoderiam": 5504,
      "Ġ00": 5505,
      "Ġentrega": 5506,
      "Ġassembl": 5507,
      "Ġprotagon": 5508,
      "ĠpublicaÃ§Ã£o": 5509,
      "baixo": 5510,
      "Ġexecutivo": 5511,
      "ĠestÃ¡dio": 5512,
      "gre": 5513,
      "Ġ1994": 5514,
      "ĠdÃ³lares": 5515,
      "Ġusada": 5516,
      "Ġprata": 5517,
      "urg": 5518,
      "Ġjeito": 5519,
      "Ġportas": 5520,
      "Ġgomes": 5521,
      "Ġrepubl": 5522,
      "Ġinvad": 5523,
      "Ġvargas": 5524,
      "Ġnascido": 5525,
      "ÃŃzes": 5526,
      "ĠsÃ©r": 5527,
      "31": 5528,
      "ĠÃ´nibus": 5529,
      "ĠintenÃ§Ã£o": 5530,
      "Ġtorc": 5531,
      "ĠAd": 5532,
      "198": 5533,
      "Ġresumo": 5534,
      "Ġrodo": 5535,
      "Ġagentes": 5536,
      "Ġemoc": 5537,
      "tol": 5538,
      "ivelmente": 5539,
      "ĠrazÃµes": 5540,
      "bil": 5541,
      "ĠfaÃ§a": 5542,
      "Ġnegros": 5543,
      "Ġfls": 5544,
      "ĠpÃ¡ginas": 5545,
      "Ġenfer": 5546,
      "Ġtes": 5547,
      "Ġassuntos": 5548,
      "Ġparab": 5549,
      "Ġvenceu": 5550,
      "Ġcerve": 5551,
      "Ġmonum": 5552,
      "triz": 5553,
      "Ġbrilh": 5554,
      "Ġglobal": 5555,
      "Ġaborda": 5556,
      "Ġsalvador": 5557,
      "Ġetapa": 5558,
      "ĠsilÃªncio": 5559,
      "Ġestabelece": 5560,
      "Ġfolhas": 5561,
      "Ġcuidado": 5562,
      "Ã§ul": 5563,
      "Ġescravos": 5564,
      "Ġ1996": 5565,
      "Ġadvogado": 5566,
      "Ġacredita": 5567,
      "ĠresponsÃ¡veis": 5568,
      "Ġfiquei": 5569,
      "ĠmÃŃdia": 5570,
      "Ġmorais": 5571,
      "ĠNe": 5572,
      "Ġespal": 5573,
      "udio": 5574,
      "Ġpassos": 5575,
      "Ġterreno": 5576,
      "Ġterem": 5577,
      "ĠPÃºbl": 5578,
      "alidades": 5579,
      "Ġprocu": 5580,
      "Ġjoaqu": 5581,
      "Ġfamiliar": 5582,
      "Ġdespre": 5583,
      "Ã©ticos": 5584,
      "urb": 5585,
      "Ġesporte": 5586,
      "ĠnÃºcleo": 5587,
      "Ġcomposto": 5588,
      "guesia": 5589,
      "bras": 5590,
      "americano": 5591,
      "orial": 5592,
      "Ġmau": 5593,
      "Ã¡stico": 5594,
      "Ġrecomend": 5595,
      "ĠSP": 5596,
      "antar": 5597,
      "Ġlate": 5598,
      "Ġchuva": 5599,
      "Ġretorno": 5600,
      "Ġcompleto": 5601,
      "hal": 5602,
      "ĠpresidÃªncia": 5603,
      "ĠUnidos": 5604,
      "ĠMag": 5605,
      "ĠinvestigaÃ§Ã£o": 5606,
      "Ġemo": 5607,
      "Ġbre": 5608,
      "Ġsubmet": 5609,
      "vamos": 5610,
      "Ġconfro": 5611,
      "Ġiniciou": 5612,
      "osse": 5613,
      "Ġwal": 5614,
      "Ġmenino": 5615,
      "Ġcaiu": 5616,
      "Ġtut": 5617,
      "Ġarmaz": 5618,
      "Ġparan": 5619,
      "ĠfÃŃsico": 5620,
      "Ġmatar": 5621,
      "Ġpartidos": 5622,
      "Ġcarvalho": 5623,
      "Ġchegando": 5624,
      "49": 5625,
      "Ġresponda": 5626,
      "Ġale": 5627,
      "Ġfranceses": 5628,
      "Ġlocalizada": 5629,
      "meida": 5630,
      "Ġdeterminado": 5631,
      "bios": 5632,
      "Ġrevolucion": 5633,
      "Ġgran": 5634,
      "Ġprivil": 5635,
      "ĠfaÃ§o": 5636,
      "ĠindivÃŃduo": 5637,
      "Ġfi": 5638,
      ".[": 5639,
      "let": 5640,
      "Ġdram": 5641,
      "ĠfÃ³rm": 5642,
      "Ġrural": 5643,
      "ĠprÃ³prias": 5644,
      "Ġisl": 5645,
      "Ġtrem": 5646,
      "Ġacol": 5647,
      "Ġatravess": 5648,
      "ÃŃbrio": 5649,
      "Ġpoderes": 5650,
      "Ġlad": 5651,
      "tem": 5652,
      "Ġmur": 5653,
      "alizado": 5654,
      "yn": 5655,
      "anhÃ£": 5656,
      "ms": 5657,
      "ĠÃŃndia": 5658,
      "xes": 5659,
      "Ġpira": 5660,
      "Ġcomputador": 5661,
      "ĠsÃŃt": 5662,
      "Ġesperar": 5663,
      "ĠbraÃ§os": 5664,
      "fas": 5665,
      "ĠmÃ©xico": 5666,
      "Ġpolicial": 5667,
      "Ġpaciente": 5668,
      "Ġtraduz": 5669,
      "Ġnucle": 5670,
      "ĠdeclaraÃ§Ã£o": 5671,
      "Ġadqui": 5672,
      "Ġturismo": 5673,
      "Ġmedicina": 5674,
      "ld": 5675,
      "anÃ§o": 5676,
      "Ġinterna": 5677,
      "Ġchoc": 5678,
      "Ġinstrumento": 5679,
      "Ġnut": 5680,
      "Ġdescoberta": 5681,
      "Ġatendimento": 5682,
      "Ġartic": 5683,
      "ket": 5684,
      "EM": 5685,
      "Ġpeda": 5686,
      "Ġsinais": 5687,
      "Ġfloresta": 5688,
      "Ġparlamento": 5689,
      "Ġfasc": 5690,
      "Ġcontinente": 5691,
      "Ġlojas": 5692,
      "Ġnarra": 5693,
      "ĠligaÃ§Ã£o": 5694,
      "ÃŃsticas": 5695,
      "ĠPar": 5696,
      "Ġatriz": 5697,
      "Ġtantos": 5698,
      "Ġeuropeu": 5699,
      "Ġtemplo": 5700,
      "Ġsind": 5701,
      "Ġdestas": 5702,
      "Ġnerv": 5703,
      "Ġensa": 5704,
      "Ã³gico": 5705,
      "Ġ300": 5706,
      "ĠcidadÃ£os": 5707,
      "Ġvencer": 5708,
      "Ġcarre": 5709,
      "Ġcomplexo": 5710,
      "ndou": 5711,
      "Ġpromover": 5712,
      "Ġservir": 5713,
      "guei": 5714,
      "alizar": 5715,
      "Ġmex": 5716,
      "ialmente": 5717,
      "Ġsug": 5718,
      "izadas": 5719,
      "ĠconclusÃ£o": 5720,
      "lhes": 5721,
      "Ġ1995": 5722,
      "II": 5723,
      "Ġapaixon": 5724,
      "Ġexpec": 5725,
      "Ġimpacto": 5726,
      "ĠconcentraÃ§Ã£o": 5727,
      "herme": 5728,
      "discussÃ£o": 5729,
      "Ġreligiosa": 5730,
      "ernas": 5731,
      "ĠprÃ¡ticas": 5732,
      "Ã±": 5733,
      "Ġalvo": 5734,
      "Ġlog": 5735,
      "Ġplanta": 5736,
      "Ġroup": 5737,
      "gÃ£o": 5738,
      "gen": 5739,
      "Ġwilliam": 5740,
      "iago": 5741,
      "far": 5742,
      "Ġpopulares": 5743,
      "Ġatmos": 5744,
      "Ġbarra": 5745,
      "Ġdava": 5746,
      "Ġensin": 5747,
      "lor": 5748,
      "Ġfeira": 5749,
      "Ġcard": 5750,
      "Ġambas": 5751,
      "ĠmuÃ§ul": 5752,
      "ĠLo": 5753,
      "Ġocor": 5754,
      "esp": 5755,
      "Ġouvi": 5756,
      "ĠpropÃ³sito": 5757,
      "Ġprotesta": 5758,
      "Ġinov": 5759,
      "Ġcuidados": 5760,
      "Ġpermanece": 5761,
      "ÃŃderes": 5762,
      "77": 5763,
      "ium": 5764,
      "ĠPr": 5765,
      "ÃŃficos": 5766,
      "Ġinglesa": 5767,
      "Ġquiser": 5768,
      "ĠconfianÃ§a": 5769,
      "antemente": 5770,
      "Ġreserva": 5771,
      "ĠcÃ³p": 5772,
      "Ġvend": 5773,
      "domin": 5774,
      "ĠconstruÃŃdo": 5775,
      "Ġrecus": 5776,
      "Ġmorrer": 5777,
      "Ġescala": 5778,
      "90": 5779,
      "Ġtabela": 5780,
      "No": 5781,
      "Ġmontanhas": 5782,
      "Ġcord": 5783,
      "Ġincr": 5784,
      "ĠÌ": 5785,
      "Ġprior": 5786,
      "Ġexemplos": 5787,
      "ĠCivil": 5788,
      "Ġincom": 5789,
      "Ġdevia": 5790,
      "Ġuru": 5791,
      "Ġhorizonte": 5792,
      "ĠinfÃ¢ncia": 5793,
      "________": 5794,
      "eca": 5795,
      "Ġroub": 5796,
      "ĠnecessÃ¡ria": 5797,
      "Ġpodendo": 5798,
      "ĠJosÃ©": 5799,
      "Ġrepresentantes": 5800,
      "Ġencontrou": 5801,
      "wa": 5802,
      "Ġmovim": 5803,
      "azer": 5804,
      "Ġescal": 5805,
      "ĠindÃŃgenas": 5806,
      "itaÃ§Ãµes": 5807,
      "bia": 5808,
      "Ġfat": 5809,
      "enal": 5810,
      "53": 5811,
      "Ġseguro": 5812,
      "Ġcanc": 5813,
      "ĠagrÃŃc": 5814,
      "Ġevent": 5815,
      "Ġsoci": 5816,
      "Ġmano": 5817,
      "Ġesteja": 5818,
      "org": 5819,
      "estrutura": 5820,
      "ĠjurÃŃdica": 5821,
      "arÃ£o": 5822,
      "Ġpassag": 5823,
      "Ġigualmente": 5824,
      "Ã¨": 5825,
      "Ġprodut": 5826,
      "Ġsujeito": 5827,
      "Ġnor": 5828,
      "Ġestabelecer": 5829,
      "Ġeis": 5830,
      "Ġdemocr": 5831,
      "Ġvinc": 5832,
      "Ġaeroporto": 5833,
      "Ġaberta": 5834,
      "rinho": 5835,
      "Ġisabel": 5836,
      "ĠhistÃ³rica": 5837,
      "by": 5838,
      "ĠPÃºblico": 5839,
      "pet": 5840,
      "bu": 5841,
      "Ġinser": 5842,
      "ĠlÃŃderes": 5843,
      "Ġabsor": 5844,
      "ĠtabeliÃ£o": 5845,
      "Ġcred": 5846,
      "Ġvie": 5847,
      "Ġapresentado": 5848,
      "Ġrico": 5849,
      "Ġsorr": 5850,
      "amar": 5851,
      "Ġdavid": 5852,
      "ĠmÃ©dicos": 5853,
      "ĠmoÃ§a": 5854,
      "Ġinfelizmente": 5855,
      "Ġvivem": 5856,
      "ĠmÃ¡quina": 5857,
      "ioca": 5858,
      "estar": 5859,
      "acia": 5860,
      "Ġacum": 5861,
      "ĠdiÃ¡rio": 5862,
      "Ġsupera": 5863,
      "just": 5864,
      "ressa": 5865,
      "Ġnavios": 5866,
      "ÃŃnas": 5867,
      "Ġtentou": 5868,
      "ĠAc": 5869,
      "Ã§ou": 5870,
      "Ġsobera": 5871,
      "Ġregra": 5872,
      "bes": 5873,
      "Ġpron": 5874,
      "Ġplac": 5875,
      "Ġfur": 5876,
      "Ġend": 5877,
      "Ġplata": 5878,
      "Ġdecorre": 5879,
      "ĠhipÃ³tese": 5880,
      "Ġmandato": 5881,
      "Ġredor": 5882,
      "Ġ1991": 5883,
      "Ġsacer": 5884,
      "Ġvejo": 5885,
      "58": 5886,
      "Ġcomerciais": 5887,
      "Ġataques": 5888,
      "Ġcomunidades": 5889,
      "Ġcombust": 5890,
      "Ġconven": 5891,
      "Ġsobreviv": 5892,
      "Ġ33": 5893,
      "Ġinterm": 5894,
      "Ġcheio": 5895,
      "Ġrocha": 5896,
      "meras": 5897,
      "Ġmesmas": 5898,
      "ĠDr": 5899,
      "Ġigrejas": 5900,
      "ius": 5901,
      "Ġbuscar": 5902,
      "Ġsacri": 5903,
      "ĠreaÃ§Ã£o": 5904,
      "Ġespet": 5905,
      "Ġcomigo": 5906,
      "Ġserve": 5907,
      "Ãºcar": 5908,
      "enco": 5909,
      "Ġexplicar": 5910,
      "Ġlag": 5911,
      "Ġdefender": 5912,
      "ÃĩÃĥO": 5913,
      "Ġ37": 5914,
      "Ġrespira": 5915,
      "Ġchamados": 5916,
      "ilos": 5917,
      "Ġ02": 5918,
      "ĠJust": 5919,
      "Ġnic": 5920,
      "ĠclassificaÃ§Ã£o": 5921,
      "Ġguitar": 5922,
      "Ġras": 5923,
      "ole": 5924,
      "Ġderrota": 5925,
      "Ġsucess": 5926,
      "Ġafe": 5927,
      "Ġita": 5928,
      "ĠÃºltimas": 5929,
      "Ġilum": 5930,
      "Ġescap": 5931,
      "ĠamanhÃ£": 5932,
      "ester": 5933,
      "Ġmoda": 5934,
      "Ġinfluenc": 5935,
      "ĠbraÃ§o": 5936,
      "Ġestive": 5937,
      "Ġuniversal": 5938,
      "leta": 5939,
      "Ġsep": 5940,
      "ĠdÃŃvida": 5941,
      "Ġhaja": 5942,
      "Ġespiritual": 5943,
      "Ġapareceu": 5944,
      "Ġfla": 5945,
      "ĠdÃ£o": 5946,
      "gador": 5947,
      "Ġsentimento": 5948,
      "Ġpc": 5949,
      "Ġterminou": 5950,
      "Ġrumo": 5951,
      "Ġpretende": 5952,
      "Ġ^": 5953,
      "anhos": 5954,
      "66": 5955,
      "Ġrodrigues": 5956,
      "Ġtrono": 5957,
      "Ġequival": 5958,
      "Ġantigas": 5959,
      "Ġ1992": 5960,
      "Ġdelic": 5961,
      "avia": 5962,
      "Ġparticipou": 5963,
      "Ġencam": 5964,
      "Ġmarcos": 5965,
      "entam": 5966,
      "Ġcorpos": 5967,
      "ĠdefiniÃ§Ã£o": 5968,
      "Ġ1960": 5969,
      "Ġobjetivos": 5970,
      "Ġderiv": 5971,
      "ude": 5972,
      "Ġnormas": 5973,
      "Ġdistint": 5974,
      "Ãºncia": 5975,
      "Ġconcord": 5976,
      "espera": 5977,
      "Ġced": 5978,
      "Leia": 5979,
      "Ġcontam": 5980,
      "Ġtrouxe": 5981,
      "Ġcomandante": 5982,
      "Ãªnd": 5983,
      "Ġaquelas": 5984,
      "uo": 5985,
      "Ġinstrumentos": 5986,
      "Ġinverno": 5987,
      "Ġjuros": 5988,
      "Ġindividual": 5989,
      "ndro": 5990,
      "ĠpaixÃ£o": 5991,
      "Ġsecund": 5992,
      "MENTO": 5993,
      "Ġjuv": 5994,
      "Ġconvoc": 5995,
      "Ġtrop": 5996,
      "Ġinteiro": 5997,
      "istrado": 5998,
      "amba": 5999,
      "Ġfacto": 6000,
      "ĠrepresentaÃ§Ã£o": 6001,
      "Ġalves": 6002,
      "ware": 6003,
      "inga": 6004,
      "ĠcontÃ©m": 6005,
      "Ġatitude": 6006,
      "Ġcentros": 6007,
      "Ġeditor": 6008,
      "ĠEspecial": 6009,
      "pole": 6010,
      "Ġclientes": 6011,
      "Ġbater": 6012,
      "ĠLu": 6013,
      "ates": 6014,
      "Ġcarreg": 6015,
      "istÃ£o": 6016,
      "Ġpossam": 6017,
      "Ġdivert": 6018,
      "raram": 6019,
      "Ġfundada": 6020,
      "ndere": 6021,
      "Ġuf": 6022,
      "ak": 6023,
      "ĠvÃ¡l": 6024,
      "Ġnegra": 6025,
      "Ġtrazer": 6026,
      "ĠsessÃ£o": 6027,
      "ĠdisponÃŃvel": 6028,
      "MP": 6029,
      "Ġcomer": 6030,
      "Ġabran": 6031,
      "estos": 6032,
      "Ġdeuses": 6033,
      "Ġdeputados": 6034,
      "Ġfir": 6035,
      "ĠmÃº": 6036,
      "Ġextraord": 6037,
      "Ġexpecta": 6038,
      "Ġidio": 6039,
      "Ġrelativamente": 6040,
      "ĠtrÃ¡": 6041,
      "Ġlac": 6042,
      "2006": 6043,
      "Ġdoutrina": 6044,
      "Ġmuda": 6045,
      "Ġconsiste": 6046,
      "ĠcomentÃ¡rio": 6047,
      "Ġli": 6048,
      "Ġbaseado": 6049,
      "olina": 6050,
      "Ġvantagem": 6051,
      "Ġjustamente": 6052,
      "ĠlideranÃ§a": 6053,
      "Ġestrangeiros": 6054,
      "Ġaze": 6055,
      "hadas": 6056,
      "ĠRec": 6057,
      "Ġcasou": 6058,
      "ĠinterpretaÃ§Ã£o": 6059,
      "Ġdesaparec": 6060,
      "ĠsÃŃmbolo": 6061,
      "ĠestratÃ©g": 6062,
      "ĠmÃ¡r": 6063,
      "Ã¡stica": 6064,
      "Ġferna": 6065,
      "ĠespaÃ§os": 6066,
      "Ġexame": 6067,
      "Ġindo": 6068,
      "Ġdal": 6069,
      "deia": 6070,
      "ee": 6071,
      "pal": 6072,
      "ĠedifÃŃcio": 6073,
      "Ġsilv": 6074,
      "Ġconhe": 6075,
      "Ġcadeia": 6076,
      "Ġcursos": 6077,
      "Ġpolit": 6078,
      "cel": 6079,
      "Ġacademia": 6080,
      "Ġformar": 6081,
      "Ã¡logo": 6082,
      "Ġagente": 6083,
      "Ġimplem": 6084,
      "eth": 6085,
      "Ġarma": 6086,
      "Ġsouza": 6087,
      "ĠEstado": 6088,
      "ight": 6089,
      "ĠNÃ£o": 6090,
      "41": 6091,
      "Ġresponder": 6092,
      "ĠalteraÃ§Ãµes": 6093,
      "ĠgonÃ§alo": 6094,
      "Ġcair": 6095,
      "ON": 6096,
      "Ġvisitar": 6097,
      "Ġbab": 6098,
      "con": 6099,
      "Ġrealizadas": 6100,
      "ĠclÃ¡ssico": 6101,
      "iaÃ§Ãµes": 6102,
      "Ġnamo": 6103,
      "cou": 6104,
      "Ġficando": 6105,
      "Ãºp": 6106,
      "Ġrica": 6107,
      "urgia": 6108,
      "Ġdaqueles": 6109,
      "Ġ39": 6110,
      "Ġabord": 6111,
      "Ġ05": 6112,
      "Ġbeira": 6113,
      "conc": 6114,
      "Ġneto": 6115,
      "atas": 6116,
      "ĠresidÃªncia": 6117,
      "Ġabriu": 6118,
      "ere": 6119,
      "gr": 6120,
      "ĠJuiz": 6121,
      "Ġconsta": 6122,
      "ĠdiferenÃ§as": 6123,
      "Ġdaniel": 6124,
      "istou": 6125,
      "ĠestratÃ©gia": 6126,
      "Ġsha": 6127,
      "Ġpedras": 6128,
      "tora": 6129,
      "Ġrs": 6130,
      "Ġlabo": 6131,
      "Ġconde": 6132,
      "Ġrol": 6133,
      "Ġsofreu": 6134,
      "pressÃ£o": 6135,
      "ĠlanÃ§a": 6136,
      "ĠrÃ©u": 6137,
      "Ġanunciou": 6138,
      "Ġhabil": 6139,
      "Ġanteriormente": 6140,
      "ĠPara": 6141,
      "var": 6142,
      "ĠtÃ³p": 6143,
      "yo": 6144,
      "fls": 6145,
      "olÃ³gicos": 6146,
      "Ġduque": 6147,
      "Ġbrig": 6148,
      "Ġconsider": 6149,
      "ĠmÃ©todos": 6150,
      "Ġideias": 6151,
      "Ġchamou": 6152,
      "ĠbÃŃblia": 6153,
      "Ġcastro": 6154,
      "56": 6155,
      "ruturas": 6156,
      "Ġconsigo": 6157,
      "Ġselva": 6158,
      "Ġcelular": 6159,
      "Ġmental": 6160,
      "Ġutilizados": 6161,
      "Ġfinanceira": 6162,
      "Ġenx": 6163,
      "CU": 6164,
      "Ġriqueza": 6165,
      "ĠOr": 6166,
      "Ġtradicionais": 6167,
      "Ġ06": 6168,
      "ĠlegislaÃ§Ã£o": 6169,
      "Ġnela": 6170,
      "Ġfinais": 6171,
      "Ġsabem": 6172,
      "Ġcarnaval": 6173,
      "ĠolÃŃmp": 6174,
      "Ġfrase": 6175,
      "Ã¢nd": 6176,
      "Ġcavalo": 6177,
      "Ġdilma": 6178,
      "Ġconvers": 6179,
      "ĠÃ¢mb": 6180,
      "Ġimperial": 6181,
      "Ġleitor": 6182,
      "kkkk": 6183,
      "larou": 6184,
      "Ġdono": 6185,
      "Ġple": 6186,
      "Ġobservar": 6187,
      "Ġmelhorar": 6188,
      "Ġatuais": 6189,
      "Ġamost": 6190,
      "Ġpred": 6191,
      "onstru": 6192,
      "Ġpassam": 6193,
      "ĠIs": 6194,
      "eio": 6195,
      "Ġrever": 6196,
      "59": 6197,
      "Ġconsist": 6198,
      "Ġcomida": 6199,
      "Ġcumprimento": 6200,
      "Ġanex": 6201,
      "su": 6202,
      "ĠdÃºvidas": 6203,
      "Ġmargem": 6204,
      "igrantes": 6205,
      "ĠraÃ§a": 6206,
      "Ġpenal": 6207,
      "Ġdesm": 6208,
      "Ġaugusto": 6209,
      "orde": 6210,
      "ilho": 6211,
      "43": 6212,
      "Ġderam": 6213,
      "ete": 6214,
      "Ġclubes": 6215,
      "ĠBar": 6216,
      "Ġjulgado": 6217,
      "ĠinteligÃªncia": 6218,
      "cado": 6219,
      "Ġgovernos": 6220,
      "Ġescolher": 6221,
      "Ġutilizar": 6222,
      "ispon": 6223,
      "Ġinoc": 6224,
      "Ġparar": 6225,
      "Ġ08": 6226,
      "pÃ©": 6227,
      "vem": 6228,
      "issÃµes": 6229,
      "Ġcostas": 6230,
      "Ġformada": 6231,
      "ish": 6232,
      "Ġselecion": 6233,
      "Ġperante": 6234,
      "ĠmantÃ©m": 6235,
      "Ġcra": 6236,
      "leia": 6237,
      "hados": 6238,
      "ĠtransmissÃ£o": 6239,
      "Ġmediante": 6240,
      "ĠBo": 6241,
      "ianas": 6242,
      "Ġmotiv": 6243,
      "tus": 6244,
      "Ġcoloca": 6245,
      "Ġcaro": 6246,
      "Ġtantas": 6247,
      "Ġdemanda": 6248,
      "Ġ09": 6249,
      "Ġacredito": 6250,
      "ĠexperiÃªncias": 6251,
      "Ġanda": 6252,
      "Ġvindo": 6253,
      "redes": 6254,
      "unes": 6255,
      "Ġcenas": 6256,
      "Ġcomposta": 6257,
      "ĠcientÃŃfica": 6258,
      "ĠCol": 6259,
      "Ġfamosa": 6260,
      "ĠprÃ©dio": 6261,
      "Ġdeclarou": 6262,
      "rud": 6263,
      "Ġparticularmente": 6264,
      "Ġfuncionamento": 6265,
      "Ġfib": 6266,
      "Ġincluem": 6267,
      "Ġpropriedades": 6268,
      "Ġinciso": 6269,
      "Ġ#": 6270,
      "Ġsequer": 6271,
      "Ġacerca": 6272,
      "Ġvide": 6273,
      "ĠgrÃ¡f": 6274,
      "Ġsuger": 6275,
      "Ã³lica": 6276,
      "ĠÃģ": 6277,
      "sal": 6278,
      "tia": 6279,
      "ĠFranc": 6280,
      "Ã©lia": 6281,
      "Ġplataform": 6282,
      "ĠAn": 6283,
      "Ġsurpresa": 6284,
      "eirÃ£o": 6285,
      "Ġoriente": 6286,
      "indows": 6287,
      "//": 6288,
      "Ġperigo": 6289,
      "Ã³logo": 6290,
      "Ġutilizada": 6291,
      "ianismo": 6292,
      "dical": 6293,
      "ĠcaracterÃŃstica": 6294,
      "Ã§amento": 6295,
      "tera": 6296,
      "ĠameaÃ§a": 6297,
      "Ġdesl": 6298,
      "Ġculpa": 6299,
      "Ġparecer": 6300,
      "Ġclasses": 6301,
      "itais": 6302,
      "Ġsabemos": 6303,
      "Ġcertos": 6304,
      "Ġquin": 6305,
      "Ġdetec": 6306,
      "Ġegito": 6307,
      "Ġcandidatos": 6308,
      "Ġestudar": 6309,
      "Ġ1993": 6310,
      "postos": 6311,
      "Ġacel": 6312,
      "bast": 6313,
      "Ġanivers": 6314,
      "ĠpatrimÃ´nio": 6315,
      "Ġeuropeia": 6316,
      "Ġdireta": 6317,
      "sh": 6318,
      "ĠpreocupaÃ§Ã£o": 6319,
      "ĠimpressÃ£o": 6320,
      "utas": 6321,
      "Ġtua": 6322,
      "Ġeurop": 6323,
      "Ġpreju": 6324,
      "onstitu": 6325,
      "tantes": 6326,
      "Ġrigor": 6327,
      "ĠassistÃªncia": 6328,
      "Ġpintura": 6329,
      "ĠCons": 6330,
      "Ġpalco": 6331,
      "Ġroupas": 6332,
      "Ġantecip": 6333,
      "Ġmachado": 6334,
      "Ġenter": 6335,
      "ĠMin": 6336,
      "Ġatender": 6337,
      "Ġusados": 6338,
      "Ã¶": 6339,
      "ĠmÃ©rito": 6340,
      "Ġmich": 6341,
      "Ġobed": 6342,
      "Ġ1988": 6343,
      "Ġviva": 6344,
      "Ġinden": 6345,
      "ĠrÃ¡pida": 6346,
      "Ġpronto": 6347,
      "42": 6348,
      "Ġmato": 6349,
      "ĠexploraÃ§Ã£o": 6350,
      "ĠaÃ§o": 6351,
      "Ġpista": 6352,
      "Ġnovela": 6353,
      "Ġradio": 6354,
      "ĠÃ¢mbito": 6355,
      "Ġlatina": 6356,
      "Ġassumiu": 6357,
      "Ġperceber": 6358,
      "Ġinterno": 6359,
      "edes": 6360,
      "Ãµem": 6361,
      "Ġsport": 6362,
      "adeira": 6363,
      "Ġmerece": 6364,
      "ĠusuÃ¡rios": 6365,
      "Ġfiscal": 6366,
      "Ġcoroa": 6367,
      "ĠtendÃªncia": 6368,
      "ĠelÃ©trica": 6369,
      "Ġpom": 6370,
      "Ġtela": 6371,
      "Ġjoaquim": 6372,
      "Ġconsiderando": 6373,
      "Ġvara": 6374,
      "ÃŃficas": 6375,
      "lob": 6376,
      "ft": 6377,
      "ritas": 6378,
      "Ġexpul": 6379,
      "Ġachei": 6380,
      "ĠfÃ³rmula": 6381,
      "Ġsacerdo": 6382,
      "Ġconcurso": 6383,
      "Ġsurpreend": 6384,
      "orrÃªncia": 6385,
      "Ġjack": 6386,
      "Ġbarro": 6387,
      "ĠocupaÃ§Ã£o": 6388,
      "Ġcere": 6389,
      "Ġintegral": 6390,
      "Ġsupl": 6391,
      "Ġtrinta": 6392,
      "arn": 6393,
      "Ġespect": 6394,
      "Ġhit": 6395,
      "onha": 6396,
      "Ġimagin": 6397,
      "Ġendere": 6398,
      "itante": 6399,
      "adoras": 6400,
      "ologias": 6401,
      "Ġjames": 6402,
      "Ġdevemos": 6403,
      "Ġcoluna": 6404,
      "Ġsignificado": 6405,
      "Ġoriental": 6406,
      "Ġentidade": 6407,
      "Ġchef": 6408,
      "Ġfamiliares": 6409,
      "Ġdescobrir": 6410,
      "Ġdescreve": 6411,
      "Ã§ados": 6412,
      "ĠSegu": 6413,
      "yer": 6414,
      "Ġwh": 6415,
      "xos": 6416,
      "Ġoferecer": 6417,
      "Ġpenet": 6418,
      "Ġpensa": 6419,
      "Ġquente": 6420,
      "Ġerros": 6421,
      "Ġfortal": 6422,
      "Ġdiagn": 6423,
      "Ġdiplom": 6424,
      "Ġpalm": 6425,
      "ĠintervenÃ§Ã£o": 6426,
      "Ġpermanente": 6427,
      "Ġtera": 6428,
      "79": 6429,
      "Ġtub": 6430,
      "Ġtarefa": 6431,
      "Ġribeiro": 6432,
      "ĠÃ¡rvore": 6433,
      "Ġhorr": 6434,
      "Ġgols": 6435,
      "Ġcm": 6436,
      "ĠpoderÃ£o": 6437,
      "Ġaprender": 6438,
      "Ġbancos": 6439,
      "Ġconsiderar": 6440,
      "itoral": 6441,
      "Ġequipes": 6442,
      "ibiliz": 6443,
      "entados": 6444,
      "ĠhorÃ¡rio": 6445,
      "ĠdanÃ§a": 6446,
      "Ġfome": 6447,
      "Ġjanela": 6448,
      "Ġmass": 6449,
      "Ġproduzido": 6450,
      "Ġving": 6451,
      "Ġsud": 6452,
      "Ġonda": 6453,
      "Ġderru": 6454,
      "Ġresolver": 6455,
      "ĠdecisÃµes": 6456,
      "Ġlimite": 6457,
      "premo": 6458,
      "ate": 6459,
      "Ġdepende": 6460,
      "ck": 6461,
      "ĠaudiÃªncia": 6462,
      "Ġjaz": 6463,
      "Ġexplos": 6464,
      "Ġadquir": 6465,
      "ÃŃba": 6466,
      "Ġperguntou": 6467,
      "ĠfenÃ´meno": 6468,
      "Ġpresos": 6469,
      "ĠusuÃ¡rio": 6470,
      "Ġguia": 6471,
      "Ġprocurar": 6472,
      "EL": 6473,
      "ĠJustiÃ§a": 6474,
      "Ġemit": 6475,
      "Ġcresce": 6476,
      "fin": 6477,
      "asso": 6478,
      "dios": 6479,
      "Ġempreend": 6480,
      "tÃ³rio": 6481,
      "ĠdisposiÃ§Ã£o": 6482,
      "Ġguilherme": 6483,
      "Ġ2023": 6484,
      "Ġdescul": 6485,
      "Ã³stico": 6486,
      "Ġcomprimento": 6487,
      "Ġestiver": 6488,
      "Ġcentenas": 6489,
      "Ġcontempl": 6490,
      "Ã´nicos": 6491,
      "Ġritmo": 6492,
      "Ġvolunt": 6493,
      "Ġoh": 6494,
      "Ġlevado": 6495,
      "polit": 6496,
      "Ġramos": 6497,
      "Ġmarcou": 6498,
      "ĠequilÃŃbrio": 6499,
      "Ġmeados": 6500,
      "Ġfacilmente": 6501,
      "Ġquebra": 6502,
      "ministro": 6503,
      "ficientes": 6504,
      "Ġsombra": 6505,
      "book": 6506,
      "aa": 6507,
      "ices": 6508,
      "Ġtanta": 6509,
      "Ġliberal": 6510,
      "eco": 6511,
      "Ġteste": 6512,
      "Ġaves": 6513,
      "Ġbento": 6514,
      "ĠparanÃ¡": 6515,
      "Ġsenado": 6516,
      "Ġ1989": 6517,
      "ĠcidadÃ£o": 6518,
      "Ġrequis": 6519,
      "Ġexistentes": 6520,
      "Ġcartas": 6521,
      "68": 6522,
      "ĠprogramaÃ§Ã£o": 6523,
      "inato": 6524,
      ".\"": 6525,
      "Ġrealizou": 6526,
      "Ġleitores": 6527,
      "Ġatingir": 6528,
      "ibilizaÃ§Ã£o": 6529,
      "Ã´nicas": 6530,
      "Ġoceano": 6531,
      "Ġvirtude": 6532,
      "Ġpouca": 6533,
      "Ġformato": 6534,
      "ĠIN": 6535,
      "Ġarque": 6536,
      "gueira": 6537,
      "Ġconsa": 6538,
      "landa": 6539,
      "Ġpassada": 6540,
      "reiros": 6541,
      "Ġreje": 6542,
      "Ġconflitos": 6543,
      "Ġcheia": 6544,
      "Ġolho": 6545,
      "Ġcolor": 6546,
      "Ġnobre": 6547,
      "Ġcamb": 6548,
      "Ġalexandre": 6549,
      "Ġfranco": 6550,
      "ĠPÃºblica": 6551,
      "Ġrevela": 6552,
      "Ġdistingu": 6553,
      "arquia": 6554,
      "olos": 6555,
      "teve": 6556,
      "ĠassemblÃ©ia": 6557,
      "Ġpinto": 6558,
      "Ġassistir": 6559,
      "uss": 6560,
      "ecem": 6561,
      "ĠComarca": 6562,
      "Ġeleg": 6563,
      "Ġmoderno": 6564,
      "Ġacabar": 6565,
      "nderam": 6566,
      "Ġvigor": 6567,
      "Ġfunciona": 6568,
      "urado": 6569,
      "embleia": 6570,
      "Ġcaptura": 6571,
      "Ġbob": 6572,
      "Ġconsumidor": 6573,
      "ĠbritÃ¢nico": 6574,
      "ĠcÃ¢n": 6575,
      "Ġcolonial": 6576,
      "gando": 6577,
      "Ġlen": 6578,
      "Ã©sar": 6579,
      "Ġaplic": 6580,
      "://": 6581,
      "ĠFaz": 6582,
      "nÃ£o": 6583,
      "Ġseguindo": 6584,
      "Ġvariedade": 6585,
      "Ġrecolh": 6586,
      "ĠsuÃŃ": 6587,
      "Ġenerg": 6588,
      "Os": 6589,
      "Ġtranqu": 6590,
      "ĠcontÃŃn": 6591,
      "Ġ07": 6592,
      "Ġfax": 6593,
      "Ġala": 6594,
      "Ġmartins": 6595,
      "ĠcorrupÃ§Ã£o": 6596,
      "99": 6597,
      "Ġentendimento": 6598,
      "Ġparede": 6599,
      "ĠcaÃ§a": 6600,
      "Ġdigital": 6601,
      "ĠcristÃ£": 6602,
      "ncer": 6603,
      "Ġnaz": 6604,
      "den": 6605,
      "Ġfelicidade": 6606,
      "Ġmg": 6607,
      "Ġacusado": 6608,
      "ualmente": 6609,
      "Ġfornece": 6610,
      "Ġadicion": 6611,
      "entude": 6612,
      "Ġcausas": 6613,
      "riam": 6614,
      "Ġassocia": 6615,
      "Ġvendas": 6616,
      "ision": 6617,
      "Ġquerer": 6618,
      "ÃŃrus": 6619,
      "Ãªut": 6620,
      "ten": 6621,
      "ĠalemÃ£es": 6622,
      "ĠconferÃªncia": 6623,
      "Ġencontrados": 6624,
      "Ġacontecimentos": 6625,
      "ĠrecÃ©m": 6626,
      "itÃ¡rios": 6627,
      "aba": 6628,
      "ĠsÃ©rio": 6629,
      "ĠfÃ¡brica": 6630,
      "km": 6631,
      "57": 6632,
      "aleza": 6633,
      "ĠÃłqu": 6634,
      "Ġlinda": 6635,
      "uar": 6636,
      "Ġfant": 6637,
      "Ġtemp": 6638,
      "ĠintroduÃ§Ã£o": 6639,
      "Ġinse": 6640,
      "Ġtiver": 6641,
      "Ġpudesse": 6642,
      "cÃ£o": 6643,
      "Ġnumeros": 6644,
      "ĠdivulgaÃ§Ã£o": 6645,
      "Ġcantor": 6646,
      "di": 6647,
      "ĠclÃ¡": 6648,
      "Ġestreia": 6649,
      "Ġprojec": 6650,
      "ĠPro": 6651,
      "Ġalg": 6652,
      "Ġestranho": 6653,
      "ĠgaÃºc": 6654,
      "Ġroteiro": 6655,
      "Ġpersonalidade": 6656,
      "ĠbenefÃŃcios": 6657,
      "ĠaviÃ£o": 6658,
      "Ġorqu": 6659,
      "Ġgel": 6660,
      "ath": 6661,
      "Ã´nimo": 6662,
      "Ġdespesas": 6663,
      "ĠacadÃªm": 6664,
      "Ġromanos": 6665,
      "Ġplanejamento": 6666,
      "Ġexporta": 6667,
      "Ġlados": 6668,
      "uÃ¡rio": 6669,
      "ĠcrÃŃticas": 6670,
      "Ġinver": 6671,
      "Ġalmeida": 6672,
      "Ġpret": 6673,
      "Ġalm": 6674,
      "fico": 6675,
      "Ġnomeado": 6676,
      "54": 6677,
      "Ġbrasileiras": 6678,
      "Ġfator": 6679,
      "Ġestruturas": 6680,
      "Ġinvestimentos": 6681,
      "Ġengan": 6682,
      "Ġenferm": 6683,
      "Ġreper": 6684,
      "Ġinterrom": 6685,
      "ĠÌģ": 6686,
      "ĠopÃ§Ãµes": 6687,
      "iadores": 6688,
      "Ã§ando": 6689,
      "ĠpossÃŃveis": 6690,
      "Ġvendo": 6691,
      "ME": 6692,
      "ĠinstalaÃ§Ã£o": 6693,
      "ÃŃculo": 6694,
      "Ġaltos": 6695,
      "Ġfiguras": 6696,
      "iscos": 6697,
      "Ġmerg": 6698,
      "Ġabund": 6699,
      "**": 6700,
      "Ġbate": 6701,
      "ĠsÃ³l": 6702,
      "Ġmichael": 6703,
      "Ġobjec": 6704,
      "hu": 6705,
      "Ġaumenta": 6706,
      "Ġinvestimento": 6707,
      "ani": 6708,
      "ĠtÃ©r": 6709,
      "cho": 6710,
      "Ġengenharia": 6711,
      "ĠchÃ¡": 6712,
      "quente": 6713,
      "ĠseÃ§Ã£o": 6714,
      "Ġergu": 6715,
      "Ġget": 6716,
      "orno": 6717,
      "ĠdomÃ©st": 6718,
      "Ġampla": 6719,
      "ĠconstruÃŃda": 6720,
      "ikip": 6721,
      "Ġficava": 6722,
      "ĠcolÃ´nia": 6723,
      "Ġpp": 6724,
      "Ġinterc": 6725,
      "naldo": 6726,
      "ÃŃsticos": 6727,
      "Ġcatarina": 6728,
      "Ġestaria": 6729,
      "ĠMAR": 6730,
      "ster": 6731,
      "eto": 6732,
      "Ġesgo": 6733,
      "Ġyou": 6734,
      "orld": 6735,
      "ĠobrigaÃ§Ã£o": 6736,
      "cular": 6737,
      "Ġip": 6738,
      "ĠmanifestaÃ§Ãµes": 6739,
      "Ġinfin": 6740,
      "ĠorganizaÃ§Ãµes": 6741,
      "Ġtopo": 6742,
      "anal": 6743,
      "Ġcompositor": 6744,
      "ĠfÃ£s": 6745,
      "ford": 6746,
      "Ġsintomas": 6747,
      "Ġcompreender": 6748,
      "Ġaprop": 6749,
      "Ġ03": 6750,
      "ĠimÃ³vel": 6751,
      "edimento": 6752,
      "erada": 6753,
      "ĠÃ¡sia": 6754,
      "heu": 6755,
      "Ġmerec": 6756,
      "Ġprocedimento": 6757,
      "Ġbatal": 6758,
      "Ġpatroc": 6759,
      "ashington": 6760,
      "Ġparticipantes": 6761,
      "Ġhu": 6762,
      "Ġfazend": 6763,
      "Ġsolar": 6764,
      "Ġreduzir": 6765,
      "eix": 6766,
      "Ġcapazes": 6767,
      "ĠsensaÃ§Ã£o": 6768,
      "ĠHor": 6769,
      "gÃªncia": 6770,
      "Ġmajor": 6771,
      "Ġprecisam": 6772,
      "Ġjantar": 6773,
      "rever": 6774,
      "ĠpÃ³": 6775,
      "Ġcurto": 6776,
      "Ġocupa": 6777,
      "riamente": 6778,
      "Ġcompreend": 6779,
      "Ġespac": 6780,
      "ĠPortu": 6781,
      "ĠduraÃ§Ã£o": 6782,
      "Ġtrecho": 6783,
      "Ġinimigo": 6784,
      "Ġdesenvolvido": 6785,
      "ĠcolÃ©gio": 6786,
      "pont": 6787,
      "Ġtiro": 6788,
      "Ġdens": 6789,
      "Ġfestas": 6790,
      "ĠRua": 6791,
      "Ġalberto": 6792,
      "ty": 6793,
      "ndi": 6794,
      "Ġrespectivamente": 6795,
      "Ġpasseio": 6796,
      "itÃ¡vel": 6797,
      "Ġreporta": 6798,
      "Ġanuncia": 6799,
      "ĠpÃ´r": 6800,
      "Ġtentando": 6801,
      "ĠsequÃªncia": 6802,
      "icional": 6803,
      "Ġvisual": 6804,
      "Ġabsolut": 6805,
      "ĠpÃ£o": 6806,
      "Ġvieram": 6807,
      "americana": 6808,
      "Ġvidas": 6809,
      "Ġconceitos": 6810,
      "Ġperspectiva": 6811,
      "inadas": 6812,
      "Ġwindows": 6813,
      "Ġinimigos": 6814,
      "unas": 6815,
      "ises": 6816,
      "Ġcertas": 6817,
      "Ġ34": 6818,
      "ĠalimentaÃ§Ã£o": 6819,
      "Ġlaborat": 6820,
      "ĠorientaÃ§Ã£o": 6821,
      "ĠcoleÃ§Ã£o": 6822,
      "Ġmendes": 6823,
      "Ġcozinha": 6824,
      "ormes": 6825,
      "olÃ³gicas": 6826,
      "fal": 6827,
      "Ġexterna": 6828,
      "Ġentidades": 6829,
      "71": 6830,
      "ĠesforÃ§os": 6831,
      "Ġmaran": 6832,
      "riel": 6833,
      "tico": 6834,
      "Ġ1950": 6835,
      "ĠJan": 6836,
      "Ġbomb": 6837,
      "51": 6838,
      "Ġbenfica": 6839,
      "Ġpreenc": 6840,
      "ertas": 6841,
      "Ġtomada": 6842,
      "ĠMo": 6843,
      "Ġirreg": 6844,
      "Ġperfeito": 6845,
      "Ġfavo": 6846,
      "tua": 6847,
      "Ġpermitir": 6848,
      "ĠaÃ§Ãºcar": 6849,
      "ĠglÃ³ria": 6850,
      "Ġdaqui": 6851,
      "izando": 6852,
      "Ġperfume": 6853,
      "estade": 6854,
      "Ġgrand": 6855,
      "gov": 6856,
      "ĠpÃ¡": 6857,
      "Ġjudicial": 6858,
      "Ġfeminino": 6859,
      "Ġperdido": 6860,
      "Ġproclam": 6861,
      "Ġaguard": 6862,
      "way": 6863,
      "Ġparedes": 6864,
      "ulhos": 6865,
      "Ġaltas": 6866,
      "inete": 6867,
      "Ġpia": 6868,
      "Ġsemelhantes": 6869,
      "ĠÃ³leo": 6870,
      "Ġmm": 6871,
      "Ġtornaram": 6872,
      "Ġtestes": 6873,
      "Ġmanteve": 6874,
      "Ġsenador": 6875,
      "Ġpublicada": 6876,
      "Ġcrescente": 6877,
      "Ġ1986": 6878,
      "Ġdescont": 6879,
      "Ġqueim": 6880,
      "Ġprovid": 6881,
      "Ġtelefone": 6882,
      "Ġconselh": 6883,
      "Ġcalif": 6884,
      "ĠFoi": 6885,
      "Ġmanoel": 6886,
      "wood": 6887,
      "get": 6888,
      "mentos": 6889,
      "Ġamiz": 6890,
      "Ġmens": 6891,
      "inais": 6892,
      "ĠcÃ¢ncer": 6893,
      "Ġadia": 6894,
      "ĠlÃ³gica": 6895,
      "Ġmadru": 6896,
      "ĠdisponÃŃveis": 6897,
      "ello": 6898,
      "ĠÃĢ": 6899,
      "Ġwil": 6900,
      "Ġjunta": 6901,
      "cool": 6902,
      "ttp": 6903,
      "Ġcantora": 6904,
      "tava": 6905,
      "fos": 6906,
      "Ġtese": 6907,
      "Ġcapela": 6908,
      "Ġasc": 6909,
      "men": 6910,
      "74": 6911,
      "Ġpeito": 6912,
      "ituais": 6913,
      "Ġoper": 6914,
      "Ġareia": 6915,
      "obil": 6916,
      "Ġestabelecimento": 6917,
      "Ġrenasc": 6918,
      "Ġencaminh": 6919,
      "Ġsurge": 6920,
      "Ġculto": 6921,
      "Ġrecebido": 6922,
      "Ġdesenho": 6923,
      "Ġreligioso": 6924,
      "ĠestarÃ¡": 6925,
      "Ġperfil": 6926,
      "Ġfabrica": 6927,
      "Ġalu": 6928,
      "ĠalianÃ§a": 6929,
      "ĠcivilizaÃ§Ã£o": 6930,
      "ÃŃculas": 6931,
      "Ġtransport": 6932,
      "itivamente": 6933,
      "ĠmanifestaÃ§Ã£o": 6934,
      "Ġcivis": 6935,
      "ĠÃªx": 6936,
      "idaÃ§Ã£o": 6937,
      "Ġï": 6938,
      "Ġhumor": 6939,
      "Ġpassava": 6940,
      "si": 6941,
      "Ġaceitar": 6942,
      "ĠFazenda": 6943,
      "Ġbul": 6944,
      "Ġjuventude": 6945,
      "ĠEd": 6946,
      "Ġelenco": 6947,
      "Ġassust": 6948,
      "ĠProcedimento": 6949,
      "98": 6950,
      "Ġbiblioteca": 6951,
      "Ġaquis": 6952,
      "ĠFisc": 6953,
      "Ġdepo": 6954,
      "ĠaniversÃ¡rio": 6955,
      "manos": 6956,
      "ĠrecuperaÃ§Ã£o": 6957,
      "Ġcorrer": 6958,
      "lan": 6959,
      "Ġcedoc": 6960,
      "Ġreinado": 6961,
      "Ġutilizando": 6962,
      "lado": 6963,
      "ĠparÃ¡grafo": 6964,
      "Ġreque": 6965,
      "ĠTra": 6966,
      "Ġchap": 6967,
      "Ġenfrentar": 6968,
      "Ġ('": 6969,
      "ĠmilhÃ£o": 6970,
      "Ġviagens": 6971,
      "Ġoit": 6972,
      "Ġimpostos": 6973,
      "organ": 6974,
      "ĠalcanÃ§ar": 6975,
      "ĠintegraÃ§Ã£o": 6976,
      "Ġcortes": 6977,
      "Ġcustos": 6978,
      "ĠinvasÃ£o": 6979,
      "Ġreceita": 6980,
      "Ãī": 6981,
      "Ġdano": 6982,
      "Ġdestaca": 6983,
      "Ġtio": 6984,
      "Ġmandou": 6985,
      "ĠJuizado": 6986,
      "ĠSt": 6987,
      "Ġconsiderados": 6988,
      "Ġteriam": 6989,
      "Ġbrancos": 6990,
      "gh": 6991,
      "Ġmarcas": 6992,
      "Ġdeg": 6993,
      "ÃŃsmo": 6994,
      "ĠEuro": 6995,
      "IL": 6996,
      "Ġcolocado": 6997,
      "ecida": 6998,
      "ĠNacional": 6999,
      "Ġmi": 7000,
      "Ġbos": 7001,
      "ĠtraduÃ§Ã£o": 7002,
      "Ġpernambuco": 7003,
      "Ġocorrer": 7004,
      "geral": 7005,
      "ĠÃ¢ng": 7006,
      "Ġassumir": 7007,
      "Ġ150": 7008,
      "ds": 7009,
      "Ġsindica": 7010,
      "Ġemisso": 7011,
      "Ġincap": 7012,
      "Ġurbana": 7013,
      "Ġsoft": 7014,
      "Ġchico": 7015,
      "Ġimun": 7016,
      "Ġespero": 7017,
      "Ġfoco": 7018,
      "Ġlegais": 7019,
      "Ġconstitui": 7020,
      "72": 7021,
      "Ġfaria": 7022,
      "alves": 7023,
      "Ġdesafio": 7024,
      "ĠparabÃ©ns": 7025,
      "Ġcated": 7026,
      "Ġsetores": 7027,
      "Ġtodavia": 7028,
      "Ġmarinha": 7029,
      "Ġferra": 7030,
      "urais": 7031,
      "Ġ2017": 7032,
      "Ġprofessora": 7033,
      "Ġalv": 7034,
      "ĠdestruiÃ§Ã£o": 7035,
      "umes": 7036,
      "Ã³dios": 7037,
      "Ġrestaurante": 7038,
      "ĠpadrÃµes": 7039,
      "cada": 7040,
      "Ġdeixe": 7041,
      "Ġrou": 7042,
      "Ġweb": 7043,
      "Ġaulas": 7044,
      "Ġpredomin": 7045,
      "Ġcolegas": 7046,
      "rico": 7047,
      "ĠÃ³timo": 7048,
      "ĠÃ¡cido": 7049,
      "Ġ1985": 7050,
      "Ġguerras": 7051,
      "Ġtriun": 7052,
      "Ġsenhores": 7053,
      "Ġexam": 7054,
      "Ġcore": 7055,
      "Ġcunha": 7056,
      "igraÃ§Ã£o": 7057,
      "Resumo": 7058,
      "ĠSul": 7059,
      "ĠalemÃ£": 7060,
      "out": 7061,
      "Ġby": 7062,
      "cios": 7063,
      "Ġitaliana": 7064,
      "Ġterrest": 7065,
      "ernos": 7066,
      "eas": 7067,
      "Ġmun": 7068,
      "Ġclaramente": 7069,
      "Ġapost": 7070,
      "Ġ04": 7071,
      "Ġrota": 7072,
      "Ġvidro": 7073,
      "Ġatira": 7074,
      "Ġincomp": 7075,
      "aros": 7076,
      "Ġbanh": 7077,
      "reta": 7078,
      "ny": 7079,
      "Ġarmazen": 7080,
      "Ġaldeia": 7081,
      "usias": 7082,
      "Ãºst": 7083,
      "Ġpassageiros": 7084,
      "Ġachar": 7085,
      "Ġaparelho": 7086,
      "Ġditadura": 7087,
      "Ġdoutor": 7088,
      "Ġcientistas": 7089,
      "Ġjornada": 7090,
      "Ġdigo": 7091,
      "Ġlivres": 7092,
      "Ġprincesa": 7093,
      "Ġ55": 7094,
      "Ġtitular": 7095,
      "Ġescolar": 7096,
      "Ġunido": 7097,
      "ĠRE": 7098,
      "Ġexclusivamente": 7099,
      "ĠSil": 7100,
      "elar": 7101,
      "Ġexistir": 7102,
      "Ġencant": 7103,
      "Ġcoz": 7104,
      "Ġamiga": 7105,
      "ntese": 7106,
      "ĠlocalizaÃ§Ã£o": 7107,
      "Ġdecis": 7108,
      "retanha": 7109,
      "Ġacompanhar": 7110,
      "itudes": 7111,
      "Ġprodutor": 7112,
      "Ġfarm": 7113,
      "Ġprogress": 7114,
      "Ġcomunista": 7115,
      "Ġlitoral": 7116,
      "ĠbenefÃŃcio": 7117,
      "Ġmatriz": 7118,
      "Ġdeveriam": 7119,
      "Ġprossegu": 7120,
      "Ġvent": 7121,
      "Ġproteg": 7122,
      "Ġhig": 7123,
      "ĠcomparaÃ§Ã£o": 7124,
      "ĠcÃŃr": 7125,
      "Ġaparecer": 7126,
      "ĠocorrÃªncia": 7127,
      "Ġnotic": 7128,
      "Ġseca": 7129,
      "Ġpropostas": 7130,
      "Ġpertence": 7131,
      "ĠcircunstÃ¢ncias": 7132,
      "Ã©lio": 7133,
      "Ġeuros": 7134,
      "Ġmarcado": 7135,
      "Ġordens": 7136,
      "ĠvÃ¡": 7137,
      "Ġ1987": 7138,
      "Ġatletas": 7139,
      "Ġpeixe": 7140,
      "ĠquÃŃmica": 7141,
      "Ġmostrando": 7142,
      "Ġmostram": 7143,
      "Ġmorta": 7144,
      "ĠobservaÃ§Ã£o": 7145,
      "Ġran": 7146,
      "Ã´nias": 7147,
      "Ġcolocou": 7148,
      "igar": 7149,
      "ĠEl": 7150,
      "Ġjuda": 7151,
      "Ġbandas": 7152,
      "Ġabri": 7153,
      "Ġlargo": 7154,
      "ĠTrib": 7155,
      "Ġom": 7156,
      "ÃŃns": 7157,
      "Ġrobert": 7158,
      "MENTE": 7159,
      "Ġfortaleza": 7160,
      "Ġconsag": 7161,
      "Ġtrabalhou": 7162,
      "Ġconex": 7163,
      "Ġparecem": 7164,
      "ĠnecessÃ¡rios": 7165,
      "Ġcaminhos": 7166,
      "----": 7167,
      "Ġgrosso": 7168,
      "Ġafonso": 7169,
      "Ġinjust": 7170,
      "Ġarquivo": 7171,
      "ĠpotÃªncia": 7172,
      "Ġempa": 7173,
      "96": 7174,
      "ĠlÃŃnguas": 7175,
      "Ġlink": 7176,
      "ĠDig": 7177,
      "ĠexceÃ§Ã£o": 7178,
      "ĠDispon": 7179,
      "Ġservidores": 7180,
      "Ġexer": 7181,
      "Ġroda": 7182,
      "Ġperu": 7183,
      "Ġidentificar": 7184,
      "ĠcanÃ§Ãµes": 7185,
      "ĠofÃŃcio": 7186,
      "Ġcarbon": 7187,
      "rint": 7188,
      "ilhÃ£o": 7189,
      "imp": 7190,
      "ĠtÃ³pico": 7191,
      "Ġrecife": 7192,
      "Ġpede": 7193,
      "Ġeditora": 7194,
      "Ġpegar": 7195,
      "entÃ¡rio": 7196,
      "Ã¢ntica": 7197,
      "ĠfÃ©rias": 7198,
      "tuais": 7199,
      "Ġ46": 7200,
      "Ġviveu": 7201,
      "mm": 7202,
      "Ġtocar": 7203,
      "rinhos": 7204,
      "Ġchave": 7205,
      "aves": 7206,
      "Ġtido": 7207,
      "ĠvÃ´": 7208,
      "Ġdesconf": 7209,
      "ĠIMP": 7210,
      "ĠÃŃndice": 7211,
      "ustria": 7212,
      "Ġatmosfera": 7213,
      "Ġmister": 7214,
      "Ġ42": 7215,
      "Ġpend": 7216,
      "2021": 7217,
      "Ġtenente": 7218,
      "alÃ©m": 7219,
      "nas": 7220,
      "ĠsÃŃtio": 7221,
      "Ġdam": 7222,
      "Ġcapa": 7223,
      "Ġsofr": 7224,
      "Ġvinhos": 7225,
      "ĠSa": 7226,
      "Ġmedie": 7227,
      "Ġrelacionamento": 7228,
      "Ġsebast": 7229,
      "Ġabas": 7230,
      "Ġsabor": 7231,
      "ÃŃam": 7232,
      "Ġsess": 7233,
      "Ġcron": 7234,
      "Ġzero": 7235,
      "hat": 7236,
      "Ġexcess": 7237,
      "Ġgeorge": 7238,
      "Ġrecep": 7239,
      "ĠcritÃ©rios": 7240,
      "Ġafast": 7241,
      "ĠcÃ©re": 7242,
      "Ġbarbosa": 7243,
      "Ġsupremo": 7244,
      "Ġassassinato": 7245,
      "urgo": 7246,
      ".,": 7247,
      "Ġoficialmente": 7248,
      "ock": 7249,
      "ichard": 7250,
      "Ġgere": 7251,
      "Ġagress": 7252,
      "Ġdeterminada": 7253,
      "Ġcabelos": 7254,
      "')": 7255,
      "Ġbases": 7256,
      "ĠUniversidade": 7257,
      "Ġcomponentes": 7258,
      "Ġpeixes": 7259,
      "Ġ75": 7260,
      "Ġful": 7261,
      "73": 7262,
      "Ġdiferencia": 7263,
      "Ġcot": 7264,
      "Ġfluxo": 7265,
      "Ġexclu": 7266,
      "Ġ1979": 7267,
      "Ġrepresentante": 7268,
      "Ġcumprir": 7269,
      "Ġcreio": 7270,
      "Ġmilag": 7271,
      "Ġdebat": 7272,
      "Ġinfantil": 7273,
      "ĠcÃ©sar": 7274,
      "Ġauton": 7275,
      "Ġproxim": 7276,
      "Ġza": 7277,
      "Ġpraias": 7278,
      "gt": 7279,
      "Ġdesenc": 7280,
      "rena": 7281,
      "ella": 7282,
      "vendo": 7283,
      "ĠOl": 7284,
      "its": 7285,
      "Ġvaga": 7286,
      "ĠposiÃ§Ãµes": 7287,
      "Ġxviii": 7288,
      "Ġexpa": 7289,
      "Ġtaxas": 7290,
      "Ġabus": 7291,
      "ĠDes": 7292,
      "Ġrelacionados": 7293,
      "ĠJoÃ£o": 7294,
      "wer": 7295,
      "utaÃ§Ã£o": 7296,
      "Ġcobertura": 7297,
      "Ġalternativa": 7298,
      "Ġ1974": 7299,
      "ĠMas": 7300,
      "Ġris": 7301,
      "Ġrealizados": 7302,
      "icial": 7303,
      "AT": 7304,
      "ÃŃnsula": 7305,
      "Ġconside": 7306,
      "usto": 7307,
      "ĠaprovaÃ§Ã£o": 7308,
      "ĠpromoÃ§Ã£o": 7309,
      "Ġcliente": 7310,
      "eza": 7311,
      "Ġespecific": 7312,
      "Ġaula": 7313,
      "Ġgent": 7314,
      "Ġfaziam": 7315,
      "Ġreproduz": 7316,
      "Ġrusso": 7317,
      "Ġmoeda": 7318,
      "Ġunif": 7319,
      "Ġdisposto": 7320,
      "Ġ400": 7321,
      "Ġinterval": 7322,
      "yst": 7323,
      "ĠestÃºdio": 7324,
      "Ġcama": 7325,
      "Ġadministrativa": 7326,
      "Ġcabelo": 7327,
      "ries": 7328,
      "Ġentusias": 7329,
      "Ġorto": 7330,
      "teran": 7331,
      "win": 7332,
      "ĠquÃª": 7333,
      "Ġarranc": 7334,
      "Ġbarco": 7335,
      "vidos": 7336,
      "Ġperceb": 7337,
      "Ġidos": 7338,
      "Ã´nios": 7339,
      "Ġpropaga": 7340,
      "ERM": 7341,
      "Ġ\\": 7342,
      "Ġcultiv": 7343,
      "Ġarrast": 7344,
      "52": 7345,
      "col": 7346,
      "ĠcompreensÃ£o": 7347,
      "Ġevolu": 7348,
      "Ġgord": 7349,
      "ĠsalÃ¡rio": 7350,
      "Ġlatim": 7351,
      "ĠcondenaÃ§Ã£o": 7352,
      "Ġbiol": 7353,
      "pero": 7354,
      "ings": 7355,
      "Ġfinanceiro": 7356,
      "ĠtransformaÃ§Ã£o": 7357,
      "Ġcurta": 7358,
      "Ġintit": 7359,
      "Ġpessoais": 7360,
      "Ġfinalidade": 7361,
      "Ġvib": 7362,
      "ĠdiagnÃ³stico": 7363,
      "Ġaceita": 7364,
      "ruz": 7365,
      "ĠmaÃ§": 7366,
      "Ġplat": 7367,
      "Ġtrabalhando": 7368,
      "Ġcomet": 7369,
      "Ġproje": 7370,
      "Ġmadrugada": 7371,
      "Ġtermina": 7372,
      "Ġsig": 7373,
      "Ġcircuito": 7374,
      "Ġ1930": 7375,
      "ĠtransferÃªncia": 7376,
      "ĠnecessÃ¡rias": 7377,
      "Ġmarcelo": 7378,
      "Ġassembleia": 7379,
      "enÃ§Ãµes": 7380,
      "Ġhumil": 7381,
      "Ġteres": 7382,
      "bis": 7383,
      "ĠtÃ©cnicos": 7384,
      "Ġbraga": 7385,
      "irou": 7386,
      "ertos": 7387,
      "Ġacreditar": 7388,
      "Ġimigrantes": 7389,
      "Ġmarcada": 7390,
      "Ġurbano": 7391,
      "Ġacaso": 7392,
      "Ġruim": 7393,
      "Ġbaseada": 7394,
      "Ġsentimentos": 7395,
      "Ġham": 7396,
      "ĠaÃ©rea": 7397,
      "Ġwww": 7398,
      "Ġultrapass": 7399,
      "Ġafirmar": 7400,
      "Ã©rico": 7401,
      "Ġconquistou": 7402,
      "conce": 7403,
      "Ġpir": 7404,
      "Ġxii": 7405,
      "ĠherÃ³i": 7406,
      "gios": 7407,
      "Ġblu": 7408,
      "Ġlendo": 7409,
      "ĠgrÃ©cia": 7410,
      "Ġcasar": 7411,
      "ĠhaverÃ¡": 7412,
      "Ġpublicou": 7413,
      "ĠLa": 7414,
      "Ġ1975": 7415,
      "Ġprodutores": 7416,
      "Ġgarra": 7417,
      "Ġevidente": 7418,
      "Ġpesquisadores": 7419,
      "ĠMaria": 7420,
      "Ġimposto": 7421,
      "velmente": 7422,
      "cr": 7423,
      "iti": 7424,
      "gs": 7425,
      "ĠcontribuiÃ§Ã£o": 7426,
      "REIT": 7427,
      "ĠinvenÃ§Ã£o": 7428,
      "riqu": 7429,
      "ĠvÃªm": 7430,
      "Ã¢nicas": 7431,
      "ĠmÃ¡xima": 7432,
      "Ġcoragem": 7433,
      "Ġsuperiores": 7434,
      "Ã©ticas": 7435,
      "Ġroupa": 7436,
      "ĠMagistrado": 7437,
      "Ġreligiosos": 7438,
      "tir": 7439,
      "Ġanual": 7440,
      "Ġorganismo": 7441,
      "Ġ1982": 7442,
      "Ãªme": 7443,
      "Ġenv": 7444,
      "ĠorÃ§amento": 7445,
      "Ġculturas": 7446,
      "Ġarco": 7447,
      "Ġrealiza": 7448,
      "Ġabsur": 7449,
      "Ġfrank": 7450,
      "Ġcristianismo": 7451,
      "Ġnaturalmente": 7452,
      "Ġreconhecer": 7453,
      "Ġsente": 7454,
      "Ġconsult": 7455,
      "ituras": 7456,
      "Ġcompanheiros": 7457,
      "Ġfaleceu": 7458,
      "cau": 7459,
      "Ġfreguesia": 7460,
      "Ġsinc": 7461,
      "Ġalar": 7462,
      "Ġprofunda": 7463,
      "Ġfilm": 7464,
      "ĠsalÃ£o": 7465,
      "gonha": 7466,
      "Ġvender": 7467,
      "Ġmonst": 7468,
      "ĠcartÃ£o": 7469,
      "itÃ³rio": 7470,
      "ĠDigital": 7471,
      "Ġresolveu": 7472,
      "ĠFed": 7473,
      "americanos": 7474,
      "Ġembaix": 7475,
      "Ġconcorre": 7476,
      "Ġintelectual": 7477,
      "Ġnesses": 7478,
      "Ġcharles": 7479,
      "ĠinÃºmeras": 7480,
      "ep": 7481,
      "Ġdezenas": 7482,
      "Ã¡culos": 7483,
      "Ġcompens": 7484,
      "Ġsara": 7485,
      "Ã³so": 7486,
      "89": 7487,
      "Ġtru": 7488,
      "ĠvotaÃ§Ã£o": 7489,
      "Ġtop": 7490,
      "Ġcompromisso": 7491,
      "Ġsono": 7492,
      "ĠÃ³b": 7493,
      "Ġtras": 7494,
      "ĠjuÃŃzo": 7495,
      "Ġmarx": 7496,
      "Ġchance": 7497,
      "Ġtalento": 7498,
      "Ġvieira": 7499,
      "Ġseguiu": 7500,
      "reiras": 7501,
      "Ġsoube": 7502,
      "ĠzÃ©": 7503,
      "Ġprogresso": 7504,
      "Ġcausar": 7505,
      "Ġtimes": 7506,
      "Ġmatr": 7507,
      "Ġsegredo": 7508,
      "Ġpura": 7509,
      "Ġaparentemente": 7510,
      "Ġingleses": 7511,
      "Ġdomingos": 7512,
      "Ġvermelha": 7513,
      "Ġondas": 7514,
      "ĠÃºtil": 7515,
      "unÃ§Ã£o": 7516,
      "Ġarbit": 7517,
      "ĠCP": 7518,
      "jÃ¡": 7519,
      "Ġjustifica": 7520,
      "Ġpilotos": 7521,
      "Ġcujos": 7522,
      "ao": 7523,
      "Ġespanhola": 7524,
      "Ġmapa": 7525,
      "Ġreconstru": 7526,
      "Ġlong": 7527,
      "Ġjose": 7528,
      "ÃŃv": 7529,
      "Ġconhecimentos": 7530,
      "Ġouvido": 7531,
      "ceis": 7532,
      "Ġpastor": 7533,
      "mann": 7534,
      "Ġgrit": 7535,
      "ĠmÃ¡s": 7536,
      "Ġcargos": 7537,
      "ĠExecuÃ§Ã£o": 7538,
      "ĠversÃµes": 7539,
      "Ġbordo": 7540,
      "old": 7541,
      "AS": 7542,
      "Ġabst": 7543,
      "Ġaventura": 7544,
      "ĠidentificaÃ§Ã£o": 7545,
      "Ġligado": 7546,
      "Ġoportunidades": 7547,
      "Ġrival": 7548,
      "hamos": 7549,
      "cal": 7550,
      "ĠDIREIT": 7551,
      "Ġproteger": 7552,
      "ĠgeogrÃ¡f": 7553,
      "Ġvossa": 7554,
      "Ġdefens": 7555,
      "ike": 7556,
      "'s": 7557,
      "Ġpne": 7558,
      "Ġgraves": 7559,
      "ĠterÃ£o": 7560,
      "ĠDisponibilizaÃ§Ã£o": 7561,
      "grÃ¡fica": 7562,
      "Ġavis": 7563,
      "ĠterritÃ³rios": 7564,
      "Ġfruto": 7565,
      "Ġfiel": 7566,
      "Ġ2018": 7567,
      "Ġrevolta": 7568,
      "ĠmÃ¡rio": 7569,
      "acos": 7570,
      "Ġcamada": 7571,
      "Ã³polis": 7572,
      "ificadas": 7573,
      "Ġconseguiram": 7574,
      "itavam": 7575,
      "Ġsonhos": 7576,
      "Ġpude": 7577,
      "Ġfei": 7578,
      "Al": 7579,
      "Ġgene": 7580,
      "Ġcens": 7581,
      "Ġdecl": 7582,
      "Ġromana": 7583,
      "Ġsuporte": 7584,
      "Ġhera": 7585,
      "Ġdoze": 7586,
      "ĠAte": 7587,
      "Ġprevisto": 7588,
      "Ġperguntas": 7589,
      "ALMENTE": 7590,
      "Ġgregos": 7591,
      "Ġparaguai": 7592,
      "Ġlos": 7593,
      "Ġformam": 7594,
      "Ġaliados": 7595,
      "ĠCam": 7596,
      "64": 7597,
      "Ġflam": 7598,
      "Ãºne": 7599,
      "Ġdesaparece": 7600,
      "Ġvelhos": 7601,
      "Ġzonas": 7602,
      "Ġfon": 7603,
      "icando": 7604,
      "Ġposicion": 7605,
      "Ġpodiam": 7606,
      "quei": 7607,
      "ĠempresÃ¡rio": 7608,
      "ĠPol": 7609,
      "ĠperÃŃodos": 7610,
      "ĠcanadÃ¡": 7611,
      "Ġpaco": 7612,
      "cut": 7613,
      "Ġfabr": 7614,
      "Ġbrilhante": 7615,
      "Ġtrip": 7616,
      "Ġcans": 7617,
      "Ġbarros": 7618,
      "Ġsamba": 7619,
      "Ġracional": 7620,
      "ulha": 7621,
      "Ã³tico": 7622,
      "Ġfrutos": 7623,
      "Ġletra": 7624,
      "Ġprotes": 7625,
      "Ġcategorias": 7626,
      "dem": 7627,
      "Ġfama": 7628,
      "Ġze": 7629,
      "Ġboc": 7630,
      "!!": 7631,
      "nco": 7632,
      "Ġhttp": 7633,
      "vaÃ§Ãµes": 7634,
      "Ġhosped": 7635,
      "Ġestivesse": 7636,
      "Ġesperava": 7637,
      "Ġpaisagem": 7638,
      "eladas": 7639,
      "):": 7640,
      "Ġgigantes": 7641,
      "ĠconcepÃ§Ã£o": 7642,
      "entamente": 7643,
      "Ġpobreza": 7644,
      "Ġdefinir": 7645,
      "rÃ¡lia": 7646,
      "ĠNova": 7647,
      "Ġamizade": 7648,
      "Ġescolhido": 7649,
      "Ã§adas": 7650,
      "88": 7651,
      "Ġparlamentar": 7652,
      "istÃ³ria": 7653,
      "Ġpic": 7654,
      "bel": 7655,
      "Ġmarcha": 7656,
      "Ġrein": 7657,
      "Ġ1964": 7658,
      "Ġadver": 7659,
      "sen": 7660,
      "CE": 7661,
      "Ġcadeira": 7662,
      "ĠextinÃ§Ã£o": 7663,
      "ĠhistÃ³ricos": 7664,
      "jado": 7665,
      "Ġplataforma": 7666,
      "ling": 7667,
      "ĠAt": 7668,
      "Ġretra": 7669,
      "Ġvereador": 7670,
      "quete": 7671,
      "ĠfilÃ³so": 7672,
      "Ġestradas": 7673,
      "Ġfotografia": 7674,
      "Ġgarantia": 7675,
      "Ġsegundos": 7676,
      "Ġobriga": 7677,
      "Ġwar": 7678,
      "ym": 7679,
      "ĠCont": 7680,
      "Ġfugir": 7681,
      "Ġvisitantes": 7682,
      "Ġ1973": 7683,
      "biliz": 7684,
      "ism": 7685,
      "Ġatores": 7686,
      "ĠpenÃŃnsula": 7687,
      "Ġcatal": 7688,
      "ĠmÃ¡quinas": 7689,
      "rasse": 7690,
      "Ġtrag": 7691,
      "Ġ1983": 7692,
      "ĠfederaÃ§Ã£o": 7693,
      "ĠAtendimento": 7694,
      "yr": 7695,
      "ĠprofissÃ£o": 7696,
      "Ġbron": 7697,
      "Ġrestaurantes": 7698,
      "Ġbura": 7699,
      "ĠmatemÃ¡tica": 7700,
      "Ġdissol": 7701,
      "Ġcasado": 7702,
      "ville": 7703,
      "ĠcÃ©rebro": 7704,
      "pu": 7705,
      "Ġirlanda": 7706,
      "Ġfernandes": 7707,
      "Ġgoi": 7708,
      "Ġharm": 7709,
      "Ġtransformar": 7710,
      "iÃ¡rios": 7711,
      "gico": 7712,
      "ĠlÃŃquido": 7713,
      "Ġcarioca": 7714,
      "Ġcostumes": 7715,
      "ĠconservaÃ§Ã£o": 7716,
      "Ġelevado": 7717,
      "Ġvicente": 7718,
      "Ġporte": 7719,
      "Ġdescobriu": 7720,
      "Ġjean": 7721,
      "Ġteor": 7722,
      "Ġargumento": 7723,
      "Ġcoo": 7724,
      "Ġpernas": 7725,
      "Ġativa": 7726,
      "Ġdum": 7727,
      "Ã¢nio": 7728,
      "Ġtoma": 7729,
      "ĠlanÃ§ar": 7730,
      "rea": 7731,
      "erados": 7732,
      "ted": 7733,
      "ĠEnt": 7734,
      "Ġcit": 7735,
      "Ġcerveja": 7736,
      "ĠAnd": 7737,
      "Ġdiversidade": 7738,
      "seis": 7739,
      "Ã³logos": 7740,
      "Ġcoinc": 7741,
      "65": 7742,
      "Ġgast": 7743,
      "Ġneut": 7744,
      "Ġdinas": 7745,
      "tiliz": 7746,
      "Ġfundamentais": 7747,
      "Ġenvolvendo": 7748,
      "Ã³rnia": 7749,
      "ĠHorÃ¡rio": 7750,
      "Ġcompro": 7751,
      ".'": 7752,
      "ĠJaneiro": 7753,
      "Ġpermaneceu": 7754,
      "rez": 7755,
      "Ġcoop": 7756,
      "Ġseguido": 7757,
      "Ġprost": 7758,
      "Ġautoria": 7759,
      "ĠegÃŃp": 7760,
      "Ġ1984": 7761,
      "ĠimÃ³veis": 7762,
      "elli": 7763,
      "Ġconhecidas": 7764,
      "Ġpano": 7765,
      "ĠsÃº": 7766,
      "Ġ120": 7767,
      "Ġbag": 7768,
      "Ġpropaganda": 7769,
      "ĠdescriÃ§Ã£o": 7770,
      "len": 7771,
      "Ġlevaram": 7772,
      "Ġlegit": 7773,
      "FOR": 7774,
      "Ġhonor": 7775,
      "ette": 7776,
      "ernidade": 7777,
      "Ġpensando": 7778,
      "As": 7779,
      "Ġtreinador": 7780,
      "Ġmargens": 7781,
      "ĠlÃº": 7782,
      "Ġnet": 7783,
      "Ġempr": 7784,
      "Ġsuge": 7785,
      "orro": 7786,
      "ĠMan": 7787,
      "ĠJul": 7788,
      "itiba": 7789,
      "Ġbrin": 7790,
      "Ġcun": 7791,
      "Ġfronteiras": 7792,
      "Ġtransc": 7793,
      "ĠEsp": 7794,
      "Ġexige": 7795,
      "Ã§amb": 7796,
      "ĠespanhÃ³is": 7797,
      "Ġcontos": 7798,
      "ĠprestaÃ§Ã£o": 7799,
      "Ġconec": 7800,
      "Ġdiscutir": 7801,
      "Ġrecentes": 7802,
      "Ġefica": 7803,
      "Ġexag": 7804,
      "Ġabordagem": 7805,
      "ĠtensÃ£o": 7806,
      "Ġrepente": 7807,
      "icana": 7808,
      "Ġquart": 7809,
      "Ġinstante": 7810,
      "antino": 7811,
      "Ġfidal": 7812,
      "Ġavi": 7813,
      "Ġinsist": 7814,
      "oda": 7815,
      "Ã©dios": 7816,
      "ĠdiÃ¡logo": 7817,
      "Ġocul": 7818,
      "Ġfirme": 7819,
      "Ġdeserto": 7820,
      "De": 7821,
      "Ġdesv": 7822,
      "ĠteÃ³r": 7823,
      "estra": 7824,
      "Ġfria": 7825,
      "Ġparentes": 7826,
      "Ġtrama": 7827,
      "ĠmarÃŃt": 7828,
      "ĠnÃ¡": 7829,
      "Ġcontinuam": 7830,
      "zos": 7831,
      "ĠseqÃ¼": 7832,
      "Ġandrade": 7833,
      "ĠsubstÃ¢ncias": 7834,
      "Ġfundador": 7835,
      "ĠvÃŃrus": 7836,
      "ĠsoviÃ©tica": 7837,
      "ĠCon": 7838,
      "Ġpermitiu": 7839,
      "Ġperi": 7840,
      "ĠanÃº": 7841,
      "Ġreligiosas": 7842,
      "Ġretirada": 7843,
      "Ġmou": 7844,
      "Ġacompanhado": 7845,
      "Ġpossibilidades": 7846,
      "laÃ§Ã£o": 7847,
      "Ġreiv": 7848,
      "ĠsoluÃ§Ãµes": 7849,
      "Ġconduta": 7850,
      "Ġocorrido": 7851,
      "Ġsand": 7852,
      "Ġdeterminar": 7853,
      "Ġwest": 7854,
      "Ġadultos": 7855,
      "Ġerrado": 7856,
      "Ġ_": 7857,
      "Ġdesenvolveu": 7858,
      "Ġsinto": 7859,
      "Ġoferta": 7860,
      "Ġespecialistas": 7861,
      "edoria": 7862,
      "ambÃ©m": 7863,
      "Ġpreced": 7864,
      "uÃŃ": 7865,
      "ĠepisÃ³dios": 7866,
      "Ã¡gua": 7867,
      "rÃŃ": 7868,
      "ĠASS": 7869,
      "Ġportal": 7870,
      "Ġmonet": 7871,
      "Ġfrequentemente": 7872,
      "Ġregulam": 7873,
      "Ġama": 7874,
      "ĠOut": 7875,
      "Ġatras": 7876,
      "Ġtrilha": 7877,
      "Ġfundamento": 7878,
      "ĠalteraÃ§Ã£o": 7879,
      "Ġestudante": 7880,
      "Ġhavendo": 7881,
      "adoria": 7882,
      "Ġabol": 7883,
      "Ġvivos": 7884,
      "Ġpratica": 7885,
      "ĠeconÃ´micas": 7886,
      "Ġirregular": 7887,
      "Ġlopes": 7888,
      "Ġoriginalmente": 7889,
      "Ġtorneio": 7890,
      "Ġtecido": 7891,
      "ĠRel": 7892,
      "Ġajust": 7893,
      "Ġdesempre": 7894,
      "ĠUm": 7895,
      "Ġrub": 7896,
      "Ġ1978": 7897,
      "usalÃ©m": 7898,
      "Ġfotograf": 7899,
      "Ġperfeitamente": 7900,
      "Ġpion": 7901,
      "wit": 7902,
      "Ġ1968": 7903,
      "ĠSer": 7904,
      "aliza": 7905,
      "Ġcomit": 7906,
      "paro": 7907,
      "ulados": 7908,
      "ĠTe": 7909,
      "ĠcobranÃ§a": 7910,
      "Ġgira": 7911,
      "ltip": 7912,
      "aneamente": 7913,
      "vens": 7914,
      "ĠÃ¡rabe": 7915,
      "Ġomb": 7916,
      "ĠespetÃ¡culo": 7917,
      "Ġfomos": 7918,
      "ĠexplicaÃ§Ã£o": 7919,
      "Ġformando": 7920,
      "aticamente": 7921,
      "Ġcrimin": 7922,
      "Ġencontrada": 7923,
      "Ġdirigido": 7924,
      "Ġcondenado": 7925,
      "ring": 7926,
      "Ġjornalistas": 7927,
      "uraÃ§Ã£o": 7928,
      "ĠTERM": 7929,
      "opol": 7930,
      "Ġdiretoria": 7931,
      "Ġshows": 7932,
      "Ãºnior": 7933,
      "Ġlas": 7934,
      "Ġprofundo": 7935,
      "iterr": 7936,
      "Ġvenez": 7937,
      "ĠjurÃŃdico": 7938,
      "Ġsentia": 7939,
      "Ġvirg": 7940,
      "Ġvers": 7941,
      "fael": 7942,
      "Ġvitor": 7943,
      "Ġestra": 7944,
      "Ġpau": 7945,
      "elson": 7946,
      "Ġcompanheiro": 7947,
      "Ġdesn": 7948,
      "Ġrepara": 7949,
      "Ġic": 7950,
      "ĠexpediÃ§Ã£o": 7951,
      "stein": 7952,
      "Ġave": 7953,
      "Ġ1945": 7954,
      "indade": 7955,
      "Ġfio": 7956,
      "ĠsuspensÃ£o": 7957,
      "Ġdisciplina": 7958,
      "Ġassociados": 7959,
      "Ġod": 7960,
      "Ġautonomia": 7961,
      "cÃ³p": 7962,
      "ĠlicenÃ§a": 7963,
      "Ġembal": 7964,
      "Ġdisponibiliz": 7965,
      "419": 7966,
      "Ġpreconce": 7967,
      "Ġprecip": 7968,
      "Ġalcance": 7969,
      "Ġsalvar": 7970,
      "RESS": 7971,
      "GEM": 7972,
      "Ġbota": 7973,
      "Ġperform": 7974,
      "Ġapag": 7975,
      "como": 7976,
      "Ġredo": 7977,
      "Ġcuriosidade": 7978,
      "inheiros": 7979,
      "ĠpolÃªm": 7980,
      "Ġenvolvidos": 7981,
      "Ġregistros": 7982,
      "Ġmontanha": 7983,
      "Ġdiabo": 7984,
      "ilares": 7985,
      "Ġchegam": 7986,
      "Ġcanais": 7987,
      "alizada": 7988,
      "Ġmarket": 7989,
      "Ġ101": 7990,
      "Ġlixo": 7991,
      "Ġmanip": 7992,
      "Ġcint": 7993,
      "ĠemprÃ©st": 7994,
      "ĠespecÃŃfico": 7995,
      "Ġextremo": 7996,
      "Ġcriando": 7997,
      "Ġimpedir": 7998,
      "ĠfrequÃªncia": 7999,
      "ĠTribunal": 8000,
      "Ġricos": 8001,
      "ĠcatÃ³licos": 8002,
      "Ġacons": 8003,
      "Ġsabendo": 8004,
      "zil": 8005,
      "Ġdentes": 8006,
      "ĠleÃ£o": 8007,
      "ĠpopulaÃ§Ãµes": 8008,
      "ĠimplantaÃ§Ã£o": 8009,
      "Ġbloco": 8010,
      "Ġ65": 8011,
      "Ġ44": 8012,
      "Ġfas": 8013,
      "Ġbeat": 8014,
      "ĠBa": 8015,
      "Ġcontrolar": 8016,
      "ĠreproduÃ§Ã£o": 8017,
      "Ġcavaleiro": 8018,
      "Ġlutar": 8019,
      "VI": 8020,
      "ĠmÃºltip": 8021,
      "Ġpercurso": 8022,
      "100": 8023,
      "Ġconvite": 8024,
      "Ġpaga": 8025,
      "iet": 8026,
      "Ġbonito": 8027,
      "Ġexceto": 8028,
      "ĠraÃŃzes": 8029,
      "ibe": 8030,
      "ĠincÃªnd": 8031,
      "Ġcadas": 8032,
      "Ġrespostas": 8033,
      "Ġesquecer": 8034,
      "ĠseparaÃ§Ã£o": 8035,
      "cep": 8036,
      "Ġdivina": 8037,
      "Ġquadros": 8038,
      "tod": 8039,
      "ĠmolÃ©c": 8040,
      "ĠcÃ¡lculo": 8041,
      "ĠgonÃ§alves": 8042,
      "Ġprocedimentos": 8043,
      "ĠconcessÃ£o": 8044,
      "Ġpoderoso": 8045,
      "Ġministros": 8046,
      "Ġdebaixo": 8047,
      "Ġdistante": 8048,
      "ĠprÃ³ximas": 8049,
      "Ġonu": 8050,
      "Ġgerar": 8051,
      "Ġcamisa": 8052,
      "Ġprivada": 8053,
      "Ġlateral": 8054,
      "Ġabsolutamente": 8055,
      "Ġplena": 8056,
      "Ã§u": 8057,
      "ĠpÃ¡ss": 8058,
      "Ġwashington": 8059,
      "eixeira": 8060,
      "bs": 8061,
      "zz": 8062,
      "Ġdespe": 8063,
      "Ġ1976": 8064,
      "ĠcerimÃ´nia": 8065,
      "urar": 8066,
      "ĠLEI": 8067,
      "gam": 8068,
      "Ġsimpat": 8069,
      "cara": 8070,
      "Ġquint": 8071,
      "Ġprotoc": 8072,
      "ĠdimensÃ£o": 8073,
      "Ġsimult": 8074,
      "Ġcatedral": 8075,
      "ĠcrÃŃtico": 8076,
      "ÃŃcula": 8077,
      "Ġgama": 8078,
      "Ġorgulho": 8079,
      "Ġafro": 8080,
      "Ġorganizado": 8081,
      "ĠmÃ©dica": 8082,
      "Ġregionais": 8083,
      "Ġsozinho": 8084,
      "Ġalb": 8085,
      "2016": 8086,
      "Ġpolu": 8087,
      "ĠSanta": 8088,
      "ĠendereÃ§o": 8089,
      "Ġflex": 8090,
      "Ġexistente": 8091,
      "Ġrevelou": 8092,
      "plas": 8093,
      "Ã¡vio": 8094,
      "Ġinformou": 8095,
      "Ġuc": 8096,
      "ĠGe": 8097,
      "pondo": 8098,
      "Ġbelas": 8099,
      "Ġcorrig": 8100,
      "Ġsoares": 8101,
      "bitos": 8102,
      "ĠolÃ¡": 8103,
      "iantes": 8104,
      "Ġverificar": 8105,
      "GO": 8106,
      "ifa": 8107,
      "Ġfuncional": 8108,
      "Ġsenso": 8109,
      "Ġdescobri": 8110,
      "Ġdiga": 8111,
      "Ġescritos": 8112,
      "eck": 8113,
      "Ġdiscos": 8114,
      "Ġvocal": 8115,
      "Ġanalisar": 8116,
      "Ġcomentar": 8117,
      "ĠdeverÃ£o": 8118,
      "Ġ1969": 8119,
      "Ġsituada": 8120,
      "Ġdepos": 8121,
      "ampeonato": 8122,
      "ĠvitÃ³rias": 8123,
      "Ġnuclear": 8124,
      "ĠestaÃ§Ãµes": 8125,
      "Ġmunicipais": 8126,
      "ĠalmoÃ§o": 8127,
      "ĠcirculaÃ§Ã£o": 8128,
      "ĠcomeÃ§am": 8129,
      "ĠcÃ£o": 8130,
      "Ġconter": 8131,
      "Ġmissa": 8132,
      "acidade": 8133,
      "Ġgabinete": 8134,
      "Ġfabric": 8135,
      "ĠpreparaÃ§Ã£o": 8136,
      "Ġsm": 8137,
      "Ġbud": 8138,
      "utu": 8139,
      "Ġconfund": 8140,
      "ĠdeterminaÃ§Ã£o": 8141,
      "ionÃ¡rio": 8142,
      "GIT": 8143,
      "Ġnorma": 8144,
      "Ġbig": 8145,
      "imidade": 8146,
      "Ġsuic": 8147,
      "ionar": 8148,
      "Ġturma": 8149,
      "ĠVistos": 8150,
      "ĠnÃ©": 8151,
      "Ġitens": 8152,
      "Ġaluno": 8153,
      "ĠcientÃŃfico": 8154,
      "ĠincrÃŃvel": 8155,
      "ĠedifÃŃcios": 8156,
      "ego": 8157,
      "ĠÃ¡rabes": 8158,
      "Ġobteve": 8159,
      "Ġcontratos": 8160,
      "INADO": 8161,
      "Ġengenheiro": 8162,
      "Ġrepresentam": 8163,
      "Ġbruno": 8164,
      "Ġtrajet": 8165,
      "Ġpisc": 8166,
      "Ġluis": 8167,
      "ics": 8168,
      "Ġvital": 8169,
      "Ġbanho": 8170,
      "Ġestabeleceu": 8171,
      "Ġalmas": 8172,
      "Ġaparecem": 8173,
      "Ġpain": 8174,
      "ĠantÃ³nio": 8175,
      "ĠVer": 8176,
      "ĠNOS": 8177,
      "iola": 8178,
      "Ġpref": 8179,
      "Ġapresentada": 8180,
      "Ġarquivos": 8181,
      "Ġsituado": 8182,
      "rense": 8183,
      "62": 8184,
      "Ġexcep": 8185,
      "Ġnestes": 8186,
      "Ġdiferenc": 8187,
      "Ġeixo": 8188,
      "edos": 8189,
      "Ġpecado": 8190,
      "Ãªnia": 8191,
      "ĠconheÃ§o": 8192,
      "ĠcaÃ§": 8193,
      "Ġlenda": 8194,
      "ĠlÃ¡gr": 8195,
      "Ġutiliza": 8196,
      "ĠMunic": 8197,
      "Ġlaran": 8198,
      "ĠeconÃ³m": 8199,
      "Ġfaixas": 8200,
      "posiÃ§Ãµes": 8201,
      "Ġpux": 8202,
      "nes": 8203,
      "2014": 8204,
      "Ãºria": 8205,
      "ĠinvÃ©s": 8206,
      "Ġentende": 8207,
      "Ġbolsa": 8208,
      "Ġprotesto": 8209,
      "Ġigno": 8210,
      "Ġprecisamos": 8211,
      "Ġsudeste": 8212,
      "ĠoraÃ§Ã£o": 8213,
      "Ġvagas": 8214,
      "Ġturistas": 8215,
      "Ġ2020": 8216,
      "Ġmasculino": 8217,
      "strias": 8218,
      "usse": 8219,
      "Ġmetropolit": 8220,
      "urs": 8221,
      "ĠescritÃ³rio": 8222,
      "Ġ1940": 8223,
      "ĠindÃŃgena": 8224,
      "gueiro": 8225,
      "Ġavaliar": 8226,
      "Ġdeixaram": 8227,
      "Ġgostei": 8228,
      "my": 8229,
      "Ġpim": 8230,
      "Ġpesca": 8231,
      "ĠÃŃnt": 8232,
      "Ġul": 8233,
      "Ġcp": 8234,
      "Ġgraus": 8235,
      "Ã¡n": 8236,
      "Ġaltamente": 8237,
      "Ġgesto": 8238,
      "ien": 8239,
      "Ġ49": 8240,
      "Ġsantana": 8241,
      "Ġ1972": 8242,
      "Ġvizinhos": 8243,
      "Ġarquiv": 8244,
      "ĠcristÃ£o": 8245,
      "Ġriscos": 8246,
      "ĠpÃ¡tria": 8247,
      "Ġsementes": 8248,
      "Ġgin": 8249,
      "rema": 8250,
      "Ġiniciar": 8251,
      "Ġcass": 8252,
      "ĠaquisiÃ§Ã£o": 8253,
      "Ġtreinamento": 8254,
      "Ġperfeita": 8255,
      "Ġseco": 8256,
      "imarÃ£es": 8257,
      "85": 8258,
      "Ġserviu": 8259,
      "Ġassinatura": 8260,
      "quad": 8261,
      "Ã³x": 8262,
      "Ġtorres": 8263,
      "ĠinÃ©d": 8264,
      "fogo": 8265,
      "ĠDIGIT": 8266,
      "Ġrum": 8267,
      "messa": 8268,
      "Ġsalas": 8269,
      "Ġcorresponde": 8270,
      "Ġparada": 8271,
      "Ġprovis": 8272,
      "Ġvencedor": 8273,
      "RESSÃĥO": 8274,
      "ĠrevisÃ£o": 8275,
      "Ġdesast": 8276,
      "Ġaplicativos": 8277,
      "Ġofens": 8278,
      "Ġabrig": 8279,
      "ni": 8280,
      "ĠDOCU": 8281,
      "Ġdeseja": 8282,
      "Ġreag": 8283,
      "Ġelog": 8284,
      "Ġvisando": 8285,
      "ilaÃ§Ã£o": 8286,
      "Ġintegrantes": 8287,
      "Ġchile": 8288,
      "Ġcheiro": 8289,
      "Ġouviu": 8290,
      "urante": 8291,
      "ĠprovÃ¡vel": 8292,
      "Ġmichel": 8293,
      "gente": 8294,
      "ÃŃgio": 8295,
      "Ġ000": 8296,
      "Ġsociedades": 8297,
      "ĠcooperaÃ§Ã£o": 8298,
      "Ġagir": 8299,
      "edro": 8300,
      "Ġproven": 8301,
      "Ġpmdb": 8302,
      "Ġadministrativo": 8303,
      "Ġsousa": 8304,
      "Ġvemos": 8305,
      "ĠtradiÃ§Ãµes": 8306,
      "Ġreformas": 8307,
      "Ġrazo": 8308,
      "Ġmercados": 8309,
      "Ġdinam": 8310,
      "69": 8311,
      "mith": 8312,
      "istro": 8313,
      "Ġesquema": 8314,
      "67": 8315,
      "Ġincl": 8316,
      "ĠInst": 8317,
      "ĠfabricaÃ§Ã£o": 8318,
      "Ġous": 8319,
      "FORME": 8320,
      "Ġair": 8321,
      "Ġunidas": 8322,
      "ĠmaranhÃ£o": 8323,
      "ĠTERMOS": 8324,
      "Ġsoftware": 8325,
      "Ġcai": 8326,
      "Ġsimp": 8327,
      "Ġtortura": 8328,
      "Ġmusicais": 8329,
      "ĠÃ¡lcool": 8330,
      "Ġcotid": 8331,
      "ĠDOCUMENTO": 8332,
      "ĠlegÃŃt": 8333,
      "Ġestacion": 8334,
      "icismo": 8335,
      "Ġsofrer": 8336,
      "ĠediÃ§Ãµes": 8337,
      "ĠsubstÃ¢ncia": 8338,
      "imes": 8339,
      "Ġup": 8340,
      "ĠclÃ¡ssica": 8341,
      "Ġdispositivo": 8342,
      "Ġalimentar": 8343,
      "Ġargumentos": 8344,
      "ĠMARGEM": 8345,
      "ĠASSINADO": 8346,
      "ivais": 8347,
      "Ġabsoluta": 8348,
      "ĠCONFORME": 8349,
      "ĠmoÃ§amb": 8350,
      "Ġaur": 8351,
      "tur": 8352,
      "Ġchamadas": 8353,
      "oco": 8354,
      "Ġapropri": 8355,
      "ĠDIGITALMENTE": 8356,
      "ĠcompetÃªncia": 8357,
      "Ġvirgem": 8358,
      "Ġcostume": 8359,
      "Ġestando": 8360,
      "Ġ43": 8361,
      "ĠIMPRESSÃĥO": 8362,
      "Ġvirou": 8363,
      "Ġoscar": 8364,
      "Ġdesped": 8365,
      "Ġlan": 8366,
      "Ġcrescer": 8367,
      "Ġbaixos": 8368,
      "ĠDIREITA": 8369,
      "Ġuniversidades": 8370,
      "Ġcil": 8371,
      "Ġ1981": 8372,
      "Ġproduzida": 8373,
      "Ġpopul": 8374,
      "Ġadiante": 8375,
      "Ġalimento": 8376,
      "ĠlanÃ§ada": 8377,
      "Ġost": 8378,
      "ĠproprietÃ¡rio": 8379,
      "Ġmicros": 8380,
      "Ġtecidos": 8381,
      "Ġdou": 8382,
      "Ġsorriso": 8383,
      "Ġatingiu": 8384,
      "Ġcujas": 8385,
      "Ãºmeros": 8386,
      "Ġhumanas": 8387,
      "Ġgrega": 8388,
      "Ġke": 8389,
      "Ġraios": 8390,
      "Ġexposto": 8391,
      "Ġpenso": 8392,
      "ĠPe": 8393,
      "fei": 8394,
      "ĠsÃ©rgio": 8395,
      "Ġitalianos": 8396,
      "ĠinspiraÃ§Ã£o": 8397,
      "Ġcresceu": 8398,
      "ĠinstalaÃ§Ãµes": 8399,
      "Ġprolon": 8400,
      "Ġintensidade": 8401,
      "Ġpermanecer": 8402,
      "Ġdefinitivamente": 8403,
      "Ġexcesso": 8404,
      "leos": 8405,
      "Ġflorestas": 8406,
      "ĠÃ©tica": 8407,
      "ĠSal": 8408,
      "ĠreferÃªncias": 8409,
      "fund": 8410,
      "Ġpesc": 8411,
      "Ġexclam": 8412,
      "engo": 8413,
      "ĠatlÃ¢ntico": 8414,
      "Ġmelo": 8415,
      "ĠdimensÃµes": 8416,
      "ĠaparÃªncia": 8417,
      "Ġvolt": 8418,
      "Ġgado": 8419,
      "Ãł": 8420,
      "Ġdormir": 8421,
      "Ġposterior": 8422,
      "Ġcristal": 8423,
      "Ġmoto": 8424,
      "Ġgri": 8425,
      "hamento": 8426,
      "ĠCrim": 8427,
      "Ġfico": 8428,
      "Ġestabelecido": 8429,
      "utado": 8430,
      "ĠdÃª": 8431,
      "Ġjusto": 8432,
      "Ġadolescente": 8433,
      "Ġmax": 8434,
      "Ġsubir": 8435,
      "Ġconform": 8436,
      "Ġcontinuidade": 8437,
      "bos": 8438,
      "Ġ41": 8439,
      "Ġespacial": 8440,
      "ĠtransiÃ§Ã£o": 8441,
      "Ġades": 8442,
      "Ġplaca": 8443,
      "Ġnarrativa": 8444,
      "Ġ1967": 8445,
      "ulou": 8446,
      "ĠadversÃ¡rio": 8447,
      "ĠgetÃºlio": 8448,
      "Ġvivia": 8449,
      "Ġferramentas": 8450,
      "rev": 8451,
      "Ġtomando": 8452,
      "ĠlaboratÃ³rio": 8453,
      "Ġjazz": 8454,
      "Ġreportagem": 8455,
      "Ġcustas": 8456,
      "Ġfique": 8457,
      "Ġarc": 8458,
      "ivel": 8459,
      "regr": 8460,
      "Ġgovernam": 8461,
      "Ġsubl": 8462,
      "estaÃ§Ã£o": 8463,
      "Ġleia": 8464,
      "IS": 8465,
      "Ġnisso": 8466,
      "Ġbonita": 8467,
      "ĠFiscal": 8468,
      "Ġrid": 8469,
      "inaÃ§Ãµes": 8470,
      "Ġmultipl": 8471,
      "ĠsÃŃntese": 8472,
      "Ġpositivo": 8473,
      "ls": 8474,
      "orrido": 8475,
      "ĠindicaÃ§Ã£o": 8476,
      "Ġesclarec": 8477,
      "2015": 8478,
      "Ġambientais": 8479,
      "ĠRob": 8480,
      "damente": 8481,
      "Ġtard": 8482,
      "Ġkar": 8483,
      "Ġencontrava": 8484,
      "Ġard": 8485,
      "ĠamazÃ´nia": 8486,
      "ressos": 8487,
      "ĠmuÃ§ulmanos": 8488,
      "Ġlindo": 8489,
      "ĠavanÃ§o": 8490,
      "Ġcriador": 8491,
      "fra": 8492,
      "ĠAb": 8493,
      "ĠterrÃŃvel": 8494,
      "Ġdinastia": 8495,
      "ĠtrÃ¡fico": 8496,
      "tn": 8497,
      "Ġdenunc": 8498,
      "Ġauxiliar": 8499,
      "ĠindÃºstrias": 8500,
      "Ġcontendo": 8501,
      "iras": 8502,
      "Ġquare": 8503,
      "Ġprofundamente": 8504,
      "Ġigualdade": 8505,
      "ecia": 8506,
      "Ġonline": 8507,
      "Ġremun": 8508,
      "Ġmulta": 8509,
      "Ġnovidade": 8510,
      "Ġpoema": 8511,
      "Ġescul": 8512,
      "Ġgelo": 8513,
      "Ġequipamento": 8514,
      "Ġhistoriador": 8515,
      "yd": 8516,
      "alismo": 8517,
      "Ġocidente": 8518,
      "port": 8519,
      "Ġsofrimento": 8520,
      "ĠmÃºsicos": 8521,
      "Ġmaur": 8522,
      "doso": 8523,
      "ĠviÃº": 8524,
      "ĠconsequÃªncia": 8525,
      "ĠrelÃ³g": 8526,
      "ĠÃ³tima": 8527,
      "Ġrepresentar": 8528,
      "Ġpleno": 8529,
      "uela": 8530,
      "Ġirre": 8531,
      "ĠcearÃ¡": 8532,
      "Ġtum": 8533,
      "Ġlarga": 8534,
      "Ġbet": 8535,
      "esco": 8536,
      "Ġoxig": 8537,
      "Ġamarelo": 8538,
      "Ġaprendiz": 8539,
      "Ġcombater": 8540,
      "ĠreflexÃ£o": 8541,
      "Ġquinto": 8542,
      "Ġ1971": 8543,
      "Ġdesce": 8544,
      "Ġdependendo": 8545,
      "Ġdevidamente": 8546,
      "ĠinÃºmeros": 8547,
      "Ġarroz": 8548,
      "Ġdispens": 8549,
      "Ġvias": 8550,
      "ĠpossuÃŃa": 8551,
      "ĠautorizaÃ§Ã£o": 8552,
      "Ġcen": 8553,
      "Ġbairros": 8554,
      "DE": 8555,
      "Ġplen": 8556,
      "ĠelaboraÃ§Ã£o": 8557,
      "Ġbatista": 8558,
      "ĠfiÃ©is": 8559,
      "ĠbritÃ¢nica": 8560,
      "Ġsurpree": 8561,
      "Ġnobres": 8562,
      "Ġmediterr": 8563,
      "ĠSoc": 8564,
      "ĠpÃ´de": 8565,
      "Ġescritores": 8566,
      "Ġcamar": 8567,
      "Ġrestos": 8568,
      "ionado": 8569,
      "Ġcompromet": 8570,
      "Ġsimbol": 8571,
      "Ġdrama": 8572,
      "Ġterminar": 8573,
      "Ġpesco": 8574,
      "Ġexpressa": 8575,
      "Ġintensa": 8576,
      "Ġfum": 8577,
      "Ġnoites": 8578,
      "Ġcorint": 8579,
      "Ġtoca": 8580,
      "Ġrecorre": 8581,
      "ĠirÃ£o": 8582,
      "Ġclim": 8583,
      "istÃ©rio": 8584,
      "Ġstar": 8585,
      "ĠauxÃŃlio": 8586,
      "ilton": 8587,
      "Ġtroc": 8588,
      "Ã³tica": 8589,
      "Ġ2019": 8590,
      "Ġobrigada": 8591,
      "].": 8592,
      "Ġdensidade": 8593,
      "Ġexplic": 8594,
      "Ġposta": 8595,
      "Ġcaminha": 8596,
      "Ġnapole": 8597,
      "ĠsucessÃ£o": 8598,
      "Ã³cia": 8599,
      "Ġveteran": 8600,
      "Ġrevistas": 8601,
      "peu": 8602,
      "kes": 8603,
      "2013": 8604,
      "Ġactu": 8605,
      "Ġxvii": 8606,
      "rilha": 8607,
      "sc": 8608,
      "izam": 8609,
      "Ġincentiv": 8610,
      "Ġpasta": 8611,
      "Ġaspira": 8612,
      "ĠindenizaÃ§Ã£o": 8613,
      "Ġcitado": 8614,
      "ĠjerusalÃ©m": 8615,
      "Ġperegr": 8616,
      "Ġmarketing": 8617,
      "Ġintermed": 8618,
      "ires": 8619,
      "ĠopiniÃµes": 8620,
      "urada": 8621,
      "Ġfres": 8622,
      "Ġocorrem": 8623,
      "Ġmito": 8624,
      "Ġinteira": 8625,
      "Ġpromet": 8626,
      "Ġsemi": 8627,
      "ĠpreservaÃ§Ã£o": 8628,
      "Ġpreparar": 8629,
      "Ġfan": 8630,
      "ĠIntern": 8631,
      "Ġiam": 8632,
      "ombo": 8633,
      "Ġfelipe": 8634,
      "gura": 8635,
      "Ġconstituem": 8636,
      "Ġconvidados": 8637,
      "Ġencontramos": 8638,
      "Ġ1977": 8639,
      "Ġestup": 8640,
      "Ġindicado": 8641,
      "ĠPaul": 8642,
      "Ġtoque": 8643,
      "Ġajudou": 8644,
      "97": 8645,
      "Ġvoo": 8646,
      "Ġvapor": 8647,
      "ĠsatisfaÃ§Ã£o": 8648,
      "Ã¢mico": 8649,
      "Ġobsc": 8650,
      "ĠredaÃ§Ã£o": 8651,
      "Ġnit": 8652,
      "Ġreconhecido": 8653,
      "Ġholanda": 8654,
      "Ġdc": 8655,
      "Ġconquistar": 8656,
      "Ġfrutas": 8657,
      "ĠÃ³pera": 8658,
      "Ġcalc": 8659,
      "och": 8660,
      "ĠprejuÃŃzo": 8661,
      "Ġdores": 8662,
      "Ġacom": 8663,
      "Ġexpectativa": 8664,
      "ĠsatÃ©l": 8665,
      "Ġabastec": 8666,
      "Ġligados": 8667,
      "ĠcombustÃŃvel": 8668,
      "Ġdemonstra": 8669,
      "Ġhouver": 8670,
      "Ġimediato": 8671,
      "Ġdesembar": 8672,
      "Ġ85": 8673,
      "Ġfundos": 8674,
      "udes": 8675,
      "Ġassal": 8676,
      "illa": 8677,
      "ecÃ§Ã£o": 8678,
      "Ã¢mara": 8679,
      "ĠcombinaÃ§Ã£o": 8680,
      "Ġimprov": 8681,
      "ational": 8682,
      "Ġfras": 8683,
      "Ġrodrigo": 8684,
      "Ġhouv": 8685,
      "Ġpedidos": 8686,
      "Ġfalam": 8687,
      "Ġmortes": 8688,
      "Ġramo": 8689,
      "Ġtestemunhas": 8690,
      "Se": 8691,
      "ĠPortugal": 8692,
      "Ġcriminal": 8693,
      "Ġassociado": 8694,
      "Ġbateria": 8695,
      "jÃ£o": 8696,
      "Ġcriados": 8697,
      "Ġconto": 8698,
      "Ġassinal": 8699,
      "Ġadolescentes": 8700,
      "itivas": 8701,
      "Ġdoente": 8702,
      "gadas": 8703,
      "Ġassis": 8704,
      ");": 8705,
      "issa": 8706,
      "Ġescr": 8707,
      "Ġline": 8708,
      "Ġmetod": 8709,
      "Ġinteiramente": 8710,
      "Ġrurais": 8711,
      "TA": 8712,
      "ĠGuerra": 8713,
      "Ġcolega": 8714,
      "ĠRo": 8715,
      "ĠPer": 8716,
      "ogle": 8717,
      "91": 8718,
      "ĠagrÃŃcola": 8719,
      "Ġgp": 8720,
      "Ġpio": 8721,
      "Ã¢metro": 8722,
      "Ġfalha": 8723,
      "Ġbomba": 8724,
      "ĠplanÃŃc": 8725,
      "well": 8726,
      "Ġneuro": 8727,
      "Ġmete": 8728,
      "kin": 8729,
      "Ġpreval": 8730,
      "ions": 8731,
      "Ġluxo": 8732,
      "Ġexa": 8733,
      "Ġwe": 8734,
      "Ġfamosos": 8735,
      "avera": 8736,
      "Ġextrema": 8737,
      "ĠagradÃ¡vel": 8738,
      "Ġlevantamento": 8739,
      "Ġesportes": 8740,
      "Ġresolve": 8741,
      "Ġkg": 8742,
      "inaram": 8743,
      "Ġelite": 8744,
      "ĠgeraÃ§Ãµes": 8745,
      "tero": 8746,
      "Ãºjo": 8747,
      "Ġcomec": 8748,
      "Ġsalvo": 8749,
      "att": 8750,
      "Ġfecha": 8751,
      "udos": 8752,
      "Ar": 8753,
      "Ġhidrog": 8754,
      "Ġcle": 8755,
      "Ġhot": 8756,
      "Ġdelib": 8757,
      "Ġvasco": 8758,
      "primento": 8759,
      "iat": 8760,
      "Ġcirurgia": 8761,
      "atÃ³rios": 8762,
      "Ġinteligente": 8763,
      "ĠTh": 8764,
      "Ġdouto": 8765,
      "ĠcÃ©lula": 8766,
      "Ġprimo": 8767,
      "Ġusam": 8768,
      "Ġhost": 8769,
      "ĠsubstituiÃ§Ã£o": 8770,
      "ussÃµes": 8771,
      "Ġvistas": 8772,
      "ĠGrande": 8773,
      "Ġcarbono": 8774,
      "obra": 8775,
      "Ġparticulares": 8776,
      "Ġoriginais": 8777,
      "Ġassinado": 8778,
      "ĠnoÃ§Ã£o": 8779,
      "Ġfechado": 8780,
      "Ġ1000": 8781,
      "Ġdefende": 8782,
      "Ġartific": 8783,
      "gaÃ§Ãµes": 8784,
      "Ġorn": 8785,
      "Ġculp": 8786,
      "Ġconfess": 8787,
      "Ġaires": 8788,
      "Ġcana": 8789,
      "Ġpit": 8790,
      "Ġprob": 8791,
      "Ġgreve": 8792,
      "ĠgrÃ£": 8793,
      "ĠinstruÃ§Ã£o": 8794,
      "Ġpermitindo": 8795,
      "ĠcÃ£es": 8796,
      "ĠfazÃª": 8797,
      "Ã¤": 8798,
      "Ġdir": 8799,
      "Ġespada": 8800,
      "Ã³lico": 8801,
      "Ġcachor": 8802,
      "Ġinferno": 8803,
      "Ġsurgimento": 8804,
      "Ġcompreende": 8805,
      "Ġtornam": 8806,
      "rosa": 8807,
      "Ġprivado": 8808,
      "Ġefetu": 8809,
      "Ġastro": 8810,
      "Ġpin": 8811,
      "Ġmedicamentos": 8812,
      "ijo": 8813,
      "Ġviajar": 8814,
      "ĠÃ³dio": 8815,
      "ĠprevisÃ£o": 8816,
      "ĠmistÃ©rio": 8817,
      "Ġgame": 8818,
      "ĠficÃ§Ã£o": 8819,
      "www": 8820,
      "Ã¡vamos": 8821,
      "ostas": 8822,
      "Ġlimpe": 8823,
      "ĠcontrataÃ§Ã£o": 8824,
      "Ġeventual": 8825,
      "Ġmodernos": 8826,
      "Ã³grafo": 8827,
      "Ġford": 8828,
      "Ġdeb": 8829,
      "ĠApÃ³s": 8830,
      "Ġsocialista": 8831,
      "ĠconfusÃ£o": 8832,
      "Ġprovar": 8833,
      "92": 8834,
      "ĠapÃ³st": 8835,
      "vin": 8836,
      "Ġine": 8837,
      "Ġequivalente": 8838,
      "Ġcorrespondente": 8839,
      "2011": 8840,
      "Ġurban": 8841,
      "ĠmatÃ©rias": 8842,
      "Ġsic": 8843,
      "Ġiron": 8844,
      "Ġtou": 8845,
      "Ġinsu": 8846,
      "Ġbord": 8847,
      "ĠpescoÃ§o": 8848,
      "Ġteorias": 8849,
      "Ġdurou": 8850,
      "........": 8851,
      "jou": 8852,
      "ĠQ": 8853,
      "Ġarr": 8854,
      "Ġmensagens": 8855,
      "Ġbloqueio": 8856,
      "Ġperdo": 8857,
      "Ġindividuais": 8858,
      "Ġmotores": 8859,
      "Ġexercer": 8860,
      "Ġbill": 8861,
      "cor": 8862,
      "Ġcalend": 8863,
      "arial": 8864,
      "adia": 8865,
      "orque": 8866,
      "igual": 8867,
      "Ġpoetas": 8868,
      "Ġcoelho": 8869,
      "ecendo": 8870,
      "ndade": 8871,
      "Ġretirar": 8872,
      "Ġmeninas": 8873,
      "Ġarrec": 8874,
      "Ġexistia": 8875,
      "ĠespecÃŃfica": 8876,
      "Ġacost": 8877,
      "Ġtecnologias": 8878,
      "Ġreab": 8879,
      "Ã©ricas": 8880,
      "ĠvÃ³s": 8881,
      "Ġdetermina": 8882,
      "Ġiguais": 8883,
      "Ġrast": 8884,
      "entava": 8885,
      "ĠbÃ¡sico": 8886,
      "ĠÃ¡ustria": 8887,
      "ĠfÃ³s": 8888,
      "2010": 8889,
      "Ġtribut": 8890,
      "Ġcompostos": 8891,
      "garam": 8892,
      "ĠmultidÃ£o": 8893,
      "Ġindign": 8894,
      "Ġtia": 8895,
      "plica": 8896,
      "Ġmp": 8897,
      "Ġdecidir": 8898,
      "Ġ47": 8899,
      "Ġteixeira": 8900,
      "Ġindire": 8901,
      "Ġpuro": 8902,
      "ĠlÃ©": 8903,
      "Ġestaduais": 8904,
      "Ġteat": 8905,
      "ocas": 8906,
      "Ġprivileg": 8907,
      "Ġelevada": 8908,
      "Ġpetro": 8909,
      "Ġhomenage": 8910,
      "Ġusadas": 8911,
      "Ġfortemente": 8912,
      "elaÃ§Ã£o": 8913,
      "Ġanteced": 8914,
      "Ġperturb": 8915,
      "Ġregress": 8916,
      "ĠCarlos": 8917,
      "Ġnessas": 8918,
      "IV": 8919,
      "Ġdescendentes": 8920,
      "Ġrecuperar": 8921,
      "iri": 8922,
      "Ġitem": 8923,
      "2012": 8924,
      "Ġantig": 8925,
      "Ġ58": 8926,
      "Ġblack": 8927,
      "agn": 8928,
      "gl": 8929,
      "Ġmaus": 8930,
      "arqu": 8931,
      "Ġimpul": 8932,
      "asa": 8933,
      "Ġbact": 8934,
      "Ġcobre": 8935,
      "Ġ64": 8936,
      "Ġcantar": 8937,
      "ÃŃdios": 8938,
      "Ġinterfer": 8939,
      "Ġmt": 8940,
      "ilhar": 8941,
      "Ġ54": 8942,
      "Ġdescar": 8943,
      "ĠnotÃ¡vel": 8944,
      "Ġfalava": 8945,
      "Ġvantagens": 8946,
      "ĠFederal": 8947,
      "Ġpreocupa": 8948,
      "Ġcompat": 8949,
      "Ã¢neos": 8950,
      "Ġdisseram": 8951,
      "Ġmandar": 8952,
      "Ġbasicamente": 8953,
      "61": 8954,
      "ĠguimarÃ£es": 8955,
      "Ġbronze": 8956,
      "ĠsÃ³cio": 8957,
      "Ġrelacionadas": 8958,
      "Ġamplo": 8959,
      "ĠeconÃ´micos": 8960,
      "Ġdioc": 8961,
      "Ġlegislativa": 8962,
      "Ġtivemos": 8963,
      "Ġmassas": 8964,
      "Ġtoneladas": 8965,
      "Ġestatuto": 8966,
      "lei": 8967,
      "ĠdenÃºncia": 8968,
      "Ġentregue": 8969,
      "Ġlucas": 8970,
      "Ġcavalos": 8971,
      "Ġagrav": 8972,
      "Ġ51": 8973,
      "Ġturn": 8974,
      "rante": 8975,
      "Ġvoltando": 8976,
      "ĩĴ": 8977,
      "Ġresum": 8978,
      "ĠlÃ¡grimas": 8979,
      "ĠinscriÃ§Ã£o": 8980,
      "Ġprecisamente": 8981,
      "Ġmaci": 8982,
      "ĠfarÃ¡": 8983,
      "Ġcomarca": 8984,
      "ĠvegetaÃ§Ã£o": 8985,
      "Ġdesist": 8986,
      "Ġfinanciamento": 8987,
      "Ġcostuma": 8988,
      "Ġconheceu": 8989,
      "inou": 8990,
      "Ġdesgra": 8991,
      "Ġdenominado": 8992,
      "63": 8993,
      "Ġsentiu": 8994,
      "Ġadria": 8995,
      "Ġcalcul": 8996,
      "Ġpostura": 8997,
      "Ġprocurando": 8998,
      "ĠMe": 8999,
      "Ġok": 9000,
      "Ġamazonas": 9001,
      "ĠRa": 9002,
      "Ġarmadas": 9003,
      "Ġlutas": 9004,
      "Ġconcreto": 9005,
      "ĠreuniÃµes": 9006,
      "elhas": 9007,
      "Ġindependentemente": 9008,
      "Ġengra": 9009,
      "Ġrecu": 9010,
      "Ġachava": 9011,
      "Ġencontradas": 9012,
      "Ġfc": 9013,
      "ĠcolaboraÃ§Ã£o": 9014,
      "Ġrj": 9015,
      "Ġinteressantes": 9016,
      "ĠtrajetÃ³ria": 9017,
      "Ġprofundidade": 9018,
      "Ġreferido": 9019,
      "Ġreservas": 9020,
      "Ġrodada": 9021,
      "Ġtup": 9022,
      "Ġbaixas": 9023,
      "Ġuruguai": 9024,
      "Ġenviado": 9025,
      "ĠmissÃµes": 9026,
      "ĠespÃŃritos": 9027,
      "Ġevangelho": 9028,
      "Ġimaginar": 9029,
      "Ġalien": 9030,
      "Ġequilib": 9031,
      "Ġcruzeiro": 9032,
      "imbra": 9033,
      "Ġdisper": 9034,
      "ĠemoÃ§Ã£o": 9035,
      "Ġfebre": 9036,
      "ĠgravaÃ§Ã£o": 9037,
      "Ġqueremos": 9038,
      "Ġprevista": 9039,
      "oni": 9040,
      "Ġrea": 9041,
      "Ġpartiu": 9042,
      "Ġapoiar": 9043,
      "Ġapresentados": 9044,
      "Ġcacho": 9045,
      "Ġaproveitar": 9046,
      "ĠnegociaÃ§Ãµes": 9047,
      "Ġleal": 9048,
      "ĠheranÃ§a": 9049,
      "ĠdiminuiÃ§Ã£o": 9050,
      "Ġparad": 9051,
      "Ġconsumidores": 9052,
      "Ġrevest": 9053,
      "Ġdividido": 9054,
      "Ġdob": 9055,
      "ĠclÃ¡ssicos": 9056,
      "Ġfornecer": 9057,
      "rich": 9058,
      "Ġvisitas": 9059,
      "Ġdefinido": 9060,
      "ndeses": 9061,
      "Ġvestido": 9062,
      "Ãģ": 9063,
      "Ã´mica": 9064,
      "Ġtemperaturas": 9065,
      "Ġdesab": 9066,
      "Ġsaint": 9067,
      "ridade": 9068,
      "Ġmorreram": 9069,
      "Ġrichard": 9070,
      "Ġentregar": 9071,
      "Ġprision": 9072,
      "Ġespecialista": 9073,
      "ĠsalÃ¡rios": 9074,
      "Ġesquerdo": 9075,
      "ÃŃso": 9076,
      "ĠadaptaÃ§Ã£o": 9077,
      "Ġformal": 9078,
[...]
