{
  "version": "1.0",
  "truncation": null,
  "padding": null,
  "added_tokens": [
    {
      "id": 0,
      "content": "<pad>",
      "single_word": false,
      "lstrip": false,
      "rstrip": false,
      "normalized": false,
      "special": true
    },
    {
      "id": 1,
      "content": "<s>",
      "single_word": false,
      "lstrip": false,
      "rstrip": false,
      "normalized": false,
      "special": true
    },
    {
      "id": 2,
      "content": "</s>",
      "single_word": false,
      "lstrip": false,
      "rstrip": false,
      "normalized": false,
      "special": true
    },
    {
      "id": 3,
      "content": "<mask>",
      "single_word": false,
      "lstrip": false,
      "rstrip": false,
      "normalized": false,
      "special": true
    },
    {
      "id": 4,
      "content": "<cls>",
      "single_word": false,
      "lstrip": false,
      "rstrip": false,
      "normalized": false,
      "special": true
    },
    {
      "id": 5,
      "content": "<question>",
      "single_word": false,
      "lstrip": false,
      "rstrip": false,
      "normalized": false,
      "special": true
    },
    {
      "id": 6,
      "content": "<answer>",
      "single_word": false,
      "lstrip": false,
      "rstrip": false,
      "normalized": false,
      "special": true
    },
    {
      "id": 7,
      "content": "<unk>",
      "single_word": false,
      "lstrip": false,
      "rstrip": false,
      "normalized": false,
      "special": true
    }
  ],
  "normalizer": {
    "type": "Sequence",
    "normalizers": [
      {
        "type": "Replace",
        "pattern": {
          "String": "\n(.)\n"
        },
        "content": "\n"
      },
      {
        "type": "Replace",
        "pattern": {
          "String": "[\n\n]+"
        },
        "content": "\n\n"
      }
    ]
  },
  "pre_tokenizer": {
    "type": "ByteLevel",
    "add_prefix_space": false,
    "trim_offsets": true,
    "use_regex": true
  },
  "post_processor": null,
  "decoder": {
    "type": "ByteLevel",
    "add_prefix_space": true,
    "trim_offsets": true,
    "use_regex": true
  },
  "model": {
    "type": "BPE",
    "dropout": null,
    "unk_token": null,
    "continuing_subword_prefix": null,
    "end_of_word_suffix": null,
    "fuse_unk": false,
    "byte_fallback": false,
    "vocab": {
      "<pad>": 0,
      "<s>": 1,
      "</s>": 2,
      "<mask>": 3,
      "<cls>": 4,
      "<question>": 5,
      "<answer>": 6,
      "<unk>": 7,
      "!": 8,
      "\"": 9,
      "#": 10,
      "$": 11,
      "%": 12,
      "&": 13,
      "'": 14,
      "(": 15,
      ")": 16,
      "*": 17,
      "+": 18,
      ",": 19,
      "-": 20,
      ".": 21,
      "/": 22,
      "0": 23,
      "1": 24,
      "2": 25,
      "3": 26,
      "4": 27,
      "5": 28,
      "6": 29,
      "7": 30,
      "8": 31,
      "9": 32,
      ":": 33,
      ";": 34,
      "<": 35,
      "=": 36,
      ">": 37,
      "?": 38,
      "@": 39,
      "A": 40,
      "B": 41,
      "C": 42,
      "D": 43,
      "E": 44,
      "F": 45,
      "G": 46,
      "H": 47,
      "I": 48,
      "J": 49,
      "K": 50,
      "L": 51,
      "M": 52,
      "N": 53,
      "O": 54,
      "P": 55,
      "Q": 56,
      "R": 57,
      "S": 58,
      "T": 59,
      "U": 60,
      "V": 61,
      "W": 62,
      "X": 63,
      "Y": 64,
      "Z": 65,
      "[": 66,
      "\\": 67,
      "]": 68,
      "^": 69,
      "_": 70,
      "`": 71,
      "a": 72,
      "b": 73,
      "c": 74,
      "d": 75,
      "e": 76,
      "f": 77,
      "g": 78,
      "h": 79,
      "i": 80,
      "j": 81,
      "k": 82,
      "l": 83,
      "m": 84,
      "n": 85,
      "o": 86,
      "p": 87,
      "q": 88,
      "r": 89,
      "s": 90,
      "t": 91,
      "u": 92,
      "v": 93,
      "w": 94,
      "x": 95,
      "y": 96,
      "z": 97,
      "{": 98,
      "|": 99,
      "}": 100,
      "~": 101,
      "¡": 102,
      "¢": 103,
      "£": 104,
      "¤": 105,
      "¥": 106,
      "¦": 107,
      "§": 108,
      "¨": 109,
      "©": 110,
      "ª": 111,
      "«": 112,
      "¬": 113,
      "®": 114,
      "¯": 115,
      "°": 116,
      "±": 117,
      "²": 118,
      "³": 119,
      "´": 120,
      "µ": 121,
      "¶": 122,
      "·": 123,
      "¸": 124,
      "¹": 125,
      "º": 126,
      "»": 127,
      "¼": 128,
      "½": 129,
      "¾": 130,
      "¿": 131,
      "Â": 132,
      "Ã": 133,
      "Ä": 134,
      "Å": 135,
      "Ë": 136,
      "Ð": 137,
      "×": 138,
      "á": 139,
      "â": 140,
      "ã": 141,
      "æ": 142,
      "è": 143,
      "ï": 144,
      "Ĉ": 145,
      "ĉ": 146,
      "Ċ": 147,
      "Đ": 148,
      "Ę": 149,
      "Ġ": 150,
      "Ģ": 151,
      "ģ": 152,
      "Ĥ": 153,
      "ĥ": 154,
      "Ħ": 155,
      "ħ": 156,
      "Ĩ": 157,
      "ĩ": 158,
      "Ī": 159,
      "ī": 160,
      "Ĭ": 161,
      "Į": 162,
      "į": 163,
      "İ": 164,
      "ı": 165,
      "Ĳ": 166,
      "ĳ": 167,
      "Ĵ": 168,
      "ĵ": 169,
      "Ķ": 170,
      "ķ": 171,
      "ĸ": 172,
      "Ĺ": 173,
      "ĺ": 174,
      "Ļ": 175,
      "ļ": 176,
      "Ľ": 177,
      "ľ": 178,
      "Ŀ": 179,
      "ŀ": 180,
      "Ł": 181,
      "ł": 182,
      "Ń": 183,
      "Ġt": 184,
      "Ġa": 185,
      "he": 186,
      "in": 187,
      "Ġthe": 188,
      "Ġs": 189,
      "re": 190,
      "Ġw": 191,
      "Ġo": 192,
      "er": 193,
      "is": 194,
      "it": 195,
      "en": 196,
      "Ġf": 197,
      "Ġm": 198,
      "Ġb": 199,
      "ha": 200,
      "nd": 201,
      "ing": 202,
      "Ġc": 203,
      "es": 204,
      "or": 205,
      "ou": 206,
      "on": 207,
      "om": 208,
      "ll": 209,
      "Ġof": 210,
      "Ġand": 211,
      "Ġto": 212,
      "Ġp": 213,
      "le": 214,
      "Ġd": 215,
      "an": 216,
      "ed": 217,
      "Ġin": 218,
      "at": 219,
      "ar": 220,
      "as": 221,
      "Ġis": 222,
      "Ġl": 223,
      "his": 224,
      "br": 225,
      "Ġg": 226,
      "ĠI": 227,
      "ic": 228,
      "Ġ/": 229,
      "Ġ/>": 230,
      "us": 231,
      "hat": 232,
      "ot": 233,
      "Ġn": 234,
      "ut": 235,
      "ent": 236,
      "ct": 237,
      "al": 238,
      "Ġit": 239,
      "Ġe": 240,
      "il": 241,
      "im": 242,
      "Ġbe": 243,
      "ve": 244,
      "ly": 245,
      "Ġmo": 246,
      "ĠT": 247,
      "Ġha": 248,
      "vi": 249,
      "ho": 250,
      "tt": 251,
      "Ġre": 252,
      "Ġon": 253,
      "Ġthat": 254,
      "ver": 255,
      "'s": 256,
      "Ġhe": 257,
      "ra": 258,
      "st": 259,
      "ion": 260,
      "Ġthis": 261,
      "com": 262,
      "Ġst": 263,
      "ay": 264,
      "gh": 265,
      "Ġwas": 266,
      "Ġy": 267,
      "et": 268,
      "vie": 269,
      "Ġ/><": 270,
      "ww": 271,
      "ri": 272,
      "ith": 273,
      "ilm": 274,
      "ro": 275,
      "Ġfilm": 276,
      "Ġfor": 277,
      "ad": 278,
      "Ġas": 279,
      "ce": 280,
      "all": 281,
      "ch": 282,
      "Ġwith": 283,
      "ke": 284,
      "ld": 285,
      "ĠA": 286,
      "Ġan": 287,
      "Ġse": 288,
      "se": 289,
      "id": 290,
      "ĠS": 291,
      "Ġh": 292,
      "oo": 293,
      "Ġmovie": 294,
      "un": 295,
      "ĠThe": 296,
      "Ġyou": 297,
      "ir": 298,
      "ow": 299,
      ".<": 300,
      "ment": 301,
      "Ġth": 302,
      "am": 303,
      "ĠB": 304,
      "her": 305,
      "Ġli": 306,
      "ur": 307,
      "Ġbut": 308,
      "ĠM": 309,
      "'t": 310,
      "Ġwe": 311,
      "Ġnot": 312,
      "ally": 313,
      "Ġ(": 314,
      "ĠC": 315,
      "ill": 316,
      "Ġ\"": 317,
      "ĠH": 318,
      "ck": 319,
      "ers": 320,
      "Ġare": 321,
      "Ġhis": 322,
      "ght": 323,
      "ul": 324,
      "..": 325,
      "ould": 326,
      "ĠW": 327,
      "ments": 328,
      "ome": 329,
      "Ġhave": 330,
      "pe": 331,
      "ĠD": 332,
      "Ġsc": 333,
      "ust": 334,
      "itle": 335,
      "if": 336,
      "up": 337,
      "Ġj": 338,
      "db": 339,
      "em": 340,
      "user": 341,
      "title": 342,
      "//": 343,
      "://": 344,
      "ttp": 345,
      "www": 346,
      "imdb": 347,
      "http": 348,
      "end": 349,
      "comments": 350,
      "usercomments": 351,
      "ble": 352,
      "out": 353,
      "Ġact": 354,
      "Ġdo": 355,
      "Ġwho": 356,
      "Ġone": 357,
      "el": 358,
      "Ġex": 359,
      "ess": 360,
      "ain": 361,
      "rom": 362,
      "Ġk": 363,
      "Ġso": 364,
      "Ġpl": 365,
      "very": 366,
      "Ġcom": 367,
      "ter": 368,
      "Ġat": 369,
      "Ġall": 370,
      "Ġab": 371,
      "art": 372,
      "ood": 373,
      "ant": 374,
      "Ġcha": 375,
      "Ġal": 376,
      "Ġby": 377,
      "ag": 378,
      "ol": 379,
      "how": 380,
      "ak": 381,
      "est": 382,
      "Ġwh": 383,
      "Ġde": 384,
      "op": 385,
      "ous": 386,
      "ĠP": 387,
      "ort": 388,
      "Ġfrom": 389,
      "ĠL": 390,
      "Ġthey": 391,
      "ĠR": 392,
      "ast": 393,
      "Ġne": 394,
      "Ġlike": 395,
      "ist": 396,
      "ie": 397,
      "one": 398,
      "and": 399,
      "Ġout": 400,
      "qu": 401,
      "ĠF": 402,
      "Ġsome": 403,
      "Ġwhe": 404,
      "ven": 405,
      "Ġint": 406,
      "Ġor": 407,
      "ation": 408,
      "Ġcon": 409,
      "Ġsu": 410,
      "ĠJ": 411,
      "red": 412,
      "ĠG": 413,
      "fe": 414,
      "ough": 415,
      "Ġher": 416,
      "Ġle": 417,
      "Ġhas": 418,
      "Ġjust": 419,
      "Ġabout": 420,
      "Ġme": 421,
      "ĠIt": 422,
      "hing": 423,
      "ract": 424,
      "res": 425,
      "um": 426,
      "Ġpro": 427,
      "Ġwor": 428,
      "pp": 429,
      "ind": 430,
      "ate": 431,
      "ory": 432,
      "ĠN": 433,
      "os": 434,
      "ive": 435,
      "ack": 436,
      "Ġcan": 437,
      "pt": 438,
      "Ġun": 439,
      "ud": 440,
      "Ġtim": 441,
      "ig": 442,
      "The": 443,
      "ĠE": 444,
      "ire": 445,
      "ake": 446,
      "ight": 447,
      "reat": 448,
      "Ġcharact": 449,
      "han": 450,
      "Ġup": 451,
      "Ġgood": 452,
      "00": 453,
      "ong": 454,
      "Ġman": 455,
      "Ġlo": 456,
      "ook": 457,
      "ich": 458,
      "Ġany": 459,
      "Ġwat": 460,
      "Ġr": 461,
      "ĠO": 462,
      "Ġgo": 463,
      "Ġmore": 464,
      "ies": 465,
      "Ġwhat": 466,
      "Ġno": 467,
      "ity": 468,
      "ry": 469,
      "Ġsee": 470,
      "Ġwould": 471,
      "Ġfe": 472,
      "Ġvery": 473,
      "Ġfa": 474,
      "ound": 475,
      "Ġthere": 476,
      "nt": 477,
      "ther": 478,
      "Ġsh": 479,
      "use": 480,
      "Ġmy": 481,
      "ite": 482,
      "ge": 483,
      "Ġstory": 484,
      "od": 485,
      "Ġget": 486,
      "ard": 487,
      "Ġtime": 488,
      "Ġshe": 489,
      "Ġwhen": 490,
      "ame": 491,
      "ci": 492,
      "Ġ1": 493,
      "Ġen": 494,
      "ca": 495,
      "Ġtheir": 496,
      "ure": 497,
      "Ġscen": 498,
      "ell": 499,
      "able": 500,
      "Ġwere": 501,
      "Ġ-": 502,
      "lf": 503,
      "Ġreally": 504,
      "oy": 505,
      "ore": 506,
      "Ġhad": 507,
      "itt": 508,
      "Ġonly": 509,
      "Ġif": 510,
      "pl": 511,
      "Ġhim": 512,
      "Ġv": 513,
      "Ġshow": 514,
      "ick": 515,
      "Ġeven": 516,
      "Ġper": 517,
      "ink": 518,
      "ĠK": 519,
      "Ġother": 520,
      "Ġwatch": 521,
      "Ġwhich": 522,
      "so": 523,
      "Ġthem": 524,
      "Ġcl": 525,
      "ves": 526,
      "ine": 527,
      "Ġthan": 528,
      "our": 529,
      "Ġkn": 530,
      "man": 531,
      "Ġdid": 532,
      "ond": 533,
      "og": 534,
      "Ġend": 535,
      "Ġdoes": 536,
      "uch": 537,
      "ab": 538,
      "ars": 539,
      "Ġpe": 540,
      "ays": 541,
      "...": 542,
      "Ġgreat": 543,
      "Ġlook": 544,
      "are": 545,
      "ice": 546,
      "ru": 547,
      "Ġqu": 548,
      "Ġbad": 549,
      "ide": 550,
      "Ġmuch": 551,
      "ade": 552,
      "Ġar": 553,
      "Ġcould": 554,
      "irect": 555,
      "ople": 556,
      "irst": 557,
      "Ġbeen": 558,
      "ert": 559,
      "int": 560,
      "ence": 561,
      "ple": 562,
      "Ġwill": 563,
      "Ġhow": 564,
      "Ġinto": 565,
      "Ġpo": 566,
      "Ġim": 567,
      "Ġover": 568,
      "cause": 569,
      "ile": 570,
      "Ġro": 571,
      "ne": 572,
      "Ġwell": 573,
      "Ġmost": 574,
      "Ġpre": 575,
      "ĠThis": 576,
      "Ġpeople": 577,
      "Ġknow": 578,
      "Ġtw": 579,
      "other": 580,
      "for": 581,
      "ving": 582,
      "ass": 583,
      "ng": 584,
      "Ġthink": 585,
      "Ġdis": 586,
      "th": 587,
      "ep": 588,
      "age": 589,
      "Ġus": 590,
      "Ġtoo": 591,
      "Ġbecause": 592,
      "ac": 593,
      "Ġoff": 594,
      "Ġad": 595,
      "Ġag": 596,
      "ff": 597,
      "fter": 598,
      "01": 599,
      "Ġmake": 600,
      "Ġevery": 601,
      "ors": 602,
      "Ġreal": 603,
      "ful": 604,
      "Ġdirect": 605,
      "Ġpart": 606,
      "Ġfirst": 607,
      "Ġam": 608,
      "Ġthing": 609,
      "ere": 610,
      "Ġsp": 611,
      "Ġmade": 612,
      "ull": 613,
      "vies": 614,
      "ny": 615,
      "Ġfun": 616,
      "Ġsa": 617,
      "Ġway": 618,
      "und": 619,
      "ish": 620,
      "Ġalso": 621,
      "te": 622,
      "ict": 623,
      "Ġseem": 624,
      "ary": 625,
      "wn": 626,
      "Ġmovies": 627,
      "Ġdon": 628,
      "Ġbl": 629,
      "au": 630,
      "Ġcharacter": 631,
      "Ġits": 632,
      "Ġgu": 633,
      "Ġ'": 634,
      "Ġwr": 635,
      "oll": 636,
      "gin": 637,
      "ap": 638,
      "ian": 639,
      "ical": 640,
      "Ġcharacters": 641,
      "Ġmak": 642,
      "ue": 643,
      "ress": 644,
      "view": 645,
      "Ġri": 646,
      "Ġwork": 647,
      "ces": 648,
      "ated": 649,
      "ious": 650,
      "ually": 651,
      "ob": 652,
      "ĠAnd": 653,
      "ĠY": 654,
      "Ġfilms": 655,
      "fect": 656,
      "pect": 657,
      "Ġfl": 658,
      "ult": 659,
      "Ġplot": 660,
      "iz": 661,
      "Ġplay": 662,
      "ial": 663,
      "hed": 664,
      "self": 665,
      "ved": 666,
      "Ġthen": 667,
      "Ġbeing": 668,
      "Ġseen": 669,
      "ĠV": 670,
      "ran": 671,
      "Ġwant": 672,
      "omet": 673,
      "Ġye": 674,
      "Ġyour": 675,
      "ost": 676,
      "Ġaw": 677,
      "ĠBut": 678,
      "Ġho": 679,
      "),": 680,
      "Ġser": 681,
      "ittle": 682,
      "Ġtwo": 683,
      "Ġafter": 684,
      "Ġlove": 685,
      "Ġte": 686,
      "rough": 687,
      "mer": 688,
      "Ġmany": 689,
      "Ġnever": 690,
      "ens": 691,
      "de": 692,
      "Ġvi": 693,
      "urn": 694,
      "Ġsay": 695,
      "du": 696,
      ").": 697,
      "Ġwhere": 698,
      "Ġacting": 699,
      "ip": 700,
      "own": 701,
      "hy": 702,
      "cc": 703,
      "tter": 704,
      "Ġ<": 705,
      "ĠHe": 706,
      "Ġent": 707,
      "Ġsup": 708,
      "Ġback": 709,
      "This": 710,
      "Ġthrough": 711,
      "ĠIn": 712,
      "Ġlittle": 713,
      "Ġlife": 714,
      "Ġbest": 715,
      "Ġhor": 716,
      "get": 717,
      "Ġund": 718,
      "Ġsomet": 719,
      "Ġrem": 720,
      "Ġever": 721,
      "Ġra": 722,
      "ĠSt": 723,
      "ather": 724,
      "ark": 725,
      "ild": 726,
      "Ġbetter": 727,
      "ever": 728,
      "ris": 729,
      "we": 730,
      "04": 731,
      "ily": 732,
      "ach": 733,
      "ace": 734,
      "03": 735,
      "vel": 736,
      "ber": 737,
      "ions": 738,
      "Ġdes": 739,
      "Ġscene": 740,
      "les": 741,
      "Ġperfor": 742,
      "be": 743,
      "Ġfind": 744,
      "Ġatt": 745,
      "per": 746,
      "!!": 747,
      "Ġshould": 748,
      "ought": 749,
      "02": 750,
      "erest": 751,
      "thing": 752,
      "Ġsl": 753,
      "Ġscenes": 754,
      "Ġcont": 755,
      "ertain": 756,
      "Ġunder": 757,
      "Ġmin": 758,
      "Ġfeel": 759,
      "Ġ2": 760,
      "ual": 761,
      "riend": 762,
      "lie": 763,
      "vers": 764,
      "ĠU": 765,
      "'ve": 766,
      "Ġagain": 767,
      "less": 768,
      "Ġch": 769,
      "hose": 770,
      "ree": 771,
      "Ġtra": 772,
      "peci": 773,
      "Ġhere": 774,
      "Ġkill": 775,
      "ance": 776,
      "Ġinterest": 777,
      "Ġstill": 778,
      "Ġi": 779,
      "ense": 780,
      "ĠThere": 781,
      "Ġsomething": 782,
      "fore": 783,
      "ning": 784,
      "Ġ19": 785,
      "Ġhapp": 786,
      "ents": 787,
      "Ġthese": 788,
      "Ġlot": 789,
      "Ġsuch": 790,
      "ations": 791,
      "rd": 792,
      "'m": 793,
      "ren": 794,
      "Ġsur": 795,
      "Ġimp": 796,
      "ase": 797,
      "Ġmay": 798,
      "ction": 799,
      "Ġbr": 800,
      "ons": 801,
      "ating": 802,
      "ably": 803,
      "igh": 804,
      "Ġperforman": 805,
      "Ġhum": 806,
      "ror": 807,
      "rap": 808,
      "ans": 809,
      "ise": 810,
      "arly": 811,
      "Ġold": 812,
      "the": 813,
      "Ġgi": 814,
      "Ġcast": 815,
      "reen": 816,
      "Ġpoint": 817,
      "li": 818,
      "Ġdoesn": 819,
      "alk": 820,
      "Ġthose": 821,
      "Ġgen": 822,
      "Ġres": 823,
      "Ġap": 824,
      "ater": 825,
      "Ġinc": 826,
      "Ġdidn": 827,
      "Ġsim": 828,
      "Ġwom": 829,
      "ia": 830,
      "Ġactors": 831,
      "Ġguy": 832,
      "Ġwatching": 833,
      "Ġdec": 834,
      "joy": 835,
      "Ġcou": 836,
      "Ġyears": 837,
      "Ġfam": 838,
      "Ġstart": 839,
      "Ġche": 840,
      "Ġgir": 841,
      "Ġfunny": 842,
      "Ġtry": 843,
      "ffect": 844,
      "Ġmus": 845,
      "oth": 846,
      "ram": 847,
      "Ġmakes": 848,
      "Ġfact": 849,
      "ale": 850,
      "Ġgoing": 851,
      "ute": 852,
      "Ġview": 853,
      "Ġenjoy": 854,
      "ĠJo": 855,
      "erson": 856,
      "oss": 857,
      "Ġtak": 858,
      "ps": 859,
      "edy": 860,
      "Ġbelie": 861,
      "Ġdown": 862,
      "Ġsame": 863,
      "Ġob": 864,
      "ĠIf": 865,
      "ft": 866,
      "Ġcomp": 867,
      "iss": 868,
      "Ġfew": 869,
      "ath": 870,
      "Ġactually": 871,
      "der": 872,
      "ect": 873,
      "Ġbefore": 874,
      "ang": 875,
      "Ġtru": 876,
      "Ġem": 877,
      "ĠAl": 878,
      "Ġfin": 879,
      "tty": 880,
      "Ġwhile": 881,
      "Ġlong": 882,
      "aw": 883,
      "oc": 884,
      "rit": 885,
      "Ġdif": 886,
      "**": 887,
      "Ġown": 888,
      "--": 889,
      "ason": 890,
      "Ġter": 891,
      "Ġprodu": 892,
      "Ġsub": 893,
      "Ġyoung": 894,
      "ience": 895,
      "Ġwhy": 896,
      "az": 897,
      "Ġke": 898,
      "Ġnow": 899,
      "act": 900,
      "rigin": 901,
      "Ġthought": 902,
      "Ġgot": 903,
      "Ġdirector": 904,
      "Ġsm": 905,
      "Ġtri": 906,
      "'re": 907,
      "Ġbit": 908,
      "Ġnew": 909,
      "ript": 910,
      "Ġturn": 911,
      "Ġlau": 912,
      "Ġbet": 913,
      "ub": 914,
      "Ġthough": 915,
      "Ġnothing": 916,
      "Ġbig": 917,
      "ĠCh": 918,
      "Ġanother": 919,
      "Ġexce": 920,
      "Ġorigin": 921,
      "ings": 922,
      "ince": 923,
      "Ġ&": 924,
      "19": 925,
      "hen": 926,
      "Ġsupp": 927,
      "ible": 928,
      "ew": 929,
      "Ġinv": 930,
      "Ġcomple": 931,
      "Ġeffect": 932,
      "Ġfriend": 933,
      "Ġgirl": 934,
      "meric": 935,
      "rent": 936,
      "Ġrel": 937,
      "ose": 938,
      "Ġaround": 939,
      "Ġthings": 940,
      "Ġquite": 941,
      "Ġseems": 942,
      "Ġscreen": 943,
      "aut": 944,
      "Ġev": 945,
      "iting": 946,
      "ib": 947,
      "ically": 948,
      "Ġpretty": 949,
      "Ġenough": 950,
      "Ġapp": 951,
      "ced": 952,
      "onder": 953,
      "ave": 954,
      "ign": 955,
      "Ġright": 956,
      "ween": 957,
      "ster": 958,
      "ks": 959,
      "Ġscript": 960,
      "Ġco": 961,
      "most": 962,
      "Ġworld": 963,
      "Ġhard": 964,
      "ways": 965,
      "Ġrec": 966,
      "Ġaction": 967,
      "08": 968,
      "Ġgr": 969,
      "ately": 970,
      "Ġkid": 971,
      "ched": 972,
      "ness": 973,
      "Ġoriginal": 974,
      "Ġsha": 975,
      "Ġneed": 976,
      "Ġfar": 977,
      "Ġtake": 978,
      "Ġins": 979,
      "Ġtr": 980,
      "Ġhigh": 981,
      "Ġbetween": 982,
      "ead": 983,
      "Ġmust": 984,
      "ĠShe": 985,
      "rill": 986,
      "ention": 987,
      "Ġhorror": 988,
      "Ġperson": 989,
      "Ġgive": 990,
      "utes": 991,
      "Ġes": 992,
      "hes": 993,
      "Ġsec": 994,
      "Ġkind": 995,
      "Ġappe": 996,
      "ward": 997,
      "ĠAmeric": 998,
      "Ġset": 999,
      "vious": 1000,
      "Ġop": 1001,
      "Ġsex": 1002,
      "Ġrole": 1003,
      "me": 1004,
      "Ġbecom": 1005,
      "ĠAs": 1006,
      "orth": 1007,
      "ock": 1008,
      "\",": 1009,
      "Ġlead": 1010,
      "Ġwonder": 1011,
      "inem": 1012,
      "Ġmom": 1013,
      "Ġwhole": 1014,
      "Ġmusic": 1015,
      "its": 1016,
      "Ġinteresting": 1017,
      "Ġtell": 1018,
      "Ġisn": 1019,
      "Ġbu": 1020,
      "Ġleast": 1021,
      "Ġseries": 1022,
      "iv": 1023,
      "app": 1024,
      "ner": 1025,
      "Ġgets": 1026,
      "ord": 1027,
      "Ġcomedy": 1028,
      "07": 1029,
      "Ġalways": 1030,
      "Ġput": 1031,
      "Ġhel": 1032,
      "Ġmain": 1033,
      "Ġtimes": 1034,
      "Ġsaw": 1035,
      "ody": 1036,
      "row": 1037,
      "ĠHow": 1038,
      "ĠThey": 1039,
      "Ġcome": 1040,
      "ash": 1041,
      "Ġchild": 1042,
      "gg": 1043,
      "Ġboth": 1044,
      "ĠYou": 1045,
      "here": 1046,
      "Ġexpect": 1047,
      "Ġdiffe": 1048,
      "ully": 1049,
      "ife": 1050,
      "Ġhand": 1051,
      "hn": 1052,
      "Ġwithout": 1053,
      "Ġsho": 1054,
      "icul": 1055,
      "Ġdone": 1056,
      "Ġclass": 1057,
      "Ġminutes": 1058,
      "Ġread": 1059,
      "Ġcam": 1060,
      "ime": 1061,
      "Ġexpl": 1062,
      "Ġide": 1063,
      "xt": 1064,
      "Ġmight": 1065,
      "Ġalmost": 1066,
      "Ġcons": 1067,
      "uring": 1068,
      "rible": 1069,
      "Ġpr": 1070,
      "ased": 1071,
      "'ll": 1072,
      "ok": 1073,
      "ray": 1074,
      "ines": 1075,
      "Ġshot": 1076,
      "Ġlast": 1077,
      "Ġbeaut": 1078,
      "Ġcomplete": 1079,
      "Ġbo": 1080,
      "ĠBe": 1081,
      "bably": 1082,
      "Ġbegin": 1083,
      "10": 1084,
      "Ġsound": 1085,
      "Ġac": 1086,
      "Ġcinem": 1087,
      "Ġaud": 1088,
      "65": 1089,
      "Ġep": 1090,
      "Ġperformance": 1091,
      "als": 1092,
      "Ġ3": 1093,
      "Ġcare": 1094,
      "Ġext": 1095,
      "ouse": 1096,
      "stand": 1097,
      "Ġcour": 1098,
      "Ġinst": 1099,
      "Ġcle": 1100,
      "Ġcar": 1101,
      "Ġanything": 1102,
      "Ġca": 1103,
      "It": 1104,
      "Ġwar": 1105,
      "Ġacc": 1106,
      "though": 1107,
      "Ġentertain": 1108,
      "Ġsequ": 1109,
      "pris": 1110,
      "Ġbook": 1111,
      "Ġaway": 1112,
      "Ġsince": 1113,
      "Ġfamily": 1114,
      "Ġfound": 1115,
      "Ġel": 1116,
      "62": 1117,
      "\".": 1118,
      "era": 1119,
      "ros": 1120,
      "Ġlaugh": 1121,
      "ialog": 1122,
      "Ġcall": 1123,
      "co": 1124,
      "Ġcr": 1125,
      "oney": 1126,
      "Ġrun": 1127,
      "pecially": 1128,
      "ative": 1129,
      "09": 1130,
      "68": 1131,
      "tting": 1132,
      "ins": 1133,
      "67": 1134,
      "Ġdialog": 1135,
      "vid": 1136,
      "Ġprobably": 1137,
      "ĠTV": 1138,
      "Ġwoman": 1139,
      "ures": 1140,
      "mend": 1141,
      "ott": 1142,
      "ron": 1143,
      "ograp": 1144,
      "Ġworth": 1145,
      "ĠSo": 1146,
      "69": 1147,
      "att": 1148,
      "dd": 1149,
      "ling": 1150,
      "ane": 1151,
      "64": 1152,
      "ee": 1153,
      "Ġsure": 1154,
      "63": 1155,
      "Ġart": 1156,
      "ition": 1157,
      "wood": 1158,
      "Ġreason": 1159,
      "Ġhappen": 1160,
      "Ġrather": 1161,
      "ER": 1162,
      "ail": 1163,
      ".\"": 1164,
      "Ġadd": 1165,
      "13": 1166,
      "Ġkeep": 1167,
      "18": 1168,
      "Ġdifferent": 1169,
      "osed": 1170,
      "17": 1171,
      "oint": 1172,
      "VD": 1173,
      "12": 1174,
      "ms": 1175,
      "ither": 1176,
      "ingly": 1177,
      "Ġlik": 1178,
      "Ġtrying": 1179,
      "Ġworst": 1180,
      "Ġour": 1181,
      "Ġchan": 1182,
      "Ġdef": 1183,
      "Ġpoor": 1184,
      "ĠJohn": 1185,
      "Ġabs": 1186,
      "Ġcourse": 1187,
      "Ġsense": 1188,
      "15": 1189,
      "Ġbor": 1190,
      "Ġmaking": 1191,
      "ject": 1192,
      "uck": 1193,
      "Ġbelieve": 1194,
      "Ġmean": 1195,
      "ex": 1196,
      "Ġdel": 1197,
      "Ġeach": 1198,
      "ĠWhat": 1199,
      "ĠDVD": 1200,
      "ates": 1201,
      "Ġplace": 1202,
      "istic": 1203,
      "Ġty": 1204,
      "Ġ10": 1205,
      "Ġsurpris": 1206,
      "Ġhelp": 1207,
      "Ġanyone": 1208,
      "olly": 1209,
      "hip": 1210,
      "Ġcomes": 1211,
      "14": 1212,
      "isod": 1213,
      "Ġcre": 1214,
      "Ġpol": 1215,
      "Ġending": 1216,
      "Ġmind": 1217,
      "Ġyet": 1218,
      "Ġshows": 1219,
      "Ġspe": 1220,
      "aster": 1221,
      "Ġgoes": 1222,
      "Ġpres": 1223,
      "Ġjob": 1224,
      "arent": 1225,
      "Ġplayed": 1226,
      "son": 1227,
      "aught": 1228,
      "atch": 1229,
      "Ġinter": 1230,
      "ĠThat": 1231,
      "Ġvers": 1232,
      "Ġproble": 1233,
      "empt": 1234,
      "Ġbeautif": 1235,
      "day": 1236,
      "led": 1237,
      "commend": 1238,
      "ollow": 1239,
      "ics": 1240,
      "Ġless": 1241,
      "av": 1242,
      "Ġconf": 1243,
      "Ġboy": 1244,
      "pecial": 1245,
      "ĠDe": 1246,
      "Ġgra": 1247,
      "Ġepisod": 1248,
      "Ġstand": 1249,
      "ĠCha": 1250,
      "Ġrest": 1251,
      "Ġday": 1252,
      "ortun": 1253,
      "'d": 1254,
      "arr": 1255,
      "lud": 1256,
      "read": 1257,
      "ower": 1258,
      "ality": 1259,
      "ilar": 1260,
      "Ġperfect": 1261,
      "Ġmoney": 1262,
      "Ġcreat": 1263,
      "Ġplays": 1264,
      "Ġlooks": 1265,
      "Ġeffects": 1266,
      "....": 1267,
      "Ġwasn": 1268,
      "Ġgl": 1269,
      "umb": 1270,
      "iece": 1271,
      "Ġlooking": 1272,
      "ney": 1273,
      "Ġdram": 1274,
      "Ġport": 1275,
      "ream": 1276,
      "ĠAn": 1277,
      "Ġmem": 1278,
      "Ġmon": 1279,
      "Ġactor": 1280,
      "Ġshort": 1281,
      "Ġhead": 1282,
      "gether": 1283,
      "Ġfan": 1284,
      "Ġtogether": 1285,
      "io": 1286,
      "ism": 1287,
      "Ġsuper": 1288,
      "icha": 1289,
      "Ġrecommend": 1290,
      "Ġcertain": 1291,
      "Ġhaving": 1292,
      "Ġwatched": 1293,
      "Ġsaid": 1294,
      "ied": 1295,
      "05": 1296,
      "Ġmiss": 1297,
      "Ġsecond": 1298,
      "way": 1299,
      "Ġtakes": 1300,
      "ĠAll": 1301,
      "Ġunderstand": 1302,
      "Ġhalf": 1303,
      "Ġsit": 1304,
      "ted": 1305,
      "Ġfollow": 1306,
      "Ġaudience": 1307,
      "land": 1308,
      "arn": 1309,
      "ĠNot": 1310,
      "reak": 1311,
      "ĠWe": 1312,
      "Ġelse": 1313,
      "ĠTH": 1314,
      "Ġtalk": 1315,
      "Ġsomeone": 1316,
      "ues": 1317,
      "llent": 1318,
      "Ġfav": 1319,
      "cing": 1320,
      "Ġlet": 1321,
      "rist": 1322,
      "Ġposs": 1323,
      "Ġfight": 1324,
      "Ġthree": 1325,
      "95": 1326,
      "ĠAmerican": 1327,
      "ross": 1328,
      "Ġhimself": 1329,
      "ret": 1330,
      "Ġnight": 1331,
      "Ġreview": 1332,
      "cept": 1333,
      "Ġind": 1334,
      "Ġespecially": 1335,
      "Ġexc": 1336,
      "Ġfall": 1337,
      "Ġspecial": 1338,
      "ited": 1339,
      "75": 1340,
      "Ġed": 1341,
      "ĠBl": 1342,
      "Ġcomm": 1343,
      "ollywood": 1344,
      "hile": 1345,
      "udget": 1346,
      "ply": 1347,
      "ty": 1348,
      "ident": 1349,
      "Ġnice": 1350,
      "Ġleft": 1351,
      "45": 1352,
      "ired": 1353,
      "ĠSc": 1354,
      "ists": 1355,
      "Ġtrue": 1356,
      "Ġdet": 1357,
      "88": 1358,
      "ount": 1359,
      "Ġvis": 1360,
      "atic": 1361,
      "Ġidea": 1362,
      "sc": 1363,
      "ĠFor": 1364,
      "Ġsk": 1365,
      "old": 1366,
      "Ġrele": 1367,
      "93": 1368,
      "ĠTh": 1369,
      "42": 1370,
      "Ġobvious": 1371,
      "Ġinvol": 1372,
      "uff": 1373,
      "not": 1374,
      "Ġmur": 1375,
      "ting": 1376,
      "Ġfriends": 1377,
      "Ġentire": 1378,
      "ames": 1379,
      "Ġimag": 1380,
      "Ġcame": 1381,
      "Ġduring": 1382,
      "ah": 1383,
      "ĠRob": 1384,
      "Ġhour": 1385,
      "upid": 1386,
      "ional": 1387,
      "ature": 1388,
      "ix": 1389,
      "92": 1390,
      "Ġwife": 1391,
      "ĠMar": 1392,
      "Ġeverything": 1393,
      "Ġmen": 1394,
      "hool": 1395,
      "Ġdist": 1396,
      "Ġseeing": 1397,
      "Ġmar": 1398,
      "Ġtot": 1399,
      "sy": 1400,
      "ĠRe": 1401,
      "Ġused": 1402,
      "Ġstr": 1403,
      "Ġexcellent": 1404,
      "43": 1405,
      "Ġey": 1406,
      "fully": 1407,
      "Ġcho": 1408,
      "Ġeveryone": 1409,
      "Ġversion": 1410,
      "ĠSe": 1411,
      "73": 1412,
      "omb": 1413,
      "ĠCl": 1414,
      "ĠUn": 1415,
      "Ġele": 1416,
      "Ġhome": 1417,
      "Ġattempt": 1418,
      "Ġlater": 1419,
      "Ġonce": 1420,
      "72": 1421,
      "Ġsing": 1422,
      "Ġlow": 1423,
      "appoint": 1424,
      "Ġtal": 1425,
      "Ġbeautiful": 1426,
      "ery": 1427,
      "Ġhist": 1428,
      "Ġass": 1429,
      "Ġcompletely": 1430,
      "atter": 1431,
      "Ġexper": 1432,
      "ug": 1433,
      "Ġyear": 1434,
      "ird": 1435,
      "ork": 1436,
      "Ġstupid": 1437,
      "Ġunt": 1438,
      "Ġlack": 1439,
      "Ġdeath": 1440,
      "yle": 1441,
      "Ġsimply": 1442,
      "my": 1443,
      "Ġexp": 1444,
      "Ġuse": 1445,
      "Ġfather": 1446,
      "ten": 1447,
      "like": 1448,
      "ove": 1449,
      "Ġdisappoint": 1450,
      "Ġph": 1451,
      "orn": 1452,
      "Ġgener": 1453,
      "air": 1454,
      "78": 1455,
      "Ġcop": 1456,
      "ets": 1457,
      "ool": 1458,
      "olute": 1459,
      "Ġportray": 1460,
      "Ġge": 1461,
      "ĠSp": 1462,
      "Ġret": 1463,
      "med": 1464,
      "Ġhuman": 1465,
      "iter": 1466,
      "Ġremem": 1467,
      "Ġcouple": 1468,
      "Ġrep": 1469,
      "Ġopen": 1470,
      "but": 1471,
      "Ġsus": 1472,
      "Ġdep": 1473,
      "98": 1474,
      "cy": 1475,
      "Ġserious": 1476,
      "Ġword": 1477,
      "Ġperformances": 1478,
      "Ġcra": 1479,
      "ĠHollywood": 1480,
      "Ġinclud": 1481,
      "ger": 1482,
      "Ġdefin": 1483,
      "Ġwrong": 1484,
      "Ġstud": 1485,
      "Ġalong": 1486,
      "ĠWhen": 1487,
      "Ġpict": 1488,
      "ying": 1489,
      "Ġtop": 1490,
      "48": 1491,
      "Ġsy": 1492,
      "ien": 1493,
      "ier": 1494,
      "fic": 1495,
      "Ġboring": 1496,
      "Ġmess": 1497,
      "Ġ--": 1498,
      "In": 1499,
      "ared": 1500,
      "Ġline": 1501,
      "Ġsupposed": 1502,
      "ote": 1503,
      "Ġcamera": 1504,
      "Ġheart": 1505,
      "Ġviol": 1506,
      "Ġeas": 1507,
      "Ġloc": 1508,
      "Ġanim": 1509,
      "Ġwon": 1510,
      "Ġcount": 1511,
      "Ġstar": 1512,
      "haps": 1513,
      "ider": 1514,
      "Ġwomen": 1515,
      "orm": 1516,
      "ities": 1517,
      "ography": 1518,
      "Ġeither": 1519,
      "Ġhope": 1520,
      "Ġemot": 1521,
      "Ġsmall": 1522,
      "itten": 1523,
      "Ġconc": 1524,
      "Ġlight": 1525,
      "Ġvide": 1526,
      "Ġhero": 1527,
      "Ġkids": 1528,
      "Ġblack": 1529,
      "ains": 1530,
      "Ġabsolute": 1531,
      "ĠAr": 1532,
      "vin": 1533,
      "ĠHowever": 1534,
      "Ġsong": 1535,
      "Ã©": 1536,
      "ĠNo": 1537,
      "Ġdra": 1538,
      "ĠZ": 1539,
      "uth": 1540,
      "008": 1541,
      "Ġuntil": 1542,
      "Ġhumor": 1543,
      "Ġpass": 1544,
      "play": 1545,
      "ike": 1546,
      "ax": 1547,
      "Ġgiven": 1548,
      "elt": 1549,
      "Ġflick": 1550,
      "ĠOne": 1551,
      "Ġmoments": 1552,
      "Ġ5": 1553,
      "Ġschool": 1554,
      "Ġbudget": 1555,
      "Ġproduction": 1556,
      "itely": 1557,
      "velop": 1558,
      "Ġhat": 1559,
      "Ġhouse": 1560,
      "Ġsad": 1561,
      "fortun": 1562,
      "Ġrom": 1563,
      "Ġ8": 1564,
      "sel": 1565,
      "iness": 1566,
      "Ġitself": 1567,
      "Ġmother": 1568,
      "Ġname": 1569,
      "ĠMy": 1570,
      "Ġsort": 1571,
      "Ġclassic": 1572,
      "Ġgetting": 1573,
      "Ġtruly": 1574,
      "Ġfull": 1575,
      "aring": 1576,
      "Ġinstead": 1577,
      "Ġexam": 1578,
      "Ġcred": 1579,
      "na": 1580,
      "ĠCar": 1581,
      "mak": 1582,
      "ĠMan": 1583,
      "Ġparticul": 1584,
      "Ġ4": 1585,
      "ize": 1586,
      "ently": 1587,
      "Ġfavor": 1588,
      "iant": 1589,
      "tern": 1590,
      "IN": 1591,
      ",\"": 1592,
      "Ġnext": 1593,
      "vis": 1594,
      "cess": 1595,
      "que": 1596,
      "aj": 1597,
      "Ġbas": 1598,
      "Ġple": 1599,
      "Ġdead": 1600,
      "ility": 1601,
      "Ġpain": 1602,
      "Ġamaz": 1603,
      "cu": 1604,
      "Ġgives": 1605,
      "Ġface": 1606,
      "Ġawful": 1607,
      "ĠLe": 1608,
      "Ġreg": 1609,
      "oon": 1610,
      "Ġdri": 1611,
      "Ġdoing": 1612,
      "ĠWill": 1613,
      "Ġcoll": 1614,
      "idd": 1615,
      "ories": 1616,
      "Ġexcept": 1617,
      "ĠChrist": 1618,
      "Ġterrible": 1619,
      "ĠFran": 1620,
      "ĠÂ": 1621,
      "Ġwa": 1622,
      "ĠHar": 1623,
      "Ġothers": 1624,
      "Ġdialogue": 1625,
      "Ġpower": 1626,
      "ric": 1627,
      "Ġplaying": 1628,
      "Ġlines": 1629,
      "ĠAt": 1630,
      "Ġtalent": 1631,
      "Ġwent": 1632,
      "reme": 1633,
      "illy": 1634,
      "Ġguess": 1635,
      "Ġtitle": 1636,
      "Ġremember": 1637,
      "imes": 1638,
      "Ġhowever": 1639,
      "vent": 1640,
      "Ġslow": 1641,
      "ton": 1642,
      "Ġentertaining": 1643,
      "Ġoften": 1644,
      "If": 1645,
      "Ġwonderful": 1646,
      "Ġdevelop": 1647,
      "ined": 1648,
      "ides": 1649,
      "Ġcouldn": 1650,
      "Ġbecome": 1651,
      "Ġvideo": 1652,
      "right": 1653,
      "itch": 1654,
      "Ġref": 1655,
      "oid": 1656,
      "ĠTHE": 1657,
      "Ġquest": 1658,
      "ĠMr": 1659,
      "Ġcor": 1660,
      "Ġrid": 1661,
      "Ġlive": 1662,
      "Ġcut": 1663,
      "Ġann": 1664,
      "ibly": 1665,
      "Ġliked": 1666,
      "mp": 1667,
      "Ġearly": 1668,
      "gu": 1669,
      "line": 1670,
      "ized": 1671,
      "Ġcase": 1672,
      "ony": 1673,
      "Ġepisode": 1674,
      "ming": 1675,
      "Ġstop": 1676,
      "ĠOn": 1677,
      "Ġpiece": 1678,
      "round": 1679,
      "Ġbrill": 1680,
      "25": 1681,
      "ured": 1682,
      "Ġmis": 1683,
      "ts": 1684,
      "33": 1685,
      "tic": 1686,
      "oot": 1687,
      "70": 1688,
      "99": 1689,
      "Ġpop": 1690,
      "Ġmaybe": 1691,
      "Ġstyle": 1692,
      "Ġimpress": 1693,
      "ĠNew": 1694,
      "ĠDa": 1695,
      "cial": 1696,
      "Ġproblem": 1697,
      "enn": 1698,
      "Ġtran": 1699,
      "Ġstars": 1700,
      "Ġmention": 1701,
      "Ġrelations": 1702,
      "Ġdark": 1703,
      "Ġactress": 1704,
      "ler": 1705,
      "ĠDon": 1706,
      "mentary": 1707,
      "74": 1708,
      "Ġstrong": 1709,
      "Ġchildren": 1710,
      "There": 1711,
      "Ġ.": 1712,
      "Ġfelt": 1713,
      "ĠJack": 1714,
      "ĠWell": 1715,
      "used": 1716,
      "ccess": 1717,
      "body": 1718,
      "pite": 1719,
      "Ġagainst": 1720,
      "hol": 1721,
      "selves": 1722,
      "Ġdefinitely": 1723,
      "Ġside": 1724,
      "Ġguys": 1725,
      "ley": 1726,
      "ular": 1727,
      "Ġrent": 1728,
      "Ġbeginning": 1729,
      "ude": 1730,
      "ĠMc": 1731,
      "Ġz": 1732,
      "Ġworse": 1733,
      "Ġsever": 1734,
      "Ġcertainly": 1735,
      "Ġwaste": 1736,
      "Ġabsolutely": 1737,
      "Ġseemed": 1738,
      "Ġpast": 1739,
      "Ġextreme": 1740,
      "Ġform": 1741,
      "cha": 1742,
      "Ġsw": 1743,
      "Ġvo": 1744,
      "Ġseveral": 1745,
      "sp": 1746,
      "Ġpicture": 1747,
      "aughter": 1748,
      "Ġpar": 1749,
      "iam": 1750,
      "unk": 1751,
      "rop": 1752,
      "Ġclose": 1753,
      "ump": 1754,
      "Ġdirection": 1755,
      "Ġwritten": 1756,
      "ready": 1757,
      "fortunately": 1758,
      "Ġrelationship": 1759,
      "unch": 1760,
      "Ġlives": 1761,
      "lish": 1762,
      "els": 1763,
      "Ġthrill": 1764,
      "ĠHis": 1765,
      "Ġblood": 1766,
      "amp": 1767,
      "Ġgrou": 1768,
      "Ġbecomes": 1769,
      "28": 1770,
      "Ġdrama": 1771,
      "Ġpred": 1772,
      "yn": 1773,
      "Ġfans": 1774,
      "Ġwanted": 1775,
      "uss": 1776,
      "35": 1777,
      "Ġbrilliant": 1778,
      "ific": 1779,
      "Ġfant": 1780,
      "Ġsomew": 1781,
      "Ġ9": 1782,
      "Ġsuccess": 1783,
      "Ġgame": 1784,
      "Ġtotally": 1785,
      "Ġadm": 1786,
      "Ġable": 1787,
      "Ġalready": 1788,
      "Ġsupport": 1789,
      "Ġsusp": 1790,
      "ĠSte": 1791,
      "ĠEven": 1792,
      "Ġcinema": 1793,
      "vable": 1794,
      "ĠEng": 1795,
      "Ġvill": 1796,
      "rew": 1797,
      "Ġbrother": 1798,
      "Ġtown": 1799,
      "Ġloved": 1800,
      "Ġself": 1801,
      "Ġstran": 1802,
      "Ġdou": 1803,
      "ots": 1804,
      "Ġet": 1805,
      "ried": 1806,
      "ages": 1807,
      "Ġtou": 1808,
      "rown": 1809,
      "Ġalthough": 1810,
      "Ġfine": 1811,
      "ung": 1812,
      "Ġson": 1813,
      "Ġchar": 1814,
      ").<": 1815,
      "Ġinf": 1816,
      "Ġcalled": 1817,
      "Ġcent": 1818,
      "!<": 1819,
      "Ġpur": 1820,
      "Ġbased": 1821,
      "ern": 1822,
      "ĠSome": 1823,
      "Ġocc": 1824,
      "Ġwants": 1825,
      "Ġstuff": 1826,
      "Ġlost": 1827,
      "Ġsat": 1828,
      "Ġpat": 1829,
      "38": 1830,
      "Ġtries": 1831,
      "Ġmaster": 1832,
      "Ġimport": 1833,
      "Ġexample": 1834,
      "Ġgenre": 1835,
      "Ġfail": 1836,
      "uc": 1837,
      "Ġquality": 1838,
      "Ġthroughout": 1839,
      "Ġeff": 1840,
      "Ġdeal": 1841,
      "Ġpresent": 1842,
      "Ġmor": 1843,
      "Ġhistory": 1844,
      "by": 1845,
      "ĠIs": 1846,
      "ĠÂĸ": 1847,
      "ichael": 1848,
      "Ġstra": 1849,
      "Ġannoy": 1850,
      "Ġwalk": 1851,
      "Ġsitu": 1852,
      "Ġav": 1853,
      "Ġval": 1854,
      "Ġdeser": 1855,
      "Ġcapt": 1856,
      "94": 1857,
      "ey": 1858,
      "orge": 1859,
      "Ġteen": 1860,
      "77": 1861,
      "Ġviewer": 1862,
      "Ġcult": 1863,
      "Ġmatter": 1864,
      "ĠTo": 1865,
      "ches": 1866,
      "using": 1867,
      "Ġthemselves": 1868,
      "Ġhon": 1869,
      "chn": 1870,
      "??": 1871,
      "erman": 1872,
      "Ġworks": 1873,
      "Ġappear": 1874,
      "Ġdocu": 1875,
      "Ġenjoyed": 1876,
      "hind": 1877,
      "Ġbra": 1878,
      "Ġstarts": 1879,
      "Ġgroup": 1880,
      "Ġdem": 1881,
      "ination": 1882,
      "ister": 1883,
      "Ġfinal": 1884,
      "Ġwriting": 1885,
      "Ġnum": 1886,
      "Ġfair": 1887,
      "Ġbreak": 1888,
      "iet": 1889,
      "to": 1890,
      "Ġparts": 1891,
      "55": 1892,
      "ĠSha": 1893,
      "pes": 1894,
      "itive": 1895,
      "Ġmyster": 1896,
      "Ġturns": 1897,
      "Ġmag": 1898,
      "Ġlist": 1899,
      "Ġfem": 1900,
      "Ġpsy": 1901,
      "ĠAfter": 1902,
      "Ġtoday": 1903,
      "rib": 1904,
      "Ġlearn": 1905,
      "Ġgave": 1906,
      "urb": 1907,
      "Ġkilled": 1908,
      "Ġmed": 1909,
      "off": 1910,
      "Ġetc": 1911,
      "Ġnovel": 1912,
      "ished": 1913,
      "OT": 1914,
      "ik": 1915,
      "band": 1916,
      "Ġhorrible": 1917,
      "oke": 1918,
      "Ġdeli": 1919,
      "Ġfeat": 1920,
      "Ġlevel": 1921,
      "rodu": 1922,
      "60": 1923,
      "Ġexact": 1924,
      "Ġcontin": 1925,
      "Ġdays": 1926,
      "ene": 1927,
      "Ġcol": 1928,
      "Ġ,": 1929,
      "ma": 1930,
      "ĠQ": 1931,
      "Ġkiller": 1932,
      "ient": 1933,
      "ĠRobert": 1934,
      "As": 1935,
      "ajor": 1936,
      "hich": 1937,
      "Ġprom": 1938,
      "ering": 1939,
      "22": 1940,
      "Ġlea": 1941,
      "Ġhilar": 1942,
      "Ġmoment": 1943,
      "Ġfinally": 1944,
      "Ġfavorite": 1945,
      "apt": 1946,
      "Ġopp": 1947,
      "Ġdecent": 1948,
      "ank": 1949,
      "usband": 1950,
      "ĠThen": 1951,
      "iculous": 1952,
      "Ġcrit": 1953,
      "Ġbehind": 1954,
      "Ġmyself": 1955,
      "ese": 1956,
      "Ġamazing": 1957,
      "ĠWith": 1958,
      "Ġbus": 1959,
      "ĠCon": 1960,
      "ĠInd": 1961,
      "Ġdeep": 1962,
      "66": 1963,
      "Ġdaughter": 1964,
      "ox": 1965,
      "Ġir": 1966,
      "ĠBrit": 1967,
      "Ġeffort": 1968,
      "Ġsn": 1969,
      "ural": 1970,
      "Ġlate": 1971,
      "Ġask": 1972,
      "Ġthinking": 1973,
      "ĠChar": 1974,
      "ĠAlso": 1975,
      "Ġfig": 1976,
      "Ġsays": 1977,
      "Ġcost": 1978,
      "Ġfoot": 1979,
      "dy": 1980,
      "Ġpick": 1981,
      "Ġfore": 1982,
      "Ġmot": 1983,
      "ator": 1984,
      "11": 1985,
      "Ġtype": 1986,
      "Ġevil": 1987,
      "ec": 1988,
      "antly": 1989,
      "Ġmurder": 1990,
      "Ġprof": 1991,
      "Ġtook": 1992,
      "astic": 1993,
      "Ġhappens": 1994,
      "Ġconsider": 1995,
      "ek": 1996,
      "Ġexperience": 1997,
      "Ġconst": 1998,
      "ences": 1999,
      "44": 2000,
      "Ġeyes": 2001,
      "Ġheard": 2002,
      "Ġdesc": 2003,
      "AN": 2004,
      "Ġperhaps": 2005,
      "urt": 2006,
      "What": 2007,
      "Ġhilarious": 2008,
      "con": 2009,
      "Ġintell": 2010,
      "okes": 2011,
      "gs": 2012,
      "pped": 2013,
      "Ġsoon": 2014,
      "Ġincred": 2015,
      "iled": 2016,
      "che": 2017,
      "ĠHer": 2018,
      "Ġchang": 2019,
      "Ġhold": 2020,
      "ĠWar": 2021,
      "Ġviolence": 2022,
      "ards": 2023,
      "ĠGe": 2024,
      "Ġfeeling": 2025,
      "Ġroles": 2026,
      "Ġhusband": 2027,
      "Ġstru": 2028,
      "eg": 2029,
      "Ġnon": 2030,
      "cks": 2031,
      "Ġspeak": 2032,
      "Ġhappened": 2033,
      "Ġstories": 2034,
      "ĠOf": 2035,
      "uge": 2036,
      "Ġinvolved": 2037,
      "Ġridiculous": 2038,
      "Ġvoice": 2039,
      "97": 2040,
      "Ġresult": 2041,
      "Ġdirected": 2042,
      "Ġroom": 2043,
      "Ġtrans": 2044,
      "Ġmajor": 2045,
      "ĠWhy": 2046,
      "Ġsol": 2047,
      "pical": 2048,
      "Ġlooked": 2049,
      "Ġextremely": 2050,
      "ann": 2051,
      "Ġsle": 2052,
      "ĠMichael": 2053,
      "Ġcinemat": 2054,
      ".)": 2055,
      "Ġgirls": 2056,
      "Ġscore": 2057,
      "Ġopin": 2058,
      "AT": 2059,
      "wards": 2060,
      "Ġcheap": 2061,
      "Ġgun": 2062,
      "Ġste": 2063,
      "ĠEd": 2064,
      "antic": 2065,
      "Ġdisco": 2066,
      "ovie": 2067,
      "ution": 2068,
      "ĠWhile": 2069,
      "ped": 2070,
      "ians": 2071,
      "Ġtele": 2072,
      "rench": 2073,
      "ĠGod": 2074,
      "Ġleave": 2075,
      "Ġtaken": 2076,
      "Ġwouldn": 2077,
      "side": 2078,
      "oil": 2079,
      "Ġtold": 2080,
      "ĠPl": 2081,
      "Ġcool": 2082,
      "ST": 2083,
      "ats": 2084,
      "ĠMay": 2085,
      "arth": 2086,
      "rie": 2087,
      "ield": 2088,
      "IL": 2089,
      "Ġuni": 2090,
      "Ġweak": 2091,
      "And": 2092,
      "Ġcoming": 2093,
      "ives": 2094,
      "ones": 2095,
      "Ġquick": 2096,
      "Ġbring": 2097,
      "zy": 2098,
      "Ġchance": 2099,
      "Ġallow": 2100,
      "Ġpredict": 2101,
      "Ġshoot": 2102,
      "ON": 2103,
      "Ġdr": 2104,
      "ĠDan": 2105,
      "Ġstre": 2106,
      "Ġreturn": 2107,
      "Ġago": 2108,
      "Ġhit": 2109,
      "Ġcannot": 2110,
      "Ġknown": 2111,
      "arb": 2112,
      "Ġmove": 2113,
      "Ġwhite": 2114,
      "amed": 2115,
      "ky": 2116,
      "32": 2117,
      "Ġcareer": 2118,
      "ĠKe": 2119,
      "cer": 2120,
      "Ġmet": 2121,
      "iddle": 2122,
      "rison": 2123,
      "Ġswe": 2124,
      "Ġdream": 2125,
      "But": 2126,
      "Ġacross": 2127,
      "tra": 2128,
      "Ġcrap": 2129,
      "Ġstay": 2130,
      "any": 2131,
      "Ġsimple": 2132,
      "mb": 2133,
      "aged": 2134,
      "Ġvar": 2135,
      "aul": 2136,
      "Ġcomed": 2137,
      "ided": 2138,
      "Ġtechn": 2139,
      "Ġpolit": 2140,
      "key": 2141,
      "of": 2142,
      "Ġcountry": 2143,
      "OR": 2144,
      "Ġwin": 2145,
      "ront": 2146,
      "Ġbuild": 2147,
      "olog": 2148,
      "vol": 2149,
      "Ġfut": 2150,
      "ĠEvery": 2151,
      "Ġobviously": 2152,
      "Ġevent": 2153,
      "Ġstrange": 2154,
      "unt": 2155,
      "Ġshown": 2156,
      "Ġpri": 2157,
      "Ġhours": 2158,
      "ĠNow": 2159,
      "Ġparent": 2160,
      "ational": 2161,
      "ubl": 2162,
      "ground": 2163,
      "ury": 2164,
      "Ġpos": 2165,
      "Ġfour": 2166,
      "Ġannoying": 2167,
      "Ġexactly": 2168,
      "ĠDavid": 2169,
      "!!!": 2170,
      "ina": 2171,
      "Ġshock": 2172,
      "ends": 2173,
      "Ġpay": 2174,
      "AR": 2175,
      "ph": 2176,
      "ered": 2177,
      "...<": 2178,
      "Ġsimilar": 2179,
      "eng": 2180,
      "ĠEnglish": 2181,
      "Ġlar": 2182,
      "Ġapparent": 2183,
      "ĠTom": 2184,
      "ili": 2185,
      "Ġfoc": 2186,
      "Ġhighly": 2187,
      "ean": 2188,
      "Ġesca": 2189,
      "enty": 2190,
      "Ġorder": 2191,
      "ĠJust": 2192,
      "bel": 2193,
      "Ġang": 2194,
      "Ġends": 2195,
      "007": 2196,
      "iction": 2197,
      "Ġwriter": 2198,
      "Ġpolice": 2199,
      "Ġimportant": 2200,
      "Ġprem": 2201,
      "vision": 2202,
      "Ġsubject": 2203,
      "Ġgore": 2204,
      "Ġhuge": 2205,
      "Ġphot": 2206,
      "Ġsuspense": 2207,
      "aid": 2208,
      "Ġpull": 2209,
      "ral": 2210,
      "Ġopinion": 2211,
      "Ġhonest": 2212,
      "real": 2213,
      "itting": 2214,
      "ĠPet": 2215,
      "Ġtreat": 2216,
      "Ġsaying": 2217,
      "Ġopening": 2218,
      "hetic": 2219,
      "gan": 2220,
      "Ġyourself": 2221,
      "Ġfinds": 2222,
      "estern": 2223,
      "Ġstraight": 2224,
      "ential": 2225,
      "Ġbody": 2226,
      "Ġdoub": 2227,
      "Ġgang": 2228,
      "outh": 2229,
      "Ġair": 2230,
      "Ġfemale": 2231,
      "Ġpossible": 2232,
      "aim": 2233,
      "mos": 2234,
      "Ġdev": 2235,
      "ping": 2236,
      "Ġsave": 2237,
      "58": 2238,
      "Ġreality": 2239,
      "Ġdocumentary": 2240,
      "Ġparticularly": 2241,
      "****": 2242,
      "head": 2243,
      "Ġstarted": 2244,
      "Ġdest": 2245,
      "ichÃ©": 2246,
      "Ġdisappointed": 2247,
      "Ġsomewhat": 2248,
      "Ġsometimes": 2249,
      "Ġjokes": 2250,
      "wise": 2251,
      "Ġreleased": 2252,
      "ĠOr": 2253,
      "Ġattention": 2254,
      "Ġill": 2255,
      "Ġage": 2256,
      "Ġfilmmak": 2257,
      "Ġhot": 2258,
      "Ġchange": 2259,
      "34": 2260,
      "Ġcolle": 2261,
      "ĠDo": 2262,
      "Ġnumber": 2263,
      "Ġwhose": 2264,
      "Ġturned": 2265,
      "Ġusual": 2266,
      "ichard": 2267,
      "Ġmoder": 2268,
      "Ġliving": 2269,
      "ĠJames": 2270,
      "ended": 2271,
      "Ġnear": 2272,
      "ino": 2273,
      "lling": 2274,
      "Ġrunning": 2275,
      "lo": 2276,
      "rid": 2277,
      "sh": 2278,
      "oud": 2279,
      "Ġsilly": 2280,
      "Ġsingle": 2281,
      "Ġcinematography": 2282,
      "Ġfill": 2283,
      "Ġmusical": 2284,
      "Ġshots": 2285,
      "Ġones": 2286,
      "ety": 2287,
      "Ġpot": 2288,
      "oul": 2289,
      "Ġwish": 2290,
      "ĠWilliam": 2291,
      "ĠAd": 2292,
      "Ġcomment": 2293,
      "ING": 2294,
      "arch": 2295,
      "aced": 2296,
      "ald": 2297,
      "Ġalone": 2298,
      "Ġteam": 2299,
      "rence": 2300,
      "52": 2301,
      "Ġvict": 2302,
      "inc": 2303,
      "Ġknew": 2304,
      "yond": 2305,
      "Ġtaking": 2306,
      "Ġknows": 2307,
      "!\"": 2308,
      "Ġleg": 2309,
      "ĠclichÃ©": 2310,
      "Ġwords": 2311,
      "Ġhell": 2312,
      "Ġunf": 2313,
      "16": 2314,
      "Ġlocal": 2315,
      "Ġdespite": 2316,
      "ctor": 2317,
      "Ġproblems": 2318,
      "Ġtouch": 2319,
      "Ġmeet": 2320,
      "Ġsequel": 2321,
      "Ġequ": 2322,
      "back": 2323,
      "Ġsent": 2324,
      "Ġprot": 2325,
      "ĠPer": 2326,
      "usion": 2327,
      "reci": 2328,
      "Ġplan": 2329,
      "ys": 2330,
      "ĠPe": 2331,
      "ained": 2332,
      "Ġremind": 2333,
      "ĠNe": 2334,
      "Ġmiddle": 2335,
      "mosp": 2336,
      "Ġcart": 2337,
      "rely": 2338,
      "Ġinn": 2339,
      "otic": 2340,
      "Ġland": 2341,
      "Ġut": 2342,
      "Ġve": 2343,
      "Ġant": 2344,
      "Ġrespect": 2345,
      "Ġrating": 2346,
      "Ġamong": 2347,
      "Ġincluding": 2348,
      "Ġusually": 2349,
      "Ġsubt": 2350,
      "ĠGerman": 2351,
      "Ġevents": 2352,
      "Ġtells": 2353,
      "Ġsets": 2354,
      "Ġcompl": 2355,
      "EN": 2356,
      "form": 2357,
      "which": 2358,
      "orable": 2359,
      "Ġforg": 2360,
      "apan": 2361,
      "cl": 2362,
      "Ġatmosp": 2363,
      "Ġeng": 2364,
      "cle": 2365,
      "Ġtalking": 2366,
      "ĠBritish": 2367,
      "Ġdru": 2368,
      "Ġconvin": 2369,
      "tte": 2370,
      "Ġmodern": 2371,
      "Ġcontro": 2372,
      "Ġsequence": 2373,
      "Ġlaug": 2374,
      "Ġhands": 2375,
      "Ġsign": 2376,
      "Ġmist": 2377,
      "St": 2378,
      "Ġintellig": 2379,
      "Ġprevious": 2380,
      "who": 2381,
      "ital": 2382,
      "light": 2383,
      "Ġquestion": 2384,
      "Ġten": 2385,
      "ĠAm": 2386,
      "aris": 2387,
      "ush": 2388,
      "ĠSh": 2389,
      "ball": 2390,
      "Ġaren": 2391,
      "Ġsurvi": 2392,
      "go": 2393,
      "iod": 2394,
      "Ġapart": 2395,
      "attle": 2396,
      "Ġmark": 2397,
      "ires": 2398,
      "ĠEl": 2399,
      "ised": 2400,
      "Ġdue": 2401,
      "uri": 2402,
      "Ġsoci": 2403,
      "Ġlad": 2404,
      "ĠCom": 2405,
      "Ġ200": 2406,
      "ficult": 2407,
      "Al": 2408,
      "Ġappears": 2409,
      "Ġclear": 2410,
      "Ġbro": 2411,
      "Ġfuture": 2412,
      "Ġmater": 2413,
      "Ġsum": 2414,
      "Ġmostly": 2415,
      "Ġnone": 2416,
      "ously": 2417,
      "where": 2418,
      "ants": 2419,
      "Ġscary": 2420,
      "Ġaspect": 2421,
      "Ġdifficult": 2422,
      "Ġhy": 2423,
      "Ġhate": 2424,
      "ances": 2425,
      "ĠGra": 2426,
      "ĠMon": 2427,
      "Ġways": 2428,
      "ĠSam": 2429,
      "Ġ20": 2430,
      "orry": 2431,
      "ublic": 2432,
      "Ġparents": 2433,
      "Ġult": 2434,
      "Ġbox": 2435,
      "Ġnarr": 2436,
      "Ġhappy": 2437,
      "Ġromantic": 2438,
      "Ġdull": 2439,
      "Ġcomic": 2440,
      "track": 2441,
      "Ġstoryline": 2442,
      "Ġappreci": 2443,
      "ubb": 2444,
      "Ġear": 2445,
      "Ġprog": 2446,
      "My": 2447,
      "Ġclearly": 2448,
      "val": 2449,
      "Ġpredictable": 2450,
      "ior": 2451,
      "Ġflaw": 2452,
      "Ġgiving": 2453,
      "Ġabove": 2454,
      "Ġsold": 2455,
      "Ġmaterial": 2456,
      "Ġreve": 2457,
      "irector": 2458,
      "Ġhaven": 2459,
      "Ġeasily": 2460,
      "Ġenjoyable": 2461,
      "ĠRichard": 2462,
      "ĠJapan": 2463,
      "Ġseriously": 2464,
      "pping": 2465,
      "ĠYork": 2466,
      "Ġtwist": 2467,
      "Ġadult": 2468,
      "Ġattack": 2469,
      "Ġadv": 2470,
      "orld": 2471,
      "Ġepisodes": 2472,
      "Ġsexual": 2473,
      "rated": 2474,
      "asons": 2475,
      "ices": 2476,
      "Ġ80": 2477,
      "Ġbeyond": 2478,
      "inal": 2479,
      "ĠBr": 2480,
      "Ġtelevision": 2481,
      "Ġpersonal": 2482,
      "Ġvictim": 2483,
      "ening": 2484,
      "Ġsurprised": 2485,
      "79": 2486,
      "Ġfast": 2487,
      "Ġdisc": 2488,
      "ggest": 2489,
      "Ġdoubt": 2490,
      "gy": 2491,
      "ĠBra": 2492,
      "Ġfalls": 2493,
      "Ġbunch": 2494,
      "AL": 2495,
      "asc": 2496,
      "Ġtrou": 2497,
      "Ġelements": 2498,
      "Ġiss": 2499,
      "Ġdetail": 2500,
      "ending": 2501,
      "Ġsuggest": 2502,
      "Ġslight": 2503,
      "ĠUS": 2504,
      "Ġtheme": 2505,
      "ura": 2506,
      "Ġodd": 2507,
      "Ġupon": 2508,
      "Ġmessage": 2509,
      "Ġtried": 2510,
      "verage": 2511,
      "ĠOsc": 2512,
      "Ġpleas": 2513,
      "Ġeasy": 2514,
      "Ġeye": 2515,
      "Ġnamed": 2516,
      "ĠAny": 2517,
      "Ġthriller": 2518,
      "belie": 2519,
      "Ġsoundtrack": 2520,
      "?<": 2521,
      "dden": 2522,
      "Ġmil": 2523,
      "eth": 2524,
      "Ġsongs": 2525,
      "Ġperiod": 2526,
      "Ġcheck": 2527,
      "Ġneeds": 2528,
      "ows": 2529,
      "Ġentertainment": 2530,
      "Ġsuff": 2531,
      "Ġsecret": 2532,
      "Ġkept": 2533,
      "Ġtheat": 2534,
      "Ġred": 2535,
      "asy": 2536,
      "ĠFrench": 2537,
      "Ġbegins": 2538,
      "Ġbar": 2539,
      "Ġru": 2540,
      "ov": 2541,
      "ension": 2542,
      "Ġstri": 2543,
      "Ġlarge": 2544,
      "Ġpoints": 2545,
      "Ġcamp": 2546,
      "',": 2547,
      "Ġaccept": 2548,
      "Ġfeature": 2549,
      "Ġtypical": 2550,
      "Ġmeans": 2551,
      "Ġvisual": 2552,
      "Ġrelease": 2553,
      "lin": 2554,
      "uses": 2555,
      "bs": 2556,
      "Ġshowing": 2557,
      "Ġworking": 2558,
      "ĠAmerica": 2559,
      "Ġtruth": 2560,
      "Ġmix": 2561,
      "Ġemb": 2562,
      "Ġinsp": 2563,
      "Ġfilmed": 2564,
      "atural": 2565,
      "Ġfeels": 2566,
      "Ġcomb": 2567,
      "ressed": 2568,
      "Ġcreep": 2569,
      "Ġleads": 2570,
      "work": 2571,
      "Ġfree": 2572,
      "oor": 2573,
      "eless": 2574,
      "Ġsupporting": 2575,
      "Ġviewers": 2576,
      "ĠPaul": 2577,
      "Ġwithin": 2578,
      "Ġcomments": 2579,
      "Ġspir": 2580,
      "ula": 2581,
      "!!!!": 2582,
      "Ġbrought": 2583,
      "ĠGeorge": 2584,
      "iment": 2585,
      "Ġthrow": 2586,
      "39": 2587,
      "ially": 2588,
      "ĠIM": 2589,
      "Ġpost": 2590,
      "So": 2591,
      "kay": 2592,
      "oty": 2593,
      "Ġherself": 2594,
      "ĠAng": 2595,
      "Ġdecided": 2596,
      "Ġsil": 2597,
      "Ġzomb": 2598,
      "Ġsens": 2599,
      "Ġviewing": 2600,
      "Ġwrit": 2601,
      "hic": 2602,
      "more": 2603,
      "iest": 2604,
      "ara": 2605,
      "Ġhar": 2606,
      "Ġbusiness": 2607,
      "Ġmoving": 2608,
      "ceed": 2609,
      "Ġcity": 2610,
      "Ġsequences": 2611,
      "ged": 2612,
      "ĠNOT": 2613,
      "ira": 2614,
      "Ġhear": 2615,
      "ĠBro": 2616,
      "Ġactual": 2617,
      "ges": 2618,
      "ĠCol": 2619,
      "OU": 2620,
      "gic": 2621,
      "ye": 2622,
      "ĠMart": 2623,
      "Ġbelievable": 2624,
      "Ġoverall": 2625,
      "verall": 2626,
      "Ġreviews": 2627,
      "You": 2628,
      "Ġ7": 2629,
      "Ġdie": 2630,
      "ising": 2631,
      "ring": 2632,
      "ĠBen": 2633,
      "Ġnorm": 2634,
      "Ġintrodu": 2635,
      "!)": 2636,
      "Ġcrime": 2637,
      "ĠFrank": 2638,
      "An": 2639,
      "bb": 2640,
      "Ġprison": 2641,
      "ĠItal": 2642,
      "esy": 2643,
      "ĠDis": 2644,
      "Ġsuperb": 2645,
      "Ġexist": 2646,
      "Ġpsyc": 2647,
      "Ġclim": 2648,
      "Ġpremise": 2649,
      "Ġbel": 2650,
      "Ġusing": 2651,
      "Ġtale": 2652,
      "Ġnearly": 2653,
      "Ġbuy": 2654,
      "Ġgrow": 2655,
      "rific": 2656,
      "Ġbackground": 2657,
      "ĠDr": 2658,
      "Ġediting": 2659,
      "50": 2660,
      "RE": 2661,
      "Ġexpected": 2662,
      "Ġrealistic": 2663,
      "Ġattract": 2664,
      "Ġgrand": 2665,
      "aby": 2666,
      "Ġadapt": 2667,
      "Ġbasically": 2668,
      "king": 2669,
      "cious": 2670,
      "ford": 2671,
      "Ġfigure": 2672,
      "Ġgay": 2673,
      "ĠMor": 2674,
      "Ġcur": 2675,
      "lier": 2676,
      "?\"": 2677,
      "rest": 2678,
      "61": 2679,
      "fer": 2680,
      "Âħ": 2681,
      "Ġfell": 2682,
      "49": 2683,
      "ĠOK": 2684,
      "ĠLee": 2685,
      "012": 2686,
      "Ġstate": 2687,
      "Ġkilling": 2688,
      "Ġcrew": 2689,
      "Ġstere": 2690,
      "Ġavoid": 2691,
      "Ġ198": 2692,
      "esome": 2693,
      "Ġwit": 2694,
      "Ġ/>\"": 2695,
      "lfriend": 2696,
      "ĠGu": 2697,
      "Ġtre": 2698,
      "Ġweird": 2699,
      "Ġran": 2700,
      "came": 2701,
      "Ġatmosphere": 2702,
      "ĠMaybe": 2703,
      "Ġfamous": 2704,
      "Ġ*": 2705,
      "Ġsituation": 2706,
      "piece": 2707,
      "ining": 2708,
      "icks": 2709,
      "Ġlim": 2710,
      "akes": 2711,
      "Ġlots": 2712,
      "Ġwait": 2713,
      "Ġid": 2714,
      "Ġforced": 2715,
      "Ġobs": 2716,
      "ĠQu": 2717,
      "Ġprovid": 2718,
      "Ġeffective": 2719,
      "Ġsurprise": 2720,
      "ĠWho": 2721,
      "Ġsister": 2722,
      "Ġleaves": 2723,
      "ĠUnfortunately": 2724,
      "Ġtheater": 2725,
      "ĠJul": 2726,
      "rey": 2727,
      "Ġfive": 2728,
      "Ġpoorly": 2729,
      "anger": 2730,
      "Ġrese": 2731,
      "cted": 2732,
      "host": 2733,
      "Ġparticular": 2734,
      "sw": 2735,
      "aling": 2736,
      "Ġfantastic": 2737,
      "Ġresp": 2738,
      "Ġmeaning": 2739,
      "37": 2740,
      "Ġexec": 2741,
      "Ġgone": 2742,
      "ĠOh": 2743,
      "Ġforget": 2744,
      "Ġcat": 2745,
      "Ġbored": 2746,
      "Ġaverage": 2747,
      "When": 2748,
      "aces": 2749,
      "arre": 2750,
      "Ġgreatest": 2751,
      "nter": 2752,
      "Ġpure": 2753,
      "Ġclever": 2754,
      "ĠOscar": 2755,
      "Ġbecame": 2756,
      "ries": 2757,
      "ĠCan": 2758,
      "urther": 2759,
      "Ġlame": 2760,
      "Ġenc": 2761,
      "Ġwhether": 2762,
      "Ġcap": 2763,
      "Ġmale": 2764,
      "ĠGr": 2765,
      "One": 2766,
      "Ġutter": 2767,
      "ĠSm": 2768,
      "Ġappro": 2769,
      "Ġapparently": 2770,
      "Ġultim": 2771,
      "ogn": 2772,
      "hys": 2773,
      "iences": 2774,
      "ills": 2775,
      "Ġdumb": 2776,
      "uro": 2777,
      "Ġer": 2778,
      "Ġdog": 2779,
      "Ġfootage": 2780,
      "Ġstereoty": 2781,
      "Ġstage": 2782,
      "Ġanimation": 2783,
      "venge": 2784,
      "Ġinterested": 2785,
      "Ġsudden": 2786,
      "ĠAlthough": 2787,
      "Ġexplo": 2788,
      "Ġfront": 2789,
      "Ġwood": 2790,
      "009": 2791,
      "Ġpublic": 2792,
      "ĠPeter": 2793,
      "Ġstrugg": 2794,
      "Ġstun": 2795,
      "upp": 2796,
      "ppy": 2797,
      "isf": 2798,
      "Ġmystery": 2799,
      "Ġminute": 2800,
      "omin": 2801,
      "Ġmemorable": 2802,
      "Ġsociety": 2803,
      "avy": 2804,
      "Ġvillain": 2805,
      "kes": 2806,
      "'.": 2807,
      "Ġrock": 2808,
      "Ġcredits": 2809,
      "bert": 2810,
      "ager": 2811,
      "hood": 2812,
      "Ġcostum": 2813,
      "Ġearlier": 2814,
      "lly": 2815,
      "friend": 2816,
      "comp": 2817,
      "Ġconcept": 2818,
      "ius": 2819,
      "Ġworked": 2820,
      "Ġemotional": 2821,
      "Ġvir": 2822,
      "Ġunique": 2823,
      "kn": 2824,
      "ĠWood": 2825,
      "Ġlos": 2826,
      "Ġneeded": 2827,
      "Ġlaughs": 2828,
      "ĠFilm": 2829,
      "Ġfeatures": 2830,
      "Ġtast": 2831,
      "bers": 2832,
      "time": 2833,
      "Ġperfectly": 2834,
      "Ġquickly": 2835,
      "chie": 2836,
      "Ġcheesy": 2837,
      "Ġprofess": 2838,
      "erry": 2839,
      "Ġprop": 2840,
      "Ġkeeps": 2841,
      "ĠIMD": 2842,
      "Ġtowards": 2843,
      "Ġsomehow": 2844,
      "ĠMost": 2845,
      "Ġshame": 2846,
      "Ġspoil": 2847,
      "Ġmonster": 2848,
      "Ġgirlfriend": 2849,
      "47": 2850,
      "Ġliter": 2851,
      "ole": 2852,
      "Ġexpress": 2853,
      "iliar": 2854,
      "oof": 2855,
      "Ġcopy": 2856,
      "well": 2857,
      "cers": 2858,
      "Ġtrouble": 2859,
      "Ġthird": 2860,
      "Ġagree": 2861,
      "Ġgeneral": 2862,
      "Ġdan": 2863,
      "85": 2864,
      "angu": 2865,
      "Ġcover": 2866,
      "Ġpowerful": 2867,
      "rief": 2868,
      "ival": 2869,
      "olf": 2870,
      "ĠChan": 2871,
      "this": 2872,
      "ĠFrom": 2873,
      "For": 2874,
      "ĠSim": 2875,
      "Ġscreenplay": 2876,
      "Ġsick": 2877,
      "Ġwind": 2878,
      "Ġhom": 2879,
      "Ġinvest": 2880,
      "Ġemotion": 2881,
      "Ġweek": 2882,
      "Ġpossibly": 2883,
      "Ġmeant": 2884,
      "Ġrealize": 2885,
      "agon": 2886,
      "Ġsetting": 2887,
      "Ġdam": 2888,
      "Ġreading": 2889,
      "vern": 2890,
      "ĠKing": 2891,
      "Ġdisturb": 2892,
      "Ġclos": 2893,
      "Ġdesign": 2894,
      "Ġrich": 2895,
      "Ġadvent": 2896,
      "urd": 2897,
      "ĠJim": 2898,
      "ĠPr": 2899,
      "Ġpret": 2900,
      "Ġ$": 2901,
      "Ġhistor": 2902,
      "Ġmill": 2903,
      "Ġromance": 2904,
      "hel": 2905,
      "Ġyes": 2906,
      "Ġvarious": 2907,
      "Ġanyway": 2908,
      "Ġolder": 2909,
      "LE": 2910,
      "Ġproject": 2911,
      "por": 2912,
      "Ġpurp": 2913,
      "Ġcir": 2914,
      "06": 2915,
      "rif": 2916,
      "Ġwhom": 2917,
      "Ġwrite": 2918,
      "Ġ30": 2919,
      "Ġinde": 2920,
      "ĠEx": 2921,
      "nel": 2922,
      "ze": 2923,
      "roy": 2924,
      "Ġlaw": 2925,
      "ĠTw": 2926,
      "Ġcry": 2927,
      "Ġamount": 2928,
      "Ġwriters": 2929,
      "min": 2930,
      "\")": 2931,
      "Ġfire": 2932,
      "Ġforward": 2933,
      "Ġnor": 2934,
      "Ġimagine": 2935,
      "Ġ70": 2936,
      "Ġsleep": 2937,
      "cher": 2938,
      "Ġmeets": 2939,
      "ĠYes": 2940,
      "Ġtotal": 2941,
      "ask": 2942,
      "Ġoper": 2943,
      "reed": 2944,
      "Ġconne": 2945,
      "lle": 2946,
      "Ġextra": 2947,
      "stead": 2948,
      "Ġ...": 2949,
      "Ġrepe": 2950,
      "Ġpopular": 2951,
      "ding": 2952,
      "Ġbrings": 2953,
      "ĠIts": 2954,
      "Ġspace": 2955,
      "Ġnature": 2956,
      "ises": 2957,
      "Ġdevelopment": 2958,
      "Ġbadly": 2959,
      "ĠBlack": 2960,
      "ĠAust": 2961,
      "cessary": 2962,
      "arry": 2963,
      "ĠScott": 2964,
      "All": 2965,
      "Ġfairly": 2966,
      "action": 2967,
      "Ġbattle": 2968,
      "ĠPh": 2969,
      "Ġinnoc": 2970,
      "aked": 2971,
      "arring": 2972,
      "iny": 2973,
      "Ġbare": 2974,
      "andy": 2975,
      "Ġhair": 2976,
      "erv": 2977,
      "look": 2978,
      "Ġmasterpiece": 2979,
      "ĠThese": 2980,
      "Ġacted": 2981,
      "ero": 2982,
      "unny": 2983,
      "Ġunlike": 2984,
      "Ġconv": 2985,
      "Ġmanages": 2986,
      "itty": 2987,
      "Ġreasons": 2988,
      "Ġdirecting": 2989,
      "?)": 2990,
      "bor": 2991,
      "bo": 2992,
      "Ġment": 2993,
      "acher": 2994,
      "Ġadmit": 2995,
      "Ġdramatic": 2996,
      "Ġmad": 2997,
      "ham": 2998,
      "cked": 2999,
      "aking": 3000,
      "ĠJapanese": 3001,
      "Ġoccas": 3002,
      "ĠAnt": 3003,
      "Ġrecogn": 3004,
      "irl": 3005,
      "with": 3006,
      "Ġincredibly": 3007,
      "Ġfasc": 3008,
      "Ġdi": 3009,
      "OO": 3010,
      "ĠFl": 3011,
      "002": 3012,
      "ips": 3013,
      "itted": 3014,
      "Ġcatch": 3015,
      "Ġident": 3016,
      "Ġsymp": 3017,
      "Ġcommun": 3018,
      "ĠDisney": 3019,
      "Ġaut": 3020,
      "Ġeventually": 3021,
      "Ġcartoon": 3022,
      "Ġideas": 3023,
      "ĠLike": 3024,
      "Ġneg": 3025,
      "Ġfails": 3026,
      "ective": 3027,
      "ague": 3028,
      "82": 3029,
      "ĠJoe": 3030,
      "ĠChe": 3031,
      "ĠWorld": 3032,
      "Ġdeserves": 3033,
      "bl": 3034,
      "holog": 3035,
      "Ġplease": 3036,
      "ĠAN": 3037,
      "Ġportrayed": 3038,
      "Ġseason": 3039,
      "Ġwasted": 3040,
      "ging": 3041,
      "ĠCra": 3042,
      "udity": 3043,
      "Ġbeha": 3044,
      "Ġcreate": 3045,
      "Ġjoke": 3046,
      "Ġoffic": 3047,
      "Ġleading": 3048,
      "Ġplain": 3049,
      "Ġcond": 3050,
      "000": 3051,
      "Ġflash": 3052,
      "Ġign": 3053,
      "Ġ90": 3054,
      "Ġformer": 3055,
      "ĠBy": 3056,
      "ĠGood": 3057,
      "Ġinside": 3058,
      "Ġflat": 3059,
      "writ": 3060,
      "Ġera": 3061,
      "Ġmissing": 3062,
      "Ġband": 3063,
      "iel": 3064,
      "pth": 3065,
      "Ġspent": 3066,
      "Ġlangu": 3067,
      "Ġoutside": 3068,
      "Ġcreepy": 3069,
      "Ġimm": 3070,
      "urs": 3071,
      "Ġclaim": 3072,
      "zz": 3073,
      "Ġ(\"": 3074,
      "Ġlaughing": 3075,
      "gest": 3076,
      "oman": 3077,
      "ĠIMDb": 3078,
      "Ġremake": 3079,
      "How": 3080,
      "ĠBill": 3081,
      "Ġpotential": 3082,
      "Ġfighting": 3083,
      "par": 3084,
      "Ġexpecting": 3085,
      "Ġtelling": 3086,
      "ĠEuro": 3087,
      "Ġindeed": 3088,
      "Ġdirectors": 3089,
      "Ġarri": 3090,
      "Ġcreated": 3091,
      "Ġpolitical": 3092,
      "Ġscient": 3093,
      "Ġphys": 3094,
      "Ġplenty": 3095,
      "Ġcaught": 3096,
      "ĠTra": 3097,
      "mist": 3098,
      "ope": 3099,
      "Ġjour": 3100,
      "Ġfamiliar": 3101,
      "itation": 3102,
      "onic": 3103,
      "orthy": 3104,
      "Ġrob": 3105,
      "Ġjud": 3106,
      "Ġsocial": 3107,
      "ĠLu": 3108,
      "Ġcommon": 3109,
      "boy": 3110,
      "vered": 3111,
      "fi": 3112,
      "rust": 3113,
      "Ġloo": 3114,
      "Ġsounds": 3115,
      "medi": 3116,
      "Ġended": 3117,
      "Ġwater": 3118,
      "Ġfilmmakers": 3119,
      "yl": 3120,
      "Ġsorry": 3121,
      "Ġmurd": 3122,
      "Ġexplain": 3123,
      "ĠMad": 3124,
      "Ġest": 3125,
      "ĠEm": 3126,
      "Ġsweet": 3127,
      "ned": 3128,
      "Ġ:": 3129,
      "arrass": 3130,
      "Ġintri": 3131,
      "uine": 3132,
      "ES": 3133,
      "Ġwhatever": 3134,
      "Ġattempts": 3135,
      "een": 3136,
      "while": 3137,
      "Ġaccident": 3138,
      "Ġrecord": 3139,
      "Ġidi": 3140,
      "AD": 3141,
      "ele": 3142,
      "Ġtrad": 3143,
      "Ġdance": 3144,
      "Ġrequ": 3145,
      "Ġmarried": 3146,
      "berg": 3147,
      "ki": 3148,
      "ites": 3149,
      "Ġescape": 3150,
      "cent": 3151,
      "Ġamb": 3152,
      "Ġtalented": 3153,
      "Ġcolor": 3154,
      "Ġpositive": 3155,
      "ĠFirst": 3156,
      "Ġspirit": 3157,
      "Ġnudity": 3158,
      "Ġsubtle": 3159,
      "rage": 3160,
      "ĠNight": 3161,
      "Ġmembers": 3162,
      "53": 3163,
      "Ġpace": 3164,
      "une": 3165,
      "rup": 3166,
      "acing": 3167,
      "Ġterror": 3168,
      "Ġachie": 3169,
      "Ġnote": 3170,
      "Ġcrazy": 3171,
      "uter": 3172,
      "ĠAf": 3173,
      "Ġembarrass": 3174,
      "ĠSw": 3175,
      "LY": 3176,
      "003": 3177,
      "Ġcute": 3178,
      "PO": 3179,
      "TH": 3180,
      "Ġpers": 3181,
      "ĠMac": 3182,
      "udd": 3183,
      "men": 3184,
      "Ġbrief": 3185,
      "vil": 3186,
      "Ġdepth": 3187,
      "ĠPat": 3188,
      "Ġporn": 3189,
      "ĠItalian": 3190,
      "ĠRuss": 3191,
      "Ġfunn": 3192,
      "lu": 3193,
      "over": 3194,
      "inary": 3195,
      "izing": 3196,
      "Ġtravel": 3197,
      "come": 3198,
      "Ġvalue": 3199,
      "Ġcomplex": 3200,
      "ĠDra": 3201,
      "Ġmid": 3202,
      "Ġbed": 3203,
      "Ġstore": 3204,
      "ened": 3205,
      "Ġbiz": 3206,
      "Ġstep": 3207,
      "imp": 3208,
      "Ġgenuine": 3209,
      "Ġess": 3210,
      "Ġuses": 3211,
      "Ġdesper": 3212,
      "sters": 3213,
      "lex": 3214,
      "Ġansw": 3215,
      "ĠII": 3216,
      "even": 3217,
      "ĠLa": 3218,
      "cei": 3219,
      "ĠOther": 3220,
      "ĠInstead": 3221,
      "Ġwestern": 3222,
      "Ġfurther": 3223,
      "Ġentirely": 3224,
      "ored": 3225,
      "Ġpointless": 3226,
      "Ġbeauty": 3227,
      "Ġcredit": 3228,
      "ĠHa": 3229,
      "Ġdoll": 3230,
      "Be": 3231,
      "IS": 3232,
      "Ġaff": 3233,
      "alth": 3234,
      "ĠVan": 3235,
      "lict": 3236,
      "iously": 3237,
      "Ġboys": 3238,
      "Ġslightly": 3239,
      "ĠPro": 3240,
      "ilt": 3241,
      "Ġrecently": 3242,
      "la": 3243,
      "emy": 3244,
      "Ġrad": 3245,
      "Ġmedi": 3246,
      "Don": 3247,
      "asher": 3248,
      "Ġrevol": 3249,
      "Ġimmedi": 3250,
      "Ġaf": 3251,
      "Ġine": 3252,
      "Ġdecides": 3253,
      "Ġhardly": 3254,
      "ossible": 3255,
      "Ġbrain": 3256,
      "Ġunbelie": 3257,
      "ĠGreat": 3258,
      "ieces": 3259,
      "Ġmentioned": 3260,
      "Ġcontrol": 3261,
      "On": 3262,
      "Ġimpro": 3263,
      "Ġfit": 3264,
      "Ġmel": 3265,
      "Ġtrail": 3266,
      "Ġfollows": 3267,
      "Ġportrayal": 3268,
      "Ġbother": 3269,
      "Ġwaiting": 3270,
      "Ġrelig": 3271,
      "Ġdied": 3272,
      "Ġsolid": 3273,
      "known": 3274,
      "30": 3275,
      "ĠEurope": 3276,
      "Ġparty": 3277,
      "59": 3278,
      "Ġdelight": 3279,
      "Ġexciting": 3280,
      "ĠDes": 3281,
      "Ġfollowing": 3282,
      "Ġchoice": 3283,
      "Ġconvincing": 3284,
      "AS": 3285,
      "ashion": 3286,
      "Ġmass": 3287,
      "Ġcasting": 3288,
      "oe": 3289,
      "iller": 3290,
      "Ġsatisf": 3291,
      "Ġspl": 3292,
      "no": 3293,
      "Ġdraw": 3294,
      "Ġappreciate": 3295,
      "ibility": 3296,
      "lusion": 3297,
      "Ġsituations": 3298,
      "Ġmer": 3299,
      "ĠDead": 3300,
      "lying": 3301,
      "ĠLou": 3302,
      "Ġuns": 3303,
      "ĠSer": 3304,
      "Ġviolent": 3305,
      "Ġtort": 3306,
      "iced": 3307,
      "ĠHere": 3308,
      "Ġsees": 3309,
      "ĠFred": 3310,
      "24": 3311,
      "Ġvamp": 3312,
      "Ġmod": 3313,
      "sequ": 3314,
      "mas": 3315,
      "iers": 3316,
      "Ġwrote": 3317,
      "otten": 3318,
      "room": 3319,
      "har": 3320,
      "Ġwall": 3321,
      "ishing": 3322,
      "Ġmoves": 3323,
      "Ġaccent": 3324,
      "57": 3325,
      "irty": 3326,
      "Ġlonger": 3327,
      "arl": 3328,
      "038": 3329,
      "Ġmissed": 3330,
      "ĠAct": 3331,
      "Ġintelligent": 3332,
      "Ġconcern": 3333,
      "54": 3334,
      "Ġlady": 3335,
      "Ġtension": 3336,
      "Ġmatch": 3337,
      "Ġotherwise": 3338,
      "Ġamusing": 3339,
      "rect": 3340,
      "Ġdoctor": 3341,
      "resh": 3342,
      "Ġground": 3343,
      "Ġcross": 3344,
      "Ġdecide": 3345,
      "inger": 3346,
      "ivi": 3347,
      "Ġremark": 3348,
      "Ġpurpose": 3349,
      "Ġfol": 3350,
      "Ġproduced": 3351,
      "ĠMe": 3352,
      "Ġcru": 3353,
      "Ġlanguage": 3354,
      "Ġluck": 3355,
      "aper": 3356,
      "ashing": 3357,
      "aging": 3358,
      "ĠHarry": 3359,
      "Ġsuccessful": 3360,
      "iff": 3361,
      "Ġanti": 3362,
      "Ġsci": 3363,
      "Ġ15": 3364,
      "uted": 3365,
      "Ġimpressive": 3366,
      "Ġspend": 3367,
      "standing": 3368,
      "Ġfear": 3369,
      "Ġbrut": 3370,
      "Ġ50": 3371,
      "ED": 3372,
      "ĠJe": 3373,
      "ĠBru": 3374,
      "Ġrate": 3375,
      "Ġregard": 3376,
      "Ġ`": 3377,
      "Ġscream": 3378,
      "Ġfantasy": 3379,
      "Ġsearch": 3380,
      "Ġdisg": 3381,
      "ĠOF": 3382,
      "Ġhumour": 3383,
      "ribly": 3384,
      "ization": 3385,
      "Ġcompet": 3386,
      "cast": 3387,
      "Ġsuspect": 3388,
      "ĠWatch": 3389,
      "arily": 3390,
      "appe": 3391,
      "movie": 3392,
      "Ġwild": 3393,
      "alt": 3394,
      "ĠBob": 3395,
      "Ġsoul": 3396,
      "Ġproducers": 3397,
      "Ġbiggest": 3398,
      "Ġculture": 3399,
      "Ġopportun": 3400,
      "Ġfocus": 3401,
      "Ġyounger": 3402,
      "Ġdanger": 3403,
      "itary": 3404,
      "Ġinvolving": 3405,
      "Ġstick": 3406,
      "vide": 3407,
      "Ġfilled": 3408,
      "Ġquestions": 3409,
      "29": 3410,
      "ana": 3411,
      "mon": 3412,
      "Ġrefe": 3413,
      "004": 3414,
      "Ġlaugha": 3415,
      "Ġhang": 3416,
      "Ġcompany": 3417,
      "Ġunfortunately": 3418,
      "ĠStar": 3419,
      "Ġdepict": 3420,
      "ensive": 3421,
      "ĠHor": 3422,
      "Ġtrain": 3423,
      "Ġcollege": 3424,
      "Ġfake": 3425,
      "Ġcrim": 3426,
      "Ġrecent": 3427,
      "Ġinterview": 3428,
      "ĠHol": 3429,
      "Ġunless": 3430,
      "Ġchanged": 3431,
      "ĠIndian": 3432,
      "Ġbizarre": 3433,
      "Ġunint": 3434,
      "Ġcontri": 3435,
      "OM": 3436,
      "Ġminor": 3437,
      "Ġrepres": 3438,
      "Ġpathetic": 3439,
      "Ġball": 3440,
      "Ġlikes": 3441,
      "ĠLove": 3442,
      "Ġsqu": 3443,
      "Ġinvestig": 3444,
      "mistry": 3445,
      "VER": 3446,
      "fort": 3447,
      "ĠMovie": 3448,
      "ĠWh": 3449,
      "Ġincredible": 3450,
      "Ġbreat": 3451,
      "23": 3452,
      "Not": 3453,
      "ĠHen": 3454,
      "OW": 3455,
      "formation": 3456,
      "Ġtest": 3457,
      "Ġghost": 3458,
      "Ġshowed": 3459,
      "gen": 3460,
      "Ġweren": 3461,
      "Ġcritic": 3462,
      "Ġjump": 3463,
      "Ġvalues": 3464,
      "ength": 3465,
      "Ġcirc": 3466,
      "lect": 3467,
      "Ġcontinu": 3468,
      "ified": 3469,
      "Ġfascin": 3470,
      "Ġisland": 3471,
      "Ġgarb": 3472,
      "Ġgovern": 3473,
      "Ġglad": 3474,
      "Ġthinks": 3475,
      "Ġbeat": 3476,
      "Ġdrug": 3477,
      "Ġ6": 3478,
      "Ġnotice": 3479,
      "Ġruns": 3480,
      "af": 3481,
      "Ġrand": 3482,
      "Ġmood": 3483,
      "Ġawesome": 3484,
      "Ġcompared": 3485,
      "Ġimages": 3486,
      "Ġbomb": 3487,
      "Ġtrack": 3488,
      "Ġbooks": 3489,
      "Ġissues": 3490,
      "Ġexception": 3491,
      "ĠCity": 3492,
      "elly": 3493,
      "Th": 3494,
      "Ġtough": 3495,
      "Ġslasher": 3496,
      "Ġauth": 3497,
      "Ġkick": 3498,
      "Ġfailed": 3499,
      "Ġproduct": 3500,
      "POIL": 3501,
      "Ġearth": 3502,
      "uster": 3503,
      "Ġsuddenly": 3504,
      "ĠPark": 3505,
      "Ġchemistry": 3506,
      "Ġshar": 3507,
      "Well": 3508,
      "Ġbarely": 3509,
      "Ġassum": 3510,
      "Ġsuc": 3511,
      "sen": 3512,
      "reg": 3513,
      "Ġrepl": 3514,
      "ĠBoy": 3515,
      "Ġbasic": 3516,
      "ĠMur": 3517,
      "Ġdro": 3518,
      "nie": 3519,
      "Ġrede": 3520,
      "POILER": 3521,
      "After": 3522,
      "ĠGo": 3523,
      "rian": 3524,
      "Ġship": 3525,
      "ĠAg": 3526,
      "idered": 3527,
      "cock": 3528,
      "war": 3529,
      "Ġroll": 3530,
      "***": 3531,
      "ĠHitch": 3532,
      "Ġaffect": 3533,
      "Ġavail": 3534,
      "Ġpract": 3535,
      "Ġsympat": 3536,
      "chable": 3537,
      "Ġdisturbing": 3538,
      "Ġnormal": 3539,
      "owers": 3540,
      "Ġcause": 3541,
      "Ġpun": 3542,
      "riff": 3543,
      "ĠMary": 3544,
      "ottom": 3545,
      "Ġability": 3546,
      "that": 3547,
      "Ġrandom": 3548,
      "Ġmanner": 3549,
      "Ġdeliver": 3550,
      "Ġkills": 3551,
      "Ġpack": 3552,
      "Ġcompe": 3553,
      "Ġgenius": 3554,
      "27": 3555,
      "Ġneither": 3556,
      "rank": 3557,
      "ĠGold": 3558,
      "Ġappearance": 3559,
      "Ġthreat": 3560,
      "Ġoffice": 3561,
      "izes": 3562,
      "Ġsmart": 3563,
      "Ġprogram": 3564,
      "Ġinsult": 3565,
      "Ġconclusion": 3566,
      "ĠAngel": 3567,
      "Ġstudio": 3568,
      "Ġbase": 3569,
      "ĠGl": 3570,
      "Ġunex": 3571,
      "Ġleaving": 3572,
      "Ġgarbage": 3573,
      "iring": 3574,
      "Ġdoor": 3575,
      "Ġtaste": 3576,
      "Ġbaby": 3577,
      "Ġjo": 3578,
      "Ġfavour": 3579,
      "Ġspect": 3580,
      "ĠJones": 3581,
      "ify": 3582,
      "Ġamate": 3583,
      "Ġimpossible": 3584,
      "Ġshooting": 3585,
      "Ġforce": 3586,
      "ras": 3587,
      "erm": 3588,
      "ica": 3589,
      "Ġcarry": 3590,
      "Ġbought": 3591,
      "ĠRed": 3592,
      "rad": 3593,
      "Ġroad": 3594,
      "Ġpresence": 3595,
      "let": 3596,
      "lessly": 3597,
      "Ġconsidered": 3598,
      "Ġimmediately": 3599,
      "now": 3600,
      "Ġsucceed": 3601,
      "Ġcold": 3602,
      "Ġfram": 3603,
      "riage": 3604,
      "ĠDou": 3605,
      "Ġrespons": 3606,
      "ipp": 3607,
      "Ġalien": 3608,
      "Ġflashback": 3609,
      "aly": 3610,
      "Ġstreet": 3611,
      "making": 3612,
      "Ġconsidering": 3613,
      "Ġredeem": 3614,
      "iche": 3615,
      "Ġsuit": 3616,
      "ĠBig": 3617,
      "Ġdrink": 3618,
      "ai": 3619,
      "Ġindust": 3620,
      "verse": 3621,
      "ĠSat": 3622,
      "ondon": 3623,
      "ĠStre": 3624,
      "Ġtrash": 3625,
      "Ġrare": 3626,
      "Ġfresh": 3627,
      "ceived": 3628,
      "exic": 3629,
      "ades": 3630,
      "ĠJane": 3631,
      "Ġfat": 3632,
      "vert": 3633,
      "Ġcomputer": 3634,
      "Ġadventure": 3635,
      "Jo": 3636,
      "Ġevid": 3637,
      "Ġplaces": 3638,
      "ĠMartin": 3639,
      "Ġaudiences": 3640,
      "Ġclot": 3641,
      "Ġstandard": 3642,
      "Ġnatural": 3643,
      "Ġheavy": 3644,
      "Ġgod": 3645,
      "ressing": 3646,
      "Ġultimately": 3647,
      "Ġlikely": 3648,
      "Ġsinging": 3649,
      "itles": 3650,
      "Ġfashion": 3651,
      "ste": 3652,
      "rences": 3653,
      "mes": 3654,
      "Ġtwists": 3655,
      "aining": 3656,
      "40": 3657,
      "icated": 3658,
      "ĠCharles": 3659,
      "Ġla": 3660,
      "Ġalive": 3661,
      "Ġrevenge": 3662,
      "stit": 3663,
      "estival": 3664,
      "epend": 3665,
      "ini": 3666,
      "Ġgrap": 3667,
      "ropri": 3668,
      "ĠAfric": 3669,
      "Ġdin": 3670,
      "Ġna": 3671,
      "Ġloud": 3672,
      "Ġhost": 3673,
      "Ġadded": 3674,
      "Ġchanges": 3675,
      "ĠSmith": 3676,
      "ĠBruce": 3677,
      "just": 3678,
      "Ġbull": 3679,
      "Ġintrigu": 3680,
      "irth": 3681,
      "ĠCor": 3682,
      "ĠNor": 3683,
      "ĠMiss": 3684,
      "Ġride": 3685,
      "uit": 3686,
      "ĠSch": 3687,
      "Ġconflict": 3688,
      "face": 3689,
      "Ġmult": 3690,
      "Ġmanaged": 3691,
      "Ġcomedies": 3692,
      "ĠX": 3693,
      "Ġtend": 3694,
      "str": 3695,
      "Ġsexy": 3696,
      "Ġmagic": 3697,
      "Ġbuilding": 3698,
      "We": 3699,
      "Ġokay": 3700,
      "Ġdestroy": 3701,
      "ĠPerhaps": 3702,
      "Ġutterly": 3703,
      "oun": 3704,
      "uts": 3705,
      "iles": 3706,
      "Ġthrown": 3707,
      "Ġlab": 3708,
      "ĠRay": 3709,
      "Ġboyfriend": 3710,
      "ĠMexic": 3711,
      "Ġgag": 3712,
      "ales": 3713,
      "Ġterms": 3714,
      "lyn": 3715,
      "Ġ100": 3716,
      "you": 3717,
      "Ġtrip": 3718,
      "Ġmonth": 3719,
      "ID": 3720,
      "ĠThom": 3721,
      "Ġavailable": 3722,
      "ĠTim": 3723,
      "Ġstarring": 3724,
      "Ġimpression": 3725,
      "Ġauthor": 3726,
      "Ġobsess": 3727,
      "Ġclimax": 3728,
      "mm": 3729,
      "night": 3730,
      "played": 3731,
      "Ġneigh": 3732,
      "ĠWay": 3733,
      "aled": 3734,
      "Ġnowhere": 3735,
      "Ġstunning": 3736,
      "\".<": 3737,
      "Ġdig": 3738,
      "ĠHigh": 3739,
      "ĠJoan": 3740,
      "LL": 3741,
      "83": 3742,
      "ively": 3743,
      "Ġhistorical": 3744,
      "ĠAlex": 3745,
      "gl": 3746,
      "Ġloves": 3747,
      "ands": 3748,
      "Ġcinematic": 3749,
      "ĠLondon": 3750,
      "Ġemp": 3751,
      "ĠEarth": 3752,
      "Ġdemon": 3753,
      "Ġwitness": 3754,
      "chan": 3755,
      "Ġchall": 3756,
      "stem": 3757,
      "ĠBur": 3758,
      "iven": 3759,
      "vey": 3760,
      "ĠHall": 3761,
      "Ġprep": 3762,
      "itude": 3763,
      "Ġappeal": 3764,
      "Ġapproach": 3765,
      "Ġsuppose": 3766,
      "Ġgem": 3767,
      "Ġteacher": 3768,
      "76": 3769,
      "Ġgenerally": 3770,
      "Ġliterally": 3771,
      "To": 3772,
      "Ġaddition": 3773,
      "Ġtone": 3774,
      "Ġgovernment": 3775,
      "ief": 3776,
      "Ġemotions": 3777,
      "Ġdetails": 3778,
      "Ġamateur": 3779,
      "esides": 3780,
      "ĠMel": 3781,
      "That": 3782,
      "Ġmysterious": 3783,
      "Ġconstantly": 3784,
      "Ġremains": 3785,
      "ĠNic": 3786,
      "Ġinflu": 3787,
      "Ġprotagon": 3788,
      "ividu": 3789,
      "Ġsitting": 3790,
      "Ġplus": 3791,
      "ĠBer": 3792,
      "dered": 3793,
      "ĠYe": 3794,
      "First": 3795,
      "aur": 3796,
      "Ġscience": 3797,
      "Ġinnocent": 3798,
      "lease": 3799,
      "ĠSci": 3800,
      "Ġmilitary": 3801,
      "ĠRock": 3802,
      "aps": 3803,
      "71": 3804,
      "Ġcommer": 3805,
      "Ġdancing": 3806,
      "Ġmach": 3807,
      "ĠHam": 3808,
      "ĠCharlie": 3809,
      "Ġcuri": 3810,
      "Ġbeautifully": 3811,
      "Ġterrific": 3812,
      "ken": 3813,
      "ĠMat": 3814,
      "ĠCG": 3815,
      "oking": 3816,
      "89": 3817,
      "Ġscenery": 3818,
      "Ġputs": 3819,
      "ĠChristmas": 3820,
      "Ġsilent": 3821,
      "Ġcostumes": 3822,
      "elling": 3823,
      "Ġoffer": 3824,
      "ĠStill": 3825,
      "Ġpainful": 3826,
      "rel": 3827,
      "Ġsurprisingly": 3828,
      "Ġnames": 3829,
      "Ġjourney": 3830,
      "He": 3831,
      "rick": 3832,
      "irt": 3833,
      "Ġtouching": 3834,
      "gue": 3835,
      "illing": 3836,
      "opher": 3837,
      "Ġmakers": 3838,
      "down": 3839,
      "Ġ!": 3840,
      "idden": 3841,
      "ĠAdam": 3842,
      "Ġboss": 3843,
      "ledge": 3844,
      "Ġdescrib": 3845,
      "Ġgold": 3846,
      "Ġsomewhere": 3847,
      "itions": 3848,
      "ĠST": 3849,
      "ĠSec": 3850,
      "Ġphotography": 3851,
      "Ġrace": 3852,
      "ivil": 3853,
      "Ġcentury": 3854,
      "Ġloose": 3855,
      "rend": 3856,
      "Ġdiscuss": 3857,
      "IT": 3858,
      "Ġindividu": 3859,
      "Ġsurround": 3860,
      "Ġpsycholog": 3861,
      "part": 3862,
      "Ġcharm": 3863,
      "Ġzombie": 3864,
      "Ġintended": 3865,
      "Ġpassion": 3866,
      "Ġlegend": 3867,
      "Ġnarrative": 3868,
      "ples": 3869,
      "wart": 3870,
      "Ġpresented": 3871,
      "kin": 3872,
      "Ġlaughable": 3873,
      "Ġast": 3874,
      "Ġdrive": 3875,
      "Ġunbelievable": 3876,
      "pro": 3877,
      "Ġspec": 3878,
      "house": 3879,
      "illa": 3880,
      "ability": 3881,
      "Ġcharming": 3882,
      "ĠRo": 3883,
      "hor": 3884,
      "Ġkey": 3885,
      "Some": 3886,
      "Ġhoping": 3887,
      "Ġintern": 3888,
      "Ġaffair": 3889,
      "Ġanimated": 3890,
      "Ġdiscover": 3891,
      "what": 3892,
      "Ġdim": 3893,
      "Ġhappening": 3894,
      "Ġfully": 3895,
      "Ġsoldiers": 3896,
      "ison": 3897,
      "ology": 3898,
      "Ġbi": 3899,
      "ĠDu": 3900,
      "ploy": 3901,
      "Ġdisappointing": 3902,
      "Ġslowly": 3903,
      "56": 3904,
      "Ġlovely": 3905,
      "Ġstands": 3906,
      "Ġlength": 3907,
      "ĠHitchcock": 3908,
      "Ġcontr": 3909,
      "Ġrecommended": 3910,
      "Ġsystem": 3911,
      "Ġfeelings": 3912,
      "Ġaspects": 3913,
      "ĠStep": 3914,
      "set": 3915,
      "Ġinit": 3916,
      "ĠGen": 3917,
      "Ġfaith": 3918,
      "Ġspot": 3919,
      "Ġknowing": 3920,
      "mo": 3921,
      "aine": 3922,
      "ĠHard": 3923,
      "ander": 3924,
      "ĠBel": 3925,
      "ĠRE": 3926,
      "Ġopportunity": 3927,
      "Ġsix": 3928,
      "Ġacts": 3929,
      "Ġdad": 3930,
      "Ġhaun": 3931,
      "Ġabsurd": 3932,
      "Ġstudent": 3933,
      "mar": 3934,
      "ĠMoo": 3935,
      "Ġmedioc": 3936,
      "Ġpieces": 3937,
      "ĠPol": 3938,
      "Ġexpectations": 3939,
      "Ġencou": 3940,
      "AC": 3941,
      "field": 3942,
      "Ġimpl": 3943,
      "Ġfilming": 3944,
      "Ġfinish": 3945,
      "Ġmarriage": 3946,
      "entially": 3947,
      "budget": 3948,
      ".....": 3949,
      "ĠDirector": 3950,
      "ĠEn": 3951,
      "Ġdrunk": 3952,
      "ĠGrant": 3953,
      "ĠLi": 3954,
      "Ġthemes": 3955,
      "Ġdisappointment": 3956,
      "Ġflicks": 3957,
      "ribe": 3958,
      "ĠHouse": 3959,
      "uel": 3960,
      "Ġbehavi": 3961,
      "?!": 3962,
      "ĠParis": 3963,
      "Now": 3964,
      "cho": 3965,
      "Ġburn": 3966,
      "ĠBest": 3967,
      "Ġdetective": 3968,
      "ape": 3969,
      "anda": 3970,
      "ĠStan": 3971,
      "Ġmistake": 3972,
      "ĠSure": 3973,
      "amb": 3974,
      "Ġtired": 3975,
      "ift": 3976,
      "ĠOnly": 3977,
      "Ġdate": 3978,
      "Ġmoral": 3979,
      "aries": 3980,
      "Ġintense": 3981,
      "Ġartist": 3982,
      "Ġadaptation": 3983,
      "icide": 3984,
      "asty": 3985,
      "Ġoutstanding": 3986,
      "Ġlacks": 3987,
      "ĠSteve": 3988,
      "IG": 3989,
      "eral": 3990,
      "ĠSand": 3991,
      "ĠBad": 3992,
      "Ġshall": 3993,
      "orts": 3994,
      "Ġunc": 3995,
      "Ġequally": 3996,
      "aint": 3997,
      "Ġsoft": 3998,
      "ases": 3999,
      "Ġrip": 4000,
      "aus": 4001,
      "Ġpil": 4002,
      "Ġlikable": 4003,
      "Ġdies": 4004,
      "Ġpictures": 4005,
      "BC": 4006,
      "Ġexcuse": 4007,
      "Ġmillion": 4008,
      "OV": 4009,
      "Ġprocess": 4010,
      "Ġfascinating": 4011,
      "Ġlived": 4012,
      "Ġvictims": 4013,
      "Ġtradition": 4014,
      "aches": 4015,
      "Un": 4016,
      "Ġadds": 4017,
      "Ġvirt": 4018,
      "ĠCal": 4019,
      "ĠBecause": 4020,
      "ĠAnother": 4021,
      "ĠAllen": 4022,
      "ision": 4023,
      "itor": 4024,
      "Ġfault": 4025,
      "Ġener": 4026,
      "Ġinclude": 4027,
      "Ġwalking": 4028,
      "ĠThan": 4029,
      "Ġhosp": 4030,
      "rama": 4031,
      "ares": 4032,
      "Ġmouth": 4033,
      "Ġproper": 4034,
      "Ġmagn": 4035,
      "Ġcell": 4036,
      "Ġserial": 4037,
      "Ġqual": 4038,
      "cra": 4039,
      "Ġfolks": 4040,
      "ached": 4041,
      "Ġserv": 4042,
      "erous": 4043,
      "Ġstuck": 4044,
      "Ġdread": 4045,
      "Ġdeveloped": 4046,
      "Ġdisgust": 4047,
      "heart": 4048,
      "Ġremote": 4049,
      "Ġproducer": 4050,
      "Ġrelationships": 4051,
      "91": 4052,
      "onna": 4053,
      "sey": 4054,
      "Ġord": 4055,
      "Ġconfusing": 4056,
      "oph": 4057,
      "Ġfaces": 4058,
      "ĠWhere": 4059,
      "ĠRy": 4060,
      "gett": 4061,
      "Ġobject": 4062,
      "Ġnews": 4063,
      "Ġmelod": 4064,
      "lled": 4065,
      "ilities": 4066,
      "Ġchas": 4067,
      "Ġsett": 4068,
      "Ġpsych": 4069,
      "ka": 4070,
      "Ġnaked": 4071,
      "Ġstudents": 4072,
      "urate": 4073,
      "text": 4074,
      "Ġcurrent": 4075,
      "ĠIr": 4076,
      "Ġdisappe": 4077,
      "ĠLo": 4078,
      "ĠLet": 4079,
      "ĠJeff": 4080,
      "owing": 4081,
      "Ġlover": 4082,
      "ĠMcC": 4083,
      "Ġlaughed": 4084,
      "Ġfiction": 4085,
      "ĠWil": 4086,
      "gged": 4087,
      "Ġimpressed": 4088,
      "ĠHenry": 4089,
      "Ġ60": 4090,
      "Ġcontains": 4091,
      "ictor": 4092,
      "ops": 4093,
      "Ġ40": 4094,
      "Ġbrothers": 4095,
      "ĠFin": 4096,
      "Ġprim": 4097,
      "Ġconfused": 4098,
      "Ġallowed": 4099,
      "Ch": 4100,
      "ĠRog": 4101,
      "Ġcontent": 4102,
      "ĠPeople": 4103,
      "ĠCanad": 4104,
      "ĠAustral": 4105,
      "36": 4106,
      "Ġmat": 4107,
      "Ġnegative": 4108,
      "IC": 4109,
      "oned": 4110,
      "011": 4111,
      "Ġindustry": 4112,
      "Ġfright": 4113,
      "005": 4114,
      "ĠChristian": 4115,
      "Ġlif": 4116,
      "inese": 4117,
      "87": 4118,
      "Oh": 4119,
      "ĠSee": 4120,
      "ĠDay": 4121,
      "Ġseemingly": 4122,
      "ĠYet": 4123,
      "Ġtrag": 4124,
      "Ġfreak": 4125,
      "ĠJean": 4126,
      "ita": 4127,
      "Ġdelivers": 4128,
      "Ġrepresent": 4129,
      "win": 4130,
      "mbol": 4131,
      "Ġnumb": 4132,
      "Ġfinding": 4133,
      "Ġindepend": 4134,
      "Ġgiant": 4135,
      "Ġkidn": 4136,
      "Americ": 4137,
      "ĠOverall": 4138,
      "41": 4139,
      "ĠShow": 4140,
      "Ġoppos": 4141,
      "ena": 4142,
      "While": 4143,
      "Ġworthy": 4144,
      "Ġunus": 4145,
      "Ġshare": 4146,
      "Ġbreath": 4147,
      "Ġedge": 4148,
      "Ġrout": 4149,
      "Ġquiet": 4150,
      "Ġirrit": 4151,
      "Overall": 4152,
      "aff": 4153,
      "ĠJew": 4154,
      "Ġfalling": 4155,
      "ĠMoore": 4156,
      "96": 4157,
      "With": 4158,
      "Ġpaid": 4159,
      "ĠWest": 4160,
      "Ġconvers": 4161,
      "Ġdifference": 4162,
      "writer": 4163,
      "Ġug": 4164,
      "ĠMore": 4165,
      "ĠMark": 4166,
      "arant": 4167,
      "Ġoffers": 4168,
      "Ġdrawn": 4169,
      "Ġmulti": 4170,
      "Ġbecoming": 4171,
      "Ġflaws": 4172,
      "Ġchase": 4173,
      "odies": 4174,
      "Ġhighlight": 4175,
      "At": 4176,
      "ĠSad": 4177,
      "ĠBilly": 4178,
      "Ġclean": 4179,
      "Ġgorge": 4180,
      "ĠWW": 4181,
      "ĠAmericans": 4182,
      "lor": 4183,
      "ĠSouth": 4184,
      "ĠSup": 4185,
      "Ġmerely": 4186,
      "ĠChris": 4187,
      "Ġanymore": 4188,
      "avis": 4189,
      "Ġhasn": 4190,
      "Ġholes": 4191,
      "045": 4192,
      "Ġ****": 4193,
      "Ġsight": 4194,
      "Ġcrow": 4195,
      "istent": 4196,
      "Ġhospital": 4197,
      "IE": 4198,
      "Ġinformation": 4199,
      "ĠTony": 4200,
      "Ġwondering": 4201,
      "Ġdouble": 4202,
      "46": 4203,
      "xual": 4204,
      "Ġble": 4205,
      "omething": 4206,
      "Ġcritics": 4207,
      "Ġhonestly": 4208,
      "Ġcompelling": 4209,
      "Ġmart": 4210,
      "Ġthank": 4211,
      "Ġactresses": 4212,
      "Ġspectac": 4213,
      "Re": 4214,
      "urch": 4215,
      "ĠMa": 4216,
      "ĠPre": 4217,
      "ores": 4218,
      "ĠNaz": 4219,
      "Ġcorrect": 4220,
      "ĠTwo": 4221,
      "wr": 4222,
      "Ġseg": 4223,
      "Ġhig": 4224,
      "ĠNothing": 4225,
      "mark": 4226,
      "hop": 4227,
      "ĠVery": 4228,
      "ĠEast": 4229,
      "Ġlocation": 4230,
      "ique": 4231,
      "Ġstation": 4232,
      "Ġeverybody": 4233,
      "Ġforgotten": 4234,
      "Ġgri": 4235,
      "opp": 4236,
      "Ġdisaster": 4237,
      "Ġphotograp": 4238,
      "Ġjoy": 4239,
      "Ġinspired": 4240,
      "Ġpen": 4241,
      "Ġprovides": 4242,
      "gettable": 4243,
      "orter": 4244,
      "ĠJason": 4245,
      "Bl": 4246,
      "pected": 4247,
      "Ġahead": 4248,
      "Ġfort": 4249,
      "oughly": 4250,
      "Ġmainly": 4251,
      "elebr": 4252,
      "good": 4253,
      "inct": 4254,
      "Ġappeared": 4255,
      "Ġlighting": 4256,
      "Ġforever": 4257,
      "Ġdesert": 4258,
      "ĠEr": 4259,
      "Ġimage": 4260,
      "Ġpersonality": 4261,
      "Ġelement": 4262,
      "do": 4263,
      "Ġden": 4264,
      "Ġcomparis": 4265,
      "ĠAb": 4266,
      "ĠBat": 4267,
      "Ġimpact": 4268,
      "Ġhelps": 4269,
      "ss": 4270,
      "Ġwilling": 4271,
      "Ġrented": 4272,
      "Ġreminded": 4273,
      "ĠTe": 4274,
      "hand": 4275,
      "Ġweap": 4276,
      "Any": 4277,
      "aven": 4278,
      "ode": 4279,
      "kins": 4280,
      "Ġshouldn": 4281,
      "ĠThough": 4282,
      "ĠBrother": 4283,
      "ĠGar": 4284,
      "ĠWilliams": 4285,
      "Ġbright": 4286,
      "Ġtragic": 4287,
      "Ġapartment": 4288,
      "bit": 4289,
      "ĠWestern": 4290,
      "ĠTer": 4291,
      "uous": 4292,
      "iding": 4293,
      "Ġadults": 4294,
      "Ġattractive": 4295,
      "Ġfunniest": 4296,
      "Ġfrust": 4297,
      "raid": 4298,
      "Ġexplan": 4299,
      "Ġboard": 4300,
      "ĠMatt": 4301,
      "ules": 4302,
      "Ġanswer": 4303,
      "Ġgorgeous": 4304,
      "agers": 4305,
      "Ġnobody": 4306,
      "under": 4307,
      "ĠDark": 4308,
      "oted": 4309,
      "ĠCo": 4310,
      "90": 4311,
      "Ġnons": 4312,
      "ĠBo": 4313,
      "Ġoccur": 4314,
      "Ġmarket": 4315,
      "icious": 4316,
      "illed": 4317,
      "oses": 4318,
      "Ġunne": 4319,
      "ĠChinese": 4320,
      "Ġhide": 4321,
      "Ġsymbol": 4322,
      "Ġfood": 4323,
      "Ġarea": 4324,
      "Ġdrag": 4325,
      "Ġmotion": 4326,
      "fered": 4327,
      "ĠBond": 4328,
      "ĠCat": 4329,
      "agger": 4330,
      "Ġzombies": 4331,
      "Ġeight": 4332,
      "Ġround": 4333,
      "ĠCGI": 4334,
      "Ġprovide": 4335,
      "Ġonto": 4336,
      "Ġactions": 4337,
      "ishes": 4338,
      "Ġeat": 4339,
      "Ġmediocre": 4340,
      "De": 4341,
      "ĠBoth": 4342,
      "No": 4343,
      "Ġputting": 4344,
      "John": 4345,
      "Ġagent": 4346,
      "Ġdreams": 4347,
      "requ": 4348,
      "ĠTr": 4349,
      "Ġready": 4350,
      "Ġimagination": 4351,
      "Ġheld": 4352,
      "Ġmember": 4353,
      "ĠRussian": 4354,
      "Ġyouth": 4355,
      "ĠMag": 4356,
      "Ġslap": 4357,
      "Ġbene": 4358,
      "ĠIS": 4359,
      "Ġunreal": 4360,
      "Ġaccom": 4361,
      "ivers": 4362,
      "Ġaside": 4363,
      "ĠDun": 4364,
      "see": 4365,
      "ĠMike": 4366,
      "Ġcal": 4367,
      "ĠSteven": 4368,
      "has": 4369,
      "Ġunw": 4370,
      "Ġprin": 4371,
      "AM": 4372,
      "Ġoh": 4373,
      "ĠLew": 4374,
      "Ġunderst": 4375,
      "ennis": 4376,
      "Ġcollection": 4377,
      "ĠTheir": 4378,
      "Ġcreative": 4379,
      "AY": 4380,
      "ja": 4381,
      "Ġpra": 4382,
      "Ġ18": 4383,
      "Ġcontinue": 4384,
      "028": 4385,
      "Ġoccasion": 4386,
      "Ġmurders": 4387,
      "Ġcelebr": 4388,
      "Ġangry": 4389,
      "ĠTre": 4390,
      "Ġnasty": 4391,
      "ĠNat": 4392,
      "mble": 4393,
      "Ġcraft": 4394,
      ".,": 4395,
      "ĠMus": 4396,
      "abl": 4397,
      "Ġturning": 4398,
      "entional": 4399,
      "ium": 4400,
      "uk": 4401,
      "father": 4402,
      "Ġthin": 4403,
      "Ġexplos": 4404,
      "Ġfollowed": 4405,
      "Ġpossess": 4406,
      "Ġtrailer": 4407,
      "stein": 4408,
      "asure": 4409,
      "ĠBar": 4410,
      "Ġsuperior": 4411,
      "lock": 4412,
      "Ġgames": 4413,
      "gar": 4414,
      "she": 4415,
      "Ġhun": 4416,
      "ĠCr": 4417,
      "Ġformula": 4418,
      "Ġwise": 4419,
      "Ġreach": 4420,
      "Ġmoved": 4421,
      "ators": 4422,
      "Ġcommentary": 4423,
      "Ġfellow": 4424,
      "TV": 4425,
      "Ġaim": 4426,
      "Ġsour": 4427,
      "Ġled": 4428,
      "Ġachieve": 4429,
      "Ġdubb": 4430,
      "ĠHell": 4431,
      "ĠPart": 4432,
      "Ġstandards": 4433,
      "ushed": 4434,
      "ĠMs": 4435,
      "Ġunknown": 4436,
      "ddie": 4437,
      "ta": 4438,
      "ĠHel": 4439,
      "ifer": 4440,
      "ĠHoward": 4441,
      "Ġwearing": 4442,
      "resses": 4443,
      "Ġsurprising": 4444,
      "Ġ13": 4445,
      "Ġargu": 4446,
      "life": 4447,
      "zen": 4448,
      "Ġlatter": 4449,
      "Ġknock": 4450,
      "Ġsupposedly": 4451,
      "Ġasked": 4452,
      "rog": 4453,
      "Ġplane": 4454,
      "Ġdrugs": 4455,
      "hant": 4456,
      "rupt": 4457,
      "Ġdescribe": 4458,
      "Ġlose": 4459,
      "soever": 4460,
      "apped": 4461,
      "Ġhelped": 4462,
      "Ġpicked": 4463,
      "Ġthor": 4464,
      "Ġblind": 4465,
      "Ġcentral": 4466,
      "stal": 4467,
      "Ġcomedic": 4468,
      "Ġshocking": 4469,
      "ĠAND": 4470,
      "empor": 4471,
      "Ġcreature": 4472,
      "urally": 4473,
      "ĠFe": 4474,
      "Ġpair": 4475,
      "Ġtwice": 4476,
      "sca": 4477,
      "Ġseconds": 4478,
      "Ġscientist": 4479,
      "Ġwide": 4480,
      "Ġjustice": 4481,
      "Ġproves": 4482,
      "ech": 4483,
      "ville": 4484,
      "ĠVictor": 4485,
      "ropriate": 4486,
      "Ġmut": 4487,
      "pective": 4488,
      "Ġtrust": 4489,
      "year": 4490,
      "Ġwhatsoever": 4491,
      "ĠYoung": 4492,
      "Ġintriguing": 4493,
      "ĠKevin": 4494,
      "Ġintroduced": 4495,
      "Ġfavourite": 4496,
      "arded": 4497,
      "Ġemploy": 4498,
      "Ġtragedy": 4499,
      "ĠDavis": 4500,
      "miss": 4501,
      "ĠGirl": 4502,
      "Ġblond": 4503,
      "ĠNever": 4504,
      "Ġthanks": 4505,
      "Ġprofessional": 4506,
      "Ġvampire": 4507,
      "Ġtight": 4508,
      "bad": 4509,
      "omen": 4510,
      "Ġnoir": 4511,
      "azy": 4512,
      "gent": 4513,
      "ĠCla": 4514,
      "Ġbottom": 4515,
      "018": 4516,
      "Ġaware": 4517,
      "Ġhook": 4518,
      "Ġchildhood": 4519,
      "ĠclichÃ©s": 4520,
      "CH": 4521,
      "ĠSl": 4522,
      "ĠMo": 4523,
      "ĠGreen": 4524,
      "Ġ12": 4525,
      "azz": 4526,
      "otes": 4527,
      "Ġblame": 4528,
      "31": 4529,
      "Ġbegan": 4530,
      "Ġwooden": 4531,
      "hod": 4532,
      "ĠFar": 4533,
      "Ġmob": 4534,
      "Ġdeg": 4535,
      "Ġwanting": 4536,
      "Ġwarm": 4537,
      "Ġbelong": 4538,
      "roc": 4539,
      "Ġsell": 4540,
      "Ġnecessary": 4541,
      "Ġcrowd": 4542,
      "Ġunusual": 4543,
      "rors": 4544,
      "ont": 4545,
      "thur": 4546,
      "Ġthus": 4547,
      "Ġrac": 4548,
      "Ġperform": 4549,
      "Ġphone": 4550,
      "Ġstreng": 4551,
      "Ġphysical": 4552,
      "mi": 4553,
      "rate": 4554,
      "Ġinsight": 4555,
      "Ġbroad": 4556,
      "Ġtour": 4557,
      "arget": 4558,
      "Ġclub": 4559,
      "Ġrealized": 4560,
      "Ġteenage": 4561,
      "Ġborn": 4562,
      "ugg": 4563,
      "erk": 4564,
      "Ġaccount": 4565,
      "Ġrepeated": 4566,
      "Ġunexpected": 4567,
      ")<": 4568,
      "Ġafraid": 4569,
      "Ġbits": 4570,
      "ĠON": 4571,
      "Ġrelative": 4572,
      "Ġdying": 4573,
      "Ġclothes": 4574,
      "Ġmemory": 4575,
      "dow": 4576,
      "ĠDid": 4577,
      "ĠPal": 4578,
      "Ġprefer": 4579,
      "Ġsuicide": 4580,
      "acy": 4581,
      "Ġloss": 4582,
      "ĠPhil": 4583,
      "Ġheads": 4584,
      "Ġugly": 4585,
      "Ġbal": 4586,
      "Ġaccompl": 4587,
      "herent": 4588,
      "Ġchannel": 4589,
      "Ġcops": 4590,
      "leep": 4591,
      "Ġuncon": 4592,
      "ĠMany": 4593,
      "Ġempt": 4594,
      "Ġbrutal": 4595,
      "anish": 4596,
      "Ġepic": 4597,
      "ios": 4598,
      "anks": 4599,
      "abe": 4600,
      "film": 4601,
      "kward": 4602,
      "Ġstat": 4603,
      "Ġredeeming": 4604,
      "hony": 4605,
      "ĠSil": 4606,
      "ĠLyn": 4607,
      "ĠKelly": 4608,
      "Ġintelligence": 4609,
      "ĠJackson": 4610,
      "Ġplanet": 4611,
      "oring": 4612,
      "ĠToo": 4613,
      "soci": 4614,
      "ĠChristopher": 4615,
      "ĠSar": 4616,
      "hern": 4617,
      "enny": 4618,
      "ario": 4619,
      "Ġwatchable": 4620,
      "Ġsurely": 4621,
      "ĠAnyway": 4622,
      "urity": 4623,
      "Ġhorse": 4624,
      "Ġspeaking": 4625,
      "Ġdamn": 4626,
      "asts": 4627,
      "anic": 4628,
      "Ġasks": 4629,
      "Ġdiv": 4630,
      "Ġmanage": 4631,
      "Ġskin": 4632,
      "anna": 4633,
      "ady": 4634,
      "048": 4635,
      "Ġsin": 4636,
      "Ġbur": 4637,
      "uddy": 4638,
      "Ġsubst": 4639,
      "Ġunderstanding": 4640,
      "Ġmartial": 4641,
      "iac": 4642,
      "cking": 4643,
      "Ġstruggle": 4644,
      "Ġrelie": 4645,
      "ĠFord": 4646,
      "Ġinterp": 4647,
      "iro": 4648,
      "ĠFox": 4649,
      "osh": 4650,
      "Ġleader": 4651,
      "Ġhated": 4652,
      "Ġbank": 4653,
      "ancy": 4654,
      "umble": 4655,
      "Ġdistract": 4656,
      "aded": 4657,
      "ĠRobin": 4658,
      "esb": 4659,
      "ĠSn": 4660,
      "ooper": 4661,
      "Ġ1970": 4662,
      "Ġsac": 4663,
      "Ġdepart": 4664,
      "Ġ/>-": 4665,
      "Ġincludes": 4666,
      "Ġcivil": 4667,
      "Ġham": 4668,
      "ĠOli": 4669,
      "undred": 4670,
      "Ġmission": 4671,
      "Ġphil": 4672,
      "Ġhint": 4673,
      "Ġdeb": 4674,
      "vate": 4675,
      "Ġstock": 4676,
      "II": 4677,
      "ĠLittle": 4678,
      "Ġissue": 4679,
      "Ġindependent": 4680,
      "sell": 4681,
      "Ġtears": 4682,
      "Ġfilmmaker": 4683,
      "eal": 4684,
      "anity": 4685,
      "entious": 4686,
      "Ġrubb": 4687,
      "Ġfights": 4688,
      "Ġsadly": 4689,
      "ĠBrown": 4690,
      "Ġanywhere": 4691,
      "Ġlets": 4692,
      "Ġdeserve": 4693,
      "Ġholds": 4694,
      "ET": 4695,
      "Ġawkward": 4696,
      "Ġver": 4697,
      "Ġsepar": 4698,
      "Ġtorture": 4699,
      "Ġstink": 4700,
      "Ġrated": 4701,
      "Ġknowledge": 4702,
      "Ġmotiv": 4703,
      "Ġenergy": 4704,
      "cture": 4705,
      "ĠAli": 4706,
      "Ġradio": 4707,
      "Ġris": 4708,
      "Ġheroes": 4709,
      "ser": 4710,
      "ĠPres": 4711,
      "Ġreturns": 4712,
      "ĠIN": 4713,
      "ĠJes": 4714,
      "Ġbirth": 4715,
      "Ġder": 4716,
      "ĠRus": 4717,
      "Ġhotel": 4718,
      "Ġtwenty": 4719,
      "Ġpersonally": 4720,
      "Ġlies": 4721,
      "Ġblock": 4722,
      "26": 4723,
      "oons": 4724,
      "Ġanimals": 4725,
      "Ġted": 4726,
      "inn": 4727,
      "Ġgoof": 4728,
      "ousy": 4729,
      "Ġpartner": 4730,
      "Ġnumbers": 4731,
      "su": 4732,
      "ĠVH": 4733,
      ".'": 4734,
      "aving": 4735,
      "irk": 4736,
      "ĠJon": 4737,
      "Ġinvent": 4738,
      "ĠDick": 4739,
      "ĠLau": 4740,
      "Ġvision": 4741,
      "Ġresemb": 4742,
      "Ġresponsible": 4743,
      "Ġexplanation": 4744,
      "ĠBas": 4745,
      "Ġdeeply": 4746,
      "Although": 4747,
      "American": 4748,
      "Ġreact": 4749,
      "abor": 4750,
      "teen": 4751,
      "ĠEverything": 4752,
      "Ġreligious": 4753,
      "ĠRom": 4754,
      "51": 4755,
      "owell": 4756,
      "Ġelect": 4757,
      "Ġlimited": 4758,
      "Ġpacing": 4759,
      "bered": 4760,
      "Ġaccurate": 4761,
      "Ġvillains": 4762,
      "Ġpleasure": 4763,
      "stick": 4764,
      "ĠMen": 4765,
      "ĠWalk": 4766,
      "Ġrarely": 4767,
      "ĠThomas": 4768,
      "uct": 4769,
      "ĠSus": 4770,
      "Ġsucks": 4771,
      "UT": 4772,
      "rical": 4773,
      "tered": 4774,
      "Ġfriendship": 4775,
      "ration": 4776,
      "ivity": 4777,
      "21": 4778,
      "Ġdebut": 4779,
      "Ġarmy": 4780,
      "Ġ1950": 4781,
      "ĠAnn": 4782,
      "ano": 4783,
      "Ġsty": 4784,
      "Ġhits": 4785,
      "Ġhurt": 4786,
      "Ġarts": 4787,
      "Ġnicely": 4788,
      "itz": 4789,
      "ency": 4790,
      "elle": 4791,
      "Ġ?": 4792,
      "Ġfool": 4793,
      "plot": 4794,
      "Ġjudge": 4795,
      "Ġmonths": 4796,
      "Ġthoroughly": 4797,
      "Ġstrength": 4798,
      "ĠApp": 4799,
      "Ġsurreal": 4800,
      "Ġdeserved": 4801,
      "ÂĹ": 4802,
      "ĠJr": 4803,
      "ĠLind": 4804,
      "gn": 4805,
      "Ġincre": 4806,
      "Ġfinished": 4807,
      "Ġforeign": 4808,
      "alled": 4809,
      "Ġmurdered": 4810,
      "oks": 4811,
      "Ġlisten": 4812,
      "Ġmixed": 4813,
      "Ġcommunity": 4814,
      "80": 4815,
      "ĠEddie": 4816,
      "Ġcalls": 4817,
      "Ġloving": 4818,
      "Ġfloor": 4819,
      "Ġexplained": 4820,
      "Rob": 4821,
      "Ġhundred": 4822,
      "Ġinsane": 4823,
      "glas": 4824,
      "Ġchick": 4825,
      "ĠDespite": 4826,
      "etic": 4827,
      "ĠJerry": 4828,
      "Ġplayers": 4829,
      "ensional": 4830,
      "Ġrap": 4831,
      "Ġcompare": 4832,
      "Ġvehic": 4833,
      "Ġsignific": 4834,
      "hered": 4835,
      "especially": 4836,
      "Ġaband": 4837,
      "They": 4838,
      "Ġplots": 4839,
      "ĠJulie": 4840,
      "ruction": 4841,
      "Ġcomparison": 4842,
      "star": 4843,
      "ĠJud": 4844,
      "Ġconstant": 4845,
      "ĠBarb": 4846,
      "Ġlocations": 4847,
      "Ġunnecessary": 4848,
      "Ġtarget": 4849,
      "Ġmine": 4850,
      "aton": 4851,
      "Ġthats": 4852,
      "Ġbloody": 4853,
      "Ġopera": 4854,
      "orted": 4855,
      "Ġsmile": 4856,
      "cula": 4857,
      "uh": 4858,
      "ĠOnce": 4859,
      "Ġlacking": 4860,
      "Ġcars": 4861,
      "iful": 4862,
      "they": 4863,
      "Ġgangster": 4864,
      "ĠRyan": 4865,
      "Ġlay": 4866,
      "Ġartistic": 4867,
      "iety": 4868,
      "Ġdeterm": 4869,
      "Ġguns": 4870,
      "Ġprove": 4871,
      "bur": 4872,
      "Ġda": 4873,
      "ilst": 4874,
      "ateg": 4875,
      "ueen": 4876,
      "Ġremain": 4877,
      "ording": 4878,
      "iance": 4879,
      "ĠStewart": 4880,
      "rue": 4881,
      "----": 4882,
      "Ġcourt": 4883,
      "Ġscared": 4884,
      "Ġlearned": 4885,
      "Ġmachine": 4886,
      "Ġfield": 4887,
      "ĠDeath": 4888,
      "Ġmount": 4889,
      "Ġ1980": 4890,
      "Ġpilot": 4891,
      ":<": 4892,
      "Ġproceed": 4893,
      "Ġbland": 4894,
      "ĠLewis": 4895,
      "eks": 4896,
      "Ġmild": 4897,
      "Ġsurvive": 4898,
      "Ġcreating": 4899,
      "Ġassist": 4900,
      "Ġefforts": 4901,
      "break": 4902,
      "ĠEll": 4903,
      "eresting": 4904,
      "Ġcaptured": 4905,
      "ĠStory": 4906,
      "there": 4907,
      "Ġcow": 4908,
      "Ġthous": 4909,
      "ĠNick": 4910,
      "hero": 4911,
      "Ġwitty": 4912,
      "ĠAc": 4913,
      "ulation": 4914,
      "Ġconcerned": 4915,
      "Ġcircum": 4916,
      "Ġtur": 4917,
      "Ġcontext": 4918,
      "Ġrape": 4919,
      "kespe": 4920,
      "rat": 4921,
      "Ġopt": 4922,
      "ashed": 4923,
      "anned": 4924,
      "Ġdangerous": 4925,
      "Ġlovers": 4926,
      "Ġgrat": 4927,
      "Ġvisit": 4928,
      "Ġcriminal": 4929,
      "anced": 4930,
      "ĠEngland": 4931,
      "Ġner": 4932,
      "ĠCam": 4933,
      "ĠHay": 4934,
      "Ġphilos": 4935,
      "ĠVHS": 4936,
      "ĠMax": 4937,
      "erer": 4938,
      "Ġbelief": 4939,
      "ĠDam": 4940,
      "Ġpriest": 4941,
      "vit": 4942,
      "arently": 4943,
      "Ġdriving": 4944,
      "ĠStephen": 4945,
      "ading": 4946,
      "Ġwonderfully": 4947,
      "Ġmemories": 4948,
      "Ġcontrast": 4949,
      "vant": 4950,
      "Ġskills": 4951,
      "fortable": 4952,
      "ĠLaw": 4953,
      "Ġowner": 4954,
      "ĠWayne": 4955,
      "Ġpaper": 4956,
      "ĠWhite": 4957,
      "Ġmagnific": 4958,
      "althy": 4959,
      "ennifer": 4960,
      "Ġneighbor": 4961,
      "Ġbehavior": 4962,
      "Ġresc": 4963,
      "Ġbigger": 4964,
      "Ġhumanity": 4965,
      "Ġengaging": 4966,
      "ĠMal": 4967,
      "Ġinstance": 4968,
      "Ġbelow": 4969,
      "anted": 4970,
      "Ġresults": 4971,
      "Ġtreated": 4972,
      "Ġmental": 4973,
      "Ġopposite": 4974,
      "Ġpu": 4975,
      "Ġhidden": 4976,
      "Ġnoticed": 4977,
      "ression": 4978,
      "Ġreminds": 4979,
      "Ġforces": 4980,
      "Ġdesperate": 4981,
      "Why": 4982,
      "Ġtechnical": 4983,
      "Ġrubbish": 4984,
      "Ġflying": 4985,
      "ademy": 4986,
      "ĠRam": 4987,
      "Ġnumerous": 4988,
      "Ġremarkable": 4989,
      "Ġpark": 4990,
      "Ġenth": 4991,
      "cise": 4992,
      "yes": 4993,
      "Ġboo": 4994,
      "ugs": 4995,
      "Ġtape": 4996,
      "via": 4997,
      "........": 4998,
      "Ġwond": 4999,
      "esh": 5000,
      "aybe": 5001,
      "ĠDel": 5002,
      "ĠVal": 5003,
      "Ġgotten": 5004,
      "Ġofficer": 5005,
      "POILERS": 5006,
      "Ġgags": 5007,
      "Ġhopes": 5008,
      "Ġmiser": 5009,
      "Just": 5010,
      "ication": 5011,
      "ache": 5012,
      "Ġkeeping": 5013,
      "Ġparody": 5014,
      "icate": 5015,
      "Ġrevealed": 5016,
      "rous": 5017,
      "va": 5018,
      "atory": 5019,
      "Ġlesb": 5020,
      "Ġanybody": 5021,
      "Ġhumans": 5022,
      "Ġincluded": 5023,
      "director": 5024,
      "Ġeduc": 5025,
      "Ġearn": 5026,
      "olds": 5027,
      "natural": 5028,
      "Ġboat": 5029,
      "ĠMrs": 5030,
      "hold": 5031,
      "017": 5032,
      "ember": 5033,
      "Sp": 5034,
      "Ġempty": 5035,
      "Ġrend": 5036,
      "cient": 5037,
      "Ġrealism": 5038,
      "Ġblue": 5039,
      "Ġplayer": 5040,
      "042": 5041,
      "Ġexperien": 5042,
      "ĠDouglas": 5043,
      "eman": 5044,
      "isters": 5045,
      "However": 5046,
      "0118": 5047,
      "Ġstret": 5048,
      "Ġhadn": 5049,
      "Ġcircumst": 5050,
      "Ġnat": 5051,
      "Ġreferences": 5052,
      "ĠLife": 5053,
      "Ġprotect": 5054,
      "Ġrelate": 5055,
      "Ġmarry": 5056,
      "Ġscare": 5057,
      "Ġdesp": 5058,
      "Ġminim": 5059,
      "Ġteenagers": 5060,
      "Even": 5061,
      "ender": 5062,
      "Ġenvi": 5063,
      "Ġexpert": 5064,
      "cis": 5065,
      "pless": 5066,
      "OK": 5067,
      "ĠPlease": 5068,
      "ounds": 5069,
      "Ġspeech": 5070,
      "ĠSpace": 5071,
      "aylor": 5072,
      "ĠCapt": 5073,
      "Ġprostit": 5074,
      "range": 5075,
      "Ġresol": 5076,
      "uz": 5077,
      "Ġban": 5078,
      "Ġsoap": 5079,
      "ola": 5080,
      "Ġopens": 5081,
      "although": 5082,
      "edding": 5083,
      "ĠDen": 5084,
      "Ġoverly": 5085,
      "Ġprotagonist": 5086,
      "phy": 5087,
      "ĠWars": 5088,
      "Ġfinale": 5089,
      "Ġsoldier": 5090,
      "20": 5091,
      "ĠAp": 5092,
      "Ġrecall": 5093,
      "insp": 5094,
      "top": 5095,
      "Ġassoci": 5096,
      "uls": 5097,
      "holic": 5098,
      "asm": 5099,
      "ĠLes": 5100,
      "ĠHorror": 5101,
      "Ġtherefore": 5102,
      "Ġtoward": 5103,
      "Ġwindow": 5104,
      "roll": 5105,
      "ching": 5106,
      "Ġsafe": 5107,
      "Ġveter": 5108,
      "core": 5109,
      "osexual": 5110,
      "Ġbuff": 5111,
      "Ġsword": 5112,
      "reck": 5113,
      "Ġnet": 5114,
      "ĠTex": 5115,
      "Ġcommercial": 5116,
      "vy": 5117,
      "Ġfrequ": 5118,
      "ĠSpanish": 5119,
      "Ġcharis": 5120,
      "ĠWat": 5121,
      "Ġorgan": 5122,
      "mare": 5123,
      "Ġsheer": 5124,
      "Ġtrib": 5125,
      "Ġanimal": 5126,
      "ominated": 5127,
      "fin": 5128,
      "ĠRon": 5129,
      "ĠRos": 5130,
      "Ġcontrived": 5131,
      "ĠSy": 5132,
      "Ġjunk": 5133,
      "Ġregular": 5134,
      "ĠShakespe": 5135,
      "aker": 5136,
      "ĠAlan": 5137,
      "Ġgrowing": 5138,
      "Ġing": 5139,
      "Ġscrew": 5140,
      "015": 5141,
      "Ġtransl": 5142,
      "ushing": 5143,
      "ĠBarry": 5144,
      "ulf": 5145,
      "Ġtalents": 5146,
      "Ġhumorous": 5147,
      "imental": 5148,
      "looking": 5149,
      "cies": 5150,
      "void": 5151,
      "ĠWas": 5152,
      "Ġgeneration": 5153,
      "Ġbreaks": 5154,
      "Ġpulled": 5155,
      "ques": 5156,
      "Ġens": 5157,
      "Ġindividual": 5158,
      "hent": 5159,
      "Ġdisplay": 5160,
      "Ġstereotypes": 5161,
      "OL": 5162,
      "Ġcameo": 5163,
      "Ġdealing": 5164,
      "Ġstreets": 5165,
      "Ġbot": 5166,
      "ruct": 5167,
      "ĠViet": 5168,
      "Ġadvice": 5169,
      "don": 5170,
      "sec": 5171,
      "Ġsed": 5172,
      "Ġsal": 5173,
      "arc": 5174,
      "ĠCle": 5175,
      "ĠVer": 5176,
      "screen": 5177,
      "bell": 5178,
      "ĠEuropean": 5179,
      "Ġnonsense": 5180,
      "gra": 5181,
      "ĠJan": 5182,
      "Ġshallow": 5183,
      "wolf": 5184,
      "Ġtick": 5185,
      "irm": 5186,
      "Ġobsc": 5187,
      "Ġcateg": 5188,
      "Ġdeals": 5189,
      "Ġrefres": 5190,
      "Ġlevels": 5191,
      "Ġfrank": 5192,
      "Ġcable": 5193,
      "Ġspoof": 5194,
      "Ġfate": 5195,
      "Ġali": 5196,
      "Ġperspective": 5197,
      "Ġpress": 5198,
      "Ġpsychological": 5199,
      "Ġdated": 5200,
      "Ġvol": 5201,
      "Ġvote": 5202,
      "Ġchalleng": 5203,
      "iser": 5204,
      "ĠBE": 5205,
      "Ġfinest": 5206,
      "ails": 5207,
      "Ġheroine": 5208,
      "ĠBrothers": 5209,
      "Ġintent": 5210,
      "Ġarm": 5211,
      "ĠLuc": 5212,
      "umps": 5213,
      ");": 5214,
      "ĠCent": 5215,
      "ĠRod": 5216,
      "Ġprov": 5217,
      "0119": 5218,
      "ĠAnne": 5219,
      "Ġsummer": 5220,
      "Ġgonna": 5221,
      "Ġreceived": 5222,
      "Ġattitude": 5223,
      "Ġprint": 5224,
      "eed": 5225,
      "Ġfif": 5226,
      "ĠTy": 5227,
      "ĠDor": 5228,
      "ĠDennis": 5229,
      "abb": 5230,
      "ĠJohnny": 5231,
      "Ġevidence": 5232,
      "Ġaward": 5233,
      "Ġterribly": 5234,
      "Ġcrappy": 5235,
      "Ġstudy": 5236,
      "Ġhall": 5237,
      "Ġsuck": 5238,
      "Yes": 5239,
      "Ġconsist": 5240,
      "ĠBlood": 5241,
      "ĠMer": 5242,
      "Ġsomebody": 5243,
      ".\"<": 5244,
      "Ġmedia": 5245,
      "Ġmanip": 5246,
      "Ġstarting": 5247,
      "Ġtheatre": 5248,
      "reedom": 5249,
      "Ġring": 5250,
      "ometimes": 5251,
      "ĠSean": 5252,
      "Ġdiscovers": 5253,
      "Ġgory": 5254,
      "ĠDO": 5255,
      "Ġreviewers": 5256,
      "Ġwoods": 5257,
      "entle": 5258,
      "Ġchore": 5259,
      "Ġtack": 5260,
      "Ġvillage": 5261,
      "acting": 5262,
      "ĠArthur": 5263,
      "Ġcontinues": 5264,
      "Ġunrealistic": 5265,
      "oom": 5266,
      "Ġincomp": 5267,
      "ĠEs": 5268,
      "Ġgrace": 5269,
      "tw": 5270,
      "Ġaltern": 5271,
      "Ġtrick": 5272,
      "Ġinvolves": 5273,
      "Ġcruel": 5274,
      "Ġhigher": 5275,
      "ashes": 5276,
      "ids": 5277,
      "away": 5278,
      "Ġordinary": 5279,
      "Ġenviron": 5280,
      "some": 5281,
      "ads": 5282,
      "Ġwinning": 5283,
      "Ġrelief": 5284,
      "ĠLast": 5285,
      "Ġpretentious": 5286,
      "lla": 5287,
      "iling": 5288,
      "yal": 5289,
      "rol": 5290,
      "Ġseat": 5291,
      "ĠSant": 5292,
      "Ġdecade": 5293,
      "Ġcares": 5294,
      "Ġsequels": 5295,
      "ama": 5296,
      "urse": 5297,
      "Ġunfunny": 5298,
      "Ġrange": 5299,
      "ĠIm": 5300,
      "ulous": 5301,
      "Ġdiscovered": 5302,
      "84": 5303,
      "Ġfund": 5304,
      "Ġpupp": 5305,
      "ĠThose": 5306,
      "outs": 5307,
      "ums": 5308,
      "Ġdisp": 5309,
      "Ġmini": 5310,
      "Ġbroken": 5311,
      "ĠThing": 5312,
      "Ġremembered": 5313,
      "Ġcapture": 5314,
      "Ġfeaturing": 5315,
      "Ġframe": 5316,
      "Ġrefreshing": 5317,
      "fl": 5318,
      "Ġsun": 5319,
      "043": 5320,
      "Ġflashbacks": 5321,
      "Ġsimpl": 5322,
      "Sc": 5323,
      "ixt": 5324,
      "Ġur": 5325,
      "Ġlat": 5326,
      "Ġking": 5327,
      "Ġreaction": 5328,
      "ĠStone": 5329,
      "ĠFrance": 5330,
      "Ġgenuinely": 5331,
      "Ġgru": 5332,
      "Ġedited": 5333,
      "Ġfailure": 5334,
      "Ġsteal": 5335,
      "Ġirritating": 5336,
      "ivered": 5337,
      "037": 5338,
      "Ġmonsters": 5339,
      "iver": 5340,
      "oh": 5341,
      "ĠTaylor": 5342,
      "Ġassass": 5343,
      "Ġcapable": 5344,
      "ĠSince": 5345,
      "???": 5346,
      "Ġintellect": 5347,
      "Ġhyp": 5348,
      "Ġbodies": 5349,
      "ĠWhich": 5350,
      "Ġvac": 5351,
      "Ġspeed": 5352,
      "luding": 5353,
      "Ġmeeting": 5354,
      "ĠDracula": 5355,
      "Ġsea": 5356,
      "ĠRoy": 5357,
      "theless": 5358,
      "Ġloses": 5359,
      "ners": 5360,
      "ĠWH": 5361,
      "Ġteach": 5362,
      "Ġsatire": 5363,
      "ĠWild": 5364,
      "ups": 5365,
      "Ġkinda": 5366,
      "Ġinterpret": 5367,
      "hentic": 5368,
      "Ġgas": 5369,
      "oting": 5370,
      "Ġfeet": 5371,
      "RA": 5372,
      "arden": 5373,
      "Ġfamil": 5374,
      "ĠMurphy": 5375,
      "ether": 5376,
      "ribut": 5377,
      "Ġguest": 5378,
      "Ġdecision": 5379,
      "urban": 5380,
      "rem": 5381,
      "ĠAnderson": 5382,
      "Ġrescue": 5383,
      "Ġcuts": 5384,
      "pse": 5385,
      "Ġsaved": 5386,
      "Ġidentity": 5387,
      "Ġdreadful": 5388,
      "Ġsite": 5389,
      "ĠMi": 5390,
      "Ġresearch": 5391,
      "ĠHolmes": 5392,
      "point": 5393,
      "imate": 5394,
      "ĠRose": 5395,
      "Ġunable": 5396,
      "Ġvs": 5397,
      "abeth": 5398,
      "Ġfly": 5399,
      "ĠBatman": 5400,
      "add": 5401,
      "ĠBog": 5402,
      "ĠBrian": 5403,
      "Ġdesire": 5404,
      "Ġtreatment": 5405,
      "ĠAnthony": 5406,
      "Ġspectacular": 5407,
      "riday": 5408,
      "oyd": 5409,
      "ĠSan": 5410,
      "Ġdepressing": 5411,
      "nox": 5412,
      "ĠHop": 5413,
      "Ġvul": 5414,
      "ordon": 5415,
      "Ġcombination": 5416,
      "board": 5417,
      "Ġgraphic": 5418,
      "Ġpowers": 5419,
      "Ġvisuals": 5420,
      "emporary": 5421,
      "ĠWal": 5422,
      "032": 5423,
      "Ġdocument": 5424,
      "Ġconnection": 5425,
      "ĠJose": 5426,
      "ĠEveryone": 5427,
      "ĠCraw": 5428,
      "fight": 5429,
      "Ġtun": 5430,
      "Ġmajority": 5431,
      "histic": 5432,
      "Ġemer": 5433,
      "Ġbear": 5434,
      "Ġkiss": 5435,
      "Ġoriginally": 5436,
      "ĠShakespeare": 5437,
      "Ġaliens": 5438,
      "des": 5439,
      "ĠDE": 5440,
      "ĠAfrican": 5441,
      "Ġfacts": 5442,
      "Ġoccasionally": 5443,
      "isa": 5444,
      "Ġprinci": 5445,
      "nam": 5446,
      "orious": 5447,
      "ĠOut": 5448,
      "ogy": 5449,
      "atters": 5450,
      "Ġtypes": 5451,
      "Ġdescribed": 5452,
      "Ġgreen": 5453,
      "Ġdelivered": 5454,
      "Ġconnect": 5455,
      "ĠFrancis": 5456,
      "ĠColumb": 5457,
      "arian": 5458,
      "Ġpeace": 5459,
      "Ġmorning": 5460,
      "Ġgross": 5461,
      "Ġsole": 5462,
      "039": 5463,
      "ĠDean": 5464,
      "rifying": 5465,
      "Ġmodel": 5466,
      "nce": 5467,
      "Ġultimate": 5468,
      "Ġproved": 5469,
      "Ġtext": 5470,
      "oken": 5471,
      "Ġmarvel": 5472,
      "Ġtor": 5473,
      "icit": 5474,
      "Ġseven": 5475,
      "Ġju": 5476,
      "uman": 5477,
      "ĠAsian": 5478,
      "Ġtalks": 5479,
      "Ġportrays": 5480,
      "Ġsides": 5481,
      "plin": 5482,
      "Ġstanding": 5483,
      "ĠCarl": 5484,
      "Ġexistence": 5485,
      "Ġexecuted": 5486,
      "mary": 5487,
      "024": 5488,
      "bly": 5489,
      "Ġcash": 5490,
      "mental": 5491,
      "Ġpaint": 5492,
      "ĠDanny": 5493,
      "omed": 5494,
      "ato": 5495,
      "ĠIT": 5496,
      "Ġcounter": 5497,
      "Ġteenager": 5498,
      "Ġgrew": 5499,
      "ĠSecond": 5500,
      "Ġpa": 5501,
      "Ġunderrated": 5502,
      "Ġtheaters": 5503,
      "SE": 5504,
      "Ġfame": 5505,
      "ĠAndrew": 5506,
      "Ġsinger": 5507,
      "hearted": 5508,
      "BI": 5509,
      "Let": 5510,
      "Ġbath": 5511,
      "iforn": 5512,
      "Ġproud": 5513,
      "Ġpassed": 5514,
      "eanwhile": 5515,
      "tain": 5516,
      "Ġsucked": 5517,
      "Ġsympathetic": 5518,
      "ga": 5519,
      "Ġsake": 5520,
      "ĠSpe": 5521,
      "Ġimagin": 5522,
      "yer": 5523,
      "Ġcyn": 5524,
      "Ġhur": 5525,
      "uns": 5526,
      "ĠColl": 5527,
      "ĠWin": 5528,
      "Ġinept": 5529,
      "Ġsend": 5530,
      "Ġpit": 5531,
      "ĠEric": 5532,
      "Ġtedious": 5533,
      "ĠSE": 5534,
      "ĠCass": 5535,
      "Ġchoose": 5536,
      "Ġreflect": 5537,
      "Ġcircumstances": 5538,
      "Ġinex": 5539,
      "Ġadvert": 5540,
      "Ġasking": 5541,
      "ĠTime": 5542,
      "Ġlaught": 5543,
      "inis": 5544,
      "ĠLook": 5545,
      "Ġhyster": 5546,
      "Every": 5547,
      "ĠDar": 5548,
      "ĠEVER": 5549,
      "achel": 5550,
      "Ġexploitation": 5551,
      "UN": 5552,
      "ĠNO": 5553,
      "Ġbrilliantly": 5554,
      "Ġmurderer": 5555,
      "stream": 5556,
      "entionally": 5557,
      "Ġshop": 5558,
      "Ġskill": 5559,
      "Ġcorrupt": 5560,
      "Ġcant": 5561,
      "lder": 5562,
      "006": 5563,
      "Ġbuilt": 5564,
      "Ġregret": 5565,
      "Ġhandsome": 5566,
      "!).": 5567,
      "Ġfle": 5568,
      "Ġbatt": 5569,
      "ĠCamp": 5570,
      "ĠGary": 5571,
      "Ġthoughts": 5572,
      "Ġlesson": 5573,
      "ĠREAL": 5574,
      "ĠTexas": 5575,
      "fit": 5576,
      "Ġbag": 5577,
      "Ġdry": 5578,
      "ĠTod": 5579,
      "Ġnecess": 5580,
      "ĠJennifer": 5581,
      "Ġlogic": 5582,
      "Ġallows": 5583,
      "Of": 5584,
      "ummy": 5585,
      "Ġsuffering": 5586,
      "Ġfamilies": 5587,
      "pper": 5588,
      "Ġsaving": 5589,
      "ĠPatrick": 5590,
      "Ġassume": 5591,
      "Ġpath": 5592,
      "Ġdu": 5593,
      "ride": 5594,
      "ĠKong": 5595,
      "Ġclassics": 5596,
      "Ġmagnificent": 5597,
      "ĠDog": 5598,
      "ĠPar": 5599,
      "025": 5600,
      "Ġemotionally": 5601,
      "ĠRussell": 5602,
      "Ġeating": 5603,
      "ĠMic": 5604,
      "ĠDem": 5605,
      "ĠChuck": 5606,
      "IGH": 5607,
      "ĠBern": 5608,
      "Ġteens": 5609,
      "Ġcartoons": 5610,
      "Ġgratuit": 5611,
      "GE": 5612,
      "ĠFestival": 5613,
      "ĠYOU": 5614,
      "Ġgrade": 5615,
      "Ġic": 5616,
      "Ġfal": 5617,
      "Ġnin": 5618,
      "matic": 5619,
      "usive": 5620,
      "ĠLord": 5621,
      "029": 5622,
      "Ġtransp": 5623,
      "Ġgrown": 5624,
      "Then": 5625,
      "ĠLynch": 5626,
      "ĠMars": 5627,
      "034": 5628,
      "She": 5629,
      "aa": 5630,
      "Ġslapstick": 5631,
      "ĠCrawford": 5632,
      "\"),": 5633,
      "vest": 5634,
      "ago": 5635,
      "Ġpropag": 5636,
      "Ġauthentic": 5637,
      "Ġdressed": 5638,
      "Ġlaughter": 5639,
      "mond": 5640,
      "rs": 5641,
      "0092": 5642,
      "law": 5643,
      "Ġsch": 5644,
      "ĠHaw": 5645,
      "Ġblow": 5646,
      "Ġbelieves": 5647,
      "Ġwarning": 5648,
      "Ġpromise": 5649,
      "telling": 5650,
      "Ġlone": 5651,
      "ILL": 5652,
      "ĠIsland": 5653,
      "ls": 5654,
      "Ġexcite": 5655,
      "Ġembarrassing": 5656,
      "craft": 5657,
      "Ġpunch": 5658,
      "Ġweeks": 5659,
      "Also": 5660,
      "Ġprovided": 5661,
      "iration": 5662,
      "Ġcreatures": 5663,
      "Ġsubtitles": 5664,
      "ĠAgain": 5665,
      "ĠStreet": 5666,
      "Ġhorribly": 5667,
      "Ġcreates": 5668,
      "RI": 5669,
      "âĢ": 5670,
      "Ġsteals": 5671,
      "Ġtable": 5672,
      "Ġforth": 5673,
      "Ġyeah": 5674,
      "Ġcompan": 5675,
      "ĠComm": 5676,
      "ilty": 5677,
      "ĠGordon": 5678,
      "ume": 5679,
      "ĠMexican": 5680,
      "Ġstom": 5681,
      "ynam": 5682,
      "Another": 5683,
      "ĠLouis": 5684,
      "Ġvehicle": 5685,
      "Ġwhilst": 5686,
      "ĠAndy": 5687,
      "Ġrental": 5688,
      "Ġuncom": 5689,
      "ibal": 5690,
      "ĠTHIS": 5691,
      "Ġunp": 5692,
      "ours": 5693,
      "033": 5694,
      "itiz": 5695,
      "Ġfra": 5696,
      "Ġanime": 5697,
      "ĠSund": 5698,
      "ĠGene": 5699,
      "Ġchurch": 5700,
      "Ġproduce": 5701,
      "Ġestabl": 5702,
      "Ġessentially": 5703,
      "ausible": 5704,
      "Ġfreedom": 5705,
      "Ġextraord": 5706,
      "ĠTurn": 5707,
      "ĠKu": 5708,
      "Ġnaive": 5709,
      "__": 5710,
      "vere": 5711,
      "Ġpainfully": 5712,
      "Ġplans": 5713,
      "Ġnormally": 5714,
      "Ġexpression": 5715,
      "ĠKenn": 5716,
      "Ġspin": 5717,
      "Ġviewed": 5718,
      "incent": 5719,
      "ĠLaure": 5720,
      "ifornia": 5721,
      "done": 5722,
      "Ġbre": 5723,
      "ĠSin": 5724,
      "outhern": 5725,
      "Ġsnow": 5726,
      "ĠMin": 5727,
      "Ġvan": 5728,
      "Ġexcited": 5729,
      "Ġtem": 5730,
      "Ġshocked": 5731,
      "ĠMil": 5732,
      "orting": 5733,
      "formed": 5734,
      "ĠNorth": 5735,
      "Ġsatisfying": 5736,
      "ĠPlus": 5737,
      "Ġqualities": 5738,
      "made": 5739,
      "019": 5740,
      "Ġlesbian": 5741,
      "Ar": 5742,
      "Fi": 5743,
      "ĠSho": 5744,
      "urday": 5745,
      "fortunate": 5746,
      "ungle": 5747,
      "oop": 5748,
      "Ġconsequ": 5749,
      "Ġaccomp": 5750,
      "ĠUnivers": 5751,
      "Ġlargely": 5752,
      "Ġvirtually": 5753,
      "ĠCount": 5754,
      "Ġtechnology": 5755,
      "Ġdollars": 5756,
      "Ġamateurish": 5757,
      "Ġsource": 5758,
      "ĠOld": 5759,
      "Ġwhenever": 5760,
      "022": 5761,
      "ĠGuy": 5762,
      "Ġsharp": 5763,
      "Ġcab": 5764,
      "Ġpal": 5765,
      "Ġinvolve": 5766,
      "ridge": 5767,
      "Ġscar": 5768,
      "Ġterm": 5769,
      "Ġbringing": 5770,
      "From": 5771,
      "gers": 5772,
      "ĠAdd": 5773,
      "Ġzero": 5774,
      "Ġwalks": 5775,
      "Ġcook": 5776,
      "amily": 5777,
      "ulp": 5778,
      "ĠLA": 5779,
      "ĠKat": 5780,
      "Ġglass": 5781,
      "Ġpurcha": 5782,
      "ĠIre": 5783,
      "acre": 5784,
      "reek": 5785,
      "ĠCinem": 5786,
      "ĠChaplin": 5787,
      "Ġcorny": 5788,
      "Ġdelightful": 5789,
      "rant": 5790,
      "ĠInt": 5791,
      "ĠPac": 5792,
      "ĠLong": 5793,
      "Ġladies": 5794,
      "ĠEliz": 5795,
      "Ġlucky": 5796,
      "Ġdisgusting": 5797,
      "Ġappropriate": 5798,
      "viously": 5799,
      "aken": 5800,
      "Ġendless": 5801,
      "ĠUnd": 5802,
      "Ġcollect": 5803,
      "Ġstopped": 5804,
      "Ġencounter": 5805,
      "Ġgratuitous": 5806,
      "Ġcompos": 5807,
      "Ġexecution": 5808,
      "Ġwel": 5809,
      "Ġtheatrical": 5810,
      "wing": 5811,
      "Ġtill": 5812,
      "Ġuncle": 5813,
      "Ġlosing": 5814,
      "enstein": 5815,
      "Ġmatters": 5816,
      "hise": 5817,
      "Ġcaused": 5818,
      "nal": 5819,
      "ĠKore": 5820,
      "Ġlearns": 5821,
      "Ġinevit": 5822,
      "Do": 5823,
      "Ġspends": 5824,
      "Ġcurious": 5825,
      "ĠMiche": 5826,
      "Ġoffensive": 5827,
      "class": 5828,
      "Ġtwisted": 5829,
      "Ġscreaming": 5830,
      "ĠSH": 5831,
      "ĠRen": 5832,
      "Ġharsh": 5833,
      "udes": 5834,
      "ogether": 5835,
      "86": 5836,
      "olen": 5837,
      "Ġpsycho": 5838,
      "ĠCaptain": 5839,
      "Ġpan": 5840,
      "ĠWilson": 5841,
      "Ġ1930": 5842,
      "Ġcrash": 5843,
      "Ġpleasant": 5844,
      "Ġroutine": 5845,
      "Ġblonde": 5846,
      "Ġlift": 5847,
      "Ġages": 5848,
      "Ġsurface": 5849,
      "vo": 5850,
      "Ġfict": 5851,
      "Ġcas": 5852,
      "Ġhearing": 5853,
      "cap": 5854,
      "Ġcenter": 5855,
      "ault": 5856,
      "Ġdress": 5857,
      "ĠRoger": 5858,
      "Ġsegment": 5859,
      "Ġlower": 5860,
      "Ġlie": 5861,
      "ĠCost": 5862,
      "Ġquir": 5863,
      "ĠKeaton": 5864,
      "Ġrevolution": 5865,
      "Ġexperienced": 5866,
      "lim": 5867,
      "Ġstrongly": 5868,
      "ux": 5869,
      "usi": 5870,
      "Pl": 5871,
      "Ġ)": 5872,
      "Ġalco": 5873,
      "ĠFer": 5874,
      "ENT": 5875,
      "Ġerotic": 5876,
      "rating": 5877,
      "Ġlink": 5878,
      "Ġhey": 5879,
      "Ġunfortunate": 5880,
      "beat": 5881,
      "Ġexperiences": 5882,
      "ĠWoody": 5883,
      "ĠThank": 5884,
      "hem": 5885,
      "Ġdrop": 5886,
      "Ġpregn": 5887,
      "Ġholding": 5888,
      "Ġspeaks": 5889,
      "col": 5890,
      "otion": 5891,
      "Ġmakeup": 5892,
      "Ġreviewer": 5893,
      "Ġhomosexual": 5894,
      "ĠAcademy": 5895,
      "Ġlousy": 5896,
      "ulated": 5897,
      "ĠJess": 5898,
      "ĠLeon": 5899,
      "Ġexcitement": 5900,
      "Ġfits": 5901,
      "Ġprice": 5902,
      "Ġportraying": 5903,
      "Ġrefer": 5904,
      "Ġfeatured": 5905,
      "ĠDian": 5906,
      "Ġconvey": 5907,
      "hett": 5908,
      "semble": 5909,
      "ĠHit": 5910,
      "Ġruined": 5911,
      "Ġsubstance": 5912,
      "ingu": 5913,
      "ston": 5914,
      "ante": 5915,
      "oard": 5916,
      "Ġpractically": 5917,
      "Ġmask": 5918,
      "ĠSun": 5919,
      "Ġdeaths": 5920,
      "lynn": 5921,
      "Ġfrankly": 5922,
      "):": 5923,
      "erie": 5924,
      "lear": 5925,
      "zo": 5926,
      "oween": 5927,
      "umber": 5928,
      "Ġrules": 5929,
      "Ġende": 5930,
      "Ġcosts": 5931,
      "ued": 5932,
      "ĠRoman": 5933,
      "Ġreput": 5934,
      "Ġsyn": 5935,
      "ĠHarris": 5936,
      "Ġfalse": 5937,
      "dom": 5938,
      "ĠCast": 5939,
      "Ġfactor": 5940,
      "ĠUSA": 5941,
      "Ġtraditional": 5942,
      "ĠSal": 5943,
      "Ġcann": 5944,
      "Ġrealizes": 5945,
      "Ġbelieved": 5946,
      "Ġcring": 5947,
      "ĠAnna": 5948,
      "Ġwalked": 5949,
      "Ġdepicted": 5950,
      "Man": 5951,
      "ij": 5952,
      "Ġarrest": 5953,
      "027": 5954,
      "Ġrelatively": 5955,
      "ĠHope": 5956,
      "ĠWhe": 5957,
      "Ġsop": 5958,
      "Ġcommitted": 5959,
      "Ġpropaganda": 5960,
      "Ġwedding": 5961,
      "Ġdirty": 5962,
      "ĠHal": 5963,
      "ĠUp": 5964,
      "Ġentertained": 5965,
      "Ġvoices": 5966,
      "hal": 5967,
      "Ġancient": 5968,
      "mented": 5969,
      "ĠJackie": 5970,
      "Ġfootball": 5971,
      "ĠBroad": 5972,
      "Ġconversation": 5973,
      "Ġpraise": 5974,
      "Ġ11": 5975,
      "Ġpoign": 5976,
      "Ġidiot": 5977,
      "ĠBor": 5978,
      "ĠStates": 5979,
      "Ġpulls": 5980,
      "ients": 5981,
      "Ġrevel": 5982,
      "ĠAustralian": 5983,
      "Ġmultiple": 5984,
      "Ġrece": 5985,
      "Ġevening": 5986,
      "ĠIndia": 5987,
      "ship": 5988,
      "othy": 5989,
      "014": 5990,
      "Â´": 5991,
      "ĠVER": 5992,
      "Ġbetray": 5993,
      "Ġversions": 5994,
      "Ġasleep": 5995,
      "umm": 5996,
      "ĠUK": 5997,
      "Ġexpos": 5998,
      "Ġsupernatural": 5999,
      "Ġsuffers": 6000,
      "BO": 6001,
      "cons": 6002,
      "produ": 6003,
      "whel": 6004,
      "ĠRem": 6005,
      "Ġenemy": 6006,
      "ĠUnited": 6007,
      "ker": 6008,
      "Ġclue": 6009,
      "Ġideal": 6010,
      "Ġwear": 6011,
      "ĠCalifornia": 6012,
      "ĠPresident": 6013,
      "awn": 6014,
      "sing": 6015,
      "than": 6016,
      "Ġcro": 6017,
      "Ġbeach": 6018,
      "Ġforgettable": 6019,
      "ĠKim": 6020,
      "Ġhandled": 6021,
      "Ġpromising": 6022,
      "ona": 6023,
      "rix": 6024,
      "ĠTHAT": 6025,
      "Ġdescript": 6026,
      "ĠDoes": 6027,
      "ĠBrad": 6028,
      "Ġbond": 6029,
      "ĠMass": 6030,
      "agal": 6031,
      "icked": 6032,
      "aren": 6033,
      "Ġcommand": 6034,
      "Ġpuzz": 6035,
      "Like": 6036,
      "VE": 6037,
      "eds": 6038,
      "iano": 6039,
      "Ġreminis": 6040,
      "ĠMont": 6041,
      "Ġdemonstr": 6042,
      "long": 6043,
      "loyd": 6044,
      "Ġmir": 6045,
      "Ġpaced": 6046,
      "Ġtouches": 6047,
      "Ġstructure": 6048,
      "ked": 6049,
      "mother": 6050,
      "Ġsche": 6051,
      "Ġdefe": 6052,
      "Ġtruck": 6053,
      "inson": 6054,
      "Ġcrimin": 6055,
      "Ġdestroyed": 6056,
      "Ġlatest": 6057,
      "Des": 6058,
      "Ġunfor": 6059,
      "ĠQueen": 6060,
      "Ġprior": 6061,
      "mind": 6062,
      "ĠEvil": 6063,
      "Ġcommit": 6064,
      "Ġcutting": 6065,
      "ĠNazi": 6066,
      "ube": 6067,
      "Ġvague": 6068,
      "Ġpresents": 6069,
      "Ġgig": 6070,
      "Ġexagger": 6071,
      "ĠJohnson": 6072,
      "Ġclaims": 6073,
      "Ġabr": 6074,
      "Ġshut": 6075,
      "Ġflesh": 6076,
      "ranc": 6077,
      "Ġbat": 6078,
      "arning": 6079,
      "Ġrough": 6080,
      "ĠEdward": 6081,
      "Ġunconvin": 6082,
      "buster": 6083,
      "Ġcontemporary": 6084,
      "ocaly": 6085,
      "Ġinfluence": 6086,
      "ns": 6087,
      "Ġinner": 6088,
      "ĠLady": 6089,
      "ĠKhan": 6090,
      "047": 6091,
      "Ġdriver": 6092,
      "uclear": 6093,
      "Ġsensitive": 6094,
      "ĠHaving": 6095,
      "ĠNichol": 6096,
      "upt": 6097,
      "Ġabuse": 6098,
      "Ġstatement": 6099,
      "Ġdubbed": 6100,
      "Ġacqu": 6101,
      "Ġstayed": 6102,
      "Ġcust": 6103,
      "Ġjail": 6104,
      "Ġperformed": 6105,
      "Ġdevice": 6106,
      "Ġfestival": 6107,
      "Ġrepet": 6108,
      "Ġvariety": 6109,
      "Ġstereotypical": 6110,
      "ĠBarbara": 6111,
      "ipped": 6112,
      "Ġgentle": 6113,
      "Ġdisag": 6114,
      "Ġmovement": 6115,
      "Ġcostume": 6116,
      "written": 6117,
      "Ġveteran": 6118,
      "Ġspark": 6119,
      "Ġchosen": 6120,
      "ĠMcG": 6121,
      "Ġmethod": 6122,
      "Ġsuspenseful": 6123,
      "het": 6124,
      "ĠTor": 6125,
      "umph": 6126,
      "Ġcontrovers": 6127,
      "Ġdinner": 6128,
      "!),": 6129,
      "ION": 6130,
      "Ġconsp": 6131,
      "Ġfish": 6132,
      "ĠRick": 6133,
      "Ġcomplain": 6134,
      "Ġreligion": 6135,
      "ĠActually": 6136,
      "idence": 6137,
      "Ġlog": 6138,
      "ressive": 6139,
      "Ġserves": 6140,
      "044": 6141,
      "Ġu": 6142,
      "ĠTO": 6143,
      "eter": 6144,
      "Ġenter": 6145,
      "Ġreporter": 6146,
      "ĠVietnam": 6147,
      "enge": 6148,
      "ffe": 6149,
      "world": 6150,
      "Ġtap": 6151,
      "ĠAra": 6152,
      "ĠFBI": 6153,
      "atherine": 6154,
      "Ġappealing": 6155,
      "ĠCanadian": 6156,
      "Ġweapons": 6157,
      "Ġbothered": 6158,
      "itious": 6159,
      "hist": 6160,
      "ĠTed": 6161,
      "Ġheck": 6162,
      "including": 6163,
      "ĠGermany": 6164,
      "Ġharm": 6165,
      "ĠIrish": 6166,
      "Ġwound": 6167,
      "ĠHill": 6168,
      "iger": 6169,
      "Ġmans": 6170,
      "Ġoverlook": 6171,
      "Ġcamer": 6172,
      "Ġworthwhile": 6173,
      "Ġconvince": 6174,
      "Ġhanging": 6175,
      "Ġcore": 6176,
      "Ġrise": 6177,
      "Ġpartic": 6178,
      "Ġbitter": 6179,
      "UR": 6180,
      "aming": 6181,
      "ĠBu": 6182,
      "Ġangles": 6183,
      "ĠclichÃ©d": 6184,
      "ĠPrince": 6185,
      "Ġfrightening": 6186,
      "Ġabandoned": 6187,
      "Le": 6188,
      "cut": 6189,
      "asant": 6190,
      "amous": 6191,
      "Ġarms": 6192,
      "Ġdirectly": 6193,
      "Ġtrapped": 6194,
      "Ġ1960": 6195,
      "ĠJimmy": 6196,
      "Ġdynam": 6197,
      "Ġstolen": 6198,
      "Ġoutrage": 6199,
      "pet": 6200,
      "zil": 6201,
      "Ġbound": 6202,
      "Ġincident": 6203,
      "Ġpolitics": 6204,
      "Ne": 6205,
      "ari": 6206,
      "bra": 6207,
      "imm": 6208,
      "Ġscale": 6209,
      "Ġcontact": 6210,
      "Ġposition": 6211,
      "Ġconvinced": 6212,
      "Ġsurviv": 6213,
      "alling": 6214,
      "Ġneat": 6215,
      "Ġworry": 6216,
      "udic": 6217,
      "Ġfare": 6218,
      "Ġfocuses": 6219,
      "ĠSimon": 6220,
      "Ġremotely": 6221,
      "pent": 6222,
      "Ġpity": 6223,
      "umbling": 6224,
      "Ġinitial": 6225,
      "Ġtoler": 6226,
      "Ġguilty": 6227,
      "hens": 6228,
      "Ġsympathy": 6229,
      "van": 6230,
      "Ġsemi": 6231,
      "ĠSa": 6232,
      "olph": 6233,
      "Ġgreater": 6234,
      "Ġvisually": 6235,
      "ĠMorgan": 6236,
      "Ġcloser": 6237,
      "Ġcrying": 6238,
      "Ġdegree": 6239,
      "ĠApparently": 6240,
      "gon": 6241,
      "low": 6242,
      "zed": 6243,
      "Ġguard": 6244,
      "Ġevol": 6245,
      "apping": 6246,
      "Ġeverywhere": 6247,
      "Ġstatus": 6248,
      "Ġspite": 6249,
      "Ġrival": 6250,
      "Ġlegendary": 6251,
      "gie": 6252,
      "Ġcris": 6253,
      "Ġpile": 6254,
      "ĠKarl": 6255,
      "Ġminds": 6256,
      "ĠClark": 6257,
      "Ġreveal": 6258,
      "dim": 6259,
      "fess": 6260,
      "onel": 6261,
      "etime": 6262,
      "Ġunse": 6263,
      "078": 6264,
      "ĠZomb": 6265,
      "Ġprivate": 6266,
      "Ġspoilers": 6267,
      "Ġarrives": 6268,
      "uty": 6269,
      "ĠRa": 6270,
      "ĠFriday": 6271,
      "Ġskip": 6272,
      "atives": 6273,
      "uther": 6274,
      "ethe": 6275,
      "ĠHong": 6276,
      "agney": 6277,
      "Ġconcent": 6278,
      "Ġgoofy": 6279,
      "girl": 6280,
      "ioned": 6281,
      "ĠAre": 6282,
      "ĠFlynn": 6283,
      "Ġpolic": 6284,
      "ugos": 6285,
      "ĠBrand": 6286,
      "finitely": 6287,
      "Ġreputation": 6288,
      "ĠSk": 6289,
      "ĠBell": 6290,
      "ummer": 6291,
      "ĠEnd": 6292,
      "0112": 6293,
      "ĠEach": 6294,
      "atching": 6295,
      "Ġlandsca": 6296,
      "Ġinterviews": 6297,
      "Ġemphas": 6298,
      "Ġfix": 6299,
      "Ġbab": 6300,
      "coming": 6301,
      "ĠLam": 6302,
      "Ġremo": 6303,
      "ĠCarol": 6304,
      "Ġrequired": 6305,
      "Ġenthusi": 6306,
      "orig": 6307,
      "ĠHun": 6308,
      "Ġadop": 6309,
      "ĠVincent": 6310,
      "ĠBefore": 6311,
      "avily": 6312,
      "Ġdriven": 6313,
      "Ġgritty": 6314,
      "Ġaccents": 6315,
      "atty": 6316,
      "Ġmelodrama": 6317,
      "IM": 6318,
      "rees": 6319,
      "Ġisol": 6320,
      "Ġpreviously": 6321,
      "Ġaccidentally": 6322,
      "kind": 6323,
      "Ġsuffer": 6324,
      "Ġarch": 6325,
      "Ġraised": 6326,
      "Ġfarm": 6327,
      "Ġexcess": 6328,
      "Ġcaptures": 6329,
      "mal": 6330,
      "Ġhired": 6331,
      "Ġcourage": 6332,
      "Ġsurprises": 6333,
      "Ġfigured": 6334,
      "Ġhaunting": 6335,
      "ĠReally": 6336,
      "Ġimprove": 6337,
      "ĠLloyd": 6338,
      "ĠNE": 6339,
      "ĠKate": 6340,
      "Ġmainstream": 6341,
      "IR": 6342,
      "Is": 6343,
      "ya": 6344,
      "Ġscenario": 6345,
      "Ġchoices": 6346,
      "Ġunivers": 6347,
      "Ġfunnier": 6348,
      "ĠHelen": 6349,
      "ait": 6350,
      "Ġatro": 6351,
      "Ġdeeper": 6352,
      "Ġrecognize": 6353,
      "ĠSaturday": 6354,
      "Ġservice": 6355,
      "can": 6356,
      "Ġwitch": 6357,
      "Ġbesides": 6358,
      "iday": 6359,
      "ems": 6360,
      "Ġnostal": 6361,
      "ĠJewish": 6362,
      "ĠTur": 6363,
      "ĠALL": 6364,
      "Ġ16": 6365,
      "ĠAlbert": 6366,
      "Ġrights": 6367,
      "Ġconcert": 6368,
      "ĠWarner": 6369,
      "ĠEspecially": 6370,
      "\").": 6371,
      "oster": 6372,
      "aze": 6373,
      "Ġcategory": 6374,
      "Ġain": 6375,
      "0093": 6376,
      "Ġsitcom": 6377,
      "ĠElizabeth": 6378,
      "anny": 6379,
      "Ġsection": 6380,
      "ramatic": 6381,
      "Ġdrinking": 6382,
      "Ġice": 6383,
      "ilogy": 6384,
      "Ġcomplicated": 6385,
      "Ġgraph": 6386,
      "Ġdivor": 6387,
      "port": 6388,
      "za": 6389,
      "ĠMeanwhile": 6390,
      "ĠCH": 6391,
      "ĠKill": 6392,
      "Ġcovered": 6393,
      "Ġsorts": 6394,
      "ĠDonald": 6395,
      "ĠJoseph": 6396,
      ",'": 6397,
      "oiled": 6398,
      "ĠComp": 6399,
      "ashington": 6400,
      "Ġobsessed": 6401,
      "ĠJesus": 6402,
      "ĠVERY": 6403,
      "Ġfranc": 6404,
      "Ġludic": 6405,
      "Ġheavily": 6406,
      "ĠPowell": 6407,
      "Ġ25": 6408,
      "Ġamazed": 6409,
      "Ġsophistic": 6410,
      "hob": 6411,
      "ĠAst": 6412,
      "Ġvast": 6413,
      "Ġexplains": 6414,
      "Ġchose": 6415,
      "oooo": 6416,
      "Tw": 6417,
      "ĠSon": 6418,
      "ĠRoberts": 6419,
      "Ġincreas": 6420,
      "Ġsne": 6421,
      "ora": 6422,
      "ĠCooper": 6423,
      "Ġdogs": 6424,
      "023": 6425,
      "Ġfavorites": 6426,
      "Ġcaptiv": 6427,
      "Ġquirky": 6428,
      "Am": 6429,
      "ils": 6430,
      "Ġade": 6431,
      "Ġscreening": 6432,
      "Ġoccasional": 6433,
      "ĠTrek": 6434,
      "GM": 6435,
      "lt": 6436,
      "Ġhack": 6437,
      "Ġobnox": 6438,
      "ucky": 6439,
      "Ġcritical": 6440,
      "Ġdisagree": 6441,
      "after": 6442,
      "rehens": 6443,
      "itter": 6444,
      "Ġplaced": 6445,
      "Ġunif": 6446,
      "Ġsheriff": 6447,
      "Ġstomach": 6448,
      "etheless": 6449,
      "By": 6450,
      "Ġdecades": 6451,
      "Ġforgot": 6452,
      "ĠBBC": 6453,
      "Ġliber": 6454,
      "ĠOb": 6455,
      "Ġserve": 6456,
      "Ġnominated": 6457,
      "ĠPo": 6458,
      "Ġsports": 6459,
      "ĠThree": 6460,
      "Ġmassive": 6461,
      "Ġuninteresting": 6462,
      "Ġstalk": 6463,
      "ĠCagney": 6464,
      "Ġjeal": 6465,
      "Ġdisbelie": 6466,
      "035": 6467,
      "Ġinj": 6468,
      "atra": 6469,
      "Ġcampy": 6470,
      "ĠRun": 6471,
      "Ġoriginality": 6472,
      "Ġlights": 6473,
      "horror": 6474,
      "bles": 6475,
      "Ġwand": 6476,
      "onda": 6477,
      "Ġsubsequ": 6478,
      "Ġdistribut": 6479,
      "ĠGrand": 6480,
      "gia": 6481,
      "nes": 6482,
      "tes": 6483,
      "enced": 6484,
      "Ġinha": 6485,
      "Ġenjoying": 6486,
      "Ġkinds": 6487,
      "Ġextras": 6488,
      "Ġchanging": 6489,
      "Ġparticip": 6490,
      "aire": 6491,
      "onest": 6492,
      "omination": 6493,
      "Ġdownright": 6494,
      "Ġconfess": 6495,
      "Ġunlikely": 6496,
      "hib": 6497,
      "Ġtiny": 6498,
      "ĠMoon": 6499,
      "ĠWashington": 6500,
      "ĠNone": 6501,
      "Ġexperiment": 6502,
      "Ġbreaking": 6503,
      "Ġprofound": 6504,
      "Ġclosing": 6505,
      "Ġaccompan": 6506,
      "iat": 6507,
      "Ġdistinct": 6508,
      "ĠArt": 6509,
      "Ġded": 6510,
      "ĠPict": 6511,
      "Ġconfront": 6512,
      "Ġhaunted": 6513,
      "IGHT": 6514,
      "idents": 6515,
      "ĠJac": 6516,
      "Ġdemand": 6517,
      "ĠChannel": 6518,
      "ipping": 6519,
      "Ġpet": 6520,
      "Ġnuclear": 6521,
      "ĠWind": 6522,
      "ĠLater": 6523,
      "osity": 6524,
      "Ġflow": 6525,
      "ĠThrough": 6526,
      "wen": 6527,
      "orb": 6528,
      "ĠPri": 6529,
      "ĠFre": 6530,
      "assion": 6531,
      "ĠVir": 6532,
      "Ġkillers": 6533,
      "ĠAnyone": 6534,
      "Ġthrows": 6535,
      "Ġsucceeds": 6536,
      "Ġextraordinary": 6537,
      "Ġunconvincing": 6538,
      "Ġwealthy": 6539,
      "ĠNY": 6540,
      "plays": 6541,
      "082": 6542,
      "Ġcontinuity": 6543,
      "ĠFinally": 6544,
      "Ġdepartment": 6545,
      "arable": 6546,
      "Ġseasons": 6547,
      "ĠWall": 6548,
      "ĠLand": 6549,
      "Ġruin": 6550,
      "ĠJulia": 6551,
      "Ġtask": 6552,
      "013": 6553,
      "ĠAsh": 6554,
      "nery": 6555,
      "Ġdelivery": 6556,
      "Ġpaying": 6557,
      "ĠSadly": 6558,
      "dimensional": 6559,
      "Who": 6560,
      "sha": 6561,
      "Ġtitles": 6562,
      "Ġgre": 6563,
      "ented": 6564,
      "ĠSher": 6565,
      "ĠMiller": 6566,
      "beit": 6567,
      "gun": 6568,
      "lig": 6569,
      "Ġtong": 6570,
      "ĠHart": 6571,
      "Ġforest": 6572,
      "die": 6573,
      "Ġgar": 6574,
      "Ġtraining": 6575,
      "ological": 6576,
      "loved": 6577,
      "Ġeffectively": 6578,
      "Ġcontribut": 6579,
      "ĠMexico": 6580,
      "Michael": 6581,
      "Ġhole": 6582,
      "ĠTri": 6583,
      "ulate": 6584,
      "Ġcheer": 6585,
      "Ġcharge": 6586,
      "Ġuniverse": 6587,
      "Ġnarration": 6588,
      "ĠSwed": 6589,
      "ĠSusan": 6590,
      "breaking": 6591,
      "inspired": 6592,
      "fire": 6593,
      "Ġsink": 6594,
      "lection": 6595,
      "Ġstruggling": 6596,
      "Ġjoin": 6597,
      "Ġunderstood": 6598,
      "ĠAndre": 6599,
      "Ġcarries": 6600,
      "ĠAfrica": 6601,
      "ĠSarah": 6602,
      "ĠBroadway": 6603,
      "eness": 6604,
      "ĠBack": 6605,
      "ĠMill": 6606,
      "ights": 6607,
      "Ġblown": 6608,
      "Ġchuck": 6609,
      "igned": 6610,
      "Ġadmire": 6611,
      "Ġfictional": 6612,
      "Ġnude": 6613,
      "ĠAvoid": 6614,
      "ĠSO": 6615,
      "ĠPa": 6616,
      "ĠYour": 6617,
      "urns": 6618,
      "Ġscares": 6619,
      "Ġexamples": 6620,
      "Ġwinner": 6621,
      "Ġencount": 6622,
      "Ġprepared": 6623,
      "Ġenvironment": 6624,
      "hard": 6625,
      "Ġoffered": 6626,
      "Ġtiming": 6627,
      "Ġbuying": 6628,
      "ĠPlay": 6629,
      "Ġnecessarily": 6630,
      "CK": 6631,
      "sm": 6632,
      "hamed": 6633,
      "ani": 6634,
      "Ġyell": 6635,
      "ĠMuch": 6636,
      "antage": 6637,
      "pson": 6638,
      "Ġcalling": 6639,
      "ym": 6640,
      "style": 6641,
      "Ġantic": 6642,
      "Ġloyal": 6643,
      "Ġformat": 6644,
      "Ġmas": 6645,
      "ĠDep": 6646,
      "ĠLarry": 6647,
      "Ġborrow": 6648,
      "Ġmagical": 6649,
      "iving": 6650,
      "Ġ/>*": 6651,
      "ĠEnter": 6652,
      "079": 6653,
      "fun": 6654,
      "Ġ#": 6655,
      "049": 6656,
      "Ġmistakes": 6657,
      "Ġanswers": 6658,
      "Ġnaturally": 6659,
      "atically": 6660,
      "ĠOur": 6661,
      "Ġcontain": 6662,
      "Ġcauses": 6663,
      "Ġdesperately": 6664,
      "Ġturkey": 6665,
      "Ġcontest": 6666,
      "ĠMarie": 6667,
      "ĠSeagal": 6668,
      "ĠBrooks": 6669,
      "Ġatrocious": 6670,
      "case": 6671,
      "mod": 6672,
      "Ġwears": 6673,
      "actic": 6674,
      "Ġcondition": 6675,
      "ĠParker": 6676,
      "Ġintellectual": 6677,
      "Ġobnoxious": 6678,
      "ooth": 6679,
      "yr": 6680,
      "Ġinteg": 6681,
      "Ġstorytelling": 6682,
      "icted": 6683,
      "Ġprime": 6684,
      "ĠBeaut": 6685,
      "ĠPhill": 6686,
      "Ġreference": 6687,
      "Ġgruesome": 6688,
      "Ġcous": 6689,
      "ĠFull": 6690,
      "0068": 6691,
      "0109": 6692,
      "Ġblat": 6693,
      "Ġserved": 6694,
      "Ġspell": 6695,
      "ĠHitler": 6696,
      "81": 6697,
      "Here": 6698,
      "ĠCann": 6699,
      "Ġtear": 6700,
      "Ġstarred": 6701,
      "fall": 6702,
      "Ġbore": 6703,
      "Ġredu": 6704,
      "0064": 6705,
      "Ġseek": 6706,
      "cul": 6707,
      "Ġske": 6708,
      "Ġanger": 6709,
      "Ġvia": 6710,
      "Ġ1940": 6711,
      "Ġdepiction": 6712,
      "Ġattacked": 6713,
      "Ġtremend": 6714,
      "taking": 6715,
      "lected": 6716,
      "Ġprevent": 6717,
      "Ġhandle": 6718,
      "ĠArgent": 6719,
      "Ġmetal": 6720,
      "Ġregarding": 6721,
      "Will": 6722,
      "ection": 6723,
      "Ġoverwhel": 6724,
      "Anyway": 6725,
      "ashy": 6726,
      "ĠDet": 6727,
      "ĠJu": 6728,
      "Ġproperly": 6729,
      "called": 6730,
      "oub": 6731,
      "ĠPenn": 6732,
      "Ġjobs": 6733,
      "Ġmildly": 6734,
      "Ġwid": 6735,
      "Ġirre": 6736,
      "Ġfocused": 6737,
      "Ġreveals": 6738,
      "from": 6739,
      "Ġchair": 6740,
      "nett": 6741,
      "Ġsecurity": 6742,
      "Ġattempting": 6743,
      "Ġswim": 6744,
      "ĠWithout": 6745,
      "Ġdesigned": 6746,
      "Ġsearching": 6747,
      "Ġcriminals": 6748,
      "Com": 6749,
      "iques": 6750,
      "pass": 6751,
      "Ġwins": 6752,
      "ĠSur": 6753,
      "ĠOver": 6754,
      "ĠAlice": 6755,
      "Ġcoinc": 6756,
      "ĠDaniel": 6757,
      "BS": 6758,
      "sed": 6759,
      "Ġbill": 6760,
      "Ġreun": 6761,
      "Ġjungle": 6762,
      "Ġdozen": 6763,
      "Ġrelated": 6764,
      "Ġsket": 6765,
      "Ġpassing": 6766,
      "rim": 6767,
      "Ġsisters": 6768,
      "Ġ14": 6769,
      "Ġimagery": 6770,
      "Ġcriticism": 6771,
      "Ġdetermined": 6772,
      "athan": 6773,
      "ĠAir": 6774,
      "Ġfab": 6775,
      "ĠChina": 6776,
      "084": 6777,
      "Ġsounded": 6778,
      "Ġwarned": 6779,
      "Ġsummary": 6780,
      "Ġlawyer": 6781,
      "Ġlonely": 6782,
      "Da": 6783,
      "chen": 6784,
      "ease": 6785,
      "utch": 6786,
      "ĠWor": 6787,
      "ĠLost": 6788,
      "Ġgrim": 6789,
      "Ġcarried": 6790,
      "chell": 6791,
      "Ġpregnant": 6792,
      "Ġreminiscent": 6793,
      "ĠSometimes": 6794,
      "Ġbutt": 6795,
      "ĠMOV": 6796,
      "ĠCurt": 6797,
      "Ġrule": 6798,
      "ĠLaura": 6799,
      "Okay": 6800,
      "Ġtax": 6801,
      "Ġped": 6802,
      "ange": 6803,
      "asp": 6804,
      "ronic": 6805,
      "cont": 6806,
      "erved": 6807,
      "ĠMet": 6808,
      "appy": 6809,
      "Ġaccording": 6810,
      "Ġthrowing": 6811,
      "ĠLucy": 6812,
      "Ġsignificant": 6813,
      "ille": 6814,
      "Ġteeth": 6815,
      "Ġraw": 6816,
      "021": 6817,
      "Ġfigures": 6818,
      "Ġmetap": 6819,
      "ĠAmaz": 6820,
      "ĠMaster": 6821,
      "ĠChild": 6822,
      "Ġdeliber": 6823,
      "ĠOtherwise": 6824,
      "noon": 6825,
      "Ġstates": 6826,
      "ĠMGM": 6827,
      "Ġcrack": 6828,
      "hh": 6829,
      "ĠAL": 6830,
      "Ġmere": 6831,
      "Ġextent": 6832,
      "OOD": 6833,
      "iner": 6834,
      "ĠBull": 6835,
      "ĠHE": 6836,
      "0114": 6837,
      "Ġcheese": 6838,
      "except": 6839,
      "ĠBlue": 6840,
      "Ġcolors": 6841,
      "hall": 6842,
      "Ġpool": 6843,
      "ibilities": 6844,
      "ĠYeah": 6845,
      "Ġludicrous": 6846,
      "Ġdisbelief": 6847,
      "something": 6848,
      "Ġtree": 6849,
      "ĠChic": 6850,
      "Ġrenting": 6851,
      "Ġcombined": 6852,
      "Ġexpressions": 6853,
      "Ġrobot": 6854,
      "Ġdinos": 6855,
      "ĠLat": 6856,
      "cover": 6857,
      "Ġignor": 6858,
      "ĠTarant": 6859,
      "ĠDuring": 6860,
      "010": 6861,
      "0113": 6862,
      "Ġhol": 6863,
      "Ġhorrific": 6864,
      "Ġbasis": 6865,
      "Per": 6866,
      "udge": 6867,
      "irected": 6868,
      "acc": 6869,
      "Ġstrict": 6870,
      "ĠWWII": 6871,
      "ĠEastwood": 6872,
      "Ġcomical": 6873,
      "ĠLos": 6874,
      "ello": 6875,
      "Ġamazingly": 6876,
      "Ġstylish": 6877,
      "phan": 6878,
      "Ġreject": 6879,
      "ĠOff": 6880,
      "plic": 6881,
      "Ġstops": 6882,
      "ĠWes": 6883,
      "0067": 6884,
      "Ġnovels": 6885,
      "Ġfaithful": 6886,
      "Ġstays": 6887,
      "ĠPitt": 6888,
      "Ġattacks": 6889,
      "mber": 6890,
      "Ġfond": 6891,
      "aret": 6892,
      "Ġpreview": 6893,
      "Ġincor": 6894,
      "Ġviews": 6895,
      "Ġsky": 6896,
      "Ġappreciated": 6897,
      "Ġproductions": 6898,
      "Ġdescription": 6899,
      "isher": 6900,
      "Ġcand": 6901,
      "ĠTake": 6902,
      "ĠMST": 6903,
      "Ġeveryday": 6904,
      "Ġfinan": 6905,
      "Ġshape": 6906,
      "Ġadding": 6907,
      "Ġcountries": 6908,
      "Ġsinister": 6909,
      "\"?": 6910,
      "Ex": 6911,
      "Ġwrest": 6912,
      "Ġnative": 6913,
      "Ġreward": 6914,
      "ams": 6915,
      "Ġentry": 6916,
      "Ġcrude": 6917,
      "Ġbrave": 6918,
      "Ġintroduction": 6919,
      "ĠGeneral": 6920,
      "Ġfranchise": 6921,
      "Mar": 6922,
      "orrow": 6923,
      "Ġnu": 6924,
      "Ġracist": 6925,
      "Robert": 6926,
      "Ġfacial": 6927,
      "Ġelder": 6928,
      "0095": 6929,
      "Ġrestaur": 6930,
      "ception": 6931,
      "ĠBritain": 6932,
      "ught": 6933,
      "Ġmature": 6934,
      "oms": 6935,
      "rig": 6936,
      "ĠKid": 6937,
      "Ġpurs": 6938,
      "Ġpresentation": 6939,
      "ĠShar": 6940,
      "Ġamongst": 6941,
      "ĠHalloween": 6942,
      "Director": 6943,
      "Ġrank": 6944,
      "Ġrobber": 6945,
      "Ġcynical": 6946,
      "Despite": 6947,
      "ito": 6948,
      "adays": 6949,
      "ĠBaby": 6950,
      "ĠCru": 6951,
      "ifies": 6952,
      "Ġsurf": 6953,
      "Ġflawed": 6954,
      "zan": 6955,
      "Ġrub": 6956,
      "Ġspoiler": 6957,
      "ĠANY": 6958,
      "ĠWalter": 6959,
      "ingers": 6960,
      "ĠSid": 6961,
      "Ġalt": 6962,
      "Ġchief": 6963,
      "Ġassistant": 6964,
      "CT": 6965,
      "ada": 6966,
      "Ġwerewolf": 6967,
      "forward": 6968,
      "Ġdisgu": 6969,
      "Ġtouched": 6970,
      "ĠUnder": 6971,
      "Ġpoignant": 6972,
      "Con": 6973,
      "ailed": 6974,
      "run": 6975,
      "Ġgreatly": 6976,
      "Ġblah": 6977,
      "ĠVamp": 6978,
      "Ġdeadly": 6979,
      "Ġignore": 6980,
      "Ġchallenge": 6981,
      "Ġbik": 6982,
      "aws": 6983,
      "ĠClass": 6984,
      "Ġinspiration": 6985,
      "ĠSuper": 6986,
      "IA": 6987,
      "Ġbuddy": 6988,
      "ila": 6989,
      "vier": 6990,
      "Ġmyth": 6991,
      "Ġpoet": 6992,
      "ĠUnlike": 6993,
      "Ġminimal": 6994,
      "Ad": 6995,
      "fest": 6996,
      "Ġlearning": 6997,
      "Ġdiss": 6998,
      "Ġflo": 6999,
      "prise": 7000,
      "ĠArmy": 7001,
      "ĠFranco": 7002,
      "Ġparall": 7003,
      "Ġadvantage": 7004,
      "lance": 7005,
      "Ġplastic": 7006,
      "Ġpage": 7007,
      "0088": 7008,
      "Ġpicks": 7009,
      "ĠSunday": 7010,
      "AA": 7011,
      "Ġhunt": 7012,
      "Ġnewsp": 7013,
      ".)<": 7014,
      "Ġuncomfortable": 7015,
      "Ġunre": 7016,
      "Ġmindless": 7017,
      "Ġgrave": 7018,
      "Ġfet": 7019,
      "ĠMit": 7020,
      "ĠCa": 7021,
      "Ġexer": 7022,
      "Ġalleg": 7023,
      "ĠFair": 7024,
      "Ġcultural": 7025,
      "ĠTommy": 7026,
      "iveness": 7027,
      "Ġton": 7028,
      "Ġflight": 7029,
      "Ġconfusion": 7030,
      "Ġtechnique": 7031,
      "Ġcapital": 7032,
      "original": 7033,
      "ĠTarantino": 7034,
      "spect": 7035,
      "amie": 7036,
      "ĠGreg": 7037,
      "Ġenhan": 7038,
      "ĠWatching": 7039,
      "Ġinternational": 7040,
      "Ġinitially": 7041,
      "UL": 7042,
      "Ġurban": 7043,
      "Ġashamed": 7044,
      "awa": 7045,
      "Ġinteract": 7046,
      "ĠSatan": 7047,
      "Char": 7048,
      "fits": 7049,
      "vably": 7050,
      "Ġrain": 7051,
      "---": 7052,
      "Ġhelping": 7053,
      "Ġcolour": 7054,
      "Ġwelcome": 7055,
      "stone": 7056,
      "ĠCry": 7057,
      "ĠGer": 7058,
      "oche": 7059,
      "Ġhalfway": 7060,
      "Ġrevolves": 7061,
      "Ġstunt": 7062,
      "chy": 7063,
      "Ġthro": 7064,
      "ĠCap": 7065,
      "...\"": 7066,
      "den": 7067,
      "Ġ0": 7068,
      "omer": 7069,
      "Ġphen": 7070,
      "Ġdude": 7071,
      "ĠJay": 7072,
      "weet": 7073,
      "onsider": 7074,
      "Ġborder": 7075,
      "ĠSchool": 7076,
      "Ġoccup": 7077,
      "Ġshark": 7078,
      "Ġsettings": 7079,
      "wh": 7080,
      "Ġnational": 7081,
      "ĠDi": 7082,
      "ĠLane": 7083,
      "0098": 7084,
      "Ġfac": 7085,
      "Ġshadow": 7086,
      "ographer": 7087,
      "Ġstupidity": 7088,
      "Ġcorpor": 7089,
      "Christ": 7090,
      "UST": 7091,
      "bour": 7092,
      "walk": 7093,
      "inging": 7094,
      "story": 7095,
      "ĠDream": 7096,
      "oding": 7097,
      "Ġlistening": 7098,
      "Ġstruggles": 7099,
      "ugosi": 7100,
      "ba": 7101,
      "asion": 7102,
      "Ġintens": 7103,
      "wy": 7104,
      "Ġ/>(": 7105,
      "iders": 7106,
      "ĠMid": 7107,
      "Ġnotable": 7108,
      "Ġexists": 7109,
      "0115": 7110,
      "ianc": 7111,
      "Ġraise": 7112,
      "036": 7113,
      "Ġexchan": 7114,
      "ĠCharl": 7115,
      "wor": 7116,
      "Ġbird": 7117,
      "asters": 7118,
      "Ġartists": 7119,
      "Ġbalance": 7120,
      "ĠBasically": 7121,
      "Ġcy": 7122,
      "stop": 7123,
      "amor": 7124,
      "ĠCas": 7125,
      "gging": 7126,
      "Ġcredibility": 7127,
      "Ġatmospher": 7128,
      "kick": 7129,
      "ĠKen": 7130,
      "ĠKnight": 7131,
      "Ġretarded": 7132,
      "Ġcredible": 7133,
      "Ġprofessor": 7134,
      "Ġweekend": 7135,
      "Ġaston": 7136,
      "Ġgripping": 7137,
      "ĠMickey": 7138,
      "ĠSir": 7139,
      "ĠSol": 7140,
      "ĠNorm": 7141,
      "ounding": 7142,
      "Ġvig": 7143,
      "Ġtrilogy": 7144,
      "ĠScar": 7145,
      "Ġsleazy": 7146,
      "Ġwanna": 7147,
      "Ġbow": 7148,
      "Ġnation": 7149,
      "Ġeth": 7150,
      "ĠCandy": 7151,
      "thew": 7152,
      "Ġshorts": 7153,
      "iamond": 7154,
      "ĠPlan": 7155,
      "Ġangle": 7156,
      "ielberg": 7157,
      "Ġembarrassed": 7158,
      "Ġsedu": 7159,
      "ĠTar": 7160,
      "Ġhip": 7161,
      "Ġweight": 7162,
      "ĠArn": 7163,
      "Ġpurely": 7164,
      "Ġjournal": 7165,
      "ĠTurner": 7166,
      "Most": 7167,
      "jud": 7168,
      "Ġlaid": 7169,
      "ĠBollywood": 7170,
      "ĠKane": 7171,
      "Ġclown": 7172,
      "Ġperfection": 7173,
      "Ġescapes": 7174,
      "Ġratings": 7175,
      "Ġrisk": 7176,
      "ĠLinda": 7177,
      "ĠKennedy": 7178,
      "ĠDevil": 7179,
      "112": 7180,
      "empl": 7181,
      "Ġguarant": 7182,
      "Ġscripts": 7183,
      "ĠBeing": 7184,
      "airs": 7185,
      "Ġtongue": 7186,
      "Ġanticip": 7187,
      "ĠPort": 7188,
      "ĠProdu": 7189,
      "Ġletting": 7190,
      "0065": 7191,
      "Ġaccess": 7192,
      "Ġguessing": 7193,
      "ĠSandler": 7194,
      "Bra": 7195,
      "laim": 7196,
      "Ġtense": 7197,
      "Ġscreenwriter": 7198,
      "Ġdrives": 7199,
      "Ġinnocence": 7200,
      "Ġidiotic": 7201,
      "Ġbaseball": 7202,
      "Unfortunately": 7203,
      "Maybe": 7204,
      "oration": 7205,
      "Ġneck": 7206,
      "ĠStud": 7207,
      "Ġnetwork": 7208,
      "Ġgraphics": 7209,
      "117": 7210,
      "Ġhiding": 7211,
      "Ġofficial": 7212,
      "Ġkidnapped": 7213,
      "Ġcases": 7214,
      "Ġasp": 7215,
      "Ġuseless": 7216,
      "Ġripped": 7217,
      "Ġbackd": 7218,
      "ĠHunter": 7219,
      "Ġcave": 7220,
      "ĠBon": 7221,
      "ĠFonda": 7222,
      "Ġclips": 7223,
      "Ġrolling": 7224,
      "ĠMarg": 7225,
      "Ġillust": 7226,
      "Ġinnov": 7227,
      "ĠAnton": 7228,
      "Ġsurrounding": 7229,
      "ĠMovies": 7230,
      "Ġgut": 7231,
      "Ġgro": 7232,
      "ĠBesides": 7233,
      "Ġlibr": 7234,
      "Ġactiv": 7235,
      "Ġstated": 7236,
      "ishment": 7237,
      "Ġresist": 7238,
      "Ġterrit": 7239,
      "Ġexceptional": 7240,
      "Ġcarrying": 7241,
      "Ġseparate": 7242,
      "Ġfrequently": 7243,
      "Good": 7244,
      "rich": 7245,
      "Ġequal": 7246,
      "ĠOliver": 7247,
      "arter": 7248,
      "Ġunbe": 7249,
      "ĠKar": 7250,
      "Ġafternoon": 7251,
      "ĠInc": 7252,
      "Ġtopic": 7253,
      "Ġstruck": 7254,
      "Ġbelongs": 7255,
      "Ġadequ": 7256,
      "when": 7257,
      "Ġsevent": 7258,
      "ĠHoff": 7259,
      "Ġvivid": 7260,
      "Ġpresident": 7261,
      "going": 7262,
      "Ġsuggests": 7263,
      "Ġexecut": 7264,
      "Ġfi": 7265,
      "ĠWelles": 7266,
      "liners": 7267,
      "THE": 7268,
      "spe": 7269,
      "Ġtro": 7270,
      "Ġfirm": 7271,
      "entric": 7272,
      "ilton": 7273,
      "mentioned": 7274,
      "Ġnightmare": 7275,
      "ĠMaria": 7276,
      "aves": 7277,
      "Ġoil": 7278,
      "Ġbeloved": 7279,
      "seud": 7280,
      "ĠBL": 7281,
      "0062": 7282,
      "Ġdislike": 7283,
      "0117": 7284,
      "Ġstunts": 7285,
      "Ġprotagonists": 7286,
      "Ġthousands": 7287,
      "Ġmarvelous": 7288,
      "ĠMOVIE": 7289,
      "orc": 7290,
      "Ġnoted": 7291,
      "Ġjack": 7292,
      "ĠGriff": 7293,
      "ĠBerg": 7294,
      "Ġfabulous": 7295,
      "Jack": 7296,
      "Ġtune": 7297,
      "erior": 7298,
      "Ġoblig": 7299,
      "Ġinstall": 7300,
      "Ġcaring": 7301,
      "Ġannoun": 7302,
      "Ġweapon": 7303,
      "?).": 7304,
      "pically": 7305,
      "comedy": 7306,
      "Ġwasting": 7307,
      "stery": 7308,
      "Ġportra": 7309,
      "Ġindie": 7310,
      "ification": 7311,
      "bbed": 7312,
      "sl": 7313,
      "ule": 7314,
      "Ġbon": 7315,
      "Ġgain": 7316,
      "cellent": 7317,
      "ĠCare": 7318,
      "ĠHad": 7319,
      "ĠPower": 7320,
      "ĠRand": 7321,
      "083": 7322,
      "ĠConnery": 7323,
      "mate": 7324,
      "oose": 7325,
      "Ġarrog": 7326,
      "Ġaged": 7327,
      "0107": 7328,
      "ields": 7329,
      "bid": 7330,
      "mitted": 7331,
      "Ġfulf": 7332,
      "Ġstiff": 7333,
      "eline": 7334,
      "ĠLOV": 7335,
      "Ġmeat": 7336,
      "0075": 7337,
      "ooky": 7338,
      "Ġawards": 7339,
      "Ġelabor": 7340,
      "Ġinterpretation": 7341,
      "isms": 7342,
      "Ġcard": 7343,
      "Ġpseud": 7344,
      "rial": 7345,
      "ĠBa": 7346,
      "ĠWonder": 7347,
      "ĠKirk": 7348,
      "Ġfairy": 7349,
      "ĠItaly": 7350,
      "Where": 7351,
      "iels": 7352,
      "inally": 7353,
      "Ġenorm": 7354,
      "Ġqueen": 7355,
      "Ġimmense": 7356,
      "Ġvampires": 7357,
      "ĠRain": 7358,
      "ĠGreek": 7359,
      "Ġunderground": 7360,
      "Ġdevil": 7361,
      "ĠAbout": 7362,
      "Cl": 7363,
      "TER": 7364,
      "Ġtag": 7365,
      "iments": 7366,
      "ĠHA": 7367,
      "Ġscr": 7368,
      "ĠLugosi": 7369,
      "ĠGet": 7370,
      "Ġupset": 7371,
      "plete": 7372,
      "Ġcock": 7373,
      "Ġlesser": 7374,
      "vised": 7375,
      "Ġtribute": 7376,
      "ĠMitchell": 7377,
      "LD": 7378,
      "ĠIce": 7379,
      "Ġjumps": 7380,
      "ĠKurt": 7381,
      "ersonally": 7382,
      "Ġmonkey": 7383,
      "AND": 7384,
      "Ġestablished": 7385,
      "ĠMom": 7386,
      "usty": 7387,
      "016": 7388,
      "Ġcastle": 7389,
      "ĠSpielberg": 7390,
      "Ġ2000": 7391,
      "Ġaccepted": 7392,
      "Ġmentally": 7393,
      "Ġdisappear": 7394,
      "penter": 7395,
      "Ġhes": 7396,
      "Ġshoots": 7397,
      "Ġconsists": 7398,
      "ĠBlair": 7399,
      "Ġsleeping": 7400,
      "Ġrepeat": 7401,
      "handed": 7402,
      "book": 7403,
      "hi": 7404,
      "zilla": 7405,
      "Ġtheory": 7406,
      "Ġlazy": 7407,
      "ĠShan": 7408,
      "Ġconven": 7409,
      "ĠOkay": 7410,
      "ella": 7411,
      "Ġvent": 7412,
      "Ġspy": 7413,
      "ĠIntern": 7414,
      "Ġweakness": 7415,
      "Ġexplosions": 7416,
      "Ġfest": 7417,
      "Ġthirty": 7418,
      "elve": 7419,
      "ĠRachel": 7420,
      "Ġspending": 7421,
      "Ġcoach": 7422,
      "ointed": 7423,
      "Ġattempted": 7424,
      "Ġboredom": 7425,
      "ĠFreddy": 7426,
      "ĠSomething": 7427,
      "ogue": 7428,
      "Ġglimp": 7429,
      "Ġsuccessfully": 7430,
      "Ġsolve": 7431,
      "Ġstriking": 7432,
      "ĠThings": 7433,
      "Ġatmospheric": 7434,
      "eron": 7435,
      "Ġmiscast": 7436,
      "Ġassassin": 7437,
      "Ġglimpse": 7438,
      "dows": 7439,
      "mates": 7440,
      "Ġplant": 7441,
      "ĠRing": 7442,
      "ĠJer": 7443,
      "Ġknife": 7444,
      "046": 7445,
      "ĠLeg": 7446,
      "ONE": 7447,
      "Ġsexuality": 7448,
      "Ġpersonalities": 7449,
      "Ġprincip": 7450,
      "Wow": 7451,
      "Ġtorn": 7452,
      "Ġdign": 7453,
      "Ġtricks": 7454,
      "Ġperformers": 7455,
      "BLE": 7456,
      "SS": 7457,
      "Ġpray": 7458,
      "cean": 7459,
      "ĠBAD": 7460,
      "Ġsmooth": 7461,
      "Ġfallen": 7462,
      "ĠAustralia": 7463,
      "Ġsophisticated": 7464,
      "ĠIra": 7465,
      "Ġultra": 7466,
      "Ġmiles": 7467,
      "Ġcolorful": 7468,
      "ĠPhilip": 7469,
      "hill": 7470,
      "Ġtempt": 7471,
      "Ġpiano": 7472,
      "Ġdump": 7473,
      "ata": 7474,
      "cket": 7475,
      "ulk": 7476,
      "ĠKrist": 7477,
      "Ġmagaz": 7478,
      "Ġirony": 7479,
      "Ġtechniques": 7480,
      "Ġreplaced": 7481,
      "wl": 7482,
      "ĠRoss": 7483,
      "ĠVin": 7484,
      "Ġinstru": 7485,
      "Ġcrimes": 7486,
      "Ġgrad": 7487,
      "ĠMarc": 7488,
      "Ġopened": 7489,
      "Ġunfold": 7490,
      "Having": 7491,
      "ouses": 7492,
      "Ġcontract": 7493,
      "oked": 7494,
      "Ġmedical": 7495,
      "Ġadventures": 7496,
      "Ġconnected": 7497,
      "Ġmirror": 7498,
      "ĠCome": 7499,
      "ĠDie": 7500,
      "Ġseeking": 7501,
      "Ġspoiled": 7502,
      "Ġironic": 7503,
      "Ġphysically": 7504,
      "Ġsplend": 7505,
      "Ġmansion": 7506,
      "rep": 7507,
      "imately": 7508,
      "Ġjerk": 7509,
      "redict": 7510,
      "Ġcomedian": 7511,
      "Ġdestro": 7512,
      "Ġhomage": 7513,
      "ĠUniversal": 7514,
      "Ġcitiz": 7515,
      "Ġletter": 7516,
      "Ġshines": 7517,
      "Ġovercome": 7518,
      "aughters": 7519,
      "Ġbroke": 7520,
      "ĠCanada": 7521,
      "Ġmiserably": 7522,
      "OD": 7523,
      "Sh": 7524,
      "Ġaired": 7525,
      "Ġcandy": 7526,
      "ctions": 7527,
      "ĠPG": 7528,
      "Ġquote": 7529,
      "conom": 7530,
      "Ġgrows": 7531,
      "ĠDunne": 7532,
      "Ġimaginative": 7533,
      "Ġrestaurant": 7534,
      "ses": 7535,
      "Ġproof": 7536,
      "Ġ17": 7537,
      "Ġvideos": 7538,
      "Ġbrand": 7539,
      "ĠFrankenstein": 7540,
      "Ġmillions": 7541,
      "Ġspiritual": 7542,
      "Ġbattles": 7543,
      "ĠHoffman": 7544,
      "CE": 7545,
      "ĠHome": 7546,
      "Ġcance": 7547,
      "ptic": 7548,
      "ĠBetty": 7549,
      "Ġinstantly": 7550,
      "Ġrefuses": 7551,
      "!!!!!!!!": 7552,
      "Ġpsychiat": 7553,
      "Ġrepetitive": 7554,
      "SPOILERS": 7555,
      "erty": 7556,
      "orses": 7557,
      "Ġclosely": 7558,
      "gypt": 7559,
      "Ġcuriosity": 7560,
      "Ġcharisma": 7561,
      "Ġvacation": 7562,
      "alph": 7563,
      "ĠLion": 7564,
      "Ġuninspired": 7565,
      "Ġgoal": 7566,
      "Ġcarefully": 7567,
      "ĠIndians": 7568,
      "ĠPrin": 7569,
      "Ġabilities": 7570,
      "ĠRet": 7571,
      "Ġlegs": 7572,
      "0105": 7573,
      "Ġilleg": 7574,
      "Ġsentimental": 7575,
      "Ġtreasure": 7576,
      "ĠMassacre": 7577,
      "Mr": 7578,
      "Ġtied": 7579,
      "Ġlying": 7580,
      "ushes": 7581,
      "ĠDad": 7582,
      "Ġhandful": 7583,
      "avor": 7584,
      "ANT": 7585,
      "Ġstealing": 7586,
      "iracy": 7587,
      "ĠAngeles": 7588,
      "ĠLI": 7589,
      "Ġmechan": 7590,
      "Ġcommerci": 7591,
      "ĠSuperman": 7592,
      "ĠLeslie": 7593,
      "Ġgal": 7594,
      "Ġstyl": 7595,
      "Ġlovable": 7596,
      "Ġeditor": 7597,
      "Ġterrorist": 7598,
      "OP": 7599,
      "Ġtoile": 7600,
      "Ġdomin": 7601,
      "icop": 7602,
      "Ġheaven": 7603,
      "ĠAward": 7604,
      "Ġhipp": 7605,
      "Ġspread": 7606,
      "Ġriver": 7607,
      "riller": 7608,
      "Ġexplicit": 7609,
      "umbs": 7610,
      "Ġobsession": 7611,
      "ĠMusic": 7612,
      "Gra": 7613,
      "Ġma": 7614,
      "ĠDri": 7615,
      "Ġfeed": 7616,
      "Ġspoken": 7617,
      "ĠBeat": 7618,
      "Ġpatient": 7619,
      "Ġchases": 7620,
      "Ġconsequences": 7621,
      "wyck": 7622,
      "nan": 7623,
      "ader": 7624,
      "alley": 7625,
      "ida": 7626,
      "Ġalright": 7627,
      "ĠGun": 7628,
      "Ġsav": 7629,
      "Ġcompetent": 7630,
      "Ġhooked": 7631,
      "Ġincreasingly": 7632,
      "ffered": 7633,
      "aki": 7634,
      "quis": 7635,
      "ĠFamily": 7636,
      "ĠKaren": 7637,
      "Ġposter": 7638,
      "Ġsubplot": 7639,
      "emption": 7640,
      "Ġconfron": 7641,
      "Ġappearances": 7642,
      "Ġtroubled": 7643,
      "Ġarrive": 7644,
      "Ġconcerns": 7645,
      "ds": 7646,
      "ĠAtt": 7647,
      "cker": 7648,
      "istically": 7649,
      "Ġlocked": 7650,
      "Ġguilt": 7651,
      "Ġcreation": 7652,
      "Ġexpensive": 7653,
      "iancÃ©": 7654,
      "Ste": 7655,
      "iently": 7656,
      "esc": 7657,
      "ĠAlf": 7658,
      "place": 7659,
      "Ġessential": 7660,
      "Ġneighborhood": 7661,
      "iable": 7662,
      "why": 7663,
      "Ġbeer": 7664,
      "Ġkung": 7665,
      "Ġlarger": 7666,
      "rified": 7667,
      "abr": 7668,
      "hest": 7669,
      "ĠRep": 7670,
      "Ġopposed": 7671,
      "Ġrepeatedly": 7672,
      "Ġintensity": 7673,
      "El": 7674,
      "iber": 7675,
      "Ġsize": 7676,
      "viet": 7677,
      "Ġthick": 7678,
      "ĠEve": 7679,
      "0069": 7680,
      "Ġchilling": 7681,
      "188": 7682,
      "ĠClint": 7683,
      "Ġimportance": 7684,
      "Ġacceptable": 7685,
      "Ġspecific": 7686,
      "Ġinevitable": 7687,
      "ĠChicago": 7688,
      "US": 7689,
      "Ġcig": 7690,
      "Ġbeating": 7691,
      "ĠHave": 7692,
      "Ġjew": 7693,
      "osing": 7694,
      "Ġinternet": 7695,
      "Ġcrafted": 7696,
      "Ġracism": 7697,
      "ĠKorean": 7698,
      "Ġoutrageous": 7699,
      "inist": 7700,
      "itar": 7701,
      "Ġhill": 7702,
      "ĠWolf": 7703,
      "pses": 7704,
      "Ġelsewhere": 7705,
      "Ġdevelops": 7706,
      "Ġriding": 7707,
      "Ġcaptain": 7708,
      "Ġprostitute": 7709,
      "Ġabrupt": 7710,
      "cca": 7711,
      "atisf": 7712,
      "Ġeerie": 7713,
      "rier": 7714,
      "ĠWere": 7715,
      "Ġsuffered": 7716,
      "ĠOl": 7717,
      "Ġensemble": 7718,
      "Ġexplore": 7719,
      "Ġselfish": 7720,
      "ĠREALLY": 7721,
      "Ġcringe": 7722,
      "Ġterritory": 7723,
      "ĠBergman": 7724,
      "Ġmock": 7725,
      "ĠMitch": 7726,
      "Ġthrilling": 7727,
      "Ġidentify": 7728,
      "Ġambitious": 7729,
      "Ġinvestigation": 7730,
      "Ġbroadcast": 7731,
      "ĠMichelle": 7732,
      "rink": 7733,
      "arm": 7734,
      "Ġpresum": 7735,
      "Ġprisoners": 7736,
      "Ġprofession": 7737,
      "Ġpacked": 7738,
      "ĠSanta": 7739,
      "Ġecc": 7740,
      "Ġeconom": 7741,
      "Ġsuits": 7742,
      "Ġslopp": 7743,
      "Ġtrial": 7744,
      "089": 7745,
      "ĠDoctor": 7746,
      "Ġambig": 7747,
      "Ġdropped": 7748,
      "Ġobscure": 7749,
      "ĠMeg": 7750,
      "Ġunple": 7751,
      "ĠCharact": 7752,
      "ĠBogart": 7753,
      "Ġpush": 7754,
      "Ġeager": 7755,
      "Ġstumble": 7756,
      "enda": 7757,
      "ela": 7758,
      "tering": 7759,
      "ĠLisa": 7760,
      "ĠEgypt": 7761,
      "Ġpreach": 7762,
      "Ġbeings": 7763,
      "Ġfriendly": 7764,
      "Ġcaric": 7765,
      "ĠNeil": 7766,
      "Ġreplace": 7767,
      "ĠAlien": 7768,
      "too": 7769,
      "Ġmira": 7770,
      "onse": 7771,
      "ĠMort": 7772,
      "Ġkillings": 7773,
      "Ġenjoyment": 7774,
      "Ġnowadays": 7775,
      "Ġachieved": 7776,
      "ĠSecret": 7777,
      "Ġlifest": 7778,
      "Ġcontroversial": 7779,
      "Ġcousin": 7780,
      "La": 7781,
      "Sha": 7782,
      "rity": 7783,
      "Ġpig": 7784,
      "ĠSoon": 7785,
      "Ġourselves": 7786,
      "Ġsuperfic": 7787,
      "Ġessence": 7788,
      "Great": 7789,
      "ugh": 7790,
      "Ġfil": 7791,
      "Ġlust": 7792,
      "ĠTob": 7793,
      "ado": 7794,
      "iffe": 7795,
      "Ġkicks": 7796,
      "ĠRad": 7797,
      "Ġhorrend": 7798,
      "Ġrelax": 7799,
      "Ġpersona": 7800,
      "Ġsteps": 7801,
      "Ġmountain": 7802,
      "Ġintentions": 7803,
      "ĠTodd": 7804,
      "Tom": 7805,
      "atchable": 7806,
      "dboard": 7807,
      "Ġintention": 7808,
      "Ġrat": 7809,
      "new": 7810,
      "Ġtraum": 7811,
      "Ġdragged": 7812,
      "Ġimportantly": 7813,
      "Ġgrandfather": 7814,
      "Ġautom": 7815,
      "ĠPacino": 7816,
      "Ġtoss": 7817,
      "Ġgee": 7818,
      "ĠHug": 7819,
      "ĠHBO": 7820,
      "Ġsaves": 7821,
      "writers": 7822,
      "ĠVirgin": 7823,
      "water": 7824,
      "hatt": 7825,
      "Ġnotch": 7826,
      "ĠDave": 7827,
      "Ġmanager": 7828,
      "Ġshout": 7829,
      "Ġexercise": 7830,
      "Ġphenomen": 7831,
      "Ġwra": 7832,
      "ĠTop": 7833,
      "Ġhappily": 7834,
      "Ġappearing": 7835,
      "ĠLucas": 7836,
      "Two": 7837,
      "rett": 7838,
      "allo": 7839,
      "ĠWould": 7840,
      "ĠWOR": 7841,
      "agine": 7842,
      "Ġshy": 7843,
      "Ġ1990": 7844,
      "Ġantics": 7845,
      "Ġmeaningful": 7846,
      "Ġignored": 7847,
      "Ġscientists": 7848,
      "ĠHardy": 7849,
      "bal": 7850,
      "Ġafore": 7851,
      "icing": 7852,
      "ĠAud": 7853,
      "ĠMAN": 7854,
      "ogan": 7855,
      "......": 7856,
      "ĠLuke": 7857,
      "ĠThanks": 7858,
      "Ġhundreds": 7859,
      "062": 7860,
      "ĠCall": 7861,
      "plots": 7862,
      "Ġeleg": 7863,
      "Ġdarkness": 7864,
      "Ġthrillers": 7865,
      "ĠConn": 7866,
      "Ġtransfer": 7867,
      "Ġunforgettable": 7868,
      "utherland": 7869,
      "David": 7870,
      "athy": 7871,
      "ĠFore": 7872,
      "ords": 7873,
      "Ġdestruction": 7874,
      "ĠNext": 7875,
      "Ġafford": 7876,
      "?),": 7877,
      "ĠHud": 7878,
      "Ġnose": 7879,
      "Ġchest": 7880,
      "Ġhelicop": 7881,
      "Ġboot": 7882,
      "Ġinfamous": 7883,
      "Ġinexplic": 7884,
      "list": 7885,
      "Ġwreck": 7886,
      "Ġanal": 7887,
      "ĠWalt": 7888,
      "0063": 7889,
      "cia": 7890,
      "ellar": 7891,
      "ĠKiller": 7892,
      "Ġremaining": 7893,
      "ertainly": 7894,
      "075": 7895,
      "ĠGrace": 7896,
      "Ġmadness": 7897,
      "Ġdollar": 7898,
      "165": 7899,
      "AK": 7900,
      "Ge": 7901,
      "plane": 7902,
      "ĠVeg": 7903,
      "ĠUs": 7904,
      "Ġreasonable": 7905,
      "Ġglob": 7906,
      "Ġtalked": 7907,
      "Ġinsulting": 7908,
      "Ġphilosoph": 7909,
      "Ġtow": 7910,
      "Ġinfect": 7911,
      "Ġupper": 7912,
      "Ġpointed": 7913,
      "Ġincons": 7914,
      "Ġsexually": 7915,
      "ĠArm": 7916,
      "ĠWillis": 7917,
      "Ġstrangely": 7918,
      "Ġhysterical": 7919,
      "Ġsings": 7920,
      "Ġsends": 7921,
      "Ġwishes": 7922,
      "ĠBart": 7923,
      "Ġblows": 7924,
      "Ġdramas": 7925,
      "Ġdaily": 7926,
      "Ġdom": 7927,
      "Ġhood": 7928,
      "Ġhappiness": 7929,
      "ĠCarpenter": 7930,
      "Ġhonor": 7931,
      "rifice": 7932,
      "afia": 7933,
      "Ġ***": 7934,
      "isions": 7935,
      "Ġreb": 7936,
      "Ġhealth": 7937,
      "ĠFle": 7938,
      "ĠAlong": 7939,
      "ographic": 7940,
      "Ġvulner": 7941,
      "ipe": 7942,
      "hey": 7943,
      "Ġcorn": 7944,
      "Ġstood": 7945,
      "ĠSqu": 7946,
      "Ġhung": 7947,
      "Ġtrite": 7948,
      "Ġhopefully": 7949,
      "Ġsplit": 7950,
      "ĠStanwyck": 7951,
      "Ġmelodramatic": 7952,
      "anc": 7953,
      "ĠRee": 7954,
      "Ġruth": 7955,
      "Ġgradu": 7956,
      "ĠCont": 7957,
      "Ġallowing": 7958,
      "Ġvirgin": 7959,
      "Ġbleak": 7960,
      "Ġfinger": 7961,
      "ĠfiancÃ©": 7962,
      "ĠSuch": 7963,
      "Ġthread": 7964,
      "ĠCole": 7965,
      "ifting": 7966,
      "Ġchamp": 7967,
      "Ġchildish": 7968,
      "oiler": 7969,
      "lers": 7970,
      "Ġselling": 7971,
      "Ġalb": 7972,
      "caust": 7973,
      "Ġswitch": 7974,
      "Ġnonetheless": 7975,
      "Ġengine": 7976,
      "ĠDuke": 7977,
      "Ġmotivation": 7978,
      "Ġmanipul": 7979,
      "hil": 7980,
      "nels": 7981,
      "ĠHot": 7982,
      "ĠWoman": 7983,
      "Its": 7984,
      "Ġreasonably": 7985,
      "ventually": 7986,
      "Ġreturned": 7987,
      "Ġincompet": 7988,
      "iar": 7989,
      "order": 7990,
      "ibl": 7991,
      "ĠDefinitely": 7992,
      "Ġstranger": 7993,
      "Ġresponse": 7994,
      "Ġbeaten": 7995,
      "Ġbreathtaking": 7996,
      "Ġthousand": 7997,
      "Ġunpleasant": 7998,
      "ament": 7999,
      "Ġtit": 8000,
      "Ġguts": 8001,
      "igan": 8002,
      "Ġvicious": 8003,
      "weight": 8004,
      "Ġindividuals": 8005,
      "Ġeccentric": 8006,
      "Finally": 8007,
      "yc": 8008,
      "inent": 8009,
      "ĠWater": 8010,
      "agan": 8011,
      "ĠPot": 8012,
      "Ġwatches": 8013,
      "Ġspots": 8014,
      "Ġlacked": 8015,
      "Ġsadistic": 8016,
      "ĠGolden": 8017,
      "ĠBurton": 8018,
      "ĠArnold": 8019,
      "Ġnurse": 8020,
      "ĠSorry": 8021,
      "ĠOz": 8022,
      "088": 8023,
      "Ġpleasantly": 8024,
      "bbing": 8025,
      "Ġranks": 8026,
      "Ġvirus": 8027,
      "Ġ:)": 8028,
      "wife": 8029,
      "ĠSU": 8030,
      "ĠSPOILERS": 8031,
      "ĠRuth": 8032,
      "ĠFather": 8033,
      "wered": 8034,
      "Ġembr": 8035,
      "Ġappla": 8036,
      "Ġlimit": 8037,
      "Ġghosts": 8038,
      "series": 8039,
      "Ġassociated": 8040,
      "100": 8041,
      "dis": 8042,
      "acted": 8043,
      "Ġburied": 8044,
      "Ġlessons": 8045,
      "Ġannoyed": 8046,
      "Ġbusy": 8047,
      "oilers": 8048,
      "Ġbriefly": 8049,
      "Ġfortun": 8050,
      "Ġbackdrop": 8051,
      "rase": 8052,
      "aning": 8053,
      "Ġcardboard": 8054,
      "Ġrevealing": 8055,
      "ĠBobby": 8056,
      "ĠKarloff": 8057,
      "169": 8058,
      "Ke": 8059,
      "da": 8060,
      "Ġgather": 8061,
      "ĠBall": 8062,
      "ĠHood": 8063,
      "elson": 8064,
      "Ġrushed": 8065,
      "Ġwarn": 8066,
      "Ġcreators": 8067,
      "Ġtortured": 8068,
      "Ġtender": 8069,
      "ĠRogers": 8070,
      "ĠObviously": 8071,
      "Qu": 8072,
      "Ġfu": 8073,
      "Ġplague": 8074,
      "ĠJosh": 8075,
      "Ġbucks": 8076,
      "ĠCarter": 8077,
      "Ġfourth": 8078,
      "Ġattraction": 8079,
      "Ġmerc": 8080,
      "Ġdubbing": 8081,
      "AIN": 8082,
      "Ġwann": 8083,
      "ĠGhost": 8084,
      "udos": 8085,
      "type": 8086,
      "Ġmedium": 8087,
      "Ġaccomplished": 8088,
      "ĠTarzan": 8089,
      "box": 8090,
      "ĠBrid": 8091,
      "eling": 8092,
      "Ġcountless": 8093,
      "Ġ2001": 8094,
      "Ġstereotype": 8095,
      "ĠCameron": 8096,
      "ĠBurt": 8097,
      "ĠCind": 8098,
      "ĠHo": 8099,
      "aka": 8100,
      "Ġmaker": 8101,
      "Ġhoped": 8102,
      "Ġoccurs": 8103,
      "Ġcompetition": 8104,
      "ĠSinatra": 8105,
      "eder": 8106,
      "ali": 8107,
      "Ġbeast": 8108,
      "Ġstaff": 8109,
      "ĠWitch": 8110,
      "Ġcomfort": 8111,
      "Ġconce": 8112,
      "0048": 8113,
      "plo": 8114,
      "Ġperpet": 8115,
      "Ġrow": 8116,
      "think": 8117,
      "eping": 8118,
      "Ġflu": 8119,
      "Ġmont": 8120,
      "Ġdrags": 8121,
      "Ġhype": 8122,
      "ĠWalker": 8123,
      "Ġoverlooked": 8124,
      "happy": 8125,
      "ĠSutherland": 8126,
      "aste": 8127,
      "Ġimit": 8128,
      "Ġinco": 8129,
      "Ġsurvival": 8130,
      "ĠActing": 8131,
      "Ġburst": 8132,
      "Ġbreasts": 8133,
      "nic": 8134,
      "Ġ45": 8135,
      "kel": 8136,
      "Ġoffering": 8137,
      "Ġrevelation": 8138,
      "Pe": 8139,
      "Se": 8140,
      "ĠDays": 8141,
      "0072": 8142,
      "0097": 8143,
      "Ġ24": 8144,
      "ĠBette": 8145,
      "Ġelev": 8146,
      "Ġpatri": 8147,
      "ĠMatthew": 8148,
      "onestly": 8149,
      "Ġportrait": 8150,
      "Paul": 8151,
      "ophy": 8152,
      "ĠLore": 8153,
      "Ġenem": 8154,
      "....<": 8155,
      "Ġagents": 8156,
      "Ġcharacterization": 8157,
      "ograph": 8158,
      "Ġforgive": 8159,
      "ĠEmily": 8160,
      "Ġunintentionally": 8161,
      "ĠColumbo": 8162,
      "Ġnewspaper": 8163,
      "ĠSex": 8164,
      "ifically": 8165,
      "Ġfaced": 8166,
      "Ġprecise": 8167,
      "Ġrelevant": 8168,
      "Ġengage": 8169,
      "Ġprojects": 8170,
      "worth": 8171,
      "isation": 8172,
      "ĠCage": 8173,
      "Ġalbeit": 8174,
      "Ġune": 8175,
      "ructed": 8176,
      "Ġfarce": 8177,
      "unky": 8178,
      "ĠIII": 8179,
      "Ġwesterns": 8180,
      "Ġchasing": 8181,
      "Ġresembles": 8182,
      "Ġcabin": 8183,
      "Ġsubsequent": 8184,
      "cr": 8185,
      "sho": 8186,
      "Ġbott": 8187,
      "Ġrevi": 8188,
      "Ġshower": 8189,
      "Ġrealise": 8190,
      "Ġattend": 8191,
      "angle": 8192,
      "097": 8193,
      "ierce": 8194,
      "Ġimmig": 8195,
      "Ġmerit": 8196,
      "Ġwalls": 8197,
      "video": 8198,
      "ĠJonathan": 8199,
      "lines": 8200,
      "put": 8201,
      "only": 8202,
      "hos": 8203,
      "idal": 8204,
      "Ġargue": 8205,
      "Ġdialogs": 8206,
      "Ġstronger": 8207,
      "Ġreturning": 8208,
      "ĠGermans": 8209,
      "Ġfolk": 8210,
      "ees": 8211,
      "Ġvenge": 8212,
      "ĠCatherine": 8213,
      "ĠPoor": 8214,
      "ĠRome": 8215,
      "Ġrhy": 8216,
      "Ġpursu": 8217,
      "Ġstrike": 8218,
      "Ġcombat": 8219,
      "Ġsuspects": 8220,
      "Ġwack": 8221,
      "Ġmoon": 8222,
      "ĠRalph": 8223,
      "ĠNancy": 8224,
      "Ġobser": 8225,
      "ĠLiving": 8226,
      "Ġsurvivors": 8227,
      "ĠWoo": 8228,
      "ĠRes": 8229,
      "ĠVen": 8230,
      "672": 8231,
      "ĠHarold": 8232,
      "Ġstretch": 8233,
      "Ġlogical": 8234,
      "Ġtoilet": 8235,
      "corn": 8236,
      "Ġsand": 8237,
      "Ġdrown": 8238,
      "Ġwebs": 8239,
      "Ġstring": 8240,
      "ĠIndeed": 8241,
      "Ġengaged": 8242,
      "Ġdocumentaries": 8243,
      "Ġremoved": 8244,
      "Ġlibrary": 8245,
      "gle": 8246,
      "such": 8247,
      "verty": 8248,
      "idel": 8249,
      "ĠMed": 8250,
      "ĠLem": 8251,
      "Ġtremendous": 8252,
      "Ġpir": 8253,
      "asing": 8254,
      "Ġetern": 8255,
      "ĠFul": 8256,
      "Ġstudios": 8257,
      "Ġdealt": 8258,
      "Ġtrend": 8259,
      "OME": 8260,
      "Ġjumping": 8261,
      "Ġhighlights": 8262,
      "Other": 8263,
      "Ġdub": 8264,
      "usions": 8265,
      "Ġfears": 8266,
      "ggy": 8267,
      "648": 8268,
      "Ġrestra": 8269,
      "Ġreport": 8270,
      "Ġplanning": 8271,
      "ĠComedy": 8272,
      "Ġelectric": 8273,
      "Ġwonders": 8274,
      "Ġfifteen": 8275,
      "phe": 8276,
      "Ġwicked": 8277,
      "ĠCub": 8278,
      "ĠHas": 8279,
      "ortion": 8280,
      "ideo": 8281,
      "Ġramp": 8282,
      "Ġpainting": 8283,
      "Ġbrilliance": 8284,
      "Ġmistaken": 8285,
      "Ġattracted": 8286,
      "ĠCampbell": 8287,
      "ĠCinema": 8288,
      "Ġpseudo": 8289,
      "'.<": 8290,
      "fact": 8291,
      "Ġnuts": 8292,
      "ĠSu": 8293,
      "Ġhorses": 8294,
      "redator": 8295,
      "abs": 8296,
      "ĠJessica": 8297,
      "See": 8298,
      "jo": 8299,
      "ĠRight": 8300,
      "ĠNet": 8301,
      "0042": 8302,
      "Ġshel": 8303,
      "Ġworkers": 8304,
      "ipes": 8305,
      "gger": 8306,
      "Ġdrivel": 8307,
      "Ġmotor": 8308,
      "Ġwondered": 8309,
      "ĠZombie": 8310,
      "Ġlandscape": 8311,
      "pieces": 8312,
      "Ġce": 8313,
      "Ġnut": 8314,
      "pel": 8315,
      "ĠGRE": 8316,
      "Ġblast": 8317,
      "Ġslick": 8318,
      "ĠAlt": 8319,
      "Ġinsist": 8320,
      "Ġcausing": 8321,
      "098": 8322,
      "Ġrequires": 8323,
      "Ġinvestigate": 8324,
      "Ġencounters": 8325,
      "oubted": 8326,
      "Ġelderly": 8327,
      "Ġstorm": 8328,
      "Ġplanned": 8329,
      "Ġload": 8330,
      "izz": 8331,
      "Ġhorrid": 8332,
      "insaw": 8333,
      "ĠSoviet": 8334,
      "Ġcorner": 8335,
      "ĠQuaid": 8336,
      "ĠCheck": 8337,
      "Ġalcohol": 8338,
      "gain": 8339,
      "Ġfro": 8340,
      "Ġgift": 8341,
      "imag": 8342,
      "Ġmaniac": 8343,
      "Ġmyst": 8344,
      "ablish": 8345,
      "Ġresour": 8346,
      "Ġshoes": 8347,
      "Ġcareers": 8348,
      "ERE": 8349,
      "Ġcameos": 8350,
      "Ġsidekick": 8351,
      "Ġrequire": 8352,
      "ĠPolice": 8353,
      "Ġreactions": 8354,
      "minded": 8355,
      "Act": 8356,
      "mit": 8357,
      "ĠCy": 8358,
      "Ġalike": 8359,
      "Ġgenerous": 8360,
      "ormal": 8361,
      "Ġthrills": 8362,
      "ĠSomeone": 8363,
      "Ġerrors": 8364,
      "Ġidiots": 8365,
      "Ġfortune": 8366,
      "Ġcowboy": 8367,
      "Ġsuperficial": 8368,
      "ĠHudson": 8369,
      "619": 8370,
      "Ġtall": 8371,
      "Ġfoo": 8372,
      "Ġmic": 8373,
      "Ġinform": 8374,
      "brick": 8375,
      "ĠMother": 8376,
      "ĠCould": 8377,
      "ĠNob": 8378,
      "Ġraped": 8379,
      "Ġpossibility": 8380,
      "Ġflawless": 8381,
      "Ġadapted": 8382,
      "Ġproviding": 8383,
      "Ġbasement": 8384,
      "Ġuniform": 8385,
      "ĠIraq": 8386,
      "Ġgif": 8387,
      "ĠBros": 8388,
      "ĠCro": 8389,
      "ĠHind": 8390,
      "Ġpoverty": 8391,
      "Ġmaint": 8392,
      "ĠReg": 8393,
      "Ġgroups": 8394,
      "********": 8395,
      "shot": 8396,
      "Though": 8397,
      "ĠNazis": 8398,
      "AST": 8399,
      "James": 8400,
      "Ġpin": 8401,
      "Ġdaughters": 8402,
      "ruit": 8403,
      "Ġprecious": 8404,
      "Ġextended": 8405,
      "Ġinteraction": 8406,
      "Ġtales": 8407,
      "ĠClaire": 8408,
      "Ġrapid": 8409,
      "Ġwidow": 8410,
      "itches": 8411,
      "uloid": 8412,
      "Ġwhoever": 8413,
      "Ġabys": 8414,
      "ieu": 8415,
      "Ġdirectorial": 8416,
      "Ġsmoking": 8417,
      "Ġreluct": 8418,
      "638": 8419,
      "Ġmeaningless": 8420,
      "Ġendearing": 8421,
      "ĠTen": 8422,
      "ĠTrue": 8423,
      "ĠAk": 8424,
      "Ġareas": 8425,
      "agn": 8426,
      "ĠLake": 8427,
      "ĠGive": 8428,
      "Ġclues": 8429,
      "Ġterrifying": 8430,
      "veloped": 8431,
      "minute": 8432,
      "Ġholiday": 8433,
      "lee": 8434,
      "Ġ/>'": 8435,
      "Ġstead": 8436,
      "rior": 8437,
      "ĠSpecial": 8438,
      "ĠFR": 8439,
      "ĠGib": 8440,
      "Ġcompassion": 8441,
      "ĠReyn": 8442,
      "Ġbuilds": 8443,
      "Ġcommercials": 8444,
      "rong": 8445,
      "Ġmes": 8446,
      "Ġdare": 8447,
      "ĠCaine": 8448,
      "Ġwheel": 8449,
      "Ġmeasure": 8450,
      "force": 8451,
      "Ġdisplays": 8452,
      "Ġrive": 8453,
      "othic": 8454,
      "652": 8455,
      "Ġmenacing": 8456,
      "Ġpretend": 8457,
      "Ġofficers": 8458,
      "ĠSeriously": 8459,
      "Ġaffection": 8460,
      "Ġargument": 8461,
      "Perhaps": 8462,
      "iation": 8463,
      "ota": 8464,
      "rien": 8465,
      "ĠFu": 8466,
      "eps": 8467,
      "Ġblank": 8468,
      "Ġflop": 8469,
      "Ġdifferences": 8470,
      "ĠReal": 8471,
      "ĠMcD": 8472,
      "Ġmusicals": 8473,
      "Ġadvance": 8474,
      "chers": 8475,
      "Ġrepresents": 8476,
      "movies": 8477,
      "Ġdrunken": 8478,
      "Ġaforementioned": 8479,
      "EL": 8480,
      "ĠSen": 8481,
      "ĠSav": 8482,
      "ĠNational": 8483,
      "erek": 8484,
      "anson": 8485,
      "622": 8486,
      "Ġeasier": 8487,
      "Ġridiculously": 8488,
      "Still": 8489,
      "Ġ2005": 8490,
      "Ġprogress": 8491,
      "Ġcharismatic": 8492,
      "nest": 8493,
      "Ġtons": 8494,
      "ĠCur": 8495,
      "0074": 8496,
      "Ġ21": 8497,
      "148": 8498,
      "Ġpopulation": 8499,
      "Ġloser": 8500,
      "Too": 8501,
      "Ġthrew": 8502,
      "041": 8503,
      "Ġsecrets": 8504,
      "Ġoccurred": 8505,
      "!.": 8506,
      "dated": 8507,
      "po": 8508,
      "pter": 8509,
      "ifying": 8510,
      "ĠPhant": 8511,
      "ĠRic": 8512,
      "ĠJamie": 8513,
      "Ġworried": 8514,
      "because": 8515,
      "Ġsmoke": 8516,
      "ivan": 8517,
      "Ġgeneric": 8518,
      "Ġmessages": 8519,
      "Ġdevast": 8520,
      "Ġevident": 8521,
      "maybe": 8522,
      "Ġtoy": 8523,
      "lett": 8524,
      "inda": 8525,
      "138": 8526,
      "Ġliking": 8527,
      "Ġbullet": 8528,
      "Ġsurrounded": 8529,
      "ACK": 8530,
      "Ġcalm": 8531,
      "hai": 8532,
      "Ġheight": 8533,
      "ĠBay": 8534,
      "001": 8535,
      "Ġdisj": 8536,
      "Ġdisease": 8537,
      "ERS": 8538,
      "onym": 8539,
      "Ġchecking": 8540,
      "Ġterrorists": 8541,
      "Ġtraveling": 8542,
      "Ġunbelievably": 8543,
      "Ġphotographed": 8544,
      "Ġcannibal": 8545,
      "067": 8546,
      "Ġmaid": 8547,
      "Ġreli": 8548,
      "Ġhitting": 8549,
      "ĠCary": 8550,
      "aga": 8551,
      "Ġhorrors": 8552,
      "Ġtriumph": 8553,
      "Ġharder": 8554,
      "Ġdemands": 8555,
      "Ġtravels": 8556,
      "Ġfrustrated": 8557,
      "Very": 8558,
      "icient": 8559,
      "rael": 8560,
      "ĠBuck": 8561,
      "ĠOwen": 8562,
      "onson": 8563,
      "Ġproducing": 8564,
      "Ġscripted": 8565,
      "Ġconsum": 8566,
      "ovich": 8567,
      "Ġsacrific": 8568,
      "Ġhorrendous": 8569,
      "Ġenemies": 8570,
      "oubtedly": 8571,
      "Ġnerv": 8572,
      "ĠAT": 8573,
      "Ġoffended": 8574,
      "orsese": 8575,
      "Ġracial": 8576,
      "Ġattached": 8577,
      "628": 8578,
      "ĠHero": 8579,
      "Ġ2006": 8580,
      "ĠDragon": 8581,
      "Ġmiserable": 8582,
      "Ġsplendid": 8583,
      "redictable": 8584,
      "Ġsons": 8585,
      "itchen": 8586,
      "Ġtool": 8587,
      "ĠFire": 8588,
      "658": 8589,
      "Ġcarn": 8590,
      "Ġconversations": 8591,
      "ez": 8592,
      "enes": 8593,
      "Ġcere": 8594,
      "Ġpubl": 8595,
      "Ġnine": 8596,
      "aks": 8597,
      "ĠNol": 8598,
      "Ġblend": 8599,
      "Ġdecisions": 8600,
      "Ġcared": 8601,
      "ĠGodzilla": 8602,
      "Ġnarrator": 8603,
      "ĠTechn": 8604,
      "Ġconspiracy": 8605,
      "ffee": 8606,
      "rict": 8607,
      "Ġtom": 8608,
      "Ġfed": 8609,
      "Ġinher": 8610,
      "ĠMod": 8611,
      "Ġoutcome": 8612,
      "itters": 8613,
      "Ġappalling": 8614,
      "Ġpicking": 8615,
      "hology": 8616,
      "ĠProbably": 8617,
      "Ġcontinued": 8618,
      "ixture": 8619,
      "Ġisolated": 8620,
      "hobic": 8621,
      "Ġruthless": 8622,
      "enberg": 8623,
      "ĠTru": 8624,
      "ĠSally": 8625,
      "Ġdismiss": 8626,
      "Ġspooky": 8627,
      "augh": 8628,
      "Ġbelieving": 8629,
      "ĠForce": 8630,
      "Ġsteam": 8631,
      "Ġpolitic": 8632,
      "Ġescaped": 8633,
      "ĠChaney": 8634,
      "Ġsymbolism": 8635,
      "inate": 8636,
      "Ġwake": 8637,
      "lli": 8638,
      "Ġreaches": 8639,
      "ĠRow": 8640,
      "ĠUN": 8641,
      "Ġindul": 8642,
      "ĠUncle": 8643,
      "Star": 8644,
      "bsolute": 8645,
      "Ġticket": 8646,
      "Ġjealous": 8647,
      "ecess": 8648,
      "ket": 8649,
      "Ġfired": 8650,
      "ilted": 8651,
      "ĠBus": 8652,
      "0443": 8653,
      "Ġdialogues": 8654,
      "Ġcollabor": 8655,
      "ĠMcK": 8656,
      "ĠScience": 8657,
      "ĠPretty": 8658,
      "ĠFulci": 8659,
      "itudes": 8660,
      "verted": 8661,
      "Ġstole": 8662,
      "ĠBac": 8663,
      "uper": 8664,
      "Ġtypically": 8665,
      "142": 8666,
      "Ġdetailed": 8667,
      "school": 8668,
      "Ġpasses": 8669,
      "Ġadmitted": 8670,
      "Ġiron": 8671,
      "ĠGeor": 8672,
      "Ġunwatchable": 8673,
      "Ġresolution": 8674,
      "ĠFreeman": 8675,
      "ĠSwedish": 8676,
      "cal": 8677,
      "kish": 8678,
      "Ġsill": 8679,
      "Ġfrench": 8680,
      "atched": 8681,
      "ĠWend": 8682,
      "ĠDrew": 8683,
      "Ġtimeless": 8684,
      "Ġaddict": 8685,
      "Ġswear": 8686,
      "Ġsubjects": 8687,
      "Ġsentence": 8688,
      "Ġphotographer": 8689,
      "Ġsacrifice": 8690,
      "Ġreduced": 8691,
      "hattan": 8692,
      "aver": 8693,
      "love": 8694,
      "Ġdire": 8695,
      "Ġdaring": 8696,
      "ĠTerry": 8697,
      "ĠFOR": 8698,
      "umsy": 8699,
      "Ġups": 8700,
      "eremy": 8701,
      "Ġaccused": 8702,
      "Ġworthless": 8703,
      "Ġdancer": 8704,
      "ĠFlor": 8705,
      "(..": 8706,
      "God": 8707,
      "sky": 8708,
      "ĠAw": 8709,
      "elli": 8710,
      "Ġguide": 8711,
      "ĠHeart": 8712,
      "Ġperforming": 8713,
      "Ġgotta": 8714,
      "655": 8715,
      "Ġlisted": 8716,
      "ĠMurray": 8717,
      "Than": 8718,
      "Ġmal": 8719,
      "hau": 8720,
      "ĠFant": 8721,
      "ortunately": 8722,
      "Ġhatred": 8723,
      "Ġcorpse": 8724,
      "Ġpredecess": 8725,
      "ĠLeonard": 8726,
      "Ġexaggerated": 8727,
      "Ġmetaphor": 8728,
      "Ġrobbery": 8729,
      "Ġastonishing": 8730,
      "asha": 8731,
      "Ġbew": 8732,
      "ĠSing": 8733,
      "unning": 8734,
      "ĠBald": 8735,
      "Ġje": 8736,
      "ĠGal": 8737,
      "087": 8738,
      "072": 8739,
      "Ġsadness": 8740,
      "Ġpleased": 8741,
      "Ġingen": 8742,
      "Ġbathroom": 8743,
      "Ġlifestyle": 8744,
      "Ġincoherent": 8745,
      "Night": 8746,
      "gling": 8747,
      "Ġlit": 8748,
      "Ġnotes": 8749,
      "emark": 8750,
      "Ġdoomed": 8751,
      "094": 8752,
      "Ġabsence": 8753,
      "ĠBlock": 8754,
      "Ġdefinite": 8755,
      "Ġmarks": 8756,
      "ĠNorman": 8757,
      "Ġimplausible": 8758,
      "Ġcelluloid": 8759,
      "Ġachievement": 8760,
      "ĠReynolds": 8761,
      "Ġdisjointed": 8762,
      "Ġ=": 8763,
      "Ġfr": 8764,
      "ĠSub": 8765,
      "uristic": 8766,
      "ĠWow": 8767,
      "Ġcomfortable": 8768,
      "Ġdear": 8769,
      "ĠNelson": 8770,
      "Ġnoble": 8771,
      "Ġdistance": 8772,
      "Ġmisunder": 8773,
      "Ġnearby": 8774,
      "ĠFilms": 8775,
      "Ġdiscussion": 8776,
      "Ġstinker": 8777,
      "Ġgradually": 8778,
      "Che": 8779,
      "human": 8780,
      "rint": 8781,
      "Ġcried": 8782,
      "Ġstaged": 8783,
      "ĠBush": 8784,
      "Ġdece": 8785,
      "ĠFurther": 8786,
      "ĠGro": 8787,
      "ĠNort": 8788,
      "eller": 8789,
      "ables": 8790,
      "Ġgenres": 8791,
      "Ġredemption": 8792,
      "Ġcasual": 8793,
      "bie": 8794,
      "Ġtie": 8795,
      "Ġsam": 8796,
      "Ġaging": 8797,
      "Ġenters": 8798,
      "angers": 8799,
      "ĠThink": 8800,
      "Ġpolitically": 8801,
      "Ġcomplaint": 8802,
      "Ġsigns": 8803,
      "Ġstrip": 8804,
      "Ġrespond": 8805,
      "Ġdelivering": 8806,
      "ĠStreep": 8807,
      "ĠArab": 8808,
      "115": 8809,
      "Ġheist": 8810,
      "ĠHunt": 8811,
      "geon": 8812,
      "Ġfuneral": 8813,
      "Ġnevertheless": 8814,
      "eyed": 8815,
      "Ġpulling": 8816,
      "Ġinspiring": 8817,
      "Ġbust": 8818,
      "Ġrural": 8819,
      "olden": 8820,
      "urious": 8821,
      "ĠMorris": 8822,
      "Ġaffected": 8823,
      "ĠHighly": 8824,
      "Ġpossessed": 8825,
      "Ġreceive": 8826,
      "aust": 8827,
      "Ġinject": 8828,
      "ĠWard": 8829,
      "ortal": 8830,
      "venile": 8831,
      "ĠGill": 8832,
      "acked": 8833,
      "ĠAlmost": 8834,
      "ocative": 8835,
      "Ġkidding": 8836,
      "existent": 8837,
      "Ġdevoid": 8838,
      "Ġrecognition": 8839,
      "ĠStanley": 8840,
      "Ġbirthday": 8841,
      "Ġproceedings": 8842,
      "Ġcrisis": 8843,
      "Bad": 8844,
      "dra": 8845,
      "paced": 8846,
      "Ġgall": 8847,
      "Ġbeats": 8848,
      "ĠKer": 8849,
      "Ġpoison": 8850,
      "ĠVis": 8851,
      "Ġconserv": 8852,
      "677": 8853,
      "otting": 8854,
      "Ġwont": 8855,
      "Ġheroic": 8856,
      "makers": 8857,
      "Ġunfair": 8858,
      "Ġintrigue": 8859,
      "Ġcameras": 8860,
      "Ġinstallment": 8861,
      "watch": 8862,
      "Ġduty": 8863,
      "sex": 8864,
      "ĠCase": 8865,
      "Ġhumili": 8866,
      "Ġcovers": 8867,
      "Ġfancy": 8868,
      "Ġhunting": 8869,
      "Ġingred": 8870,
      "aurs": 8871,
      "Ġfitting": 8872,
      "Ġegg": 8873,
      "ĠHolly": 8874,
      "Ġprops": 8875,
      "arer": 8876,
      "ĠHeaven": 8877,
      "Ġhardcore": 8878,
      "Ġdetract": 8879,
      "ĠIsrael": 8880,
      "Ġconventional": 8881,
      "ĠLawrence": 8882,
      "Ġarrested": 8883,
      "works": 8884,
      "Hey": 8885,
      "Ġhire": 8886,
      "Ġtrio": 8887,
      "Ġcoffee": 8888,
      "Ġexposed": 8889,
      "Ġpopcorn": 8890,
      "Donald": 8891,
      "Ġdigital": 8892,
      "Ġhunter": 8893,
      "Ġaltogether": 8894,
      "lest": 8895,
      "Ġfart": 8896,
      "Ġfoul": 8897,
      "Ġbog": 8898,
      "ications": 8899,
      "also": 8900,
      "icularly": 8901,
      "643": 8902,
      "Ġhearts": 8903,
      "Ġsentiment": 8904,
      "Ġobserv": 8905,
      "ĠDamme": 8906,
      "668": 8907,
      "Ġsen": 8908,
      "Ġwrap": 8909,
      "oral": 8910,
      "Ġdre": 8911,
      "Ġgimm": 8912,
      "Ġafterwards": 8913,
      "639": 8914,
      "ĠWhatever": 8915,
      "ĠCraig": 8916,
      "ĠBoys": 8917,
      "ĠCatholic": 8918,
      "ĠHopkins": 8919,
      "ploitation": 8920,
      "ilarly": 8921,
      "Ġdoz": 8922,
      "ĠPam": 8923,
      "Ġwhereas": 8924,
      "astern": 8925,
      "0082": 8926,
      "chest": 8927,
      "Ġscreams": 8928,
      "mission": 8929,
      "ulsive": 8930,
      "Ġcaptivating": 8931,
      "Ġfinancial": 8932,
      "dri": 8933,
      "ef": 8934,
      "Ġwest": 8935,
      "Ġward": 8936,
      "Ġinapp": 8937,
      "tta": 8938,
      "ĠWy": 8939,
      "ĠEN": 8940,
      "Ġclic": 8941,
      "Ġaudio": 8942,
      "ĠScorsese": 8943,
      "ĠAtl": 8944,
      "ĠHammer": 8945,
      "Ġurge": 8946,
      "ĠKubrick": 8947,
      "ĠAlfred": 8948,
      "\";": 8949,
      "rates": 8950,
      "Ġtail": 8951,
      "erning": 8952,
      "amin": 8953,
      "Ġspare": 8954,
      "obi": 8955,
      "Ġbold": 8956,
      "Ġgrab": 8957,
      "Ġburning": 8958,
      "Ġbenefit": 8959,
      "Ġphilosophy": 8960,
      "ĠIreland": 8961,
      "Ġelaborate": 8962,
      "Ġsloppy": 8963,
      "Ġpushed": 8964,
      "arrow": 8965,
      "race": 8966,
      "ĠHy": 8967,
      "ĠWI": 8968,
      "Ġorphan": 8969,
      "077": 8970,
      "ĠMarch": 8971,
      "Ġdepressed": 8972,
      "Ġdarker": 8973,
      "Ġmorality": 8974,
      "Ġmotives": 8975,
      "Ġhonesty": 8976,
      "Ġprimarily": 8977,
      "Ġdignity": 8978,
      "heim": 8979,
      "rer": 8980,
      "eric": 8981,
      "oric": 8982,
      "Ġclumsy": 8983,
      "Ġoverdone": 8984,
      "Ġheaded": 8985,
      "Ġadmira": 8986,
      "Ġillness": 8987,
      "Ġunfolds": 8988,
      "club": 8989,
      "Ġsympath": 8990,
      "Ġrecorded": 8991,
      "Ġdraws": 8992,
      "Ġadequate": 8993,
      "hum": 8994,
      "Ġnotion": 8995,
      "ĠCow": 8996,
      "ularly": 8997,
      "Ġagreed": 8998,
      "Ġtracks": 8999,
      "ava": 9000,
      "Ġglory": 9001,
      "Ġconcerning": 9002,
      "ĠChristie": 9003,
      "Ġslightest": 9004,
      "uppet": 9005,
      "Ġbullets": 9006,
      "ĠMuslim": 9007,
      "--------": 9008,
      "Ġfrag": 9009,
      "ĠCurtis": 9010,
      "Ġpants": 9011,
      "Ġsticks": 9012,
      "ĠEX": 9013,
      "Ġcontrib": 9014,
      "Ġtrade": 9015,
      "anged": 9016,
      "055": 9017,
      "ĠRobinson": 9018,
      "Ġdemons": 9019,
      "Ġopinions": 9020,
      "Ġdevoted": 9021,
      "Ġprogresses": 9022,
      "Ġgolden": 9023,
      "Ġinvolvement": 9024,
      "cingly": 9025,
      "tle": 9026,
      "Ġsouth": 9027,
      "ĠSouthern": 9028,
      "ĠBry": 9029,
      "Ġweb": 9030,
      "Ġnotorious": 9031,
      "ĠPen": 9032,
      "Ġinsert": 9033,
      "Ġoddly": 9034,
      "Ġclimb": 9035,
      "Ġsubtlety": 9036,
      "ĠRussia": 9037,
      "ĠWilder": 9038,
      "Ġstrictly": 9039,
      "Ġenormous": 9040,
      "otte": 9041,
      "Ġthief": 9042,
      "ĠHills": 9043,
      "Ġchain": 9044,
      "ĠPersonally": 9045,
      "Ġunoriginal": 9046,
      "Ġgrotes": 9047,
      "689": 9048,
      "uffy": 9049,
      "Ġsadd": 9050,
      "maker": 9051,
      "ĠShort": 9052,
      "Ġstrikes": 9053,
      "Ġloosely": 9054,
      "Ġdynamic": 9055,
      "Ġunsett": 9056,
      "rehensible": 9057,
      "Ġwannabe": 9058,
      "every": 9059,
      "Ġtires": 9060,
      "Ġack": 9061,
      "Ġbutton": 9062,
      "ĠDerek": 9063,
      "ullivan": 9064,
      "izable": 9065,
      "!!!!!": 9066,
      "aware": 9067,
      "Ġbrains": 9068,
      "Ġsuperbly": 9069,
      "Ġdisturbed": 9070,
      "Ġscientific": 9071,
      "Ġestate": 9072,
      "Ġtrademark": 9073,
      "Once": 9074,
      "ĠElli": 9075,
      "ocalypse": 9076,
      "burn": 9077,
      "eer": 9078,
      "Ġ..": 9079,
      "ĠTR": 9080,
      "Ġstone": 9081,
      "...)": 9082,
      "Ġdisli": 9083,
      "074": 9084,
      "Ġabsorb": 9085,
      "umbles": 9086,
      "ĠClub": 9087,
      "Ġlabor": 9088,
      "Ġresemblance": 9089,
      "Ġinhabit": 9090,
      "ĠArgento": 9091,
      "Ġmagazine": 9092,
      "Ye": 9093,
      "great": 9094,
      "ĠJake": 9095,
      "Ġsail": 9096,
      "Ġdetect": 9097,
      "ĠSpain": 9098,
      "Ġclothing": 9099,
      "Ġburned": 9100,
      "Ġorders": 9101,
      "Ġsegments": 9102,
      "Ġinventive": 9103,
      "Ġscheme": 9104,
      "Ġdeliberately": 9105,
      "CM": 9106,
      "Look": 9107,
      "dog": 9108,
      "pre": 9109,
      "say": 9110,
      "Ġmixture": 9111,
      "omers": 9112,
      "Ġpitch": 9113,
      "Ġlake": 9114,
      "Ġreached": 9115,
      "ĠLang": 9116,
      "ĠNin": 9117,
      "Ġshine": 9118,
      "Ġclosed": 9119,
      "Ġcoherent": 9120,
      "085": 9121,
      "109": 9122,
      "Ġsmaller": 9123,
      "Ġsilver": 9124,
      "Ġillegal": 9125,
      "Ġacknow": 9126,
      "')": 9127,
      "069": 9128,
      "HING": 9129,
      "Ã¡": 9130,
      "Ġ;": 9131,
      "Ġax": 9132,
      "Ġcards": 9133,
      "Ġeg": 9134,
      "Ġbefriend": 9135,
      "ĠCIA": 9136,
      "never": 9137,
      "ONG": 9138,
      "Ġstaying": 9139,
      "Ġcurse": 9140,
      "Ġexplaining": 9141,
      "ĠEmma": 9142,
      "opsis": 9143,
      "Ġaimed": 9144,
      "ĠNevertheless": 9145,
      "ĠFrancisco": 9146,
      "umentary": 9147,
      "Ġwet": 9148,
      "ĠRaj": 9149,
      "Ġshirt": 9150,
      "ogical": 9151,
      "izard": 9152,
      "izations": 9153,
      "147": 9154,
      "Ġconclud": 9155,
      "Ġpremie": 9156,
      "Ġodds": 9157,
      "ĠMatrix": 9158,
      "Ġlifetime": 9159,
      "ĠGirls": 9160,
      "ĠNEVER": 9161,
      "High": 9162,
      "Richard": 9163,
      "Ġsou": 9164,
      "oni": 9165,
      "ĠEventually": 9166,
      "0078": 9167,
      "Ġroot": 9168,
      "Ġprejud": 9169,
      "ĠDawn": 9170,
      "Ġcommented": 9171,
      "âĢĻ": 9172,
      "Car": 9173,
      "Ġ**": 9174,
      "oner": 9175,
      "ĠDown": 9176,
      "ĠNik": 9177,
      "Ġnoise": 9178,
      "ĠKay": 9179,
      "ĠKnow": 9180,
      "Ġsilence": 9181,
      "Ġgrandmother": 9182,
      "uddies": 9183,
      "Ġimproved": 9184,
      "Ġpsychotic": 9185,
      "ĠBarrymore": 9186,
      "ĠAndrews": 9187,
      "ĠIrene": 9188,
      "Watch": 9189,
      "ooges": 9190,
      "ĠHann": 9191,
      "ĠFiction": 9192,
      "ĠKa": 9193,
      "erella": 9194,
      "Ġfunction": 9195,
      "Ġenjoys": 9196,
      "ĠChurch": 9197,
      "rowing": 9198,
      "Ġcreativity": 9199,
      "Ġmisses": 9200,
      "ĠConf": 9201,
      "ĠNeed": 9202,
      "Ġintrigued": 9203,
      "Ġdistracting": 9204,
      "Ġdivorce": 9205,
      "Ġblatant": 9206,
      "Ġnervous": 9207,
      "ril": 9208,
      "vity": 9209,
      "levant": 9210,
      "keep": 9211,
      "ĠCop": 9212,
      "terday": 9213,
      "0043": 9214,
      "icking": 9215,
      "031": 9216,
      "Ġthoughtful": 9217,
      "Ġmaintain": 9218,
      "Ġhates": 9219,
      "Ġmurderous": 9220,
      "Ġsimilarities": 9221,
      "Ġgangsters": 9222,
      "headed": 9223,
      "Ġpotentially": 9224,
      "ĠOscars": 9225,
      "Ġinfluenced": 9226,
      "Ġfrustrating": 9227,
      "Ġliberal": 9228,
      "ĠGriffith": 9229,
      "ĠIng": 9230,
      "quer": 9231,
      "Ġdefend": 9232,
      "Ġequip": 9233,
      "Ġpsychop": 9234,
      "Ġestablish": 9235,
      "Ġregardless": 9236,
      "Ġcurrently": 9237,
      "ĠWalken": 9238,
[...]
