{
  "version": "1.0",
  "truncation": null,
  "padding": null,
  "added_tokens": [
    {
      "id": 0,
      "content": "<pad>",
      "single_word": false,
      "lstrip": false,
      "rstrip": false,
      "normalized": false,
      "special": true
    },
    {
      "id": 1,
      "content": "<s>",
      "single_word": false,
      "lstrip": false,
      "rstrip": false,
      "normalized": false,
      "special": true
    },
    {
      "id": 2,
      "content": "</s>",
      "single_word": false,
      "lstrip": false,
      "rstrip": false,
      "normalized": false,
      "special": true
    },
    {
      "id": 3,
      "content": "<mask>",
      "single_word": false,
      "lstrip": false,
      "rstrip": false,
      "normalized": false,
      "special": true
    },
    {
      "id": 4,
      "content": "<cls>",
      "single_word": false,
      "lstrip": false,
      "rstrip": false,
      "normalized": false,
      "special": true
    },
    {
      "id": 5,
      "content": "<question>",
      "single_word": false,
      "lstrip": false,
      "rstrip": false,
      "normalized": false,
      "special": true
    },
    {
      "id": 6,
      "content": "<answer>",
      "single_word": false,
      "lstrip": false,
      "rstrip": false,
      "normalized": false,
      "special": true
    },
    {
      "id": 7,
      "content": "<unk>",
      "single_word": false,
      "lstrip": false,
      "rstrip": false,
      "normalized": false,
      "special": true
    }
  ],
  "normalizer": {
    "type": "Sequence",
    "normalizers": [
      {
        "type": "Replace",
        "pattern": {
          "String": "\n(.)\n"
        },
        "content": "\n"
      },
      {
        "type": "Replace",
        "pattern": {
          "String": "[\n\n]+"
        },
        "content": "\n\n"
      }
    ]
  },
  "pre_tokenizer": {
    "type": "ByteLevel",
    "add_prefix_space": false,
    "trim_offsets": true,
    "use_regex": true
  },
  "post_processor": null,
  "decoder": {
    "type": "ByteLevel",
    "add_prefix_space": true,
    "trim_offsets": true,
    "use_regex": true
  },
  "model": {
    "type": "BPE",
    "dropout": null,
    "unk_token": null,
    "continuing_subword_prefix": null,
    "end_of_word_suffix": null,
    "fuse_unk": false,
    "byte_fallback": false,
    "vocab": {
      "<pad>": 0,
      "<s>": 1,
      "</s>": 2,
      "<mask>": 3,
      "<cls>": 4,
      "<question>": 5,
      "<answer>": 6,
      "<unk>": 7,
      "!": 8,
      "\"": 9,
      "#": 10,
      "$": 11,
      "%": 12,
      "&": 13,
      "'": 14,
      "(": 15,
      ")": 16,
      "*": 17,
      "+": 18,
      ",": 19,
      "-": 20,
      ".": 21,
      "/": 22,
      "0": 23,
      "1": 24,
      "2": 25,
      "3": 26,
      "4": 27,
      "5": 28,
      "6": 29,
      "7": 30,
      "8": 31,
      "9": 32,
      ":": 33,
      ";": 34,
      "<": 35,
      "=": 36,
      ">": 37,
      "?": 38,
      "@": 39,
      "A": 40,
      "B": 41,
      "C": 42,
      "D": 43,
      "E": 44,
      "F": 45,
      "G": 46,
      "H": 47,
      "I": 48,
      "J": 49,
      "K": 50,
      "L": 51,
      "M": 52,
      "N": 53,
      "O": 54,
      "P": 55,
      "Q": 56,
      "R": 57,
      "S": 58,
      "T": 59,
      "U": 60,
      "V": 61,
      "W": 62,
      "X": 63,
      "Y": 64,
      "Z": 65,
      "[": 66,
      "\\": 67,
      "]": 68,
      "^": 69,
      "_": 70,
      "`": 71,
      "a": 72,
      "b": 73,
      "c": 74,
      "d": 75,
      "e": 76,
      "f": 77,
      "g": 78,
      "h": 79,
      "i": 80,
      "j": 81,
      "k": 82,
      "l": 83,
      "m": 84,
      "n": 85,
      "o": 86,
      "p": 87,
      "q": 88,
      "r": 89,
      "s": 90,
      "t": 91,
      "u": 92,
      "v": 93,
      "w": 94,
      "x": 95,
      "y": 96,
      "z": 97,
      "{": 98,
      "|": 99,
      "}": 100,
      "~": 101,
      "¡": 102,
      "¢": 103,
      "£": 104,
      "¤": 105,
      "¥": 106,
      "¦": 107,
      "§": 108,
      "¨": 109,
      "©": 110,
      "ª": 111,
      "«": 112,
      "¬": 113,
      "®": 114,
      "¯": 115,
      "°": 116,
      "±": 117,
      "²": 118,
      "³": 119,
      "´": 120,
      "µ": 121,
      "¶": 122,
      "·": 123,
      "¸": 124,
      "¹": 125,
      "º": 126,
      "»": 127,
      "¼": 128,
      "½": 129,
      "¾": 130,
      "¿": 131,
      "Â": 132,
      "Ã": 133,
      "Ä": 134,
      "Å": 135,
      "Æ": 136,
      "Ç": 137,
      "È": 138,
      "É": 139,
      "Ê": 140,
      "Ë": 141,
      "Ì": 142,
      "Í": 143,
      "Î": 144,
      "Ï": 145,
      "Ð": 146,
      "Ñ": 147,
      "Ò": 148,
      "Ó": 149,
      "Ô": 150,
      "Õ": 151,
      "Ö": 152,
      "×": 153,
      "Ø": 154,
      "Ù": 155,
      "Ú": 156,
      "Û": 157,
      "Ü": 158,
      "Ý": 159,
      "Þ": 160,
      "à": 161,
      "á": 162,
      "â": 163,
      "ã": 164,
      "ä": 165,
      "å": 166,
      "æ": 167,
      "ç": 168,
      "è": 169,
      "é": 170,
      "ê": 171,
      "ë": 172,
      "ì": 173,
      "í": 174,
      "î": 175,
      "ï": 176,
      "ð": 177,
      "ĉ": 178,
      "Ċ": 179,
      "Ġ": 180,
      "ġ": 181,
      "Ģ": 182,
      "ģ": 183,
      "Ĥ": 184,
      "ĥ": 185,
      "Ħ": 186,
      "ħ": 187,
      "Ĩ": 188,
      "ĩ": 189,
      "Ī": 190,
      "ī": 191,
      "Ĭ": 192,
      "ĭ": 193,
      "Į": 194,
      "į": 195,
      "İ": 196,
      "ı": 197,
      "Ĳ": 198,
      "ĳ": 199,
      "Ĵ": 200,
      "ĵ": 201,
      "Ķ": 202,
      "ķ": 203,
      "ĸ": 204,
      "Ĺ": 205,
      "ĺ": 206,
      "Ļ": 207,
      "ļ": 208,
      "Ľ": 209,
      "ľ": 210,
      "Ŀ": 211,
      "ŀ": 212,
      "Ł": 213,
      "ł": 214,
      "Ń": 215,
      "Ġd": 216,
      "Ġde": 217,
      "Ġe": 218,
      "Ġa": 219,
      "ra": 220,
      "Ġp": 221,
      "os": 222,
      "te": 223,
      "Ġc": 224,
      "re": 225,
      "ri": 226,
      "ta": 227,
      "en": 228,
      "in": 229,
      "Ġs": 230,
      "as": 231,
      "on": 232,
      "or": 233,
      "is": 234,
      "Ã£": 235,
      "an": 236,
      "Ã£o": 237,
      "do": 238,
      "er": 239,
      "es": 240,
      "Ġn": 241,
      "Ġo": 242,
      "qu": 243,
      "om": 244,
      "Ġm": 245,
      "Ã§": 246,
      "to": 247,
      "al": 248,
      "Ġf": 249,
      "ar": 250,
      "ic": 251,
      "ro": 252,
      "da": 253,
      "Ã©": 254,
      "um": 255,
      "de": 256,
      "ia": 257,
      "Ġqu": 258,
      "ti": 259,
      "Ġcom": 260,
      "ĠC": 261,
      "ĠA": 262,
      "el": 263,
      "Ġ1": 264,
      "Ã¡": 265,
      "Ġdo": 266,
      "Ġ(": 267,
      "Ġum": 268,
      "Ġem": 269,
      "Ġda": 270,
      "Ã§Ã£o": 271,
      "Ġque": 272,
      "ÃŃ": 273,
      "ĠS": 274,
      "ol": 275,
      "ci": 276,
      "Ġse": 277,
      "am": 278,
      "ĠP": 279,
      "Ġ2": 280,
      "ĠM": 281,
      "le": 282,
      "Ġre": 283,
      "Ġes": 284,
      "Ġv": 285,
      "ara": 286,
      "un": 287,
      "Ġ'": 288,
      "us": 289,
      "ul": 290,
      "ĠE": 291,
      "il": 292,
      "ei": 293,
      "Ġcon": 294,
      "ente": 295,
      "ĠB": 296,
      "Ã³": 297,
      "res": 298,
      "tu": 299,
      "em": 300,
      "Ġin": 301,
      "Ġno": 302,
      "tra": 303,
      "im": 304,
      "ou": 305,
      "Ġl": 306,
      "di": 307,
      "Ġ20": 308,
      "ria": 309,
      "ĠF": 310,
      "Ġb": 311,
      "Ġte": 312,
      "Ġpara": 313,
      "Ġna": 314,
      "ĠD": 315,
      "ĠR": 316,
      "ha": 317,
      "ica": 318,
      "Ġ19": 319,
      "Ġuma": 320,
      "ĠL": 321,
      "Ġg": 322,
      "ĠT": 323,
      "Ġpor": 324,
      "ĠÃ©": 325,
      "ĠG": 326,
      "Ġfo": 327,
      "se": 328,
      "dos": 329,
      "ca": 330,
      "ida": 331,
      "Ãª": 332,
      "ma": 333,
      "ĠI": 334,
      "Ġt": 335,
      "ĠN": 336,
      "io": 337,
      "go": 338,
      "pe": 339,
      "va": 340,
      "he": 341,
      "Ġsu": 342,
      "ho": 343,
      "ĠJ": 344,
      "Ġen": 345,
      "ĠO": 346,
      "ran": 347,
      "Ãµ": 348,
      "la": 349,
      "Ġan": 350,
      "Ãµes": 351,
      "Ġma": 352,
      "Ġas": 353,
      "gu": 354,
      "Ġfoi": 355,
      "Ġpro": 356,
      "tos": 357,
      "Ġj": 358,
      "ce": 359,
      "ve": 360,
      "po": 361,
      "Ġos": 362,
      "Ġdes": 363,
      "ĠÃ": 364,
      "ĠH": 365,
      "so": 366,
      "Ġcomo": 367,
      "ado": 368,
      "ento": 369,
      "cia": 370,
      "Ġou": 371,
      "ter": 372,
      "ig": 373,
      "Ġ\"": 374,
      "co": 375,
      "Ġex": 376,
      "ras": 377,
      "iz": 378,
      "lo": 379,
      "iv": 380,
      "Ġpel": 381,
      "tes": 382,
      "mente": 383,
      "Ã§Ãµes": 384,
      "ir": 385,
      "pa": 386,
      "Ġal": 387,
      "Ġdos": 388,
      "Ġ201": 389,
      "Ġ-": 390,
      "das": 391,
      "ĠV": 392,
      "00": 393,
      "ĠnÃ£o": 394,
      "ando": 395,
      "ita": 396,
      "tr": 397,
      "ram": 398,
      "Ãº": 399,
      "rio": 400,
      "idade": 401,
      "âĢ": 402,
      "RE": 403,
      "ista": 404,
      "Ã©m": 405,
      "tic": 406,
      "Ġpo": 407,
      "mb": 408,
      "Ġ200": 409,
      "Ġh": 410,
      "min": 411,
      "tro": 412,
      "ob": 413,
      "mo": 414,
      "Ãªn": 415,
      "ada": 416,
      "Ġap": 417,
      "Ġta": 418,
      "eiro": 419,
      "ĠEs": 420,
      "ĠU": 421,
      "ch": 422,
      "tre": 423,
      "ĠW": 424,
      "Ġar": 425,
      "ers": 426,
      "Ġpri": 427,
      "Ġao": 428,
      "du": 429,
      "Ġmais": 430,
      "sa": 431,
      "id": 432,
      "ina": 433,
      "Ġsua": 434,
      "it": 435,
      "Ġpar": 436,
      "na": 437,
      "ur": 438,
      "19": 439,
      "ga": 440,
      "enta": 441,
      "',": 442,
      "Ġser": 443,
      "cion": 444,
      "Ġca": 445,
      "ist": 446,
      "me": 447,
      "Ġtra": 448,
      "tiv": 449,
      "ĠÃł": 450,
      "Ġdi": 451,
      "Ġesta": 452,
      "Ã§a": 453,
      "ĠMa": 454,
      "Ġpa": 455,
      "og": 456,
      "ten": 457,
      "ico": 458,
      "Ġfor": 459,
      "des": 460,
      "ec": 461,
      "Ã¢": 462,
      "tan": 463,
      "Ġseu": 464,
      "oc": 465,
      "vi": 466,
      "tÃ¡": 467,
      "Ġdas": 468,
      "que": 469,
      "ito": 470,
      "),": 471,
      "ren": 472,
      "Ġtem": 473,
      "pos": 474,
      "Ġof": 475,
      "aÃ§Ã£o": 476,
      "con": 477,
      "ub": 478,
      "Ġper": 479,
      "Ġfa": 480,
      "Ġ3": 481,
      "Ġele": 482,
      ").": 483,
      "tin": 484,
      "Ġto": 485,
      "tura": 486,
      "Ġter": 487,
      "Ġcons": 488,
      "ens": 489,
      "ov": 490,
      "dor": 491,
      "ru": 492,
      "ira": 493,
      "dia": 494,
      "ip": 495,
      "ĠIn": 496,
      "TC": 497,
      "tor": 498,
      "por": 499,
      "ĠâĢ": 500,
      "ĠPa": 501,
      "fe": 502,
      "UTC": 503,
      "ate": 504,
      "ĠK": 505,
      "Ġsob": 506,
      "Ġim": 507,
      "tas": 508,
      "Ġdis": 509,
      "sÃ£o": 510,
      "bro": 511,
      "Ġres": 512,
      "Ġac": 513,
      "vel": 514,
      "ib": 515,
      "Ãªncia": 516,
      "ez": 517,
      "Ġ18": 518,
      "Ã¢n": 519,
      "gra": 520,
      "ulo": 521,
      "ĠAn": 522,
      "ĠRe": 523,
      "ix": 524,
      "th": 525,
      "ĠAl": 526,
      "ros": 527,
      "ge": 528,
      "Ġmu": 529,
      "Ġprim": 530,
      "ano": 531,
      "..": 532,
      "eira": 533,
      "ris": 534,
      "ona": 535,
      "tÃ©": 536,
      "DI": 537,
      "Ġmas": 538,
      "bo": 539,
      "Ġpelo": 540,
      "Ã´": 541,
      "mbÃ©m": 542,
      "ing": 543,
      "REC": 544,
      "Ġpela": 545,
      "DIREC": 546,
      "REDIREC": 547,
      "ana": 548,
      "dade": 549,
      "ral": 550,
      "ÃŃs": 551,
      "gun": 552,
      "ni": 553,
      "ĠtambÃ©m": 554,
      "Ã§o": 555,
      "der": 556,
      "Ġme": 557,
      "ces": 558,
      "endo": 559,
      "Ġab": 560,
      "tri": 561,
      "Ġpos": 562,
      "Ãªs": 563,
      "gi": 564,
      "Ġfil": 565,
      "Ġdu": 566,
      "iÃ§Ã£o": 567,
      "gem": 568,
      "ĠCon": 569,
      "Ġ199": 570,
      "Ġentre": 571,
      "ass": 572,
      "tado": 573,
      "iro": 574,
      "ici": 575,
      "Ġmes": 576,
      "man": 577,
      "Ġesc": 578,
      "gos": 579,
      "Ġpre": 580,
      "goria": 581,
      "cl": 582,
      "ome": 583,
      "Ġsobre": 584,
      "for": 585,
      "tica": 586,
      "Ġpr": 587,
      "rios": 588,
      "almente": 589,
      "ide": 590,
      "amento": 591,
      "no": 592,
      "ĊĊ": 593,
      "Ġle": 594,
      "aliz": 595,
      "ĠÃ¡": 596,
      "ne": 597,
      "li": 598,
      "Ġ4": 599,
      "ja": 600,
      "ĠEm": 601,
      "Ġcas": 602,
      "tar": 603,
      "fica": 604,
      "Ġob": 605,
      "ik": 606,
      "ric": 607,
      "tal": 608,
      "ab": 609,
      "tÃ£o": 610,
      "Ã¡rio": 611,
      "les": 612,
      "ĠSe": 613,
      "Ġpode": 614,
      "ĠsÃ£o": 615,
      "lan": 616,
      "lia": 617,
      "ĠPor": 618,
      "Ġus": 619,
      "Ġ[": 620,
      "pres": 621,
      "tion": 622,
      "Ã³s": 623,
      "ido": 624,
      "20": 625,
      "Ġon": 626,
      "Ġass": 627,
      "ĠĊ": 628,
      "ÃŃn": 629,
      "mento": 630,
      "Cate": 631,
      "pan": 632,
      "'.": 633,
      "ac": 634,
      "Em": 635,
      "ĠCom": 636,
      "lica": 637,
      "Categoria": 638,
      "amente": 639,
      "embro": 640,
      "Ġcol": 641,
      "ais": 642,
      "orn": 643,
      "Ġmo": 644,
      "ĠAr": 645,
      "qui": 646,
      "Ġmar": 647,
      "ĠCh": 648,
      "Ġsem": 649,
      "ĠNa": 650,
      "Ġnos": 651,
      "Ġanos": 652,
      "ĠNo": 653,
      "tros": 654,
      "vo": 655,
      "ero": 656,
      "tÃ³": 657,
      "inha": 658,
      "Ġpe": 659,
      "cus": 660,
      "bal": 661,
      "ĠBras": 662,
      "Ġcar": 663,
      "Ġcor": 664,
      "rin": 665,
      "je": 666,
      "cional": 667,
      "Ġten": 668,
      "Ġcomp": 669,
      "ile": 670,
      "Ġ5": 671,
      "entos": 672,
      "cio": 673,
      "ns": 674,
      "Ġera": 675,
      "ĠCa": 676,
      "ino": 677,
      "ĠMar": 678,
      "Ġcl": 679,
      "Ġ0": 680,
      "ver": 681,
      "tou": 682,
      "Ġnas": 683,
      "::": 684,
      "ivers": 685,
      "vol": 686,
      "Es": 687,
      "Ġarti": 688,
      "ĠDe": 689,
      "NA": 690,
      "tru": 691,
      "Ã³ria": 692,
      "titu": 693,
      "Ġthe": 694,
      "ess": 695,
      "ham": 696,
      "ard": 697,
      "rias": 698,
      "Ġfun": 699,
      "anto": 700,
      "rie": 701,
      "ton": 702,
      "ĠAs": 703,
      "cor": 704,
      "icos": 705,
      "200": 706,
      "and": 707,
      "ĠatÃ©": 708,
      "Ġpes": 709,
      "EN": 710,
      "Ġ198": 711,
      "ba": 712,
      "tiva": 713,
      "Ġpres": 714,
      "anÃ§": 715,
      "TO": 716,
      "ad": 717,
      "ber": 718,
      "Ġad": 719,
      "IO": 720,
      "pul": 721,
      "ante": 722,
      "ĠJo": 723,
      "ele": 724,
      "ase": 725,
      "dio": 726,
      "Qu": 727,
      "rante": 728,
      "orte": 729,
      "Ġforam": 730,
      "til": 731,
      "cente": 732,
      "Ġcontra": 733,
      "Ġha": 734,
      "fia": 735,
      "cussÃ£o": 736,
      "Ġqual": 737,
      "rande": 738,
      "pon": 739,
      "pois": 740,
      "be": 741,
      "Ġvez": 742,
      "Ġedi": 743,
      "MEN": 744,
      "fin": 745,
      "ent": 746,
      "rem": 747,
      "IONA": 748,
      "MENTO": 749,
      "ĠCar": 750,
      "ena": 751,
      "IONAMENTO": 752,
      "REDIRECIONAMENTO": 753,
      "et": 754,
      "Ġau": 755,
      "aneiro": 756,
      "Ġforma": 757,
      "ĠestÃ¡": 758,
      "Ġseus": 759,
      "ite": 760,
      "Ġsegu": 761,
      "ug": 762,
      "ĠSÃ£o": 763,
      "pre": 764,
      "aram": 765,
      "Ġonde": 766,
      "Ġti": 767,
      "rado": 768,
      "Ġis": 769,
      "Ġfaz": 770,
      "via": 771,
      "tico": 772,
      "Ġcam": 773,
      "raÃ§Ã£o": 774,
      "ed": 775,
      "enas": 776,
      "Ġpol": 777,
      "Ġnome": 778,
      "ril": 779,
      "\",": 780,
      "ign": 781,
      "ich": 782,
      "Ġman": 783,
      "ion": 784,
      "rig": 785,
      "Ġand": 786,
      "Ġmesmo": 787,
      "dis": 788,
      "col": 789,
      "iste": 790,
      "cu": 791,
      "ĠGu": 792,
      "Ã´n": 793,
      "Ġor": 794,
      "ĠsÃ©": 795,
      "pÃ©": 796,
      "Ġco": 797,
      "Ġinter": 798,
      "Ġprin": 799,
      "cial": 800,
      "Ġtempo": 801,
      "rea": 802,
      "Ġcan": 803,
      "heci": 804,
      "Ġvo": 805,
      "cul": 806,
      "ĠCo": 807,
      "\".": 808,
      "inal": 809,
      "inda": 810,
      "Ġ6": 811,
      "tados": 812,
      "erra": 813,
      "Ġ17": 814,
      "ĠBrasil": 815,
      "Ġjun": 816,
      "za": 817,
      "Ġdire": 818,
      "ĠâĢĵ": 819,
      "Ġ197": 820,
      "val": 821,
      "rÃ¡": 822,
      "hos": 823,
      "ĠLe": 824,
      "cis": 825,
      "Ġquando": 826,
      "uro": 827,
      "ts": 828,
      "Ġtrabal": 829,
      "tivo": 830,
      "Re": 831,
      "Ġnov": 832,
      "Ġinte": 833,
      "18": 834,
      "Ġmil": 835,
      "oi": 836,
      "Ã¡rios": 837,
      "Ġ15": 838,
      "ĠÃº": 839,
      "ĠCam": 840,
      "ven": 841,
      "Ġins": 842,
      "ela": 843,
      "Ġespe": 844,
      "Ãºs": 845,
      "iu": 846,
      "Ã©s": 847,
      "bol": 848,
      "ĠjÃ¡": 849,
      "mas": 850,
      "ĠFran": 851,
      "cias": 852,
      "Ġmun": 853,
      "gum": 854,
      "ie": 855,
      "Ġcri": 856,
      "ck": 857,
      "over": 858,
      "ĠBa": 859,
      "indo": 860,
      "rior": 861,
      "Ġano": 862,
      "per": 863,
      "ph": 864,
      "ados": 865,
      "Ġprodu": 866,
      "Ġmaio": 867,
      "bu": 868,
      "Ġposs": 869,
      "Ġ9": 870,
      "Ġcidade": 871,
      "Ġba": 872,
      "eral": 873,
      "Ġsub": 874,
      "rica": 875,
      "*'": 876,
      "Âº": 877,
      "ĠEn": 878,
      "rito": 879,
      "=\"": 880,
      "ceu": 881,
      "vis": 882,
      "ĠUni": 883,
      "end": 884,
      "Ġ7": 885,
      "rom": 886,
      "ĠSu": 887,
      "ĠX": 888,
      "Ġver": 889,
      "icas": 890,
      "Ã³p": 891,
      "entes": 892,
      "Ġra": 893,
      "Ġmen": 894,
      "ĠQu": 895,
      "Ġloc": 896,
      "Ġso": 897,
      "Ġparte": 898,
      "istas": 899,
      "Ġdia": 900,
      "rada": 901,
      "ĠSan": 902,
      "ine": 903,
      "Ġ16": 904,
      "ala": 905,
      "Ġprinci": 906,
      "eito": 907,
      "Ġprimeiro": 908,
      "Ã¡s": 909,
      "Ã©dia": 910,
      "taÃ§Ã£o": 911,
      "ĠUn": 912,
      "Ġrela": 913,
      "Ġ8": 914,
      "Ġvol": 915,
      "Ġparti": 916,
      "ĠOs": 917,
      "los": 918,
      "elho": 919,
      "ĠY": 920,
      "Ġfam": 921,
      "elh": 922,
      "Ġfe": 923,
      "idades": 924,
      "mos": 925,
      "Ġ196": 926,
      "istÃ³ria": 927,
      "Ġdepois": 928,
      "âĢĵ": 929,
      "REDIRECT": 930,
      "Ġsendo": 931,
      "Ġdois": 932,
      "discussÃ£o": 933,
      "Ġsegun": 934,
      "Ġun": 935,
      "ute": 936,
      "com": 937,
      "Ġgra": 938,
      "Ġmuito": 939,
      "gua": 940,
      "Ġ10": 941,
      "Ġaos": 942,
      "The": 943,
      "10": 944,
      "gan": 945,
      "ron": 946,
      "ĠLu": 947,
      "ior": 948,
      "has": 949,
      "Ġincl": 950,
      "ÃŃvel": 951,
      "Ãªm": 952,
      "Ġsuas": 953,
      "lio": 954,
      "ismo": 955,
      "pu": 956,
      "Ãºb": 957,
      "rar": 958,
      "Ġprimeira": 959,
      "tras": 960,
      "Ġoutros": 961,
      "ves": 962,
      "Ġpesso": 963,
      "Ġainda": 964,
      "Ġ^": 965,
      "iss": 966,
      "Ã¡g": 967,
      "Ġpopul": 968,
      "imento": 969,
      "ÃŃlia": 970,
      "Ġtorn": 971,
      "Ġpartic": 972,
      "ĠThe": 973,
      "Ġro": 974,
      "gal": 975,
      "Ġtrans": 976,
      "las": 977,
      "ogo": 978,
      "ty": 979,
      "Ġconheci": 980,
      "ias": 981,
      "ale": 982,
      "Ġw": 983,
      "Ġapenas": 984,
      "ula": 985,
      "Ġdesta": 986,
      "istra": 987,
      "Ġatu": 988,
      "cer": 989,
      "Ġdurante": 990,
      "Ã©r": 991,
      "elo": 992,
      "Ġreg": 993,
      "Ġban": 994,
      "Ġpass": 995,
      "ulho": 996,
      "au": 997,
      "ĠEle": 998,
      "ĠPaulo": 999,
      "ĠNe": 1000,
      "Ġcer": 1001,
      "inas": 1002,
      "Ġche": 1003,
      "dem": 1004,
      "ĠpolÃŃ": 1005,
      "od": 1006,
      "Ġartigo": 1007,
      "dire": 1008,
      "eio": 1009,
      "emp": 1010,
      "Âł": 1011,
      "reira": 1012,
      "Ġencon": 1013,
      "Ġva": 1014,
      "olog": 1015,
      "temb": 1016,
      "Ġcome": 1017,
      "fic": 1018,
      "ĠSo": 1019,
      "cie": 1020,
      "Ġ14": 1021,
      "lu": 1022,
      "ay": 1023,
      "ĠZ": 1024,
      "este": 1025,
      "ĠBo": 1026,
      "ĠapÃ³s": 1027,
      "ios": 1028,
      "ĠMo": 1029,
      "cos": 1030,
      "Ġcham": 1031,
      "car": 1032,
      "Ġ13": 1033,
      "feren": 1034,
      "Ġ12": 1035,
      "tugu": 1036,
      "Ġdez": 1037,
      "Ġisso": 1038,
      "mp": 1039,
      "forma": 1040,
      "Ġ|": 1041,
      "199": 1042,
      "reiro": 1043,
      "ble": 1044,
      "Ġu": 1045,
      "Ġsa": 1046,
      "Ġela": 1047,
      "op": 1048,
      "Ãªncias": 1049,
      "ĠRio": 1050,
      "grafia": 1051,
      "Ġcomun": 1052,
      "itos": 1053,
      "An": 1054,
      "fer": 1055,
      "Ġven": 1056,
      "igu": 1057,
      "II": 1058,
      "vam": 1059,
      "Ġgrande": 1060,
      "uma": 1061,
      "gen": 1062,
      "Ġdist": 1063,
      "vido": 1064,
      "ĠAle": 1065,
      "gre": 1066,
      "ĠPro": 1067,
      "ĠUnivers": 1068,
      "Ġdesen": 1069,
      "Con": 1070,
      "ÃŃcio": 1071,
      "ticas": 1072,
      "tembro": 1073,
      "Ġsol": 1074,
      "son": 1075,
      "iga": 1076,
      "ĠMun": 1077,
      "tubro": 1078,
      "gosto": 1079,
      "quer": 1080,
      "Ġir": 1081,
      "itar": 1082,
      "Ġ195": 1083,
      "ĠâĢĶ": 1084,
      "Ġeste": 1085,
      "utebol": 1086,
      "ima": 1087,
      "ern": 1088,
      "eiros": 1089,
      "cas": 1090,
      "...": 1091,
      "Ġgru": 1092,
      "Ġpon": 1093,
      "12": 1094,
      "ĠlanÃ§": 1095,
      "Ġapres": 1096,
      "ĠCas": 1097,
      "rÃªs": 1098,
      "ĠAm": 1099,
      "Ġ=": 1100,
      "esa": 1101,
      "Ġne": 1102,
      "Ġrece": 1103,
      "Ġprincip": 1104,
      "Ġregi": 1105,
      "ÃŃp": 1106,
      "Ġ2012": 1107,
      "Ġvis": 1108,
      "center": 1109,
      "Al": 1110,
      "ĠLa": 1111,
      "gens": 1112,
      "ĠpaÃŃs": 1113,
      "15": 1114,
      "tamente": 1115,
      "ĠCl": 1116,
      "ÃŃt": 1117,
      "rim": 1118,
      "culo": 1119,
      "Ġcria": 1120,
      "ff": 1121,
      "Ġ2008": 1122,
      "stitu": 1123,
      "Ġgover": 1124,
      "Ġ194": 1125,
      "Ġgu": 1126,
      "17": 1127,
      "ill": 1128,
      "ĠJos": 1129,
      "Ġbras": 1130,
      "tido": 1131,
      "Ġalgum": 1132,
      "ola": 1133,
      "Ġ2006": 1134,
      "peona": 1135,
      "Ã§as": 1136,
      "ĠentÃ£o": 1137,
      "par": 1138,
      "ikip": 1139,
      "No": 1140,
      "Ġtu": 1141,
      "Ġ2009": 1142,
      "ĠBar": 1143,
      "lti": 1144,
      "vereiro": 1145,
      "Ġprof": 1146,
      "Ġconf": 1147,
      "tÃ¢n": 1148,
      "Ġtodos": 1149,
      "ministra": 1150,
      "Ã³r": 1151,
      "cre": 1152,
      "Ġ2010": 1153,
      "cesso": 1154,
      "Ġinf": 1155,
      "Ġel": 1156,
      "Ġbem": 1157,
      "ĠPe": 1158,
      "ĠCol": 1159,
      "ĠÃī": 1160,
      "Ġcap": 1161,
      "Ġrealiz": 1162,
      "ĠPar": 1163,
      "Ġ&": 1164,
      "veis": 1165,
      "rede": 1166,
      "ĠMe": 1167,
      "Ġmaior": 1168,
      "Ġ2011": 1169,
      "13": 1170,
      "pera": 1171,
      "ikipÃ©dia": 1172,
      "14": 1173,
      "dica": 1174,
      "lic": 1175,
      "ĠtrÃªs": 1176,
      "Ġla": 1177,
      "tanto": 1178,
      "Ġinclu": 1179,
      "ire": 1180,
      "16": 1181,
      "anos": 1182,
      "Ġliv": 1183,
      "Ġsido": 1184,
      "ĠTe": 1185,
      "ord": 1186,
      "Ġbrasile": 1187,
      "Ġsim": 1188,
      "Ġ193": 1189,
      "ĠsÃ³": 1190,
      "elhor": 1191,
      "Ġencontra": 1192,
      "In": 1193,
      "Ġfal": 1194,
      "ĠEx": 1195,
      "ju": 1196,
      "Ġ2013": 1197,
      "Ġduas": 1198,
      "peonato": 1199,
      "atro": 1200,
      "tiliz": 1201,
      "Com": 1202,
      "segu": 1203,
      "lb": 1204,
      "Ġconstru": 1205,
      "Ġestu": 1206,
      "Ãºm": 1207,
      "our": 1208,
      "ress": 1209,
      "Ġfic": 1210,
      "tores": 1211,
      "Ġapa": 1212,
      "oma": 1213,
      "tante": 1214,
      "Ġcen": 1215,
      "Ġfinal": 1216,
      "Ġhom": 1217,
      "ry": 1218,
      "Ġlu": 1219,
      "dida": 1220,
      "Ġpub": 1221,
      "ell": 1222,
      "Ġcin": 1223,
      "ĠPara": 1224,
      "gia": 1225,
      "antes": 1226,
      "Ġjaneiro": 1227,
      "ital": 1228,
      "As": 1229,
      "ĠSa": 1230,
      "dores": 1231,
      "fa": 1232,
      "Ar": 1233,
      "guns": 1234,
      "ĠpÃ¡g": 1235,
      "cionamento": 1236,
      "Ġaf": 1237,
      "iÃ§Ãµes": 1238,
      "Ġden": 1239,
      "Ġimpor": 1240,
      "meric": 1241,
      "Ġapresenta": 1242,
      "mi": 1243,
      "ĠmarÃ§o": 1244,
      "Ġdiv": 1245,
      "Ġpra": 1246,
      "gar": 1247,
      "Ġabril": 1248,
      "ĠGe": 1249,
      "Ġmor": 1250,
      "ĠÃłs": 1251,
      "jo": 1252,
      "adas": 1253,
      "panh": 1254,
      "ogos": 1255,
      "dido": 1256,
      "esta": 1257,
      "ĠfamÃŃlia": 1258,
      "Ġfilme": 1259,
      "ĠAp": 1260,
      "anÃ§a": 1261,
      "finiÃ§Ã£o": 1262,
      "Ã¡ria": 1263,
      "ĠJaneiro": 1264,
      "Ġvi": 1265,
      "ĠespÃ©": 1266,
      "cada": 1267,
      "isa": 1268,
      "De": 1269,
      "Ġutiliz": 1270,
      "Ġatra": 1271,
      "Ġestado": 1272,
      "000": 1273,
      "tero": 1274,
      "ental": 1275,
      "xim": 1276,
      "idente": 1277,
      "ĠmÃºs": 1278,
      "ular": 1279,
      "Ã¡rias": 1280,
      "ĠOr": 1281,
      "ĠOl": 1282,
      "ze": 1283,
      "Ġ2007": 1284,
      ".[": 1285,
      "terior": 1286,
      "tugal": 1287,
      "ĠMon": 1288,
      "Ġve": 1289,
      "Ġanti": 1290,
      "Ġconside": 1291,
      "Ġassim": 1292,
      "ĠMan": 1293,
      "ap": 1294,
      "Ġtinha": 1295,
      "cri": 1296,
      "ene": 1297,
      "Ġsetembro": 1298,
      "ice": 1299,
      "cado": 1300,
      "11": 1301,
      "ĠDu": 1302,
      "--": 1303,
      "ke": 1304,
      "ĠFe": 1305,
      "Ġantes": 1306,
      "ila": 1307,
      "Ġsi": 1308,
      "und": 1309,
      "iki": 1310,
      "Ġdezembro": 1311,
      "dado": 1312,
      "reu": 1313,
      "Ġbase": 1314,
      "Ġagosto": 1315,
      "ui": 1316,
      "terna": 1317,
      "ube": 1318,
      "Ġoutubro": 1319,
      "amb": 1320,
      "ultura": 1321,
      "Ġho": 1322,
      "ense": 1323,
      "ms": 1324,
      "ĠÃºlti": 1325,
      "Ġdesenvol": 1326,
      "mon": 1327,
      "Ġdeve": 1328,
      "Ġjulho": 1329,
      "nas": 1330,
      "Ġadministra": 1331,
      "ĠhÃ¡": 1332,
      "icial": 1333,
      "quanto": 1334,
      "Ġfevereiro": 1335,
      "ĠUnidos": 1336,
      "Ġev": 1337,
      "Ġhab": 1338,
      "ame": 1339,
      "xo": 1340,
      "Ġdiferen": 1341,
      "Ã¡vel": 1342,
      "ĠEstados": 1343,
      "inte": 1344,
      "Ġsegundo": 1345,
      "odo": 1346,
      "ĠIs": 1347,
      "mes": 1348,
      "Ġ22": 1349,
      "cn": 1350,
      "Ġ('": 1351,
      "km": 1352,
      "ĠPo": 1353,
      "Ġproje": 1354,
      "ĠprÃ³p": 1355,
      "Ġpou": 1356,
      "ĠFoi": 1357,
      "Ġestre": 1358,
      "Ġoutras": 1359,
      "Ġpelos": 1360,
      "ĠAb": 1361,
      "ĠSul": 1362,
      "rico": 1363,
      "Ġjunho": 1364,
      "Ġ11": 1365,
      "assa": 1366,
      "ĠJosÃ©": 1367,
      "Ġeu": 1368,
      "tamento": 1369,
      "all": 1370,
      "Ġcontin": 1371,
      "Ġgrupo": 1372,
      "Ġteve": 1373,
      "ĠPortugal": 1374,
      "ĠcomeÃ§": 1375,
      "ĠregiÃ£o": 1376,
      "pg": 1377,
      "ical": 1378,
      "Ġapro": 1379,
      "tando": 1380,
      "Ġge": 1381,
      "rida": 1382,
      "Ġportugu": 1383,
      "enh": 1384,
      "use": 1385,
      "].": 1386,
      "Ġ,": 1387,
      "ĠRa": 1388,
      "ĠIS": 1389,
      "Ġlocaliz": 1390,
      "Ġnovembro": 1391,
      "jpg": 1392,
      "Ġpers": 1393,
      "ĠDa": 1394,
      "Ġdeix": 1395,
      "Ġdesde": 1396,
      "tivos": 1397,
      "ĠHo": 1398,
      "âĢĿ": 1399,
      "usa": 1400,
      "Ġmon": 1401,
      "Ġder": 1402,
      "Ġ23": 1403,
      "Ġ2014": 1404,
      "Ã§os": 1405,
      "Ġ21": 1406,
      "itan": 1407,
      "Ġbo": 1408,
      "Ġartigos": 1409,
      "ĠÃ¡lb": 1410,
      "Ġexemp": 1411,
      "Ġlon": 1412,
      "tada": 1413,
      "')": 1414,
      "Ġ2015": 1415,
      "ĠtÃŃt": 1416,
      "deira": 1417,
      "rÃŃ": 1418,
      "ĠÃģ": 1419,
      "har": 1420,
      "gas": 1421,
      "lem": 1422,
      "Ã³g": 1423,
      "if": 1424,
      "198": 1425,
      "Ġestava": 1426,
      "Ġfran": 1427,
      "tÃ³rio": 1428,
      "est": 1429,
      "her": 1430,
      "ĠnÃºm": 1431,
      "ĠJoÃ£o": 1432,
      "ĠÃ¡rea": 1433,
      "itas": 1434,
      "Se": 1435,
      "direcionamento": 1436,
      "Ġalguns": 1437,
      "riz": 1438,
      "ticos": 1439,
      "ht": 1440,
      "duz": 1441,
      "Ġ2016": 1442,
      "ganiz": 1443,
      "tt": 1444,
      "ologia": 1445,
      "Ġpartir": 1446,
      "Ã³n": 1447,
      "erva": 1448,
      "cha": 1449,
      "icheiro": 1450,
      "Ġvida": 1451,
      "Ġsiste": 1452,
      "ĠsÃ©rie": 1453,
      "ĠCons": 1454,
      "Ġfazer": 1455,
      "Ġcada": 1456,
      "para": 1457,
      "ema": 1458,
      "ĠCor": 1459,
      "BN": 1460,
      "vÃ©s": 1461,
      "Ficheiro": 1462,
      "'s": 1463,
      "presenta": 1464,
      "align": 1465,
      "Ġempres": 1466,
      "ifica": 1467,
      "Os": 1468,
      "panha": 1469,
      "Ġcaso": 1470,
      "ang": 1471,
      "sos": 1472,
      "Ġocor": 1473,
      "Ġmin": 1474,
      "ĠpopulaÃ§Ã£o": 1475,
      "enti": 1476,
      "hn": 1477,
      "Ġconta": 1478,
      "Ġcate": 1479,
      "ques": 1480,
      "Ġprincipal": 1481,
      "rece": 1482,
      "Ġpessoas": 1483,
      "ilidade": 1484,
      "Ġtrabalho": 1485,
      "Ġseja": 1486,
      "ĠDes": 1487,
      "Ġvezes": 1488,
      "Âª": 1489,
      "Ġdiz": 1490,
      "Ġil": 1491,
      "ins": 1492,
      "ĠhistÃ³ria": 1493,
      "rou": 1494,
      "Ġcu": 1495,
      "tem": 1496,
      "inho": 1497,
      "Redirecionamento": 1498,
      "Ġdef": 1499,
      "ĠEuro": 1500,
      "iÃ£o": 1501,
      "ĠBe": 1502,
      "veu": 1503,
      "ys": 1504,
      "ugar": 1505,
      "ober": 1506,
      "Ġ.": 1507,
      "che": 1508,
      "Ġhavia": 1509,
      "Ġmelhor": 1510,
      "posta": 1511,
      "Ġprov": 1512,
      "mar": 1513,
      "dial": 1514,
      "ĠOu": 1515,
      "rial": 1516,
      "22": 1517,
      "ks": 1518,
      "Ġaca": 1519,
      "ordo": 1520,
      "Ġplan": 1521,
      "ĠTa": 1522,
      "cho": 1523,
      "ua": 1524,
      "onal": 1525,
      "Ġcomple": 1526,
      "socia": 1527,
      "ĠBu": 1528,
      "Car": 1529,
      "Ġequi": 1530,
      "rente": 1531,
      "Ġ25": 1532,
      "Ġtendo": 1533,
      "Ġvers": 1534,
      "30": 1535,
      "ĠUniversidade": 1536,
      ".,": 1537,
      "Ġpodem": 1538,
      "eno": 1539,
      "tral": 1540,
      "riam": 1541,
      "Ġorig": 1542,
      "Ġch": 1543,
      "Ġconsegu": 1544,
      "En": 1545,
      "adores": 1546,
      "ĠâĢľ": 1547,
      "ĠVer": 1548,
      "Ġfez": 1549,
      "Ġtor": 1550,
      "osa": 1551,
      "ity": 1552,
      "redefiniÃ§Ã£o": 1553,
      "grama": 1554,
      "rais": 1555,
      "ixo": 1556,
      "den": 1557,
      "Ġfon": 1558,
      "fo": 1559,
      "ĠISBN": 1560,
      "ĠpÃºb": 1561,
      "Ġpois": 1562,
      "cidade": 1563,
      "oso": 1564,
      "ĠdÃ©": 1565,
      "Ġmul": 1566,
      "Ġamb": 1567,
      "ecess": 1568,
      "Ġ2000": 1569,
      "Ġproble": 1570,
      "ĠNacional": 1571,
      "Ġgeral": 1572,
      "Ã¼": 1573,
      "Ġ30": 1574,
      "emb": 1575,
      "istÃ³": 1576,
      "cur": 1577,
      "ĠFor": 1578,
      "gue": 1579,
      "issÃ£o": 1580,
      "Ġesti": 1581,
      ".'": 1582,
      "ian": 1583,
      "ĠRo": 1584,
      "esse": 1585,
      "Ġresul": 1586,
      "Ġ2017": 1587,
      "tivas": 1588,
      "Ġmunic": 1589,
      "cido": 1590,
      "Ġseria": 1591,
      "poca": 1592,
      "Ġeles": 1593,
      "iblio": 1594,
      "Ġ\\": 1595,
      "Ġdivers": 1596,
      "ivo": 1597,
      "lico": 1598,
      "gl": 1599,
      "Ġoutro": 1600,
      "ĠII": 1601,
      "boa": 1602,
      "dou": 1603,
      "Ġequ": 1604,
      "Ġcur": 1605,
      "icia": 1606,
      "ĠperÃŃ": 1607,
      "ft": 1608,
      "rÃ©": 1609,
      "Ġenquanto": 1610,
      "Ġparticip": 1611,
      "ĠÃ¡lbum": 1612,
      "cimento": 1613,
      "ĠnÃºmero": 1614,
      "Ġlugar": 1615,
      "cen": 1616,
      "ĠMaria": 1617,
      "ack": 1618,
      "ĠalÃ©m": 1619,
      "Ġfunda": 1620,
      "ĠAss": 1621,
      "bel": 1622,
      "mentos": 1623,
      "Ġlev": 1624,
      "ĠTh": 1625,
      "Ġexp": 1626,
      "Ġfilho": 1627,
      "ll": 1628,
      "ĠFil": 1629,
      "Ġop": 1630,
      "Ġfre": 1631,
      "21": 1632,
      "Ġauto": 1633,
      "tom": 1634,
      "ixa": 1635,
      "|-": 1636,
      "tribu": 1637,
      "deu": 1638,
      "25": 1639,
      "pi": 1640,
      "Ġtro": 1641,
      "Ġtex": 1642,
      "ĠÃ©poca": 1643,
      "Ġ:": 1644,
      "Ġpublica": 1645,
      "Ġjogo": 1646,
      "isboa": 1647,
      "Ġnovo": 1648,
      "ĠestÃ£o": 1649,
      "ĠvÃ¡rios": 1650,
      "ĠsÃ©culo": 1651,
      "ĠAnd": 1652,
      "):": 1653,
      "ÃŃdo": 1654,
      "Ġexemplo": 1655,
      "osta": 1656,
      "Ġ2005": 1657,
      "ĠÃºn": 1658,
      "vista": 1659,
      "pec": 1660,
      "aro": 1661,
      "Ġam": 1662,
      "Ġag": 1663,
      "oca": 1664,
      "ond": 1665,
      "Ġqualquer": 1666,
      "ly": 1667,
      "ĠmÃ©": 1668,
      "Ã¢m": 1669,
      "ÃŃpio": 1670,
      "pro": 1671,
      "Ġ24": 1672,
      "Ġcheg": 1673,
      "Ġnorte": 1674,
      "ĠFa": 1675,
      "ogra": 1676,
      "Ġdias": 1677,
      "Ġlocal": 1678,
      "Ġnecess": 1679,
      "ka": 1680,
      "hou": 1681,
      "Ġval": 1682,
      "Ġrepresenta": 1683,
      "Ġvoc": 1684,
      "ĠtÃŃtulo": 1685,
      "\"|": 1686,
      "unda": 1687,
      "ĠespÃ©cie": 1688,
      "ĠGrande": 1689,
      "unto": 1690,
      "Ã©rica": 1691,
      "24": 1692,
      "Ġeram": 1693,
      "Ġnum": 1694,
      "bora": 1695,
      "Ġrom": 1696,
      "Ġmenos": 1697,
      "197": 1698,
      "pend": 1699,
      "ĠMas": 1700,
      "Ġgoverno": 1701,
      "Ġirm": 1702,
      "Ġtornou": 1703,
      "pel": 1704,
      "Ã¡tica": 1705,
      "cid": 1706,
      "Ġacordo": 1707,
      "Ġrecebe": 1708,
      "ornal": 1709,
      "lig": 1710,
      "tyle": 1711,
      "ciais": 1712,
      "cel": 1713,
      "ĠatravÃ©s": 1714,
      "Ġequipe": 1715,
      "Ġalign": 1716,
      "bra": 1717,
      "Ġpequ": 1718,
      "Jo": 1719,
      "rido": 1720,
      "sas": 1721,
      "Ġmundo": 1722,
      "Na": 1723,
      "ĠPr": 1724,
      "ĠmÃºsica": 1725,
      "Ġorganiz": 1726,
      "Ġservi": 1727,
      "Ġpoder": 1728,
      "Ġusu": 1729,
      "Ġori": 1730,
      "Ġgan": 1731,
      "ĠLista": 1732,
      "ĠGo": 1733,
      "visÃ£o": 1734,
      "ise": 1735,
      "Ġata": 1736,
      "Ġmos": 1737,
      "Ġquatro": 1738,
      "Ġsistema": 1739,
      "ime": 1740,
      "peti": 1741,
      "ĠCal": 1742,
      "ĠSanta": 1743,
      "ĠNova": 1744,
      "Ġnova": 1745,
      "Ġet": 1746,
      "ng": 1747,
      "ĠperÃŃodo": 1748,
      "Ġconhecido": 1749,
      "ĠSil": 1750,
      "oss": 1751,
      "Ġaju": 1752,
      "diÃ§Ã£o": 1753,
      "Ġaqui": 1754,
      "Ġastero": 1755,
      "eiras": 1756,
      "Ġgol": 1757,
      "Ġbom": 1758,
      "esso": 1759,
      "color": 1760,
      "dar": 1761,
      "Ġapo": 1762,
      "zo": 1763,
      "ĠEstado": 1764,
      "esar": 1765,
      "dic": 1766,
      "ĠLisboa": 1767,
      "Ã©cn": 1768,
      "ides": 1769,
      "Ġtal": 1770,
      "ora": 1771,
      "Ca": 1772,
      "duÃ§Ã£o": 1773,
      "Ġhum": 1774,
      "Ġlado": 1775,
      "ĠinÃŃcio": 1776,
      "ws": 1777,
      "Ġquem": 1778,
      "arac": 1779,
      "land": 1780,
      "23": 1781,
      "ong": 1782,
      "Ġprop": 1783,
      "Ġpassa": 1784,
      "ĠPol": 1785,
      "uÃ§Ã£o": 1786,
      "Ch": 1787,
      "vers": 1788,
      "ĠEl": 1789,
      "Ġmorte": 1790,
      "ĠNÃ£o": 1791,
      "Ġescre": 1792,
      "cito": 1793,
      "ĠSal": 1794,
      "dios": 1795,
      "Ġtar": 1796,
      "ruz": 1797,
      "fÃŃ": 1798,
      "ura": 1799,
      "inaÃ§Ã£o": 1800,
      "ĠCen": 1801,
      "Ġbas": 1802,
      "PredefiniÃ§Ã£o": 1803,
      "quis": 1804,
      "rando": 1805,
      "Ġclass": 1806,
      "tÃŃ": 1807,
      "Ġinforma": 1808,
      "Ġ26": 1809,
      "ea": 1810,
      "wa": 1811,
      "pis": 1812,
      "Ġescol": 1813,
      "Ġcompos": 1814,
      "iel": 1815,
      "Ġsab": 1816,
      "Ġtodo": 1817,
      "Ġima": 1818,
      "Ġlin": 1819,
      "Ġproduz": 1820,
      "Ġrespon": 1821,
      "Ã£os": 1822,
      "50": 1823,
      "Ġprograma": 1824,
      "Ġsig": 1825,
      "dal": 1826,
      "}}": 1827,
      "ĠCan": 1828,
      "Cam": 1829,
      "Â²": 1830,
      "Ġ27": 1831,
      "Ġdom": 1832,
      "Ġ28": 1833,
      "ĠBrasile": 1834,
      "ndo": 1835,
      "ĠLo": 1836,
      "ĠediÃ§Ã£o": 1837,
      "Ġsitu": 1838,
      "ĠpÃ¡gina": 1839,
      "ĠEsta": 1840,
      "Ġporque": 1841,
      "ĠJa": 1842,
      "ardo": 1843,
      "Ma": 1844,
      "Ġessa": 1845,
      "tis": 1846,
      "eita": 1847,
      "pol": 1848,
      "Ġtodas": 1849,
      "ÃŃa": 1850,
      "Ġimp": 1851,
      "Ġfin": 1852,
      "ĠGuerra": 1853,
      "Ġ2004": 1854,
      "ĠCarlos": 1855,
      "ĠNov": 1856,
      "ilo": 1857,
      "Ġdispu": 1858,
      "ĠTo": 1859,
      "orge": 1860,
      "one": 1861,
      "isto": 1862,
      "ĠTra": 1863,
      "ames": 1864,
      "vado": 1865,
      "27": 1866,
      "tel": 1867,
      "Ġmeio": 1868,
      "ÃŃmp": 1869,
      "Ġescri": 1870,
      "Ġnor": 1871,
      "26": 1872,
      "Ġelim": 1873,
      "Ġbar": 1874,
      "Ġju": 1875,
      "ĠIm": 1876,
      "Ġesse": 1877,
      "Ġer": 1878,
      "ĠvÃ¡rias": 1879,
      "turas": 1880,
      "imo": 1881,
      "ama": 1882,
      "Ġfim": 1883,
      "ĠWikipÃ©dia": 1884,
      "rÃ£o": 1885,
      "ex": 1886,
      "ley": 1887,
      "ĠJun": 1888,
      "isÃ£o": 1889,
      "Ã¢ncia": 1890,
      "cil": 1891,
      "enho": 1892,
      "Ġjog": 1893,
      "Des": 1894,
      "tino": 1895,
      "28": 1896,
      "tÃ¡rio": 1897,
      "vida": 1898,
      "Ġcapa": 1899,
      "Ġbrasileiro": 1900,
      "ĠFo": 1901,
      "Ġdevido": 1902,
      "Ġdesco": 1903,
      "itÃ³ria": 1904,
      "ÃŃda": 1905,
      "ĠCampeonato": 1906,
      "emin": 1907,
      "Ġi": 1908,
      "Ġci": 1909,
      "ĠInterna": 1910,
      "Ġsal": 1911,
      "Ġide": 1912,
      "greja": 1913,
      "ĠWil": 1914,
      "Ġcontro": 1915,
      "Ġprojeto": 1916,
      "Ġtemporada": 1917,
      "Ġentanto": 1918,
      "Ġperten": 1919,
      "Ġestra": 1920,
      "ĠMin": 1921,
      "ki": 1922,
      "Ġvia": 1923,
      "hÃµes": 1924,
      "Ġcerca": 1925,
      "Ġquais": 1926,
      "Ġrecon": 1927,
      "Ġfutebol": 1928,
      "Ġpassou": 1929,
      "Ġ--": 1930,
      "Ġalgumas": 1931,
      "Ġvolta": 1932,
      "Ġtermin": 1933,
      "Ġmesma": 1934,
      "tina": 1935,
      "tir": 1936,
      "Ġtan": 1937,
      "ĠJu": 1938,
      "Ġmuitos": 1939,
      "iros": 1940,
      "Ġespa": 1941,
      "Ġprecis": 1942,
      "omo": 1943,
      "cisco": 1944,
      "Ġseguinte": 1945,
      "ĠAd": 1946,
      "Ġuso": 1947,
      "Ġobje": 1948,
      "Ġ190": 1949,
      "vimento": 1950,
      "Ġtotal": 1951,
      "ĠPer": 1952,
      "Ġtre": 1953,
      "gio": 1954,
      "Ġbanda": 1955,
      "Ġtarde": 1956,
      "Ġart": 1957,
      "29": 1958,
      "dito": 1959,
      "Ġgran": 1960,
      "vid": 1961,
      "Ġentra": 1962,
      "bi": 1963,
      "erro": 1964,
      "Ġpersona": 1965,
      "Ġsempre": 1966,
      "Ġsegunda": 1967,
      "ger": 1968,
      "aran": 1969,
      "cies": 1970,
      "ĠcomeÃ§ou": 1971,
      "ith": 1972,
      "Ã©rcito": 1973,
      "ĠCopa": 1974,
      "vil": 1975,
      "Ġpresidente": 1976,
      "Ġpai": 1977,
      "Ġr": 1978,
      "ipa": 1979,
      "lin": 1980,
      "anta": 1981,
      "Ġpouco": 1982,
      "Ġat": 1983,
      "pas": 1984,
      "Ġ29": 1985,
      "ĠAmÃ©rica": 1986,
      "Ġsur": 1987,
      "tia": 1988,
      "Ãªmio": 1989,
      "196": 1990,
      "Ġcasa": 1991,
      "vio": 1992,
      "tam": 1993,
      "ick": 1994,
      "ance": 1995,
      "ĠHa": 1996,
      "Ġsigni": 1997,
      "triz": 1998,
      "ĠVol": 1999,
      "Co": 2000,
      "Ġtele": 2001,
      "Ġtri": 2002,
      "Ġcarreira": 2003,
      "ĠpolÃŃtica": 2004,
      "ons": 2005,
      "enso": 2006,
      "talha": 2007,
      "px": 2008,
      "vor": 2009,
      "Ġexpe": 2010,
      "Ġoutra": 2011,
      "Ġnuma": 2012,
      "Ġconte": 2013,
      "gora": 2014,
      "ĠNor": 2015,
      "ual": 2016,
      "estÃ£o": 2017,
      "fico": 2018,
      "Ġlib": 2019,
      "Ġblo": 2020,
      "ĠPed": 2021,
      "Ġru": 2022,
      "cesa": 2023,
      "itantes": 2024,
      "Ġsom": 2025,
      "Ġcontinu": 2026,
      "ĠPorto": 2027,
      "usÃ£o": 2028,
      "sia": 2029,
      "ume": 2030,
      "Ġtipo": 2031,
      "ranÃ§a": 2032,
      "Ġameric": 2033,
      "cios": 2034,
      "ĠFede": 2035,
      "wn": 2036,
      "Ġmelho": 2037,
      "Ãºblica": 2038,
      "tria": 2039,
      "vas": 2040,
      "Ġexter": 2041,
      "ĠFranÃ§a": 2042,
      "ĠUm": 2043,
      "tus": 2044,
      "aÃ§Ãµes": 2045,
      "ses": 2046,
      "Ġterc": 2047,
      "ae": 2048,
      "78": 2049,
      "berto": 2050,
      "inado": 2051,
      "eb": 2052,
      "ĠRep": 2053,
      "ok": 2054,
      "ÃŃde": 2055,
      "Ã¡l": 2056,
      "igaÃ§Ãµes": 2057,
      "Ġnenh": 2058,
      "Ġid": 2059,
      "ork": 2060,
      "msg": 2061,
      "HistÃ³ria": 2062,
      "ĠBer": 2063,
      "gues": 2064,
      "Ġ||": 2065,
      "ting": 2066,
      "ĠcrÃŃ": 2067,
      "Ġmov": 2068,
      "ĠNew": 2069,
      "Ġaqu": 2070,
      "Ġespeci": 2071,
      "ĠversÃ£o": 2072,
      "duca": 2073,
      "cou": 2074,
      "Ġcategoria": 2075,
      "pais": 2076,
      "ĠprÃ³": 2077,
      "ĠproduÃ§Ã£o": 2078,
      "ler": 2079,
      "ĠMil": 2080,
      "Ġ189": 2081,
      "len": 2082,
      "Ġobra": 2083,
      "ĠmunicÃŃpio": 2084,
      "Ġobs": 2085,
      "gon": 2086,
      "ĠdÃ©cada": 2087,
      "uel": 2088,
      "Ap": 2089,
      "Pro": 2090,
      "Ġdisso": 2091,
      "ĠJohn": 2092,
      "Ã´m": 2093,
      "gaÃ§Ã£o": 2094,
      "ĠEd": 2095,
      "cess": 2096,
      "entar": 2097,
      "Ġrei": 2098,
      "ĠBra": 2099,
      "Ġjo": 2100,
      "cionais": 2101,
      "Ġmus": 2102,
      "Ġgen": 2103,
      "una": 2104,
      "ĠhistÃ³": 2105,
      "Ġlivro": 2106,
      "Ġafir": 2107,
      "gador": 2108,
      "vem": 2109,
      "dir": 2110,
      "Ġacon": 2111,
      "enda": 2112,
      "ĠMundial": 2113,
      "bur": 2114,
      "Ġcal": 2115,
      "33": 2116,
      "trou": 2117,
      "ung": 2118,
      "Ġsul": 2119,
      "rir": 2120,
      "*[": 2121,
      "Ġclube": 2122,
      "fei": 2123,
      "40": 2124,
      "gundo": 2125,
      "enÃ§a": 2126,
      "Ġ2001": 2127,
      "mou": 2128,
      "ĠrelaÃ§Ã£o": 2129,
      "ture": 2130,
      "ĠgÃªn": 2131,
      "ĠGa": 2132,
      "Ġaum": 2133,
      "Ġ/": 2134,
      "Ġalem": 2135,
      "olÃ³g": 2136,
      "ct": 2137,
      "depend": 2138,
      "rid": 2139,
      "Ġrecebeu": 2140,
      "ustra": 2141,
      "],": 2142,
      "tantes": 2143,
      "Ġinterna": 2144,
      "ĠPaul": 2145,
      "Ġtom": 2146,
      "tida": 2147,
      "ĠHen": 2148,
      "quia": 2149,
      "ld": 2150,
      "Ã¶": 2151,
      "ĠDire": 2152,
      "tur": 2153,
      "rina": 2154,
      "ĠHar": 2155,
      "ted": 2156,
      "ans": 2157,
      "Ãī": 2158,
      "Por": 2159,
      "cÃŃ": 2160,
      "Ġexiste": 2161,
      "ive": 2162,
      "Ġfu": 2163,
      "entou": 2164,
      "ĠMÃ©": 2165,
      "ĠFern": 2166,
      "Ġperman": 2167,
      "Ġnem": 2168,
      "ĠSch": 2169,
      "Ġindi": 2170,
      "ĠJogos": 2171,
      "Ġsimp": 2172,
      "amp": 2173,
      "posiÃ§Ã£o": 2174,
      "ĠHe": 2175,
      "bar": 2176,
      "ĠFlo": 2177,
      "Ġprocesso": 2178,
      "ĠAt": 2179,
      "Ġmode": 2180,
      "ward": 2181,
      "Ġsignifica": 2182,
      "feito": 2183,
      "Ã©rio": 2184,
      "ner": 2185,
      "Ã´nio": 2186,
      "Ġativ": 2187,
      "guÃ©m": 2188,
      "ĠAng": 2189,
      "teriormente": 2190,
      "ole": 2191,
      "Ġ\"'": 2192,
      "Ġlim": 2193,
      "ferÃªncia": 2194,
      "anÃ§as": 2195,
      "gado": 2196,
      "Ġguerra": 2197,
      "Ġdestaque": 2198,
      "Ġz": 2199,
      "Ġnacional": 2200,
      "Ġmuitas": 2201,
      "americ": 2202,
      "ut": 2203,
      "ulos": 2204,
      "tual": 2205,
      "pen": 2206,
      "rer": 2207,
      "ografia": 2208,
      "tenÃ§Ã£o": 2209,
      "tural": 2210,
      "ĠAlex": 2211,
      "ĠInstitu": 2212,
      "ĠtÃ©cn": 2213,
      "Ã´nia": 2214,
      "Ġponto": 2215,
      "Ġren": 2216,
      ".\"": 2217,
      "Ġ2003": 2218,
      "iografia": 2219,
      "Ġderro": 2220,
      "eles": 2221,
      "Ġcarac": 2222,
      "Ġobras": 2223,
      "ĠSer": 2224,
      "ridade": 2225,
      "nia": 2226,
      "ĠVi": 2227,
      "Ġ1999": 2228,
      "Ġpad": 2229,
      "Ġcir": 2230,
      "':": 2231,
      "ĠPal": 2232,
      "ĠFrancisco": 2233,
      "iano": 2234,
      "ĠSte": 2235,
      "Ġdados": 2236,
      "Ġmaioria": 2237,
      "Ġfra": 2238,
      "porte": 2239,
      "termin": 2240,
      "pisÃ³": 2241,
      "Ġdefin": 2242,
      "ĠlanÃ§ado": 2243,
      "Ġtur": 2244,
      "ĠDo": 2245,
      "Ġlig": 2246,
      "Ġenvol": 2247,
      "manha": 2248,
      "Ġlista": 2249,
      "ritÃ¢n": 2250,
      "ĠFutebol": 2251,
      "peÃ£o": 2252,
      "asse": 2253,
      "ĠportuguÃªs": 2254,
      "Ġgrandes": 2255,
      "cida": 2256,
      "Ġaconte": 2257,
      "cto": 2258,
      "Ã©l": 2259,
      "Ġhabitantes": 2260,
      "cola": 2261,
      "ĠvocÃª": 2262,
      "Ġmostra": 2263,
      "Ġempresa": 2264,
      "Foi": 2265,
      "gcolor": 2266,
      "Ġcompeti": 2267,
      "Ġx": 2268,
      "gro": 2269,
      "Ġconj": 2270,
      "don": 2271,
      "aa": 2272,
      "entaÃ§Ã£o": 2273,
      "ĠNorte": 2274,
      "diu": 2275,
      "Ġcinco": 2276,
      "ĠÃ¡gua": 2277,
      "icion": 2278,
      "Ġjornal": 2279,
      "Ġesp": 2280,
      "heiro": 2281,
      "Ġcole": 2282,
      "ya": 2283,
      "Ġinici": 2284,
      "Ġdel": 2285,
      "ĠIgreja": 2286,
      "Ġstyle": 2287,
      "glÃªs": 2288,
      "Ġpelas": 2289,
      "Ġficou": 2290,
      "ission": 2291,
      "bre": 2292,
      "Ġinterpre": 2293,
      "Ġlongo": 2294,
      "port": 2295,
      "Ġchamado": 2296,
      "Ġsubstitu": 2297,
      "cum": 2298,
      "iar": 2299,
      "Ġprote": 2300,
      "ĠdiscussÃ£o": 2301,
      "Ġ188": 2302,
      "Biblio": 2303,
      "essor": 2304,
      ");": 2305,
      "ĠBel": 2306,
      "van": 2307,
      "tivamente": 2308,
      "Ġtoda": 2309,
      "omes": 2310,
      "WikipÃ©dia": 2311,
      "Ex": 2312,
      "Ġcultura": 2313,
      "Ġ1998": 2314,
      "Ġincluindo": 2315,
      "Ġcomunidade": 2316,
      "Ġpossui": 2317,
      "Ġdeci": 2318,
      "Ġig": 2319,
      "rique": 2320,
      "usto": 2321,
      "Ġdisse": 2322,
      "Ġreal": 2323,
      "Ġcomb": 2324,
      "47": 2325,
      "Ġecon": 2326,
      "Ġaber": 2327,
      "fici": 2328,
      "Ġ#": 2329,
      "Ġsen": 2330,
      "Ġpp": 2331,
      "Ġce": 2332,
      ")#": 2333,
      "fon": 2334,
      "39": 2335,
      "Ġsucesso": 2336,
      "ĠposiÃ§Ã£o": 2337,
      "Ġsin": 2338,
      "amentos": 2339,
      "ĠVal": 2340,
      "orld": 2341,
      "Ġfeito": 2342,
      ":'": 2343,
      "ĠHol": 2344,
      "37": 2345,
      "ory": 2346,
      "Ġ2002": 2347,
      "tim": 2348,
      "Ġeleito": 2349,
      "ĠGra": 2350,
      "nos": 2351,
      "Ġpapel": 2352,
      "Ġoficial": 2353,
      "55": 2354,
      "usti": 2355,
      "Ġpin": 2356,
      "Ġtes": 2357,
      "han": 2358,
      "ĠBan": 2359,
      "Ġanim": 2360,
      "can": 2361,
      "ĠPedro": 2362,
      "osse": 2363,
      "ĠRec": 2364,
      "ĠÂ": 2365,
      "ĠComo": 2366,
      "var": 2367,
      "Ġparticipa": 2368,
      "lam": 2369,
      "iras": 2370,
      "Ġimportante": 2371,
      "ambÃ©m": 2372,
      "istro": 2373,
      "Ġpontos": 2374,
      "Ġexternas": 2375,
      "Ġjogos": 2376,
      "cima": 2377,
      "ÃŃti": 2378,
      "ĠDis": 2379,
      "eros": 2380,
      "ĠUma": 2381,
      "dual": 2382,
      "tÃ³n": 2383,
      "Ġquar": 2384,
      "ps": 2385,
      "pedia": 2386,
      "Ġind": 2387,
      "telo": 2388,
      "iva": 2389,
      "Ġfavor": 2390,
      "ĠCris": 2391,
      "Ġcorpo": 2392,
      "Ġinflu": 2393,
      "Ġasteroides": 2394,
      "vesti": 2395,
      "Ġdiferentes": 2396,
      "Ba": 2397,
      "ĠJe": 2398,
      "quista": 2399,
      "tions": 2400,
      "49": 2401,
      "Fil": 2402,
      "ĠconstruÃ§Ã£o": 2403,
      "Ġrefe": 2404,
      "ĠAca": 2405,
      "Ġquase": 2406,
      "::::": 2407,
      "45": 2408,
      "LigaÃ§Ãµes": 2409,
      "alav": 2410,
      "ĠPh": 2411,
      "Ġlinha": 2412,
      "Pa": 2413,
      "cal": 2414,
      "eta": 2415,
      "Ġestab": 2416,
      "Ġfontes": 2417,
      "Ġocu": 2418,
      "tional": 2419,
      "36": 2420,
      "idos": 2421,
      "ĠMu": 2422,
      "istÃªncia": 2423,
      "uns": 2424,
      "ĠcanÃ§Ã£o": 2425,
      "Ġpla": 2426,
      "ĠPres": 2427,
      "Ġfora": 2428,
      "ĠFre": 2429,
      "Ġdecl": 2430,
      "Ġdentro": 2431,
      "trutura": 2432,
      "ĠprÃ³prio": 2433,
      "culos": 2434,
      "Esta": 2435,
      "Ġmom": 2436,
      "ĠLond": 2437,
      "ĠgÃªnero": 2438,
      "ÃŃveis": 2439,
      "Ã¡veis": 2440,
      "09": 2441,
      "amos": 2442,
      "ĠmilhÃµes": 2443,
      "dy": 2444,
      "vada": 2445,
      "jec": 2446,
      "ĠepisÃ³": 2447,
      "Ġmemb": 2448,
      "'\"": 2449,
      "unca": 2450,
      "ini": 2451,
      "ĠAu": 2452,
      "Ġfrequ": 2453,
      "Ġdetermin": 2454,
      "ÃŃnio": 2455,
      "ĠEu": 2456,
      "Ġcandida": 2457,
      "quite": 2458,
      "rados": 2459,
      "ight": 2460,
      "ĠEla": 2461,
      "ĠtÃªm": 2462,
      "reas": 2463,
      "Ġado": 2464,
      "Ġhoje": 2465,
      "Ġtexto": 2466,
      "ferÃªncias": 2467,
      "Ġfilha": 2468,
      "Ġconstitu": 2469,
      "Ġprincipais": 2470,
      "ĠinglÃªs": 2471,
      "order": 2472,
      "ĠPre": 2473,
      "ĠpaÃŃses": 2474,
      "Ġol": 2475,
      "Ġapare": 2476,
      "Ġagora": 2477,
      "rigi": 2478,
      "Ã¢nia": 2479,
      "ĠpÃºblico": 2480,
      "iver": 2481,
      "ÃŃncia": 2482,
      "ĠmÃ¡": 2483,
      "ĠpossÃŃvel": 2484,
      "fil": 2485,
      "ĠParis": 2486,
      "Ġacab": 2487,
      "ĠSilva": 2488,
      "ÃŃmpicos": 2489,
      "Ġkm": 2490,
      "Ġtanto": 2491,
      "Ġverdade": 2492,
      "Ġsuper": 2493,
      "ĠEuropa": 2494,
      "Ġfica": 2495,
      "Ġlogo": 2496,
      "tualmente": 2497,
      "Ġsimples": 2498,
      "ĠRober": 2499,
      "Ġvai": 2500,
      "Ġsupe": 2501,
      "Ġref": 2502,
      "ĠCap": 2503,
      "08": 2504,
      "ĠEste": 2505,
      "ĠDan": 2506,
      "ÃŃstica": 2507,
      "ĠRepÃºblica": 2508,
      "ĠvotaÃ§Ã£o": 2509,
      "entemente": 2510,
      "ĠAlemanha": 2511,
      "ecu": 2512,
      "pl": 2513,
      "cra": 2514,
      "Ġdistrito": 2515,
      "Ã¤": 2516,
      "riu": 2517,
      "Cas": 2518,
      "Ġretor": 2519,
      "....": 2520,
      "38": 2521,
      "isten": 2522,
      "Ġcres": 2523,
      "ĠNos": 2524,
      "ĠlÃ¡": 2525,
      "Ġquad": 2526,
      "su": 2527,
      "ĠApÃ³s": 2528,
      "Ġdeu": 2529,
      "01": 2530,
      "__": 2531,
      "Bibliografia": 2532,
      "ĠLei": 2533,
      "vaÃ§Ã£o": 2534,
      "Ġclassifica": 2535,
      "ĠRom": 2536,
      "gis": 2537,
      "Ġinicia": 2538,
      "riedade": 2539,
      "ĠTer": 2540,
      "ĠporÃ©m": 2541,
      "ĠSh": 2542,
      "ĠSua": 2543,
      "Ġsus": 2544,
      "Ã£e": 2545,
      "ĠrÃ¡": 2546,
      "Ġjunto": 2547,
      "Ġperm": 2548,
      "cle": 2549,
      "Ġjov": 2550,
      "Ġdesenvolvimento": 2551,
      "ced": 2552,
      "Ġpossu": 2553,
      "ceae": 2554,
      "ores": 2555,
      "46": 2556,
      "06": 2557,
      "Ġform": 2558,
      "ĠSta": 2559,
      "AR": 2560,
      "ivil": 2561,
      "itor": 2562,
      "35": 2563,
      "Ġequip": 2564,
      "eleÃ§Ã£o": 2565,
      "ER": 2566,
      "Ġalgo": 2567,
      "rit": 2568,
      "Ġsof": 2569,
      "ĠnÃŃvel": 2570,
      "ĠDom": 2571,
      "ot": 2572,
      "cy": 2573,
      "Ġvon": 2574,
      "ĠRes": 2575,
      "Ġoriginal": 2576,
      "ĠHer": 2577,
      "Ġlhe": 2578,
      "Ġnada": 2579,
      "reg": 2580,
      "Ġtudo": 2581,
      "Ã¢mara": 2582,
      "tera": 2583,
      "ribu": 2584,
      "ier": 2585,
      "Ġindica": 2586,
      "ĠPra": 2587,
      "Ġembora": 2588,
      "ipal": 2589,
      "yn": 2590,
      "Ġmer": 2591,
      "Ġanun": 2592,
      "ciedade": 2593,
      ":!": 2594,
      "zes": 2595,
      "Ġcapital": 2596,
      "adamente": 2597,
      "partamento": 2598,
      "Ġtenta": 2599,
      "Ġcomer": 2600,
      "ĠMen": 2601,
      "Ġpalav": 2602,
      "ĠEntre": 2603,
      "Ġargum": 2604,
      "porto": 2605,
      "ĠChar": 2606,
      "Ġidade": 2607,
      "onais": 2608,
      "ĠBro": 2609,
      "ĠIl": 2610,
      "ĠÃºltimo": 2611,
      "Ġconc": 2612,
      "Ġy": 2613,
      "Ġprincipalmente": 2614,
      "48": 2615,
      "58": 2616,
      "Ima": 2617,
      "eses": 2618,
      "ĠPortugu": 2619,
      "Ġdecis": 2620,
      "Ã£es": 2621,
      "001": 2622,
      "ish": 2623,
      "Ge": 2624,
      "ĠYork": 2625,
      "Ġ2018": 2626,
      "ficaÃ§Ã£o": 2627,
      "ĠInternacional": 2628,
      "essa": 2629,
      "Ġprimeiros": 2630,
      "org": 2631,
      "\"'": 2632,
      "Ġrelig": 2633,
      "Ġmeses": 2634,
      "Ġprova": 2635,
      "La": 2636,
      "Ġcaus": 2637,
      "ĠBen": 2638,
      "didos": 2639,
      "hÃ£o": 2640,
      "Ġconcor": 2641,
      "redi": 2642,
      "inar": 2643,
      "ĠpÃ¡ginas": 2644,
      "ÃŃsticas": 2645,
      "ds": 2646,
      "Ġdeste": 2647,
      "Ã¨": 2648,
      "Ġmembros": 2649,
      "Ġpertencente": 2650,
      "riores": 2651,
      "sociaÃ§Ã£o": 2652,
      "iam": 2653,
      "Ġterri": 2654,
      "Ġespecial": 2655,
      "05": 2656,
      "inais": 2657,
      "cÃªs": 2658,
      "Ġinstitu": 2659,
      "izaÃ§Ã£o": 2660,
      "Ġcorre": 2661,
      "Ġfilhos": 2662,
      "Ġatual": 2663,
      "diÃ§Ãµes": 2664,
      "Ġ186": 2665,
      "Ġalc": 2666,
      "Ġquanto": 2667,
      "Gu": 2668,
      "Ġpal": 2669,
      "ĠChris": 2670,
      "Ġhe": 2671,
      "Ġcampo": 2672,
      "jam": 2673,
      "Ġfato": 2674,
      "Ġ100": 2675,
      "lau": 2676,
      "Ġdireito": 2677,
      "Le": 2678,
      "Ġnovamente": 2679,
      "ono": 2680,
      "Ġ1996": 2681,
      "pla": 2682,
      "tÃ¡rios": 2683,
      "Ġdata": 2684,
      "ĠTV": 2685,
      "ĠWorld": 2686,
      "ĠCha": 2687,
      "estiv": 2688,
      "ĠXV": 2689,
      "07": 2690,
      "Ġamp": 2691,
      "Ġ31": 2692,
      "rista": 2693,
      "ĠAlÃ©m": 2694,
      "Ġvotos": 2695,
      "net": 2696,
      "Ġidenti": 2697,
      "omia": 2698,
      "ĠPla": 2699,
      "ducaÃ§Ã£o": 2700,
      "entÃŃ": 2701,
      "Ġcontribu": 2702,
      "56": 2703,
      "at": 2704,
      "tÃ©m": 2705,
      "Ġproblema": 2706,
      "Ġ1997": 2707,
      "ker": 2708,
      "Ġproblemas": 2709,
      "Ġcargo": 2710,
      "Ġmilitar": 2711,
      "Ġcul": 2712,
      "ĠpolÃŃtico": 2713,
      "Ġestabele": 2714,
      "ue": 2715,
      "alizaÃ§Ã£o": 2716,
      "mais": 2717,
      "cem": 2718,
      "Ġmud": 2719,
      "phy": 2720,
      "illa": 2721,
      "sol": 2722,
      "Ġpl": 2723,
      "Ġbair": 2724,
      "bilidade": 2725,
      "Ġconhecida": 2726,
      "Ġdele": 2727,
      "ES": 2728,
      "tendo": 2729,
      "Ġnunca": 2730,
      "Ġigre": 2731,
      "anda": 2732,
      "xa": 2733,
      "Ġcoloc": 2734,
      "Ġorigem": 2735,
      "iclo": 2736,
      "tens": 2737,
      "veram": 2738,
      "ĠSanto": 2739,
      "ĠIng": 2740,
      "ĠReino": 2741,
      "57": 2742,
      "Ġimpe": 2743,
      "ximo": 2744,
      "xe": 2745,
      "Ġluta": 2746,
      "Ġk": 2747,
      "ĠMc": 2748,
      "ĠFederal": 2749,
      "ĠserÃ¡": 2750,
      "ĠInstituto": 2751,
      "pira": 2752,
      "ĠlÃŃn": 2753,
      "ĠPress": 2754,
      "ÃŃb": 2755,
      "Ġresol": 2756,
      "ares": 2757,
      "idas": 2758,
      "hado": 2759,
      "Ã©tica": 2760,
      "Ġacima": 2761,
      "Ġcolo": 2762,
      "ther": 2763,
      "ere": 2764,
      "ĠEspanha": 2765,
      "Biografia": 2766,
      "dico": 2767,
      "Ã¡ss": 2768,
      "gn": 2769,
      "Ġdesa": 2770,
      "ney": 2771,
      "elas": 2772,
      "Ġproposta": 2773,
      "estival": 2774,
      "ĠSeu": 2775,
      "dades": 2776,
      "Ġja": 2777,
      "ĠWal": 2778,
      "posa": 2779,
      "Ġfase": 2780,
      "vos": 2781,
      "ĠCi": 2782,
      "intes": 2783,
      "clu": 2784,
      "Ġav": 2785,
      ")'": 2786,
      "Ġindepend": 2787,
      "Ele": 2788,
      "31": 2789,
      "ĠIII": 2790,
      "Ã©n": 2791,
      "Ġilha": 2792,
      "Ġ187": 2793,
      "nador": 2794,
      "cep": 2795,
      "Ġens": 2796,
      "ment": 2797,
      "Ġreti": 2798,
      "Ġenc": 2799,
      "ava": 2800,
      "Ġcomum": 2801,
      "ĠcriaÃ§Ã£o": 2802,
      "Ġaproxim": 2803,
      "59": 2804,
      "Ġcausa": 2805,
      "Ġ1990": 2806,
      "Ġmate": 2807,
      "maz": 2808,
      "fra": 2809,
      "Ġseis": 2810,
      "mer": 2811,
      "ĠTambÃ©m": 2812,
      "ane": 2813,
      "ispo": 2814,
      "Ġmomento": 2815,
      "anas": 2816,
      "Ã¡b": 2817,
      "imentos": 2818,
      "dados": 2819,
      "ÃŃm": 2820,
      "ood": 2821,
      "Ġsocial": 2822,
      "pÃ©rio": 2823,
      "Cl": 2824,
      "uno": 2825,
      "terra": 2826,
      "Ġdocum": 2827,
      "Ġcentro": 2828,
      "ĠbritÃ¢n": 2829,
      "tÃ¡lia": 2830,
      "Ġcos": 2831,
      "Ġlocalizada": 2832,
      "Du": 2833,
      "ĠÃºnico": 2834,
      "press": 2835,
      "ĠFer": 2836,
      "ĠSol": 2837,
      "ĠQuando": 2838,
      "ĠMus": 2839,
      "direct": 2840,
      "Ã¡cio": 2841,
      "Ġflo": 2842,
      "Ġconjunto": 2843,
      "onte": 2844,
      "Ġchegou": 2845,
      "iana": 2846,
      "ford": 2847,
      "Ġinvesti": 2848,
      "Ġmembro": 2849,
      "rupo": 2850,
      "ear": 2851,
      "Ġassum": 2852,
      "Ġrec": 2853,
      "berg": 2854,
      "Ġ1995": 2855,
      "inos": 2856,
      "Ġtenha": 2857,
      "ĠChe": 2858,
      "zer": 2859,
      "âĢĻ": 2860,
      "34": 2861,
      "Ġestar": 2862,
      "Ġrelacion": 2863,
      "ĠHel": 2864,
      "Ġescola": 2865,
      "Ġmarca": 2866,
      "Ġapoio": 2867,
      "ĠMartin": 2868,
      "ĠespaÃ§o": 2869,
      "ĠtelevisÃ£o": 2870,
      "Ġprofessor": 2871,
      "ĠCruz": 2872,
      "Ġfei": 2873,
      "ipe": 2874,
      "Ġdar": 2875,
      "pressÃ£o": 2876,
      "tudo": 2877,
      "ĠDiv": 2878,
      "Ġante": 2879,
      "ĠÃ³": 2880,
      "ĠconteÃº": 2881,
      "ranco": 2882,
      "curso": 2883,
      "Ġ}": 2884,
      "ock": 2885,
      "Ġbrasileira": 2886,
      "ulas": 2887,
      "sh": 2888,
      "Ġpoderia": 2889,
      "Ġusado": 2890,
      "ĠMor": 2891,
      "Ġtermo": 2892,
      "ko": 2893,
      "mons": 2894,
      "El": 2895,
      "ĠmÃ£e": 2896,
      "Ġmetros": 2897,
      "Ġmodo": 2898,
      "ciado": 2899,
      "CA": 2900,
      "Ġminha": 2901,
      "Ġlei": 2902,
      "Ġdiversos": 2903,
      "itali": 2904,
      "04": 2905,
      "Ġfuncion": 2906,
      "gisla": 2907,
      "Ġ'\"": 2908,
      "ĠirmÃ£o": 2909,
      "32": 2910,
      "Ġdiversas": 2911,
      "Ġaplica": 2912,
      "ĠRod": 2913,
      "ĠAo": 2914,
      "ĠLib": 2915,
      "ĠprÃ©": 2916,
      "tende": 2917,
      "tÃ¢ncia": 2918,
      "ple": 2919,
      "del": 2920,
      "ĠWiki": 2921,
      "ĠReal": 2922,
      "ĠusuÃ¡rio": 2923,
      "ĠCu": 2924,
      "ĠSÃ©": 2925,
      "Ġescrito": 2926,
      "Ġestilo": 2927,
      "panhia": 2928,
      "Ġcasos": 2929,
      "enos": 2930,
      "tiz": 2931,
      "Ġfosse": 2932,
      "Ġher": 2933,
      "Ġjogador": 2934,
      "mada": 2935,
      "ĠLi": 2936,
      "try": 2937,
      "ĠDepois": 2938,
      "tÃ³nio": 2939,
      "Mar": 2940,
      "Ġmal": 2941,
      "ĠSantos": 2942,
      "velmente": 2943,
      "ash": 2944,
      "ĠÃºltima": 2945,
      "Dis": 2946,
      "Ġbus": 2947,
      "dici": 2948,
      "quisa": 2949,
      "Ġterra": 2950,
      "Â»": 2951,
      "Ġconsiderado": 2952,
      "Ġcober": 2953,
      "ĉĉ": 2954,
      "usta": 2955,
      "Ġhou": 2956,
      "Â°": 2957,
      "Ġpersonagem": 2958,
      "Ġconquista": 2959,
      "ĠtÃ£o": 2960,
      "Ã¡tico": 2961,
      "Ġforte": 2962,
      "grÃ¡": 2963,
      "ud": 2964,
      "Da": 2965,
      "sen": 2966,
      "Ġmoder": 2967,
      "ĠGal": 2968,
      "ĠvitÃ³ria": 2969,
      "Ġsex": 2970,
      "ĠVe": 2971,
      "ĠPrim": 2972,
      "pida": 2973,
      "ĠSim": 2974,
      "44": 2975,
      "ecre": 2976,
      "Ġconhe": 2977,
      "Ġ1994": 2978,
      "tÃº": 2979,
      "ĠAug": 2980,
      "ring": 2981,
      "Ġitali": 2982,
      "Ġamericano": 2983,
      "ĠMal": 2984,
      "lack": 2985,
      "Ġarte": 2986,
      "volu": 2987,
      "ique": 2988,
      "03": 2989,
      "Ġpublic": 2990,
      "Ġviol": 2991,
      "tiu": 2992,
      "Ġinteres": 2993,
      "Ġfrom": 2994,
      "ÃŃnci": 2995,
      "Ġresultado": 2996,
      "ries": 2997,
      "bas": 2998,
      "we": 2999,
      "radas": 3000,
      "ĠprÃ³pria": 3001,
      "ĠOlÃŃmpicos": 3002,
      "igh": 3003,
      "tadas": 3004,
      "Ġchamada": 3005,
      "ĠInter": 3006,
      "54": 3007,
      "nes": 3008,
      "Ġdirigi": 3009,
      "Ġpromo": 3010,
      "lado": 3011,
      "Ġri": 3012,
      "Ġgrupos": 3013,
      "Ġgre": 3014,
      "into": 3015,
      "Ġestavam": 3016,
      "by": 3017,
      "Ġprocu": 3018,
      "Ġautor": 3019,
      "ĠforÃ§a": 3020,
      "redo": 3021,
      "ĠMic": 3022,
      "III": 3023,
      "Ãºn": 3024,
      "Ġintro": 3025,
      "ĠfunÃ§Ã£o": 3026,
      "Ġmovimento": 3027,
      "ĠMundo": 3028,
      "ĠTem": 3029,
      "Ã£s": 3030,
      "ĠGar": 3031,
      "Ġvalor": 3032,
      "Ġfemin": 3033,
      "Ġnomeado": 3034,
      "cam": 3035,
      "ĠGlo": 3036,
      "ixas": 3037,
      "Ġhomens": 3038,
      "old": 3039,
      "Ġdistribu": 3040,
      "ficos": 3041,
      "Ġempre": 3042,
      "ĠcritÃ©": 3043,
      "Ġescreveu": 3044,
      "Ġ1992": 3045,
      "ĠÃºnica": 3046,
      "ĠPrÃªmio": 3047,
      "ĠediÃ§Ãµes": 3048,
      "ĠAra": 3049,
      "teiro": 3050,
      "Ġbgcolor": 3051,
      "Ġpare": 3052,
      "ĠFl": 3053,
      "ĠforÃ§as": 3054,
      "ĠTor": 3055,
      "hat": 3056,
      "Jos": 3057,
      "Ġespanh": 3058,
      "Ġing": 3059,
      "ĠCentro": 3060,
      "Ġexperi": 3061,
      "line": 3062,
      "tle": 3063,
      "voluÃ§Ã£o": 3064,
      "ingle": 3065,
      "ficar": 3066,
      "Ġfilmes": 3067,
      "Um": 3068,
      "Ġrevista": 3069,
      "ciou": 3070,
      "Ġambi": 3071,
      "quele": 3072,
      "rian": 3073,
      "ĠUniversity": 3074,
      "rantes": 3075,
      "ĠBas": 3076,
      "Ġrespons": 3077,
      "Para": 3078,
      "02": 3079,
      "ĠexÃ©rcito": 3080,
      "Ġremo": 3081,
      "Ġ00": 3082,
      "Ġdesc": 3083,
      "Ġpessoa": 3084,
      "ĠClube": 3085,
      "ĠMunic": 3086,
      "perador": 3087,
      "Ġprofission": 3088,
      "Ġcris": 3089,
      "Ã¡r": 3090,
      "Ã¡lia": 3091,
      "Ġcriar": 3092,
      ".)": 3093,
      "tima": 3094,
      "Ġsan": 3095,
      "Ġseguintes": 3096,
      "ĠItÃ¡lia": 3097,
      "Ġrevel": 3098,
      "Ġreun": 3099,
      "heres": 3100,
      "taram": 3101,
      "Ã±": 3102,
      "Ġpens": 3103,
      "Ġinsta": 3104,
      "53": 3105,
      "Ġdescri": 3106,
      "ĠCasa": 3107,
      "Ġcanto": 3108,
      "ĠAus": 3109,
      "olo": 3110,
      "frica": 3111,
      "ling": 3112,
      "Ġparece": 3113,
      "sg": 3114,
      "vie": 3115,
      "ĠparticipaÃ§Ã£o": 3116,
      "Ġpovo": 3117,
      "Ġexib": 3118,
      "Ġquan": 3119,
      "laterra": 3120,
      "demia": 3121,
      "Ġgeralmente": 3122,
      "haria": 3123,
      "ĠespÃ©cies": 3124,
      "ubes": 3125,
      "ĠconteÃºdo": 3126,
      "ĠprovÃŃncia": 3127,
      "Ġali": 3128,
      "ĠWar": 3129,
      "Ġenf": 3130,
      "fÃŃcio": 3131,
      "Ġ1980": 3132,
      "Ġfer": 3133,
      "dÃ£o": 3134,
      "uta": 3135,
      "Ġfrente": 3136,
      "Ġfalta": 3137,
      "Ã©tri": 3138,
      "ky": 3139,
      "ĠOutubro": 3140,
      "Ġdepu": 3141,
      "Ġestrutura": 3142,
      "Ġnenhum": 3143,
      "riga": 3144,
      "51": 3145,
      "Ġajuda": 3146,
      "ĠCosta": 3147,
      "Ġdefen": 3148,
      "igo": 3149,
      "Ġcinema": 3150,
      "Ġintegra": 3151,
      "Ġconseguiu": 3152,
      "gunda": 3153,
      "ĠDez": 3154,
      "Ġigu": 3155,
      "Ġsepara": 3156,
      "ĠBr": 3157,
      "Ġmaiores": 3158,
      "Ġexecu": 3159,
      "Ġresp": 3160,
      "ĠLin": 3161,
      "ĠWillia": 3162,
      "ĠManuel": 3163,
      "Ġdenom": 3164,
      "gent": 3165,
      "ĠJulho": 3166,
      "Ġ50": 3167,
      ":::": 3168,
      "elha": 3169,
      "ump": 3170,
      "Ġmorreu": 3171,
      "tude": 3172,
      "how": 3173,
      "ĠLou": 3174,
      "Ġteria": 3175,
      "Ġdispon": 3176,
      "ĠTri": 3177,
      "trum": 3178,
      "ĠlÃŃ": 3179,
      "tora": 3180,
      "itaÃ§Ã£o": 3181,
      "Ġcoisa": 3182,
      "jas": 3183,
      "entais": 3184,
      "tÃ´nio": 3185,
      "redirect": 3186,
      "ĠStu": 3187,
      "Ġarquite": 3188,
      "For": 3189,
      "||": 3190,
      "Ġcaracter": 3191,
      "FA": 3192,
      "Ġconsenso": 3193,
      "pÃŃ": 3194,
      "Ġdiretor": 3195,
      "ĠOb": 3196,
      "52": 3197,
      "Ġrep": 3198,
      "art": 3199,
      "ĠFernando": 3200,
      "ÃŃncipe": 3201,
      "ĠWa": 3202,
      "ĠÂ«": 3203,
      "Ãºde": 3204,
      "rans": 3205,
      "Ġterceiro": 3206,
      "ĠfrancÃªs": 3207,
      "ĠDurante": 3208,
      "Ġesposa": 3209,
      "NÃ£o": 3210,
      "ĠSam": 3211,
      "Ġmeta": 3212,
      "rinha": 3213,
      "Ġur": 3214,
      "Ġacom": 3215,
      "Ġcomuna": 3216,
      "ergia": 3217,
      "Ġnatural": 3218,
      "ĠOrdem": 3219,
      "ĠCÃ¢mara": 3220,
      "Ġdin": 3221,
      "ĠLuÃŃs": 3222,
      "ĠBrasileiro": 3223,
      "Ġaba": 3224,
      "Ġdim": 3225,
      "tidade": 3226,
      "ĠInglaterra": 3227,
      "Ġnasceu": 3228,
      "form": 3229,
      "cÃ§Ã£o": 3230,
      "lÃ¢n": 3231,
      "ĠAbril": 3232,
      "ĠVen": 3233,
      "ĠAna": 3234,
      "ĠXI": 3235,
      "ĠdireÃ§Ã£o": 3236,
      "Ġale": 3237,
      "Bo": 3238,
      "ĠMaio": 3239,
      "ĠEr": 3240,
      "Fran": 3241,
      "Ġbandeira": 3242,
      "Ġprog": 3243,
      "ĠSetembro": 3244,
      "osp": 3245,
      "ĠEscola": 3246,
      "ĠlanÃ§amento": 3247,
      "Ġtin": 3248,
      "ĠMed": 3249,
      "Ġsomente": 3250,
      "xico": 3251,
      "ĠÃ¡reas": 3252,
      "ĠAgosto": 3253,
      "ticamente": 3254,
      "ĠLiv": 3255,
      "Ġ01": 3256,
      "alo": 3257,
      "ĠXX": 3258,
      "ĠquestÃ£o": 3259,
      "ĠTom": 3260,
      "Ġsede": 3261,
      "Ġdescon": 3262,
      "the": 3263,
      "ĠTu": 3264,
      "sem": 3265,
      "ĠBrasileira": 3266,
      "ĠPan": 3267,
      "AS": 3268,
      "reia": 3269,
      "ĠDi": 3270,
      "logia": 3271,
      "ĠCultura": 3272,
      "uldade": 3273,
      "Ġqualidade": 3274,
      "Ġestudos": 3275,
      "ĠGen": 3276,
      "Ġmeu": 3277,
      "Ã©tico": 3278,
      "Ġetc": 3279,
      "ĠRib": 3280,
      "Ġisto": 3281,
      "erson": 3282,
      "ĠfÃŃs": 3283,
      "Ġigreja": 3284,
      "ast": 3285,
      "ĠMuse": 3286,
      "42": 3287,
      "ĠLondres": 3288,
      "Ġfrancesa": 3289,
      "Ġteo": 3290,
      "vin": 3291,
      "ĠGover": 3292,
      "Ġvice": 3293,
      "Ġsubs": 3294,
      "Ġapesar": 3295,
      "ĠserviÃ§o": 3296,
      "Ġfigu": 3297,
      "ĠJorge": 3298,
      "ĠGon": 3299,
      "Ġ978": 3300,
      "Ġganhou": 3301,
      "sequ": 3302,
      "enhora": 3303,
      "pes": 3304,
      "Ġmodelo": 3305,
      "Ġmusical": 3306,
      "ĠformaÃ§Ã£o": 3307,
      "ĠÃ³r": 3308,
      "ĠKa": 3309,
      "dÃ¡": 3310,
      "ApÃ³s": 3311,
      "ĠJÃº": 3312,
      "forme": 3313,
      "tÃ³rios": 3314,
      "ĠIr": 3315,
      "Ġparticipou": 3316,
      "Ġsemelh": 3317,
      "ters": 3318,
      "Ġalguma": 3319,
      "americano": 3320,
      "arca": 3321,
      "logo": 3322,
      "ny": 3323,
      "Ġacesso": 3324,
      "Ġaval": 3325,
      "Ġ1991": 3326,
      "anc": 3327,
      "Ġraz": 3328,
      "Ġliber": 3329,
      "Campeonato": 3330,
      "43": 3331,
      "Ġmedi": 3332,
      "Ġcoloca": 3333,
      "Ġcriado": 3334,
      "tian": 3335,
      "pt": 3336,
      "ĠDavid": 3337,
      "2000": 3338,
      "Ġsentido": 3339,
      "arda": 3340,
      "Ġ1993": 3341,
      "ust": 3342,
      "Ġprofissional": 3343,
      "itera": 3344,
      "ronte": 3345,
      "Ġdevem": 3346,
      "Ġexer": 3347,
      "ĠEdito": 3348,
      "Ġordem": 3349,
      "ĠSou": 3350,
      "ĠYou": 3351,
      "peraÃ§Ã£o": 3352,
      "idth": 3353,
      "ary": 3354,
      "idÃªncia": 3355,
      "2010": 3356,
      "dap": 3357,
      "Ġrecor": 3358,
      "ĠRu": 3359,
      "postas": 3360,
      "lex": 3361,
      "hes": 3362,
      "Ġatribu": 3363,
      "resso": 3364,
      "Ġhomem": 3365,
      "Ġboa": 3366,
      "abe": 3367,
      "Ġnovos": 3368,
      "Ġpedido": 3369,
      "ĠGre": 3370,
      "ĠlÃŃngua": 3371,
      "Ġ1970": 3372,
      "iado": 3373,
      "Ġreconheci": 3374,
      "ĠAmeric": 3375,
      "Ġopin": 3376,
      "igos": 3377,
      "vez": 3378,
      "ĠUniÃ£o": 3379,
      "ĠinformaÃ§Ãµes": 3380,
      "omas": 3381,
      "Ġnorm": 3382,
      "Ġson": 3383,
      "Ġlar": 3384,
      "ĠusuÃ¡rios": 3385,
      "way": 3386,
      "Ã´nica": 3387,
      "Ġmulher": 3388,
      "Ġmedal": 3389,
      "Ġanterior": 3390,
      "Ġantigo": 3391,
      "Ġviv": 3392,
      "ĠCata": 3393,
      "ĠRoma": 3394,
      "Ġlide": 3395,
      "41": 3396,
      "emo": 3397,
      "fÃ©": 3398,
      "Ġfeita": 3399,
      "guas": 3400,
      "ĠcampeÃ£o": 3401,
      "ize": 3402,
      "Ġrio": 3403,
      "ĠTerra": 3404,
      "'),": 3405,
      "tadores": 3406,
      "ĠDou": 3407,
      "Ġâ": 3408,
      "ĠRos": 3409,
      "Ġtime": 3410,
      "Ġ+": 3411,
      "teca": 3412,
      "ĠJul": 3413,
      "ĠcientÃŃ": 3414,
      "TA": 3415,
      "ville": 3416,
      "ĠImpÃ©rio": 3417,
      "Ġpu": 3418,
      "ĠOliv": 3419,
      "Ġenten": 3420,
      "Ġserem": 3421,
      "Ġhomena": 3422,
      "Ġideia": 3423,
      "ecer": 3424,
      "ĠmÃ©dia": 3425,
      "Ġusar": 3426,
      "Ġregras": 3427,
      "ial": 3428,
      "gentina": 3429,
      "ges": 3430,
      "ĠUnido": 3431,
      "Ġimportantes": 3432,
      "ĠterritÃ³rio": 3433,
      "vendo": 3434,
      "mado": 3435,
      "itado": 3436,
      "metros": 3437,
      "rel": 3438,
      "Ġcola": 3439,
      "ĠalcanÃ§": 3440,
      "ĠÃį": 3441,
      "FC": 3442,
      "Ġacabou": 3443,
      "Ġfazendo": 3444,
      "ĠUS": 3445,
      "Ġpermane": 3446,
      "Ġ)": 3447,
      "Eu": 3448,
      "apÃ£o": 3449,
      "Ġassocia": 3450,
      "giu": 3451,
      "Bar": 3452,
      "Ġdestru": 3453,
      "tron": 3454,
      "ĠNovembro": 3455,
      "Ġacho": 3456,
      "mea": 3457,
      "respon": 3458,
      "Ġpermi": 3459,
      "ĠEurope": 3460,
      "ibilidade": 3461,
      "augu": 3462,
      "Ġli": 3463,
      "Ġdisco": 3464,
      "ĠPlan": 3465,
      "Ġimagem": 3466,
      "Ġbastante": 3467,
      "Ġunivers": 3468,
      "Ġcaval": 3469,
      "Ã³di": 3470,
      "uto": 3471,
      "erg": 3472,
      "lhe": 3473,
      "ĠJes": 3474,
      "Ġfonte": 3475,
      "Ġbairro": 3476,
      "red": 3477,
      "Ġopera": 3478,
      "Ġpresente": 3479,
      "ĠOn": 3480,
      "Ġinaugu": 3481,
      "Ġreligios": 3482,
      "Ġloca": 3483,
      "Ġperi": 3484,
      "ĠPub": 3485,
      "rei": 3486,
      "Ġocorre": 3487,
      ";\"": 3488,
      "Ġ1986": 3489,
      "Ġrecente": 3490,
      "ĠPartido": 3491,
      "isas": 3492,
      "ĠDeus": 3493,
      "Ġambos": 3494,
      "Ġpartida": 3495,
      "todo": 3496,
      "border": 3497,
      "isso": 3498,
      "tale": 3499,
      "Ġpopular": 3500,
      "ĠIsa": 3501,
      "Ġresta": 3502,
      "gh": 3503,
      "2009": 3504,
      "Ġdizer": 3505,
      "ones": 3506,
      "IN": 3507,
      "ĠBal": 3508,
      "uss": 3509,
      "Ġcidades": 3510,
      "rimento": 3511,
      "posto": 3512,
      "riamente": 3513,
      "Ġhisto": 3514,
      "Ġatualmente": 3515,
      "ĠMunicipal": 3516,
      "Ġmanda": 3517,
      "Ġarqu": 3518,
      "ĠAntÃ³nio": 3519,
      "hael": 3520,
      "Ġveri": 3521,
      "Ġnu": 3522,
      "Ġtema": 3523,
      "Ġneg": 3524,
      "ĠConselho": 3525,
      "Ġdesse": 3526,
      "Ġaltura": 3527,
      "Ġcomando": 3528,
      "Ġtorna": 3529,
      "Ġlivros": 3530,
      "idae": 3531,
      "Ġpessoal": 3532,
      "int": 3533,
      "Ãºssia": 3534,
      "ony": 3535,
      "ĠDem": 3536,
      "iram": 3537,
      "dendo": 3538,
      "ĠDel": 3539,
      "ĠopiniÃ£o": 3540,
      "ĠDezembro": 3541,
      "inhos": 3542,
      "Ġtrabalhos": 3543,
      "Ġnovas": 3544,
      "Ġlivre": 3545,
      "Ġpesquisa": 3546,
      "ĠepisÃ³dio": 3547,
      "gÃ£o": 3548,
      "Ġfede": 3549,
      "Ġpartes": 3550,
      "ĠVa": 3551,
      "Ġacei": 3552,
      "ĠalemÃ£o": 3553,
      "rich": 3554,
      "Como": 3555,
      "Ġator": 3556,
      "Ġ1989": 3557,
      "Ġwiki": 3558,
      "ĠHenrique": 3559,
      "hia": 3560,
      "Ġreceb": 3561,
      "tigos": 3562,
      "ĠestaÃ§Ã£o": 3563,
      "Ġmulheres": 3564,
      "Ġobjetivo": 3565,
      "ĠReg": 3566,
      "Ġneste": 3567,
      "quim": 3568,
      "Ġportuguesa": 3569,
      "cher": 3570,
      "tz": 3571,
      "Ġ1988": 3572,
      "Ġeuro": 3573,
      "istÃ©rio": 3574,
      "Ġcampanha": 3575,
      "Ġcabe": 3576,
      "Ġjusti": 3577,
      "Ġextre": 3578,
      "Ġdessa": 3579,
      "ĠLuiz": 3580,
      "ĠTim": 3581,
      "ĠMes": 3582,
      "ĠdÃ¡": 3583,
      "Ġantiga": 3584,
      "Ġtinham": 3585,
      "AL": 3586,
      "Ġpen": 3587,
      "ĠGeral": 3588,
      "Ġcontrole": 3589,
      "ĠCin": 3590,
      "Ã¡n": 3591,
      "ĠMais": 3592,
      "ĠRodri": 3593,
      "Ġverm": 3594,
      "Ġjovem": 3595,
      "ĠBur": 3596,
      "ÃŃdeo": 3597,
      "Ġinteress": 3598,
      "Segundo": 3599,
      "Ġflores": 3600,
      "ban": 3601,
      "duardo": 3602,
      "Americ": 3603,
      "vÃŃ": 3604,
      "Ġprede": 3605,
      "icamente": 3606,
      "ĠVerÃ£o": 3607,
      "lor": 3608,
      "ĠFac": 3609,
      "ĠinformaÃ§Ã£o": 3610,
      "Ġdig": 3611,
      "xima": 3612,
      "Ġobserva": 3613,
      "Ġmaneira": 3614,
      "entado": 3615,
      "ĠAg": 3616,
      "bert": 3617,
      "plo": 3618,
      "Uma": 3619,
      "taÃ§Ãµes": 3620,
      "ĠClub": 3621,
      "ĠAlexand": 3622,
      "ĠaÃ§Ã£o": 3623,
      "ĠVic": 3624,
      "Ġcapacidade": 3625,
      "ĠdecisÃ£o": 3626,
      "Ġlocalizado": 3627,
      "ĠSenhora": 3628,
      "ulg": 3629,
      "IS": 3630,
      "Ġvence": 3631,
      "ĠJÃ¡": 3632,
      "ĠCens": 3633,
      "tum": 3634,
      "obre": 3635,
      "ĠSegunda": 3636,
      "ĠAssim": 3637,
      "Ġdistin": 3638,
      "ĠRecord": 3639,
      "ĠsituaÃ§Ã£o": 3640,
      "hei": 3641,
      "Ġrele": 3642,
      "ches": 3643,
      "jos": 3644,
      "inou": 3645,
      "Ġinterior": 3646,
      "ĠorganizaÃ§Ã£o": 3647,
      "Ġaten": 3648,
      "my": 3649,
      "ĠMarÃ§o": 3650,
      "Ġseguida": 3651,
      "Can": 3652,
      "Ġenfren": 3653,
      "2004": 3654,
      "Ġbatalha": 3655,
      "JoÃ£o": 3656,
      "Ġbe": 3657,
      "back": 3658,
      "Ġadministrativa": 3659,
      "ĠPen": 3660,
      "Ġcentral": 3661,
      "ider": 3662,
      "ĠJames": 3663,
      "ĠJapÃ£o": 3664,
      "let": 3665,
      "ĠGran": 3666,
      "cados": 3667,
      "Carreira": 3668,
      "Ġsuperior": 3669,
      "Ġvista": 3670,
      "ind": 3671,
      "rioca": 3672,
      "ĠCana": 3673,
      "ĠHistÃ³ria": 3674,
      "ĠOri": 3675,
      "pal": 3676,
      "ĠSuper": 3677,
      "tex": 3678,
      "reau": 3679,
      "Ġaband": 3680,
      "2001": 3681,
      "ĠMinas": 3682,
      "Ġ02": 3683,
      "cadas": 3684,
      "ĠMad": 3685,
      "Ġby": 3686,
      "unha": 3687,
      "Ġalta": 3688,
      "Ġlo": 3689,
      "Ġacredi": 3690,
      "Ġtais": 3691,
      "97": 3692,
      "Ġleva": 3693,
      "left": 3694,
      "deiro": 3695,
      "Ġcasamento": 3696,
      "eroporto": 3697,
      "Ġlocais": 3698,
      "ĠalguÃ©m": 3699,
      "right": 3700,
      "estÃµes": 3701,
      "Este": 3702,
      "Ġsecre": 3703,
      "Ne": 3704,
      "Ġparticular": 3705,
      "ĠAc": 3706,
      "Ġmelhores": 3707,
      "bun": 3708,
      "Ġdeveria": 3709,
      "tÃ¡vel": 3710,
      "cendo": 3711,
      "Ġ2019": 3712,
      "bil": 3713,
      "its": 3714,
      "inalmente": 3715,
      "Ġlevou": 3716,
      "mann": 3717,
      "Ġimagens": 3718,
      "rup": 3719,
      "iaÃ§Ã£o": 3720,
      "ĠExÃ©rcito": 3721,
      "ĠRei": 3722,
      "Ġpersonagens": 3723,
      "Ġdeixou": 3724,
      "ĠIV": 3725,
      "ensÃ£o": 3726,
      "ĠCensus": 3727,
      "Ġsite": 3728,
      "Ġposteriormente": 3729,
      "bras": 3730,
      "ĠAnton": 3731,
      "uso": 3732,
      "Ġcontr": 3733,
      "ĠdivisÃ£o": 3734,
      "itÃ£o": 3735,
      "rez": 3736,
      "Ġengen": 3737,
      "dun": 3738,
      "2008": 3739,
      "Ġaproximadamente": 3740,
      "Ġouro": 3741,
      "ĠVila": 3742,
      "Ġade": 3743,
      "ĠresponsÃ¡vel": 3744,
      "Po": 3745,
      "itada": 3746,
      "Tra": 3747,
      "ĠMÃ©xico": 3748,
      "Ġvoto": 3749,
      "Ġmascul": 3750,
      "Ġatividades": 3751,
      "Ġsequ": 3752,
      "ence": 3753,
      "Ġsemana": 3754,
      "Ġenergia": 3755,
      "Ġdescre": 3756,
      "ĠFestival": 3757,
      "Dem": 3758,
      "vou": 3759,
      "ĠTur": 3760,
      "ĠGr": 3761,
      "Ġdeles": 3762,
      "mbora": 3763,
      "ospital": 3764,
      ")]": 3765,
      "ÃŃpios": 3766,
      "lim": 3767,
      "ĠMos": 3768,
      "ĠIsso": 3769,
      "ĠGrupo": 3770,
      "Ġdiscu": 3771,
      "deste": 3772,
      "iciais": 3773,
      "Ġassunto": 3774,
      "Ġ1960": 3775,
      "Ġpopula": 3776,
      "Ġextin": 3777,
      "Ġatriz": 3778,
      "Ġmenor": 3779,
      "=#": 3780,
      "quei": 3781,
      "Ġfol": 3782,
      "Ġretorn": 3783,
      "Ġmensa": 3784,
      "icl": 3785,
      "Ġelas": 3786,
      "ĠIta": 3787,
      "Ġinteresse": 3788,
      "Ġevento": 3789,
      "Fa": 3790,
      "Ġdepartamento": 3791,
      "Ġgaran": 3792,
      "Ġsete": 3793,
      "nal": 3794,
      "UA": 3795,
      "Ġdivi": 3796,
      "Ġaus": 3797,
      "ese": 3798,
      "ramento": 3799,
      "taria": 3800,
      "ington": 3801,
      "ĠcompetiÃ§Ã£o": 3802,
      "Ġdeclara": 3803,
      "Ġadap": 3804,
      "ĠnecessÃ¡rio": 3805,
      "FF": 3806,
      "ĠAntÃ´nio": 3807,
      "Ġcenso": 3808,
      "plan": 3809,
      "emble": 3810,
      "ĠOliveira": 3811,
      "venÃ§Ã£o": 3812,
      "Ġgovernador": 3813,
      "Ġconfir": 3814,
      "Su": 3815,
      "licos": 3816,
      "2007": 3817,
      "Pe": 3818,
      "clus": 3819,
      "Ġrecu": 3820,
      "Ġtermos": 3821,
      "ĠÃįn": 3822,
      "2006": 3823,
      "lite": 3824,
      "rama": 3825,
      "undo": 3826,
      "Ġexig": 3827,
      "----": 3828,
      "cidental": 3829,
      "ĠestÃº": 3830,
      "Ġnenhuma": 3831,
      "RA": 3832,
      "iza": 3833,
      "ĠRich": 3834,
      "mula": 3835,
      "Ġaparece": 3836,
      "Ġcorrespon": 3837,
      "entÃ¡rios": 3838,
      "raÃ§Ãµes": 3839,
      "Ġvig": 3840,
      "vidas": 3841,
      "Ġdese": 3842,
      "ĠPoss": 3843,
      "Ġpas": 3844,
      "Col": 3845,
      "rest": 3846,
      "istente": 3847,
      "2013": 3848,
      "Ġdesign": 3849,
      "st": 3850,
      "ĠMer": 3851,
      "Ġpilo": 3852,
      "Ġgols": 3853,
      "Ġperto": 3854,
      "cidente": 3855,
      "dam": 3856,
      "Ġaz": 3857,
      "99": 3858,
      "ics": 3859,
      "Ġdemais": 3860,
      "ĠJunho": 3861,
      "Ġocorreu": 3862,
      "ĠRegi": 3863,
      "Me": 3864,
      "Ġ1982": 3865,
      "Ġocas": 3866,
      "Ã¡ticas": 3867,
      "ĠcritÃ©rios": 3868,
      "ĠcontÃ©m": 3869,
      "Ġmundial": 3870,
      "Ġcasou": 3871,
      "ĠpresenÃ§a": 3872,
      "Ġnomes": 3873,
      "eo": 3874,
      "sÃµes": 3875,
      "âĢĿ,": 3876,
      "Ġespecialmente": 3877,
      "Ġficar": 3878,
      "Ġasteroide": 3879,
      "2012": 3880,
      "Ġataque": 3881,
      "ĠJesus": 3882,
      "Ġeditor": 3883,
      "Ġmanter": 3884,
      "umo": 3885,
      "amÃŃlia": 3886,
      "lito": 3887,
      "ĠÃģfrica": 3888,
      "ĠFel": 3889,
      "cursos": 3890,
      "60": 3891,
      "Ġed": 3892,
      "Ġcoisas": 3893,
      "ĠespecÃŃ": 3894,
      "Ġcha": 3895,
      "Ġinternacional": 3896,
      "Ġestudo": 3897,
      "Ġdemons": 3898,
      "Ġinstala": 3899,
      "ground": 3900,
      "ÃŃdos": 3901,
      "Ã³digo": 3902,
      "Ġvaria": 3903,
      "ĠChina": 3904,
      "ĠNossa": 3905,
      "valho": 3906,
      "Par": 3907,
      "Ġ40": 3908,
      "Ġflu": 3909,
      "Ġhoras": 3910,
      "ĠGab": 3911,
      "Ou": 3912,
      "ficiente": 3913,
      "Ġferro": 3914,
      "Ġpublicado": 3915,
      "ramas": 3916,
      "Ġ1985": 3917,
      "Ġassass": 3918,
      "Ġgeneral": 3919,
      "tÃ³ria": 3920,
      "Ġtrabalha": 3921,
      "ĠEstÃ¡": 3922,
      "Ġensino": 3923,
      "Ġcatego": 3924,
      "Ġped": 3925,
      "tava": 3926,
      "Lista": 3927,
      "Ġexpan": 3928,
      "Ġ1987": 3929,
      "Ġquer": 3930,
      "radores": 3931,
      "ĠAcademia": 3932,
      "rino": 3933,
      "88": 3934,
      "zz": 3935,
      "ulares": 3936,
      "cidos": 3937,
      "ilher": 3938,
      "ÃŃstico": 3939,
      "ĠSub": 3940,
      "Ġprimeiras": 3941,
      "tul": 3942,
      "Do": 3943,
      "Ã¡lise": 3944,
      "Ġvoltou": 3945,
      "tigo": 3946,
      "Ġgovern": 3947,
      "ĠApesar": 3948,
      "iden": 3949,
      "Ġdeputado": 3950,
      "Ġcompor": 3951,
      "ĠHum": 3952,
      "ĠmÃªs": 3953,
      "turo": 3954,
      "Ġexplo": 3955,
      "ceb": 3956,
      "Ġtornar": 3957,
      "JosÃ©": 3958,
      "istrito": 3959,
      "ĠSp": 3960,
      "utos": 3961,
      "Ġvelo": 3962,
      "Ġmol": 3963,
      "tais": 3964,
      "ĠimportÃ¢ncia": 3965,
      "ĠserviÃ§os": 3966,
      "Ġmercado": 3967,
      "ĠreferÃªncia": 3968,
      "tÃ³lica": 3969,
      "ku": 3970,
      "Ġalte": 3971,
      "ĠDivisÃ£o": 3972,
      "Ġprepara": 3973,
      "Cor": 3974,
      "ĠDr": 3975,
      "Ġtecn": 3976,
      "2011": 3977,
      "ĠWh": 3978,
      "timo": 3979,
      "vador": 3980,
      "lar": 3981,
      "riais": 3982,
      "Ġdireitos": 3983,
      "ĠGer": 3984,
      "gados": 3985,
      "Ġnesta": 3986,
      "Ġfacil": 3987,
      "ĠQue": 3988,
      "gin": 3989,
      "ĠSegundo": 3990,
      "ĠFu": 3991,
      "iguel": 3992,
      "Bras": 3993,
      "Ġconclu": 3994,
      "Ġaer": 3995,
      "eix": 3996,
      "tive": 3997,
      "Ġfoto": 3998,
      "dunid": 3999,
      "ĠBureau": 4000,
      "ĠInf": 4001,
      "Ġmaterial": 4002,
      "Ġgas": 4003,
      "itares": 4004,
      "Ġrealizado": 4005,
      "SÃ£o": 4006,
      "Ġmudou": 4007,
      "Ġpequena": 4008,
      "Ġanal": 4009,
      "Ġtradici": 4010,
      "Ġesses": 4011,
      "Ġdesemp": 4012,
      "Ġatin": 4013,
      "ĠJack": 4014,
      "Ġrede": 4015,
      "amo": 4016,
      "dan": 4017,
      "Ġbaixo": 4018,
      "png": 4019,
      "Ġ(\"": 4020,
      "ĠprÃ³ximo": 4021,
      "Ġvir": 4022,
      "aaa": 4023,
      "Ġextra": 4024,
      "Ġwith": 4025,
      "cons": 4026,
      "ĠPereira": 4027,
      "ius": 4028,
      "ivos": 4029,
      "ĠAssociaÃ§Ã£o": 4030,
      "ĠEditora": 4031,
      "Ġjapon": 4032,
      "Ġterceira": 4033,
      "Ġestes": 4034,
      "Ġvisto": 4035,
      "icais": 4036,
      "Ġtaman": 4037,
      "Ġenvia": 4038,
      "Ġvari": 4039,
      "Ġ1984": 4040,
      "ĠGerais": 4041,
      "Ġelementos": 4042,
      "pare": 4043,
      "Ġmassa": 4044,
      "icaÃ§Ã£o": 4045,
      "graf": 4046,
      "ĠBol": 4047,
      "teve": 4048,
      "chen": 4049,
      "ĠFevereiro": 4050,
      "cando": 4051,
      "ĠTre": 4052,
      "Ġsociedade": 4053,
      "BC": 4054,
      "tern": 4055,
      "idro": 4056,
      "Ġtropas": 4057,
      "Ġtiv": 4058,
      "Ġach": 4059,
      "ĠCondado": 4060,
      "fonso": 4061,
      "rinho": 4062,
      "ĠPon": 4063,
      "ramenta": 4064,
      "gios": 4065,
      "istory": 4066,
      "Ġsuge": 4067,
      "ĠcondiÃ§Ãµes": 4068,
      "Ġsaber": 4069,
      "ĠMelhor": 4070,
      "ĠGil": 4071,
      "rus": 4072,
      "Ġ....": 4073,
      "inada": 4074,
      "tividade": 4075,
      "Ġoito": 4076,
      "Ġestreia": 4077,
      "ĠComun": 4078,
      "opho": 4079,
      "ĠDia": 4080,
      "ĠAlm": 4081,
      "SP": 4082,
      "Ġdific": 4083,
      "Ġabs": 4084,
      "ĠFerro": 4085,
      "Ġeditores": 4086,
      "como": 4087,
      "hando": 4088,
      "lias": 4089,
      "Ġhouve": 4090,
      "ant": 4091,
      "enhor": 4092,
      "ĠMel": 4093,
      "Or": 4094,
      "queio": 4095,
      "ĠArgentina": 4096,
      "ĠWilliam": 4097,
      "ĠCri": 4098,
      "win": 4099,
      "Ġarmas": 4100,
      "ĠSem": 4101,
      "Ġterminou": 4102,
      "ĠLeon": 4103,
      "nÃ£o": 4104,
      "Ġbate": 4105,
      "96": 4106,
      "andes": 4107,
      "80": 4108,
      "cialmente": 4109,
      "deia": 4110,
      "Ġequipes": 4111,
      "Ġsabe": 4112,
      "Lu": 4113,
      "Ġinse": 4114,
      "ĠFunda": 4115,
      "ĠLiga": 4116,
      "Ġcontrato": 4117,
      "ĠmÃŃn": 4118,
      "Ġinteg": 4119,
      "tein": 4120,
      "Ġessas": 4121,
      "Ġund": 4122,
      "Ġ...": 4123,
      "ĠAÃ§o": 4124,
      "ĠEles": 4125,
      "ID": 4126,
      "Ġps": 4127,
      "ĠEduardo": 4128,
      "Ġcivil": 4129,
      "85": 4130,
      "ĠJose": 4131,
      "quad": 4132,
      "Ġprinc": 4133,
      "Ġprom": 4134,
      "Ġcriada": 4135,
      "ustria": 4136,
      "Cen": 4137,
      "Ġrus": 4138,
      "vidos": 4139,
      "ĠTrans": 4140,
      "Ġacess": 4141,
      "Artigos": 4142,
      "ĠDireito": 4143,
      "riel": 4144,
      "ĠPortuguesa": 4145,
      "Ġempresas": 4146,
      "Ġamor": 4147,
      "ander": 4148,
      "ilherme": 4149,
      "Cons": 4150,
      "ires": 4151,
      "tics": 4152,
      "ciar": 4153,
      "Ġofere": 4154,
      "Ġfaixa": 4155,
      "TV": 4156,
      "Ġjuntamente": 4157,
      "Ġrespec": 4158,
      "ricos": 4159,
      "Ġdiferente": 4160,
      "ĠPaulista": 4161,
      "cula": 4162,
      "mor": 4163,
      "ĠBi": 4164,
      "ĠMichael": 4165,
      "Ġcantora": 4166,
      "ĠpolÃŃticas": 4167,
      "Ġtrabalhar": 4168,
      "Ġeventos": 4169,
      "ĠnÂº": 4170,
      "ings": 4171,
      "Ġutilizado": 4172,
      "icialmente": 4173,
      "Ġocupa": 4174,
      "ĠPrin": 4175,
      "ustrali": 4176,
      "ustri": 4177,
      "gel": 4178,
      "Ã¡u": 4179,
      "Ġnoite": 4180,
      "Ġtransfe": 4181,
      "Ġaumento": 4182,
      "rensa": 4183,
      "ĠTro": 4184,
      "trÃ¡lia": 4185,
      "Ġconhecimento": 4186,
      "Ġ1983": 4187,
      "ĠCentral": 4188,
      "Ã¡gina": 4189,
      "ĠAward": 4190,
      "ye": 4191,
      "ĠÐ": 4192,
      "Ġalto": 4193,
      "ĠPos": 4194,
      "ĠDen": 4195,
      "66": 4196,
      "feitos": 4197,
      "Ġestadunid": 4198,
      "quete": 4199,
      "Ġreduz": 4200,
      "Ġdemo": 4201,
      "ficas": 4202,
      "Ġentrou": 4203,
      "Ġportanto": 4204,
      "2005": 4205,
      "quistou": 4206,
      "br": 4207,
      "ilia": 4208,
      "ĠMilitar": 4209,
      "ĠpadrÃ£o": 4210,
      "pia": 4211,
      "Ã¢me": 4212,
      "Ġanimais": 4213,
      "Ġproprie": 4214,
      "Ġ^'": 4215,
      "ĠSocial": 4216,
      "Ġfregues": 4217,
      "Ġ`": 4218,
      "rismo": 4219,
      "dada": 4220,
      "rael": 4221,
      "onas": 4222,
      "ĠLima": 4223,
      "Ġpermite": 4224,
      "ĠSecre": 4225,
      "Ġcampeonato": 4226,
      "lec": 4227,
      "Ġfale": 4228,
      "ĠcontrÃ¡rio": 4229,
      "Ġeletr": 4230,
      "To": 4231,
      "Ãªnio": 4232,
      "Ġdeixar": 4233,
      "vir": 4234,
      "OS": 4235,
      "ĠSpe": 4236,
      "Ã³rmula": 4237,
      "Ã§ado": 4238,
      "Ġ1979": 4239,
      "ĠJer": 4240,
      "wer": 4241,
      "Ġamea": 4242,
      "Ġcruz": 4243,
      "ĠCarvalho": 4244,
      "edia": 4245,
      "ficado": 4246,
      "tidos": 4247,
      "ĠGeorge": 4248,
      "Ġtornando": 4249,
      "Ã´s": 4250,
      "Ġbi": 4251,
      "Ġplane": 4252,
      "ĠhistÃ³rico": 4253,
      "qua": 4254,
      "Ġvenceu": 4255,
      "Ġclasse": 4256,
      "Ġferramenta": 4257,
      "ĠvÃŃdeo": 4258,
      "Ġdescob": 4259,
      "ĠUr": 4260,
      "Ġexistem": 4261,
      "ĠTal": 4262,
      "Ġregra": 4263,
      "pido": 4264,
      "riana": 4265,
      "rey": 4266,
      "arra": 4267,
      "dura": 4268,
      "kin": 4269,
      "Be": 4270,
      "ÃŃlio": 4271,
      "embleia": 4272,
      "ardim": 4273,
      "ĠPopul": 4274,
      "ĠdomÃŃnio": 4275,
      "ĠcrÃŃtica": 4276,
      "Ġmis": 4277,
      "90": 4278,
      "tagon": 4279,
      "Ġrecom": 4280,
      "ĠMi": 4281,
      "Ġsenti": 4282,
      "ĠPresidente": 4283,
      "inguÃ©m": 4284,
      "oro": 4285,
      "Ã³rias": 4286,
      "Ġjogadores": 4287,
      "ridos": 4288,
      "Ġusada": 4289,
      "ĠGlobo": 4290,
      "Ã©gio": 4291,
      "Ġexten": 4292,
      "sion": 4293,
      "Ġminutos": 4294,
      "ĠAir": 4295,
      "ĠNas": 4296,
      "Ġafirma": 4297,
      "Ġinstrum": 4298,
      "ĠclÃ¡ss": 4299,
      "Ġseman": 4300,
      "ĠKe": 4301,
      "gica": 4302,
      "chi": 4303,
      "MA": 4304,
      "ĠBern": 4305,
      "licas": 4306,
      "ĠVas": 4307,
      "ĠprÃ¡tica": 4308,
      "ĠeconÃ´m": 4309,
      "rita": 4310,
      "ioces": 4311,
      "wood": 4312,
      "Ġadqui": 4313,
      "rena": 4314,
      "Ġpalavra": 4315,
      "ĠCole": 4316,
      "ĠÃŃn": 4317,
      "ĠPri": 4318,
      "Wiki": 4319,
      "ls": 4320,
      ",[": 4321,
      "Ġdedica": 4322,
      "ĠSen": 4323,
      "Ġtamanho": 4324,
      "vela": 4325,
      "Ġdisputa": 4326,
      "gou": 4327,
      "Ġprovavelmente": 4328,
      "Ġsec": 4329,
      "entÃ¡rio": 4330,
      "ĠArt": 4331,
      "inador": 4332,
      "ĠFrank": 4333,
      "Ġbusca": 4334,
      "Ġteoria": 4335,
      "Ġabaixo": 4336,
      "Ġlemb": 4337,
      "ĠNic": 4338,
      "Ġ1976": 4339,
      "Ġama": 4340,
      "Ra": 4341,
      "mith": 4342,
      "Ġpequeno": 4343,
      "ĠJean": 4344,
      "Ġmilitares": 4345,
      "vÃŃdu": 4346,
      "ibil": 4347,
      "Ġescrita": 4348,
      "Ġartista": 4349,
      "quela": 4350,
      "Ġsolo": 4351,
      "Cap": 4352,
      "ĠDar": 4353,
      "iclopÃ©": 4354,
      "gada": 4355,
      "ĠSousa": 4356,
      "dias": 4357,
      "Ġrealizada": 4358,
      "Ġdirigido": 4359,
      "Ġ03": 4360,
      "ĠMac": 4361,
      "ĠCur": 4362,
      "din": 4363,
      "ĠConstitu": 4364,
      "ĠWe": 4365,
      "Ġimperador": 4366,
      "Sa": 4367,
      "ĠAmb": 4368,
      "ĠMiguel": 4369,
      "Ġdefesa": 4370,
      "ĠPolÃŃ": 4371,
      "udo": 4372,
      "ĠseÃ§Ã£o": 4373,
      "rentes": 4374,
      "ĠWikipedia": 4375,
      "Ġnesse": 4376,
      "mit": 4377,
      "ĠEdi": 4378,
      "Ġcolocar": 4379,
      "Ġavis": 4380,
      "Ġ1981": 4381,
      "Ġdescend": 4382,
      "';": 4383,
      "Ġexa": 4384,
      "Ġclaro": 4385,
      "hi": 4386,
      "Ġcombate": 4387,
      "ĠcrianÃ§as": 4388,
      "Ġmec": 4389,
      "urgo": 4390,
      "iteratura": 4391,
      "ĠfunÃ§Ãµes": 4392,
      "ĠPossui": 4393,
      "Ġguitar": 4394,
      "ĠRobert": 4395,
      "ificaÃ§Ã£o": 4396,
      "Ġ2020": 4397,
      "ĠAlegre": 4398,
      "encia": 4399,
      "Durante": 4400,
      "Ġsac": 4401,
      "ĠÃ¡r": 4402,
      "ridge": 4403,
      "Ġrespeito": 4404,
      "77": 4405,
      "ĠEg": 4406,
      "Ġadministrador": 4407,
      "ronteira": 4408,
      "Ġentrada": 4409,
      "tte": 4410,
      "Ġconven": 4411,
      "Ġpesquis": 4412,
      "Ġ1950": 4413,
      "Ġusando": 4414,
      "ĠOf": 4415,
      "Ġlegisla": 4416,
      "Ġclubes": 4417,
      "Ġsolid": 4418,
      "ĠEra": 4419,
      "ĠinfluÃªncia": 4420,
      "Ġconde": 4421,
      "89": 4422,
      "ĠLos": 4423,
      "Ġiniciou": 4424,
      "Ã³d": 4425,
      "Ġcump": 4426,
      "cessos": 4427,
      "Ġpassar": 4428,
      "Ġpergun": 4429,
      "ball": 4430,
      "ĠestÃºdio": 4431,
      "=\"#": 4432,
      "CO": 4433,
      "Ġ1978": 4434,
      "ĠtÃŃtulos": 4435,
      "uros": 4436,
      "']": 4437,
      "untos": 4438,
      "ĠMy": 4439,
      "ĠFaculdade": 4440,
      "ĠCharles": 4441,
      "ĠcomeÃ§a": 4442,
      "Ġeurope": 4443,
      "Ġsejam": 4444,
      "ĠindivÃŃdu": 4445,
      "Ġimedia": 4446,
      "lie": 4447,
      "Ġpropor": 4448,
      "Ġcompara": 4449,
      "ĠCastro": 4450,
      "ĠsÃŃ": 4451,
      "ĠHu": 4452,
      "Ġquin": 4453,
      "tela": 4454,
      "ĠConde": 4455,
      "ĠMuseu": 4456,
      "viv": 4457,
      "ĠIor": 4458,
      "orro": 4459,
      "Ġcurso": 4460,
      "ĠSeleÃ§Ã£o": 4461,
      "Ġ1974": 4462,
      "tanha": 4463,
      "Ġdado": 4464,
      "ĠBahia": 4465,
      "Ġhip": 4466,
      "ĠAustrÃ¡lia": 4467,
      "Ġhon": 4468,
      "Ġapon": 4469,
      "ĠFI": 4470,
      "Ġsusp": 4471,
      "Mo": 4472,
      "gresso": 4473,
      "dez": 4474,
      "ĠFin": 4475,
      "Ġvelocidade": 4476,
      "Ġquarto": 4477,
      "ĠAugusto": 4478,
      "inu": 4479,
      "Ġconcen": 4480,
      "Ġinclus": 4481,
      "ĠIsabel": 4482,
      "ĠCamp": 4483,
      "ricas": 4484,
      "Ġconvida": 4485,
      "ĠlanÃ§ou": 4486,
      "BA": 4487,
      "burg": 4488,
      "Ġconquistou": 4489,
      "Ġcompre": 4490,
      "Ġmim": 4491,
      "ĠâĢ¢": 4492,
      "Ġsele": 4493,
      "tei": 4494,
      "ĠEspe": 4495,
      "trÃ³": 4496,
      "iados": 4497,
      "Ġpalavras": 4498,
      "Cal": 4499,
      "reio": 4500,
      "ĠCatarina": 4501,
      "ĠeliminaÃ§Ã£o": 4502,
      "ĠPrimeira": 4503,
      "rizaÃ§Ã£o": 4504,
      "ĠcÃ©l": 4505,
      "ĠSin": 4506,
      "issÃµes": 4507,
      "enco": 4508,
      "Ġdemonstra": 4509,
      "pp": 4510,
      "clo": 4511,
      "chem": 4512,
      "Ġ'[": 4513,
      "Ġescritor": 4514,
      "ĠdifÃŃ": 4515,
      "Ġfab": 4516,
      "Ġquantidade": 4517,
      "Ġencontrar": 4518,
      "Ġbloqueio": 4519,
      "ĠBon": 4520,
      "era": 4521,
      "ĠmudanÃ§a": 4522,
      "ĠrazÃ£o": 4523,
      "Ġnave": 4524,
      "Ġbal": 4525,
      "ĠVo": 4526,
      "Ġarma": 4527,
      "Ġpartido": 4528,
      "ĠIorque": 4529,
      "Ġfundam": 4530,
      "Ġ60": 4531,
      "osofia": 4532,
      "ogrÃ¡": 4533,
      "Ġposi": 4534,
      "Ġrefor": 4535,
      "Ġapren": 4536,
      "Ġindivi": 4537,
      "Ab": 4538,
      "ĠaÃ©": 4539,
      "vÃ£o": 4540,
      "tureza": 4541,
      "Ġprecisa": 4542,
      "ixos": 4543,
      "ocu": 4544,
      "Ã´nico": 4545,
      "ĠlÃŃder": 4546,
      "ÃŃdas": 4547,
      "ĠVir": 4548,
      "Ã©ia": 4549,
      "ĠCD": 4550,
      "Ġ1975": 4551,
      "Ġhomenagem": 4552,
      "riano": 4553,
      "And": 4554,
      "ĠcaracterÃŃsticas": 4555,
      "Ġga": 4556,
      "trÃ¡s": 4557,
      "ĠseguranÃ§a": 4558,
      "sim": 4559,
      "ĠHom": 4560,
      "2002": 4561,
      "Ġesquer": 4562,
      "ĠeleiÃ§Ãµes": 4563,
      "lis": 4564,
      "ĠEUA": 4565,
      "ĠJoa": 4566,
      "tricidade": 4567,
      "Ġabandon": 4568,
      "ĠpÃºblica": 4569,
      "xas": 4570,
      "Ġbio": 4571,
      "ĠAÃ§ores": 4572,
      "ridas": 4573,
      "ĠPin": 4574,
      "Ġestou": 4575,
      "Ġami": 4576,
      "ani": 4577,
      "Ġquil": 4578,
      "ĠQ": 4579,
      "ĠSÃ©rie": 4580,
      "antas": 4581,
      "titude": 4582,
      "ĠMusic": 4583,
      "Ġtrabalhou": 4584,
      "70": 4585,
      "Entre": 4586,
      "ĠÃºltimos": 4587,
      "ĠDin": 4588,
      "Demografia": 4589,
      "ĠCidade": 4590,
      "Ġexce": 4591,
      "ĠXIX": 4592,
      "well": 4593,
      "Ġagra": 4594,
      "Ġderi": 4595,
      "Ġcaracte": 4596,
      "Ã©rcio": 4597,
      "Ġsei": 4598,
      "ield": 4599,
      "ĠRÃºssia": 4600,
      "Ġestadunidense": 4601,
      "2003": 4602,
      "Ġprojetos": 4603,
      "Ġconserva": 4604,
      "lag": 4605,
      "Ġconce": 4606,
      "ĠBor": 4607,
      "ĠedifÃŃcio": 4608,
      "Ġespanhol": 4609,
      "fi": 4610,
      "ann": 4611,
      "ende": 4612,
      "ĠeducaÃ§Ã£o": 4613,
      "rindo": 4614,
      "ĠdistÃ¢ncia": 4615,
      "ĠPaÃŃs": 4616,
      "tter": 4617,
      "ensis": 4618,
      "olis": 4619,
      "Ġvem": 4620,
      "ĠProf": 4621,
      "ild": 4622,
      "ĠBran": 4623,
      "ĠFerreira": 4624,
      "ulaÃ§Ã£o": 4625,
      "rava": 4626,
      "Ġtraduz": 4627,
      "Ġmanif": 4628,
      "Nas": 4629,
      "Ġcanal": 4630,
      "Ġsexo": 4631,
      "xon": 4632,
      "ĠatenÃ§Ã£o": 4633,
      "ilar": 4634,
      "eida": 4635,
      "ĠregiÃµes": 4636,
      "ĠcabeÃ§a": 4637,
      "ĠEssa": 4638,
      "Ġdescoberto": 4639,
      "vios": 4640,
      "yo": 4641,
      "ĠSha": 4642,
      "Ġcolabo": 4643,
      "andante": 4644,
      "ĠFab": 4645,
      "ross": 4646,
      "Ġestadual": 4647,
      "ĠBom": 4648,
      "ĠCivil": 4649,
      "Ġfeminino": 4650,
      "ambu": 4651,
      "Ġescolh": 4652,
      "Ho": 4653,
      "venida": 4654,
      "xto": 4655,
      "ĠDie": 4656,
      "Ġreferen": 4657,
      "Ġsuce": 4658,
      "Ġacus": 4659,
      "Ġsou": 4660,
      "Ġacer": 4661,
      "ĠDra": 4662,
      "ĠMark": 4663,
      "Ġlic": 4664,
      "didas": 4665,
      "ĠcanÃ§Ãµes": 4666,
      "ĠPorÃ©m": 4667,
      "\")": 4668,
      ":#": 4669,
      "width": 4670,
      "ĠAf": 4671,
      "Ins": 4672,
      "ĠLiber": 4673,
      "Ã³rnia": 4674,
      "Ġtiveram": 4675,
      "Ġajudar": 4676,
      "chos": 4677,
      "ĠCiÃªncias": 4678,
      "ĠÃ¢": 4679,
      "ĠEstu": 4680,
      "SS": 4681,
      "ĠVis": 4682,
      "ĠAssembleia": 4683,
      "Ġbran": 4684,
      "ifÃ³rnia": 4685,
      "74": 4686,
      "Ġregistra": 4687,
      "Ġincor": 4688,
      "Ġrecus": 4689,
      "Ġtempos": 4690,
      "Ġtraz": 4691,
      "]'": 4692,
      "Ġbaseado": 4693,
      "Ã©lio": 4694,
      "Ġconcentra": 4695,
      "Ð°": 4696,
      "Ġcaminho": 4697,
      "cr": 4698,
      "uais": 4699,
      "eza": 4700,
      "Ġdecidiu": 4701,
      "ĠLove": 4702,
      "Ġmencion": 4703,
      "Ġaerona": 4704,
      "Ġtipos": 4705,
      "Ġ1977": 4706,
      "Ġfinanc": 4707,
      "ĠVitÃ³ria": 4708,
      "ĠreferÃªncias": 4709,
      "lares": 4710,
      "onel": 4711,
      "Ġamigo": 4712,
      "Ġ1972": 4713,
      "Ġautom": 4714,
      "unos": 4715,
      "ĠGoverno": 4716,
      "wiki": 4717,
      "Ġ1968": 4718,
      "Ġvila": 4719,
      "Ġretra": 4720,
      "ReferÃªncias": 4721,
      "pado": 4722,
      "Ġconsiderada": 4723,
      "ĠPhil": 4724,
      "Ġoeste": 4725,
      "Ġ1964": 4726,
      "Ġunidades": 4727,
      "Ġ'(": 4728,
      "eios": 4729,
      "Ġdirig": 4730,
      "Ġcoro": 4731,
      "ji": 4732,
      "rÃ¢n": 4733,
      "aria": 4734,
      "Ġmem": 4735,
      "Ġconsequ": 4736,
      "iblioteca": 4737,
      "Ġapos": 4738,
      "68": 4739,
      "Ġcuja": 4740,
      "Ġ1973": 4741,
      "Ġluz": 4742,
      "Ġvivo": 4743,
      "Ad": 4744,
      "dora": 4745,
      "Ġhistoria": 4746,
      "Ġleste": 4747,
      "Ġconsul": 4748,
      "Ġperce": 4749,
      "Ġ04": 4750,
      "Ane": 4751,
      "ĠsaÃºde": 4752,
      "Ġinim": 4753,
      "Ġigual": 4754,
      "Ã¼r": 4755,
      "79": 4756,
      "ÃŃg": 4757,
      "ĠIP": 4758,
      "Ġespor": 4759,
      "izar": 4760,
      "bunal": 4761,
      "Ġinicial": 4762,
      "ĠCastelo": 4763,
      "Ġmedalha": 4764,
      "Ãģ": 4765,
      "criÃ§Ã£o": 4766,
      "ĠPes": 4767,
      "Ġrealmente": 4768,
      "Ġinspira": 4769,
      "ster": 4770,
      "Ġteatro": 4771,
      "Ġobteve": 4772,
      "ĠBlack": 4773,
      "cular": 4774,
      "ated": 4775,
      "ĠCanadÃ¡": 4776,
      "Ġfederal": 4777,
      "Ġalim": 4778,
      "ull": 4779,
      "ĠCity": 4780,
      "Ġmasculino": 4781,
      "ublic": 4782,
      "ĠRichard": 4783,
      "ili": 4784,
      "Ġsociais": 4785,
      "Ġtentativa": 4786,
      "ĠAlb": 4787,
      "guai": 4788,
      "tidas": 4789,
      "Ġcontinua": 4790,
      "yer": 4791,
      "lago": 4792,
      "Ġcobertos": 4793,
      "Ġchegar": 4794,
      "ek": 4795,
      "Ġul": 4796,
      "73": 4797,
      "dÃªm": 4798,
      "ĠMinistÃ©rio": 4799,
      "yd": 4800,
      "ĠCer": 4801,
      "Ġartistas": 4802,
      "1999": 4803,
      "ĠaÃ§Ãµes": 4804,
      "Ġresposta": 4805,
      "Ja": 4806,
      "tua": 4807,
      "missÃ£o": 4808,
      "dita": 4809,
      "Ġinicialmente": 4810,
      "Ġtenho": 4811,
      "Ġrecursos": 4812,
      "tti": 4813,
      "Ġpoucos": 4814,
      "Ġris": 4815,
      "trim": 4816,
      "ĠGol": 4817,
      "Ġconflito": 4818,
      "Ġresultados": 4819,
      "Ġcujo": 4820,
      "ĠRibeiro": 4821,
      "alha": 4822,
      "men": 4823,
      "Ġatividade": 4824,
      "pin": 4825,
      "uba": 4826,
      "ĠArte": 4827,
      "ÃŃtulo": 4828,
      "ĠavanÃ§": 4829,
      "Ġdou": 4830,
      "ĠKo": 4831,
      "ĠChamp": 4832,
      "tory": 4833,
      "Ġcolon": 4834,
      "tical": 4835,
      "ĠBill": 4836,
      "ĠmÃºsicas": 4837,
      "Ġmodi": 4838,
      "Ġplano": 4839,
      "resc": 4840,
      "').": 4841,
      "Ġprodutos": 4842,
      "75": 4843,
      "Is": 4844,
      "IA": 4845,
      "cta": 4846,
      "Ġaux": 4847,
      "bos": 4848,
      "Ġfuturo": 4849,
      "ceria": 4850,
      "ii": 4851,
      "Ġveio": 4852,
      "Imagem": 4853,
      "Ġpais": 4854,
      "ware": 4855,
      "ĠGeneral": 4856,
      "âĢĿ.": 4857,
      "ĠRoberto": 4858,
      "Ġcarta": 4859,
      "cla": 4860,
      "Ãºstria": 4861,
      "ĠadministraÃ§Ã£o": 4862,
      "ĠFrede": 4863,
      "itz": 4864,
      "98": 4865,
      "ĠJan": 4866,
      "ĠquÃŃm": 4867,
      "Ġempa": 4868,
      "Ġnecessidade": 4869,
      "ĠConstan": 4870,
      "Ġbil": 4871,
      "cÃ£o": 4872,
      "!!": 4873,
      "Ġparticipar": 4874,
      "ĠHon": 4875,
      "Ġliga": 4876,
      "ĠexistÃªncia": 4877,
      "Ġefeito": 4878,
      "Ġformas": 4879,
      "Ġbispo": 4880,
      "Ġ1969": 4881,
      "ology": 4882,
      "Ġesca": 4883,
      "Ġusa": 4884,
      "Ed": 4885,
      "ival": 4886,
      "ĠMonte": 4887,
      "Gra": 4888,
      "enten": 4889,
      "Ġcategorias": 4890,
      "Ġevitar": 4891,
      "Depois": 4892,
      "ĠPeter": 4893,
      "Ġ1971": 4894,
      "Ġchefe": 4895,
      "Man": 4896,
      "Ġcele": 4897,
      "Ġmandato": 4898,
      "Ġsingle": 4899,
      "ĠPapa": 4900,
      "Vida": 4901,
      "Ġesfor": 4902,
      "Ġelenco": 4903,
      "ĠatrÃ¡s": 4904,
      "xic": 4905,
      "riza": 4906,
      "ĠHam": 4907,
      "76": 4908,
      "Ġlonga": 4909,
      "ĠtÃ©cnico": 4910,
      "fera": 4911,
      "Ġterras": 4912,
      "Ġtransforma": 4913,
      ",'": 4914,
      "bate": 4915,
      "ĠHistory": 4916,
      "Ġestatu": 4917,
      "Ġestud": 4918,
      "ĠepisÃ³dios": 4919,
      "ĠKen": 4920,
      "ĠInternational": 4921,
      "pidamente": 4922,
      "ĠAfonso": 4923,
      "ĠCristo": 4924,
      "titul": 4925,
      "Ġbre": 4926,
      "ĠsuperfÃŃ": 4927,
      "Ġanunciou": 4928,
      "Ġmedida": 4929,
      "ĠCaval": 4930,
      "ĠGene": 4931,
      "Ġabor": 4932,
      "taleza": 4933,
      "Un": 4934,
      "ĠBatalha": 4935,
      "Ġtempera": 4936,
      "ĠRede": 4937,
      "ĠRob": 4938,
      "Ġesteve": 4939,
      "Ġpassado": 4940,
      "ponente": 4941,
      "imos": 4942,
      "tulo": 4943,
      "ĠEv": 4944,
      "IC": 4945,
      "tio": 4946,
      "ĠmissÃ£o": 4947,
      "ily": 4948,
      "Ao": 4949,
      "ĠGuilherme": 4950,
      "background": 4951,
      "toria": 4952,
      "ĠAmaz": 4953,
      "Ġforne": 4954,
      "Ġgene": 4955,
      "ĠMag": 4956,
      "Ġestrela": 4957,
      "ĠtraduÃ§Ã£o": 4958,
      "ĠAngeles": 4959,
      "fÃŃcios": 4960,
      "ĠDon": 4961,
      "ĠInd": 4962,
      "Ġinclusive": 4963,
      "Ġestrang": 4964,
      "Ġorden": 4965,
      "RO": 4966,
      "izan": 4967,
      "ach": 4968,
      "ĠStar": 4969,
      "Ġrapidamente": 4970,
      "duais": 4971,
      "John": 4972,
      "ĠexperiÃªncia": 4973,
      "planada": 4974,
      "lÃ¡": 4975,
      "ĠBru": 4976,
      "die": 4977,
      "Ġmetade": 4978,
      "istir": 4979,
      "ĠninguÃ©m": 4980,
      "ĠtrÃ¡": 4981,
      "Ġ1930": 4982,
      "Ġzona": 4983,
      "sta": 4984,
      "Ġcana": 4985,
      "ĠclassificaÃ§Ã£o": 4986,
      "Ġestas": 4987,
      "Ġ70": 4988,
      "une": 4989,
      "Ġves": 4990,
      "ike": 4991,
      ".]": 4992,
      "ĠBio": 4993,
      "ĠIlha": 4994,
      ".;": 4995,
      "Il": 4996,
      "elhos": 4997,
      "Ġoficiais": 4998,
      "Ã´nimo": 4999,
      "Ġmulti": 5000,
      "ĠNovo": 5001,
      "Ġinfe": 5002,
      "ĠCompanhia": 5003,
      "Ġsistemas": 5004,
      "Ġram": 5005,
      "Ġmatem": 5006,
      "tista": 5007,
      "tain": 5008,
      "ĠDuque": 5009,
      "cografia": 5010,
      "Ġcontinuou": 5011,
      "Quando": 5012,
      "ĠDaniel": 5013,
      "ĠPÃ¡gina": 5014,
      "Ġ1940": 5015,
      "EC": 5016,
      "ĠPas": 5017,
      "out": 5018,
      "ĠLife": 5019,
      "olÃ³gica": 5020,
      "ĠVan": 5021,
      "Ġ80": 5022,
      "Ġcandidato": 5023,
      "ĠdÃº": 5024,
      "Ã³f": 5025,
      "#\"": 5026,
      "Ġinclui": 5027,
      "Ġefe": 5028,
      "Ġcerto": 5029,
      "Ġseguir": 5030,
      "Ġingles": 5031,
      "Ġintroduz": 5032,
      "Ġindic": 5033,
      "imbra": 5034,
      "Ã¢nica": 5035,
      "ĠeleiÃ§Ã£o": 5036,
      "Ã³is": 5037,
      "umin": 5038,
      "Ġpossuem": 5039,
      "Ġmensagem": 5040,
      "olÃ³gico": 5041,
      "Ġitaliano": 5042,
      "cepÃ§Ã£o": 5043,
      "ella": 5044,
      "Ġrea": 5045,
      "ĠFon": 5046,
      "Ġmotivo": 5047,
      "Ġles": 5048,
      "yal": 5049,
      "Ġbol": 5050,
      "Ġpros": 5051,
      "Ġestreou": 5052,
      "ĠcÃ©": 5053,
      "arte": 5054,
      "2014": 5055,
      "arqu": 5056,
      "Ġrelev": 5057,
      "ĠEcon": 5058,
      "ivamente": 5059,
      "ĠconstruÃŃdo": 5060,
      "ĠvÃ¡": 5061,
      "Ġpoten": 5062,
      "1992": 5063,
      "Ġambiente": 5064,
      "Ġdela": 5065,
      "ĠRic": 5066,
      "vog": 5067,
      "Ġnatureza": 5068,
      "Ġcarro": 5069,
      "Ġconceito": 5070,
      "Ġdisc": 5071,
      "ĠAntonio": 5072,
      "nÃ¡": 5073,
      "Ġafe": 5074,
      "ĠCla": 5075,
      "Ġcompanh": 5076,
      "ĠanÃ¡lise": 5077,
      "Ġcriou": 5078,
      "istÃ³rico": 5079,
      "ĠpeÃ§as": 5080,
      "Ġsimplesmente": 5081,
      "Image": 5082,
      "Ġfreguesia": 5083,
      "Ġtratamento": 5084,
      "ĠirmÃ£os": 5085,
      "ĠCO": 5086,
      "91": 5087,
      "bgcolor": 5088,
      "Ġcastelo": 5089,
      "tindo": 5090,
      "ĠEmbora": 5091,
      "Ġtrop": 5092,
      "Ġ1967": 5093,
      "Ð¾": 5094,
      ".--": 5095,
      "Anexo": 5096,
      "ĠRock": 5097,
      "Ġhabita": 5098,
      "tinho": 5099,
      "Ġunidade": 5100,
      "vento": 5101,
      "Ãºne": 5102,
      "Ġhaver": 5103,
      "Ġafirmou": 5104,
      "Ġsug": 5105,
      "ĠAndrÃ©": 5106,
      "text": 5107,
      "Ġperdeu": 5108,
      "rilha": 5109,
      "ĠAli": 5110,
      "ĠseleÃ§Ã£o": 5111,
      "ĠCab": 5112,
      "Ġsemanas": 5113,
      "ĠVolume": 5114,
      "rigado": 5115,
      "Ġadici": 5116,
      "mal": 5117,
      "Ġenvi": 5118,
      "Ver": 5119,
      "ĠAinda": 5120,
      "ĠArtes": 5121,
      "Ġlinhas": 5122,
      "ĠSi": 5123,
      "Ġhor": 5124,
      "bia": 5125,
      "Ġvocal": 5126,
      "ĠbritÃ¢nico": 5127,
      "Ġtorno": 5128,
      "Ġtenham": 5129,
      "ridades": 5130,
      "TP": 5131,
      "Ġpropriedade": 5132,
      "ĠÃįndia": 5133,
      "zar": 5134,
      "Ġanteriores": 5135,
      "ĠAlexandre": 5136,
      "ĠprÃŃncipe": 5137,
      "Ġbra": 5138,
      "ĠestÃ¡dio": 5139,
      "ette": 5140,
      "tuais": 5141,
      "Ġbloque": 5142,
      "ĠSociedade": 5143,
      "ĠlanÃ§ada": 5144,
      "Ġfala": 5145,
      "zu": 5146,
      "Ġescrever": 5147,
      "Ġmic": 5148,
      "Ġcaptura": 5149,
      "tempor": 5150,
      "final": 5151,
      "Ġdescober": 5152,
      "ĠHor": 5153,
      "Ġpron": 5154,
      "rano": 5155,
      "ĠOx": 5156,
      "igna": 5157,
      "Ġcosta": 5158,
      "Ġprogramas": 5159,
      "ĠAlmeida": 5160,
      "Ġfazem": 5161,
      "ĠHÃ¡": 5162,
      "Ġtotalmente": 5163,
      "ritos": 5164,
      "Ġmag": 5165,
      "Ġmarcou": 5166,
      "ĠEducaÃ§Ã£o": 5167,
      "uri": 5168,
      "ĠaÃŃ": 5169,
      "ovo": 5170,
      "olina": 5171,
      "istem": 5172,
      "turais": 5173,
      "eitos": 5174,
      "Ãµe": 5175,
      "ĠTrabal": 5176,
      "ĠpÃ³s": 5177,
      "Ãºr": 5178,
      "Ġpreocu": 5179,
      "ĠMul": 5180,
      "Ã³rio": 5181,
      "Ġexplica": 5182,
      "ĠQuin": 5183,
      "ĠFundaÃ§Ã£o": 5184,
      "Ġ1945": 5185,
      "Ġrestau": 5186,
      "Ġvin": 5187,
      "ĠGonÃ§": 5188,
      "Ã©mio": 5189,
      "ĠlanÃ§a": 5190,
      "Ġcrescimento": 5191,
      "ismos": 5192,
      "Ã¡ticos": 5193,
      "Ġinvas": 5194,
      "Te": 5195,
      "Ġ36": 5196,
      "Ġdinheiro": 5197,
      "ĠAmerican": 5198,
      "rador": 5199,
      "ried": 5200,
      "Ġpartidas": 5201,
      "bita": 5202,
      "ĠrelaÃ§Ãµes": 5203,
      "cÃ³": 5204,
      "Ġprefeito": 5205,
      "Ġfinalmente": 5206,
      "Ãªmios": 5207,
      "ĠComissÃ£o": 5208,
      "ĠtÃ©cnica": 5209,
      "rendo": 5210,
      "Filmes": 5211,
      "AN": 5212,
      "ĠSÃ³": 5213,
      "Ġinten": 5214,
      "ĠCalifÃ³rnia": 5215,
      "tol": 5216,
      "iocese": 5217,
      "Ġadministradores": 5218,
      "ĠmÃ©dico": 5219,
      "ĠdifÃŃcil": 5220,
      "ĠChampion": 5221,
      "Ġexplic": 5222,
      "rÃ³": 5223,
      "ĠDemoc": 5224,
      "esas": 5225,
      "finiÃ§Ãµes": 5226,
      "Ġaspec": 5227,
      "Ġreceber": 5228,
      "ĠirmÃ£": 5229,
      "Ġintitul": 5230,
      "ĠSalvador": 5231,
      "row": 5232,
      "hada": 5233,
      "Ġglo": 5234,
      ";\"|": 5235,
      "Ġgosta": 5236,
      "ĠRosa": 5237,
      "Ġbanco": 5238,
      "Ġestados": 5239,
      "ĠThomas": 5240,
      "Ġfrequentemente": 5241,
      "Ban": 5242,
      "Ġavi": 5243,
      "ceram": 5244,
      "ĠveÃŃ": 5245,
      "Ġarre": 5246,
      "temporÃ¢n": 5247,
      "Ġalterna": 5248,
      "Ġbaixa": 5249,
      "emas": 5250,
      "Ġprotagon": 5251,
      "ĠTeatro": 5252,
      "ĠAlf": 5253,
      "andro": 5254,
      "Ju": 5255,
      "osos": 5256,
      "Ġcompletamente": 5257,
      "Ġclara": 5258,
      "burgo": 5259,
      "86": 5260,
      "ĠEstra": 5261,
      "gares": 5262,
      "Ġ1966": 5263,
      "Ġdens": 5264,
      "Ġabertura": 5265,
      "izado": 5266,
      "Ãºsica": 5267,
      "ĠWeb": 5268,
      "Ġadequ": 5269,
      "ĠEstre": 5270,
      "frac": 5271,
      "Ġestimada": 5272,
      "ose": 5273,
      "Ġconvers": 5274,
      "ĠelÃ©tri": 5275,
      "Ġsoldados": 5276,
      "ĠMadeira": 5277,
      "Ġsup": 5278,
      "cais": 5279,
      "ĠsequÃªncia": 5280,
      "Ġromance": 5281,
      "ĠRam": 5282,
      "ĠRua": 5283,
      "Ġfundo": 5284,
      "grafo": 5285,
      "Ġcomprimento": 5286,
      "Ġtorneio": 5287,
      "ÃŃlias": 5288,
      "ĠSoci": 5289,
      "trop": 5290,
      "ĠOuro": 5291,
      "Ġnota": 5292,
      "Ġassumiu": 5293,
      "ĠrÃ¡dio": 5294,
      "ultado": 5295,
      "Ġcrist": 5296,
      "Ã³polis": 5297,
      "Ġincluem": 5298,
      "1998": 5299,
      "gs": 5300,
      "ĠAdministra": 5301,
      "ĠMich": 5302,
      "Ġeta": 5303,
      "eck": 5304,
      "ĠRodrigues": 5305,
      "Åį": 5306,
      "Ha": 5307,
      "Ġcorte": 5308,
      "dol": 5309,
      "Ġsuficiente": 5310,
      "Ġtentar": 5311,
      "Ġdor": 5312,
      "Ġcomposto": 5313,
      "Ġdivul": 5314,
      "Ġtext": 5315,
      "ĠGomes": 5316,
      "Ġformato": 5317,
      "unes": 5318,
      "Per": 5319,
      "Grande": 5320,
      "Ġexclus": 5321,
      "Ġexcen": 5322,
      "DB": 5323,
      "ser": 5324,
      "merica": 5325,
      "Ġexpress": 5326,
      "Ġgravado": 5327,
      "ĠPredefiniÃ§Ã£o": 5328,
      "Ã©sar": 5329,
      "Ġprojec": 5330,
      "ĠligaÃ§Ã£o": 5331,
      "Ġjornalista": 5332,
      "ction": 5333,
      "ĠmudanÃ§as": 5334,
      "ĠÃ¡lbuns": 5335,
      "Ð¸": 5336,
      "Am": 5337,
      "ĠBlo": 5338,
      "Ġ1962": 5339,
      "yl": 5340,
      "Ġcob": 5341,
      "ĠBre": 5342,
      "ĠFlora": 5343,
      "Ġnormalmente": 5344,
      "istÃ£o": 5345,
      "Ġcomercial": 5346,
      "Ã§ada": 5347,
      "tano": 5348,
      "Ġdisp": 5349,
      "king": 5350,
      "ashington": 5351,
      "Condado": 5352,
      "Ġpublicou": 5353,
      "ĠCorpo": 5354,
      "ĠvisÃ£o": 5355,
      "Ġpaci": 5356,
      "ep": 5357,
      "rome": 5358,
      "reno": 5359,
      "ĠAlberto": 5360,
      "Ġexcentricidade": 5361,
      "ĠÃģustria": 5362,
      "tta": 5363,
      "envol": 5364,
      "ĠSci": 5365,
      "Ġpassando": 5366,
      "Ġhumanos": 5367,
      "Ġcli": 5368,
      "Ġtron": 5369,
      "ars": 5370,
      "tropol": 5371,
      "ĠInte": 5372,
      "ship": 5373,
      "ficaÃ§Ãµes": 5374,
      "Brasil": 5375,
      "95": 5376,
      "Je": 5377,
      "ĠSmith": 5378,
      "ĠRed": 5379,
      "ridae": 5380,
      "2015": 5381,
      "ific": 5382,
      "esia": 5383,
      "bara": 5384,
      "Ġfeitas": 5385,
      "Ġ1965": 5386,
      "Ġpassagem": 5387,
      "ĠCra": 5388,
      "ning": 5389,
      "Ġcomposta": 5390,
      "Ġamigos": 5391,
      "Funda": 5392,
      "andal": 5393,
      "&#": 5394,
      "cin": 5395,
      "Ġatuou": 5396,
      "Ġfalar": 5397,
      "Ġtalvez": 5398,
      "ĠWP": 5399,
      "Ġ35": 5400,
      "Ġmarido": 5401,
      "Ġ1939": 5402,
      "Ġcultural": 5403,
      "Ġ90": 5404,
      "ĠcÃ³p": 5405,
      "pha": 5406,
      "enter": 5407,
      "ĠEsse": 5408,
      "Ġnessa": 5409,
      "Ġsemelhante": 5410,
      "Ġoriginalmente": 5411,
      "ĠpeÃ§a": 5412,
      "itÃ¡rio": 5413,
      "mando": 5414,
      "style": 5415,
      "alizado": 5416,
      "dente": 5417,
      "Ġsel": 5418,
      "Ġjovens": 5419,
      "ustiÃ§a": 5420,
      "Ġefeitos": 5421,
      "Ġ2021": 5422,
      "Ã©nero": 5423,
      "itou": 5424,
      "Ġ500": 5425,
      "Ġmanu": 5426,
      "ĠdistribuiÃ§Ã£o": 5427,
      "Ġconforme": 5428,
      "Ġindependente": 5429,
      "Ġrealizar": 5430,
      "ĠgrÃ¡": 5431,
      "Ġmante": 5432,
      "ĠRoc": 5433,
      "ĠsuperfÃŃcie": 5434,
      "Ġcontexto": 5435,
      "bes": 5436,
      "Ġextrem": 5437,
      "Ġnego": 5438,
      "Ġ1958": 5439,
      "nios": 5440,
      "tto": 5441,
      "ĠCoimbra": 5442,
      "100": 5443,
      "uÃŃ": 5444,
      "nte": 5445,
      "Ġmudar": 5446,
      "opes": 5447,
      "Ġfundada": 5448,
      "enador": 5449,
      "ĠScho": 5450,
      "hns": 5451,
      "Ġespec": 5452,
      "Ġ}}": 5453,
      "Pr": 5454,
      "Ġdando": 5455,
      "rine": 5456,
      "Escol": 5457,
      "portun": 5458,
      "Ġapresentou": 5459,
      "Rio": 5460,
      "rinhos": 5461,
      "Ġbene": 5462,
      "verno": 5463,
      "Ġcompositor": 5464,
      "ĠinstituiÃ§Ã£o": 5465,
      "obo": 5466,
      "Ã¢ndia": 5467,
      "ĠprisÃ£o": 5468,
      "vistas": 5469,
      "vados": 5470,
      "Res": 5471,
      "vadas": 5472,
      "Ġshow": 5473,
      "Ġpermaneceu": 5474,
      "bus": 5475,
      "ĠBand": 5476,
      "âĢĶ": 5477,
      "ĠHan": 5478,
      "Ġcompanhia": 5479,
      "ronze": 5480,
      "dÃªncia": 5481,
      "action": 5482,
      "enses": 5483,
      "Ġaut": 5484,
      "yr": 5485,
      "Ġcantor": 5486,
      "ĠcrÃŃticas": 5487,
      "ĠParanÃ¡": 5488,
      "urÃŃ": 5489,
      "ĠAÃ©": 5490,
      "Ġrestri": 5491,
      "ĠRecords": 5492,
      "ĠcomeÃ§aram": 5493,
      "Ġdiretamente": 5494,
      "Ġfec": 5495,
      "Ġconver": 5496,
      "Ġborder": 5497,
      "Ġproduzido": 5498,
      "ionais": 5499,
      "eliz": 5500,
      "Ġescolas": 5501,
      "ĠcomunicaÃ§Ã£o": 5502,
      "Ġlocaliza": 5503,
      "Ġfru": 5504,
      "'^": 5505,
      "Ġviagem": 5506,
      "itando": 5507,
      "Futebol": 5508,
      "ĠLau": 5509,
      "Ġresto": 5510,
      "Ġaumenta": 5511,
      "PS": 5512,
      "tone": 5513,
      "arÃ¡": 5514,
      "cordo": 5515,
      "Ġreforma": 5516,
      "72": 5517,
      "Ġderrota": 5518,
      "ĠEspÃŃ": 5519,
      "vore": 5520,
      "ĠMadrid": 5521,
      "ĠCatÃ³lica": 5522,
      "emos": 5523,
      "Ġdiminu": 5524,
      "ĠSel": 5525,
      "PG": 5526,
      "Ġfize": 5527,
      "Ġtemas": 5528,
      "Ġposto": 5529,
      "ille": 5530,
      "ĠLea": 5531,
      "Ġcores": 5532,
      "ingles": 5533,
      "ĠpolÃŃticos": 5534,
      "leo": 5535,
      "Ġreconhe": 5536,
      "ĠFal": 5537,
      "Ġbel": 5538,
      "ĠSt": 5539,
      "Ġmedic": 5540,
      "wal": 5541,
      "heiros": 5542,
      "top": 5543,
      "Ġrepro": 5544,
      "93": 5545,
      "ĠEstende": 5546,
      "ocÃª": 5547,
      "dian": 5548,
      "He": 5549,
      "ĠdÃ³": 5550,
      "ĠLan": 5551,
      "ĠNational": 5552,
      "ĠnÃ³s": 5553,
      "ĠEnquanto": 5554,
      "ĠdoenÃ§a": 5555,
      "Ġantigos": 5556,
      "AD": 5557,
      "ĠFilho": 5558,
      "Nos": 5559,
      "Ġadul": 5560,
      "Ġchega": 5561,
      "eiÃ§Ã£o": 5562,
      "Ġtradicional": 5563,
      "ivel": 5564,
      "truÃ§Ã£o": 5565,
      "Ġurb": 5566,
      "of": 5567,
      "Ġbrasileiros": 5568,
      "ĠmÃ£o": 5569,
      "ĠcÃ©lulas": 5570,
      "Ġsemi": 5571,
      "ĠcomposiÃ§Ã£o": 5572,
      "cimo": 5573,
      "Ã³gica": 5574,
      "Ġgos": 5575,
      "Geografia": 5576,
      "culas": 5577,
      "si": 5578,
      "Ġfi": 5579,
      "ĠTop": 5580,
      "Ġtrata": 5581,
      "ĠCe": 5582,
      "Ġentrevista": 5583,
      "Ã³nia": 5584,
      "ĠStan": 5585,
      "inados": 5586,
      "ĠCongresso": 5587,
      "Ġpublicada": 5588,
      "Ġ1963": 5589,
      "feitura": 5590,
      "ĠVI": 5591,
      "ĠcientÃŃfica": 5592,
      "Ã³logo": 5593,
      "ĠFar": 5594,
      "Ġtransporte": 5595,
      "Ã¡cia": 5596,
      "ĠSupe": 5597,
      "EL": 5598,
      "Ġdipl": 5599,
      "posi": 5600,
      ".).": 5601,
      "Ġdesses": 5602,
      "iÃµes": 5603,
      "ÃŃram": 5604,
      "riti": 5605,
      "ustrial": 5606,
      "span": 5607,
      "ĠIsto": 5608,
      "Ġoficialmente": 5609,
      "istentes": 5610,
      "ĠSco": 5611,
      "ĊĠ": 5612,
      "Ġdizendo": 5613,
      "Ġconstante": 5614,
      "1996": 5615,
      "ĠversÃµes": 5616,
      "ĠSom": 5617,
      "cussÃµes": 5618,
      "Ġconfi": 5619,
      "untry": 5620,
      "Copa": 5621,
      "Th": 5622,
      "ĠPÃºb": 5623,
      "Ta": 5624,
      "Ġacaba": 5625,
      "Ġvoz": 5626,
      "Ġinc": 5627,
      "ĠLegisla": 5628,
      "cessÃ£o": 5629,
      "Ġdete": 5630,
      "ĠvÃŃti": 5631,
      "Ġcompar": 5632,
      "Ġcoord": 5633,
      "ador": 5634,
      "87": 5635,
      "Ġentrar": 5636,
      "icina": 5637,
      "ĠKar": 5638,
      "ĠFC": 5639,
      "Ġatle": 5640,
      "ĠAtl": 5641,
      "Ġq": 5642,
      "ĠprÃªmio": 5643,
      "ĠvÃ£o": 5644,
      "Ġgal": 5645,
      "Ġvas": 5646,
      "iliar": 5647,
      "forman": 5648,
      "mu": 5649,
      "ĠAma": 5650,
      "ĠWik": 5651,
      "1995": 5652,
      "Ġpodia": 5653,
      "Ġprofesso": 5654,
      "ĠCir": 5655,
      "ĠCampos": 5656,
      "Ste": 5657,
      "alizada": 5658,
      "Ġcapaz": 5659,
      "ĠFun": 5660,
      "ped": 5661,
      "voca": 5662,
      "Ġnega": 5663,
      "Ã©cia": 5664,
      "ĠinclinaÃ§Ã£o": 5665,
      "Ġoportun": 5666,
      "Ġporta": 5667,
      "Ġilustra": 5668,
      "Ġbranco": 5669,
      "Ġestrelas": 5670,
      "Ġfen": 5671,
      "Ġacompanh": 5672,
      "Ġutilizada": 5673,
      "laudio": 5674,
      "postos": 5675,
      "oks": 5676,
      "Ġobriga": 5677,
      "Aca": 5678,
      "Ġprodutor": 5679,
      "Di": 5680,
      "hr": 5681,
      "Ġlingua": 5682,
      "ĠDias": 5683,
      "ĠreÃºne": 5684,
      "ĠJoseph": 5685,
      "Ġdecor": 5686,
      "ĠIns": 5687,
      "hÃ£": 5688,
      "ĠCampo": 5689,
      "Ãªnia": 5690,
      "ĠÎ": 5691,
      "ĠSand": 5692,
      "1997": 5693,
      "aleria": 5694,
      "ĠDesde": 5695,
      "Ġguer": 5696,
      "Ġaconteceu": 5697,
      "ĠHouse": 5698,
      "Ġdomin": 5699,
      "ĠMol": 5700,
      "Ġdiante": 5701,
      "tÃŃn": 5702,
      "Elen": 5703,
      "ceira": 5704,
      "Ġrainha": 5705,
      "ĠJoaquim": 5706,
      "Ġnove": 5707,
      "Ġarran": 5708,
      "Ġeconomia": 5709,
      "ĠpredefiniÃ§Ã£o": 5710,
      "Ġafas": 5711,
      "ĠsÃŃmb": 5712,
      "Ġalunos": 5713,
      "='": 5714,
      "Pra": 5715,
      "ĠGoi": 5716,
      "ipo": 5717,
      "Ġpersegu": 5718,
      "Ġhaviam": 5719,
      "Ġnavios": 5720,
      "Ġpag": 5721,
      "naval": 5722,
      "Ġazul": 5723,
      "ĠAmerica": 5724,
      "Ġpequenos": 5725,
      "ror": 5726,
      "Ðµ": 5727,
      "ĠnegÃ³": 5728,
      "ĠFilipe": 5729,
      "ÃŃdia": 5730,
      "Ġapareceu": 5731,
      "Ġdepend": 5732,
      "2016": 5733,
      "Ġinternacionais": 5734,
      "Ġvelho": 5735,
      "iclopÃ©dia": 5736,
      "Ġencer": 5737,
      "mond": 5738,
      "tinos": 5739,
      "ĠDef": 5740,
      "ĠcÃ³digo": 5741,
      "ĠestratÃ©": 5742,
      "92": 5743,
      "Ġproib": 5744,
      "ĠgeraÃ§Ã£o": 5745,
      "Ġperda": 5746,
      "Ġsusten": 5747,
      "Elenco": 5748,
      "Ġating": 5749,
      "Ġobser": 5750,
      "Ġtemos": 5751,
      "jar": 5752,
      "tÃ¡ria": 5753,
      "peÃµes": 5754,
      "ĠEntretanto": 5755,
      "tÃ©ria": 5756,
      "Ġdupla": 5757,
      "bio": 5758,
      "nais": 5759,
      "ĠAlguns": 5760,
      "Ġplantas": 5761,
      "Ġcita": 5762,
      "Ġrealizou": 5763,
      "Ġope": 5764,
      "ĠBarcel": 5765,
      "Ġrefere": 5766,
      "Ãºcle": 5767,
      "UC": 5768,
      "ĠMiss": 5769,
      "Ġpopulacional": 5770,
      "Ġvs": 5771,
      "Ġviz": 5772,
      "Ġfrances": 5773,
      "ux": 5774,
      "board": 5775,
      "Ġliteratura": 5776,
      "quina": 5777,
      "AM": 5778,
      "ĠCou": 5779,
      "Ġcorrida": 5780,
      "Ġgrau": 5781,
      "ernambu": 5782,
      "ĠAtualmente": 5783,
      "ĠOxford": 5784,
      "AC": 5785,
      "hy": 5786,
      "ĠHal": 5787,
      "Ġencerra": 5788,
      "ĠfÃ¡": 5789,
      "Ġvan": 5790,
      "Ã³m": 5791,
      "Ġartes": 5792,
      "ĠPode": 5793,
      "Im": 5794,
      "ĠbÃ¡s": 5795,
      "Ġacompanha": 5796,
      "vei": 5797,
      "Ġfaixas": 5798,
      "|}": 5799,
      "ĠWest": 5800,
      "Ġprotes": 5801,
      "geral": 5802,
      "iti": 5803,
      "Ã©ria": 5804,
      "Ġhora": 5805,
      "Ġchin": 5806,
      "Ġabsol": 5807,
      "ĠCompan": 5808,
      "ĠMartins": 5809,
      "Go": 5810,
      "plas": 5811,
      "Ġcel": 5812,
      "Ġvolume": 5813,
      "Ġrepeti": 5814,
      "Ġadicion": 5815,
      "Ġrever": 5816,
      "Ġros": 5817,
      "wspan": 5818,
      "Ġcicl": 5819,
      "EstÃ¡": 5820,
      "ugh": 5821,
      "Ġ1961": 5822,
      "ĠJustiÃ§a": 5823,
      "Ġcolocado": 5824,
      "ĠDay": 5825,
      "pse": 5826,
      "Ġib": 5827,
      "Ġpun": 5828,
      "nior": 5829,
      "Ġpequenas": 5830,
      "Ġsucess": 5831,
      "ĠAll": 5832,
      "Ġerro": 5833,
      "Ġfundado": 5834,
      "chado": 5835,
      "pus": 5836,
      "ãĥ": 5837,
      "ĠCÃ©sar": 5838,
      "ĠIt": 5839,
      "Ã¡stica": 5840,
      "Ġataques": 5841,
      "low": 5842,
      "mina": 5843,
      "questra": 5844,
      "VD": 5845,
      "ĠNeste": 5846,
      "lÃ¢ndia": 5847,
      "tente": 5848,
      "ĠsatÃ©": 5849,
      "Cole": 5850,
      "Ġpossa": 5851,
      "clam": 5852,
      "teza": 5853,
      "lbum": 5854,
      "ĠdiferenÃ§a": 5855,
      "Ġvale": 5856,
      "Ã§ou": 5857,
      "Ġfizeram": 5858,
      "Ġcondado": 5859,
      "ĠIsrael": 5860,
      "Ġlink": 5861,
      "ĠtÃ³p": 5862,
      "ister": 5863,
      "Ġvalores": 5864,
      "field": 5865,
      "Ġdrama": 5866,
      "Bra": 5867,
      "fec": 5868,
      "Ġcru": 5869,
      "ĠpublicaÃ§Ã£o": 5870,
      "Ġfiz": 5871,
      "bela": 5872,
      "iada": 5873,
      "dimento": 5874,
      "Ġimprensa": 5875,
      "Ġserviu": 5876,
      "Ġplata": 5877,
      "Ġtare": 5878,
      "Ġescra": 5879,
      "Ġdestacado": 5880,
      "Ġmotor": 5881,
      "Ġfigura": 5882,
      "Ġcomportamento": 5883,
      "ĠBri": 5884,
      "Igreja": 5885,
      "gido": 5886,
      "Ġformado": 5887,
      "Ġfis": 5888,
      "Ġ33": 5889,
      "ĠEngen": 5890,
      "83": 5891,
      "ĠnÃºmeros": 5892,
      "Ġlevar": 5893,
      "Ġ1920": 5894,
      "61": 5895,
      "pou": 5896,
      "rense": 5897,
      "Ġnavio": 5898,
      "math": 5899,
      "ĠVin": 5900,
      "tese": 5901,
      "ĠWashington": 5902,
      "zi": 5903,
      "ĠTÃ©cn": 5904,
      "jeto": 5905,
      "ĠexpressÃ£o": 5906,
      "ĠBos": 5907,
      "ĠKing": 5908,
      "64": 5909,
      "ĠUl": 5910,
      "kins": 5911,
      "ĠEspa": 5912,
      "Chris": 5913,
      "Ġrua": 5914,
      "Ġprem": 5915,
      "Ġfronteira": 5916,
      "Ġ1959": 5917,
      "bon": 5918,
      "Ġcintura": 5919,
      "Ġilhas": 5920,
      "Ġpiloto": 5921,
      "ÃŃss": 5922,
      "Ġerros": 5923,
      "omen": 5924,
      "ĠTen": 5925,
      "Ġlugares": 5926,
      "Ġdensidade": 5927,
      "fal": 5928,
      "Ġtit": 5929,
      "ites": 5930,
      "tÃŃcias": 5931,
      "ĠAnti": 5932,
      "ĠNames": 5933,
      "mbia": 5934,
      "Ã©is": 5935,
      "vedo": 5936,
      "istema": 5937,
      "ctor": 5938,
      "Ġesquerda": 5939,
      "ĠJac": 5940,
      "Ġemisso": 5941,
      "ĠgÃ©nero": 5942,
      "94": 5943,
      "ĠPl": 5944,
      "idad": 5945,
      "crito": 5946,
      "ration": 5947,
      "Ã¢nico": 5948,
      "thur": 5949,
      "Ġterem": 5950,
      "ĠmÃ£os": 5951,
      "Ġsecund": 5952,
      "wo": 5953,
      "ĠJornal": 5954,
      "ĠfusÃ£o": 5955,
      "fas": 5956,
      "Ġseriam": 5957,
      "ĠFIFA": 5958,
      "ĠAz": 5959,
      "84": 5960,
      "hu": 5961,
      "Ġautores": 5962,
      "itana": 5963,
      "ĠGir": 5964,
      "ĠRafa": 5965,
      "Ġusados": 5966,
      "Ġplanta": 5967,
      "Ġprata": 5968,
      "Har": 5969,
      "ĠfÃŃsica": 5970,
      "ĠpressÃ£o": 5971,
      "Discografia": 5972,
      "OL": 5973,
      "SA": 5974,
      "Ġturn": 5975,
      "Ġobter": 5976,
      "deram": 5977,
      "antaria": 5978,
      "Ġdaquele": 5979,
      "ÃŃtulos": 5980,
      "ristas": 5981,
      "ĠJuan": 5982,
      "'t": 5983,
      "ĠJohns": 5984,
      "ĠRog": 5985,
      "ĠTour": 5986,
      "vera": 5987,
      "litos": 5988,
      "rÃ©cia": 5989,
      "Ġnucle": 5990,
      "Ã¢mica": 5991,
      "Pol": 5992,
      "Ġlate": 5993,
      "Ġmeados": 5994,
      "Ġconhecidos": 5995,
      "Escolha": 5996,
      "ĠRus": 5997,
      "ĠdiscussÃµes": 5998,
      "ĠCinema": 5999,
      "Ġconsidera": 6000,
      "ĠMarc": 6001,
      "Ġregis": 6002,
      "ĠmÃ©todo": 6003,
      "ĠquestÃµes": 6004,
      "ograph": 6005,
      "ĠTribunal": 6006,
      "62": 6007,
      "Ġselecion": 6008,
      "Ġexperim": 6009,
      "ĠLopes": 6010,
      "Ġasc": 6011,
      "ety": 6012,
      "Ġfogo": 6013,
      "Ġth": 6014,
      "Ġanteriormente": 6015,
      "Ġaudi": 6016,
      "ournal": 6017,
      "Ġaparente": 6018,
      "Ġsolic": 6019,
      "Ġmsg": 6020,
      "67": 6021,
      "Ġaltera": 6022,
      "ĠsoluÃ§Ã£o": 6023,
      "ĠHall": 6024,
      "ult": 6025,
      "ĠBranco": 6026,
      "Char": 6027,
      "ĠJim": 6028,
      "mÃ£o": 6029,
      "Ġbizan": 6030,
      "2017": 6031,
      "ĠVale": 6032,
      "Ġmorto": 6033,
      "ĠCos": 6034,
      "ĠindÃºstria": 6035,
      "Alex": 6036,
      "centes": 6037,
      "Ġprazo": 6038,
      "Ġquis": 6039,
      "Ġques": 6040,
      "ben": 6041,
      "ĠZo": 6042,
      "ĠprÃ³xima": 6043,
      "sch": 6044,
      "Ġ1956": 6045,
      "exo": 6046,
      "Ġcuida": 6047,
      "Ġdesconheci": 6048,
      "ĠVar": 6049,
      "thy": 6050,
      "iller": 6051,
      "65": 6052,
      "ĠCel": 6053,
      "ĠGard": 6054,
      "ĠconstruÃŃda": 6055,
      "Ġartil": 6056,
      "Ġlibe": 6057,
      "Ġcomba": 6058,
      "Ġcompleto": 6059,
      "reto": 6060,
      "ĠChampionship": 6061,
      "Ġcomandante": 6062,
      "%).": 6063,
      "Ġnacionais": 6064,
      "poss": 6065,
      "vogado": 6066,
      "Ġimpa": 6067,
      "ĠArqu": 6068,
      "ĠHenry": 6069,
      "Ac": 6070,
      "ÃŃÃ§a": 6071,
      "Ġacha": 6072,
      "ding": 6073,
      "Ġfas": 6074,
      "ĠCle": 6075,
      "Ġconduz": 6076,
      "nias": 6077,
      "Ġtransmi": 6078,
      "ĠprÃ³xim": 6079,
      "Ġparceria": 6080,
      "nie": 6081,
      "chas": 6082,
      "ĠPernambu": 6083,
      "ĠcapitÃ£o": 6084,
      "Ġnaturais": 6085,
      "Uni": 6086,
      "tragem": 6087,
      "Ġfus": 6088,
      "cip": 6089,
      "Ġpossibilidade": 6090,
      "Ġencontrada": 6091,
      "ĠGusta": 6092,
      "rela": 6093,
      "Ġvoltar": 6094,
      "Ġestatuto": 6095,
      "ĠLetras": 6096,
      "Ġiria": 6097,
      "BR": 6098,
      "ĠoperaÃ§Ãµes": 6099,
      "vier": 6100,
      "ĠfamÃŃlias": 6101,
      "Ġencar": 6102,
      "ĠSÃŃ": 6103,
      "Lo": 6104,
      "Ãł": 6105,
      "ĠEspÃŃrito": 6106,
      "Ġvide": 6107,
      "ĠindivÃŃduos": 6108,
      "itÃ³rias": 6109,
      "Ã³i": 6110,
      "Ġ1955": 6111,
      "Prim": 6112,
      "ĠMarinha": 6113,
      "viÃ©tica": 6114,
      "Ġmuita": 6115,
      "Ġregime": 6116,
      "plica": 6117,
      "Ġvul": 6118,
      "Ġacresc": 6119,
      "ivas": 6120,
      "zy": 6121,
      "Ġaqueles": 6122,
      "Ġcima": 6123,
      "cuito": 6124,
      "Ġ1954": 6125,
      "ĠRen": 6126,
      "Ġmadeira": 6127,
      "Ġpeso": 6128,
      "ips": 6129,
      "till": 6130,
      "gumas": 6131,
      "ĠSchool": 6132,
      "Ġgrego": 6133,
      "Ġliberdade": 6134,
      "ĠLinha": 6135,
      "ĠPrÃŃncipe": 6136,
      "Ġqueria": 6137,
      "ventude": 6138,
      "clusÃ£o": 6139,
      "ĠAssocia": 6140,
      "rizonte": 6141,
      "ĠSab": 6142,
      "Ġincorpo": 6143,
      "ĠFaz": 6144,
      "icago": 6145,
      "So": 6146,
      "landa": 6147,
      "ĠGabriel": 6148,
      "deus": 6149,
      "Ġgradu": 6150,
      "unt": 6151,
      "ĠintroduÃ§Ã£o": 6152,
      "list": 6153,
      "ĠTy": 6154,
      "itch": 6155,
      "onde": 6156,
      "emit": 6157,
      "creto": 6158,
      "vaÃ§Ãµes": 6159,
      "ĠBrasÃŃlia": 6160,
      "Fo": 6161,
      "Dan": 6162,
      "ag": 6163,
      "ciÃ³n": 6164,
      "Ġdessas": 6165,
      "Ġord": 6166,
      "AlÃ©m": 6167,
      "oni": 6168,
      "ĠprincÃŃpio": 6169,
      "1981": 6170,
      "Ġ?": 6171,
      "ĠfÃ©": 6172,
      "cara": 6173,
      "ĠvÃ¡li": 6174,
      "Ġapresentar": 6175,
      "Ro": 6176,
      "|'": 6177,
      "ali": 6178,
      "ĠPad": 6179,
      "OR": 6180,
      "tures": 6181,
      "ĠEstaÃ§Ã£o": 6182,
      "itores": 6183,
      "volution": 6184,
      "Ġcasal": 6185,
      "cante": 6186,
      "ĠFoot": 6187,
      "Ġmunicipal": 6188,
      "ĠtradiÃ§Ã£o": 6189,
      "ĠSuÃ©cia": 6190,
      "Ġdeixando": 6191,
      "Er": 6192,
      "Mu": 6193,
      "Ġcasas": 6194,
      "Ġproduto": 6195,
      "Ġpassag": 6196,
      ".:": 6197,
      "Her": 6198,
      "Ġvou": 6199,
      "ĠNight": 6200,
      "landes": 6201,
      "ark": 6202,
      "ĠmÃ©dio": 6203,
      "Ġcomuns": 6204,
      "ym": 6205,
      "reo": 6206,
      "Ġdificul": 6207,
      "ĠEstima": 6208,
      "Ġministro": 6209,
      "ĠfundaÃ§Ã£o": 6210,
      "Ġdita": 6211,
      "tade": 6212,
      "ĠMur": 6213,
      "issionais": 6214,
      "esi": 6215,
      "ĠLondon": 6216,
      "Ġverbe": 6217,
      "tismo": 6218,
      "Ġtroca": 6219,
      "ĠDistrito": 6220,
      "Ġmanteve": 6221,
      "izada": 6222,
      "Ġconfron": 6223,
      "Ġdelas": 6224,
      "Ġprocessos": 6225,
      "ĠFigu": 6226,
      "Ġpassaram": 6227,
      "onia": 6228,
      "dom": 6229,
      "Ġemp": 6230,
      "Ġfinais": 6231,
      "Ġ1944": 6232,
      "Ġvege": 6233,
      "gadas": 6234,
      "Ġrisco": 6235,
      "Ġreinado": 6236,
      "rick": 6237,
      "tch": 6238,
      "ÃŃr": 6239,
      "Ġ;": 6240,
      "ĠSebas": 6241,
      "ĠextensÃ£o": 6242,
      "kes": 6243,
      "Ġdetal": 6244,
      "Ã¢metro": 6245,
      "ĠDec": 6246,
      "bres": 6247,
      "ĠpÃ©": 6248,
      "Ġvinte": 6249,
      "presidente": 6250,
      "Ġdedic": 6251,
      "ĠFederaÃ§Ã£o": 6252,
      "diz": 6253,
      "dei": 6254,
      "ĠSÃ©r": 6255,
      "MS": 6256,
      "Ġdesempenho": 6257,
      "EstaÃ§Ã£o": 6258,
      "Ġpintura": 6259,
      "icionÃ¡rio": 6260,
      "Ġestru": 6261,
      "Ġembar": 6262,
      "ĠNorth": 6263,
      "Ġpresentes": 6264,
      "Ġcompa": 6265,
      "Ġbac": 6266,
      "Ġpaz": 6267,
      "ĠBrown": 6268,
      "Bre": 6269,
      "ĠInternet": 6270,
      "Ġportugueses": 6271,
      "ogle": 6272,
      "'\",": 6273,
      "Hen": 6274,
      "Ġvejo": 6275,
      "Ġreais": 6276,
      "zevedo": 6277,
      "82": 6278,
      "romo": 6279,
      "ĠDepartamento": 6280,
      "Ġ1948": 6281,
      "ĠSara": 6282,
      "ĠoposiÃ§Ã£o": 6283,
      "Ġaberto": 6284,
      "Ġrock": 6285,
      "Ġcus": 6286,
      "ĠhistÃ³rias": 6287,
      "Ġjogar": 6288,
      "Ġtreinador": 6289,
      "ĠTorn": 6290,
      "aliza": 6291,
      "Ġ1952": 6292,
      "ĠdisponÃŃvel": 6293,
      "Ġestiv": 6294,
      "Ġenor": 6295,
      "erta": 6296,
      "Ġconden": 6297,
      "Ġrodada": 6298,
      "Ġultra": 6299,
      "ĠForÃ§a": 6300,
      "'\".": 6301,
      "Ġfir": 6302,
      "ĠatuaÃ§Ã£o": 6303,
      "gando": 6304,
      "Ġcompe": 6305,
      "Carlos": 6306,
      "71": 6307,
      "ĠCultural": 6308,
      "ĠTele": 6309,
      "ĠFis": 6310,
      "ĠEstadual": 6311,
      "San": 6312,
      "Ġmuda": 6313,
      "ĠSuperior": 6314,
      "Ġ1957": 6315,
      "itais": 6316,
      "titudes": 6317,
      "Ġequipa": 6318,
      "Ġtaxa": 6319,
      "ĠCompany": 6320,
      "ĠPelo": 6321,
      "ĠTec": 6322,
      "rosso": 6323,
      "Ġfundamental": 6324,
      "ken": 6325,
      "sal": 6326,
      "Ġtecnologia": 6327,
      "Ġretornou": 6328,
      "ÃŃtio": 6329,
      "ĠsaÃŃda": 6330,
      "Ġferramentas": 6331,
      "Ġestudou": 6332,
      "Ġpermit": 6333,
      "âĢľ": 6334,
      "ĠSegu": 6335,
      "Ġensa": 6336,
      "ĠmÃŃnimo": 6337,
      "Ġliter": 6338,
      "DA": 6339,
      "ĠalemÃ£": 6340,
      "Ġrespectivamente": 6341,
      "Ġescolha": 6342,
      "elle": 6343,
      "Ġesqu": 6344,
      "Ġimplem": 6345,
      "Ġprefe": 6346,
      "chida": 6347,
      "view": 6348,
      "Ġautoridade": 6349,
      "nome": 6350,
      "ftware": 6351,
      "Ġgente": 6352,
      "Ġcurta": 6353,
      "Ġparticipantes": 6354,
      "vares": 6355,
      "Ġacidente": 6356,
      "ĠAtÃ©": 6357,
      "Ġ32": 6358,
      "fun": 6359,
      "Ġrealidade": 6360,
      "Ġtextos": 6361,
      "ĠmemÃ³ria": 6362,
      "amba": 6363,
      "ĠHill": 6364,
      "Ġdigital": 6365,
      "ĠNet": 6366,
      "ĠFrederico": 6367,
      "Ġ1942": 6368,
      "ĠPS": 6369,
      "envolvimento": 6370,
      "vy": 6371,
      "chemilla": 6372,
      "Ġdeco": 6373,
      "arou": 6374,
      "81": 6375,
      "Ġdestes": 6376,
      "Ġgrav": 6377,
      "1990": 6378,
      "jou": 6379,
      "ĠĊĠĊ": 6380,
      "Ġfamoso": 6381,
      "orou": 6382,
      "IL": 6383,
      "Ġmodelos": 6384,
      "ĠRevoluÃ§Ã£o": 6385,
      "Ġnobre": 6386,
      "Sua": 6387,
      "ĠPalm": 6388,
      "mun": 6389,
      "ĠSoc": 6390,
      "tÃ³rias": 6391,
      "Ale": 6392,
      "ĠVerde": 6393,
      "Ġcho": 6394,
      "Ġinv": 6395,
      "Ġduque": 6396,
      "Ġescala": 6397,
      "Ġcompleta": 6398,
      "ĠterÃ¡": 6399,
      "Ġconsider": 6400,
      "assem": 6401,
      "ĠSociety": 6402,
      "File": 6403,
      "Ġapar": 6404,
      "fel": 6405,
      "ĠStates": 6406,
      "ĠLee": 6407,
      "grado": 6408,
      "ĠEdward": 6409,
      "unas": 6410,
      "lÃŃ": 6411,
      "amarca": 6412,
      "ĠRoyal": 6413,
      "Ġbronze": 6414,
      "ĠAv": 6415,
      "Ġapresentado": 6416,
      "Ġhumano": 6417,
      "ĠgestÃ£o": 6418,
      "Ġfeitos": 6419,
      "Ã©rie": 6420,
      "cob": 6421,
      "Ġsexual": 6422,
      "Ġcontato": 6423,
      "ĠWin": 6424,
      "Ġmusicais": 6425,
      "Ġcirc": 6426,
      "ĠÃ¡ra": 6427,
      "ĠNesse": 6428,
      "Ġambas": 6429,
      "Ġdeixa": 6430,
      "ĠYo": 6431,
      "earÃ¡": 6432,
      "tha": 6433,
      "cife": 6434,
      "ĠFol": 6435,
      "deiras": 6436,
      "ĠBus": 6437,
      "Ġhidro": 6438,
      "Ġcena": 6439,
      "Ġamericana": 6440,
      "Ġtrono": 6441,
      "Ga": 6442,
      "ĠTimes": 6443,
      "togrÃ¡": 6444,
      "Ġprincesa": 6445,
      "ĠexposiÃ§Ã£o": 6446,
      "giÃ£o": 6447,
      "Ġformar": 6448,
      "baix": 6449,
      "Ġencontram": 6450,
      "Ġtentou": 6451,
      "Ġsho": 6452,
      "ĠCamb": 6453,
      "jus": 6454,
      "Ġrebel": 6455,
      "Ġfoss": 6456,
      "Ġang": 6457,
      "ĠJus": 6458,
      "ficamente": 6459,
      "Ġseguido": 6460,
      "Ġessen": 6461,
      "Ġbis": 6462,
      "Ġcara": 6463,
      "Ġtemperatura": 6464,
      "Ã§ar": 6465,
      "cimentos": 6466,
      "ĠPu": 6467,
      "Ġ1924": 6468,
      "ved": 6469,
      "Ġfar": 6470,
      "ĠmunicÃŃpios": 6471,
      "ĠcatÃ³": 6472,
      "ĠAtlÃ©tico": 6473,
      "Sta": 6474,
      "ths": 6475,
      "Ġcarre": 6476,
      "Mon": 6477,
      "ĠAno": 6478,
      "ĠmanutenÃ§Ã£o": 6479,
      "adora": 6480,
      "MG": 6481,
      "ĠJones": 6482,
      "ĠBab": 6483,
      "ĠUA": 6484,
      "tÃªncia": 6485,
      "ĠAlves": 6486,
      "Ġceleb": 6487,
      "Ġposse": 6488,
      "Ġcontinuar": 6489,
      "1991": 6490,
      "ĠEstÃ¡dio": 6491,
      "ght": 6492,
      "ĠBerlim": 6493,
      "ĠproteÃ§Ã£o": 6494,
      "Ġencontrado": 6495,
      "ĠBad": 6496,
      "Bu": 6497,
      "ĠpolÃŃcia": 6498,
      "Ġcerim": 6499,
      "vÃŃncia": 6500,
      "Ġcompon": 6501,
      "ĠoperaÃ§Ã£o": 6502,
      "ĠXVI": 6503,
      "Ġ05": 6504,
      "ÑĢ": 6505,
      "ĠcontemporÃ¢n": 6506,
      "ĠposiÃ§Ãµes": 6507,
      "dc": 6508,
      "dicos": 6509,
      "ĠVers": 6510,
      "ĠGrÃ£": 6511,
      "Ġficando": 6512,
      "ĠHospital": 6513,
      "Ġmelhorar": 6514,
      "ĠSto": 6515,
      "ĠMelo": 6516,
      "ĠStre": 6517,
      "ĠIll": 6518,
      "teu": 6519,
      "ĠAqu": 6520,
      "CD": 6521,
      "ĠSac": 6522,
      "Ġeven": 6523,
      "Ġpsic": 6524,
      "ĠGrÃ©cia": 6525,
      "ON": 6526,
      "ĠfÃ¡cil": 6527,
      "wan": 6528,
      "ĠJr": 6529,
      "tÃ¡veis": 6530,
      "Ġestabel": 6531,
      "ÃŃmpico": 6532,
      "ĠBlu": 6533,
      "ism": 6534,
      "Ġvanta": 6535,
      "Ġhumana": 6536,
      "Ġletras": 6537,
      "dÃ©m": 6538,
      "ĠdÃ©cadas": 6539,
      "ents": 6540,
      "Ġtranspor": 6541,
      "hen": 6542,
      "julho": 6543,
      "1994": 6544,
      "!'": 6545,
      "idar": 6546,
      "Ġ1941": 6547,
      "ĠColÃ©gio": 6548,
      "ÃŃsmo": 6549,
      "TE": 6550,
      "Bul": 6551,
      "Ġsofreu": 6552,
      "uminense": 6553,
      "ĠdÃ³lares": 6554,
      "ĠCre": 6555,
      "âĢ¦": 6556,
      "onald": 6557,
      "ĠIndepend": 6558,
      "tagem": 6559,
      "todos": 6560,
      "istia": 6561,
      "Ġ1943": 6562,
      "Ġjogou": 6563,
      "Ġcompu": 6564,
      "ĠSpor": 6565,
      "diana": 6566,
      "ĠGas": 6567,
      "Ġdesenvolvido": 6568,
      "Ġ1947": 6569,
      "Ġlinks": 6570,
      "Ġcab": 6571,
      "Ġdefini": 6572,
      "umes": 6573,
      "Ġfundador": 6574,
      "Ġobjeto": 6575,
      "Mas": 6576,
      "ĠRol": 6577,
      "Ãºlti": 6578,
      "ĠavaliaÃ§Ã£o": 6579,
      "PA": 6580,
      "ĠcomentÃ¡rios": 6581,
      "ĠocasiÃ£o": 6582,
      "ĠBarb": 6583,
      "ntes": 6584,
      "ganizaÃ§Ã£o": 6585,
      "ĠBarcelona": 6586,
      "py": 6587,
      "Ġpaul": 6588,
      "ficada": 6589,
      "ĠtÃ©cnicas": 6590,
      "ĠLouis": 6591,
      "lamento": 6592,
      "Ġdireita": 6593,
      "tipo": 6594,
      "ÃŃdeos": 6595,
      "ĠPortuguÃªs": 6596,
      "ivelmente": 6597,
      "deal": 6598,
      "estra": 6599,
      "Ġvisita": 6600,
      "ĠFra": 6601,
      "Ġvermelho": 6602,
      "Ġmenores": 6603,
      "ressou": 6604,
      "ĠWalter": 6605,
      "cro": 6606,
      "eias": 6607,
      "Ġfacto": 6608,
      "Ġpan": 6609,
      "ĠprÃ³prios": 6610,
      "ĠtÃ©r": 6611,
      "ĠÃģsia": 6612,
      "Ġ2022": 6613,
      "Ġtemp": 6614,
      "Ġformou": 6615,
      "ĠConc": 6616,
      "ophoridae": 6617,
      "Ð½": 6618,
      "ĠCara": 6619,
      "Ġrowspan": 6620,
      "ĠColeophoridae": 6621,
      "Ġconcelho": 6622,
      "Ġapel": 6623,
      "queira": 6624,
      "ĠLar": 6625,
      "Ġfrase": 6626,
      "ĠserÃ£o": 6627,
      "Ġpersonal": 6628,
      "ĠArch": 6629,
      "Ã©lgica": 6630,
      "Ġrecorde": 6631,
      "ĠcomÃ©rcio": 6632,
      "ipÃ©": 6633,
      "Ġpoderiam": 6634,
      "Ġdesigna": 6635,
      "Ġguitarra": 6636,
      "ĠciÃªncia": 6637,
      "ĠapresentaÃ§Ã£o": 6638,
      "Ġnossa": 6639,
      "ĠBanco": 6640,
      "deiros": 6641,
      "Ġcapela": 6642,
      "ambigu": 6643,
      "rÃµes": 6644,
      "enÃ§as": 6645,
      "Ġsala": 6646,
      "Ġregular": 6647,
      "Ġjan": 6648,
      "Ġep": 6649,
      "tice": 6650,
      "Ġ1946": 6651,
      "ĠÃĵ": 6652,
      "ĠcarÃ¡": 6653,
      "americana": 6654,
      "Ġnovela": 6655,
      "ĠJÃºnior": 6656,
      "Ġmistura": 6657,
      "ĠAustrali": 6658,
      "Die": 6659,
      "Esbo": 6660,
      "Ġmesmos": 6661,
      "cyclo": 6662,
      "Ġvandal": 6663,
      "entada": 6664,
      "Ġ45": 6665,
      "Ġ1934": 6666,
      "Msg": 6667,
      "ĠPinto": 6668,
      "Ġconseguir": 6669,
      "Fe": 6670,
      "ĠEug": 6671,
      "ĠOcidental": 6672,
      "dela": 6673,
      "roup": 6674,
      "Ġresponsa": 6675,
      "Ġinferior": 6676,
      "ĠPic": 6677,
      "Ġ1936": 6678,
      "roso": 6679,
      "beu": 6680,
      "NO": 6681,
      "Ġcasado": 6682,
      "teroide": 6683,
      "sub": 6684,
      "ĠUru": 6685,
      "Ġorgan": 6686,
      "Ġcomerci": 6687,
      "Cha": 6688,
      "ĠcrianÃ§a": 6689,
      "Ġpassageiros": 6690,
      "mato": 6691,
      "Sil": 6692,
      "ĠSerra": 6693,
      "ĠdanÃ§a": 6694,
      "ĠsÃ©culos": 6695,
      "rota": 6696,
      "Ġmotivos": 6697,
      "ĠBritÃ¢n": 6698,
      "Ġmateriais": 6699,
      "ĠSho": 6700,
      "Ġrecep": 6701,
      "Ġreserva": 6702,
      "zil": 6703,
      "Ġmortos": 6704,
      "blo": 6705,
      "ĠAlexander": 6706,
      "ij": 6707,
      "kov": 6708,
      "rand": 6709,
      "edi": 6710,
      "Ġdescrita": 6711,
      "Ġtomar": 6712,
      "Ġincom": 6713,
      "Ġrelacionados": 6714,
      "elson": 6715,
      "Ġ1951": 6716,
      "ÃŃna": 6717,
      "Ġreino": 6718,
      "ĠSar": 6719,
      "Ġideias": 6720,
      "ĠAvenida": 6721,
      "ĠCro": 6722,
      "Ġmetal": 6723,
      "Ġ1938": 6724,
      "ĠImp": 6725,
      "dim": 6726,
      "ĠInforma": 6727,
      "ĠSeus": 6728,
      "ifor": 6729,
      "ĠnÃŃveis": 6730,
      "pace": 6731,
      "ĠMachado": 6732,
      "Ã´metros": 6733,
      "ĠHea": 6734,
      "Ã´nicos": 6735,
      "\"].": 6736,
      "volta": 6737,
      "Ġprofissionais": 6738,
      "ĠWhite": 6739,
      "mil": 6740,
      "ĠLuis": 6741,
      "Ġnormal": 6742,
      "ĠRicardo": 6743,
      "ĠmÃ¡ximo": 6744,
      "ĠChile": 6745,
      "ĠXVIII": 6746,
      "ert": 6747,
      "Ġpreju": 6748,
      "Ġeliminar": 6749,
      "Ġcursos": 6750,
      "piri": 6751,
      "Ġdeclarou": 6752,
      "ĠAwards": 6753,
      "ĠcomeÃ§o": 6754,
      "ĠgravaÃ§Ã£o": 6755,
      "ĠBelo": 6756,
      "ĠSau": 6757,
      "Ġnaquele": 6758,
      "ĠSaint": 6759,
      "Ġsangue": 6760,
      "63": 6761,
      "ĠAtlÃ¢n": 6762,
      "Apesar": 6763,
      "Esplanada": 6764,
      "hal": 6765,
      "Ġcrise": 6766,
      "Ġ000": 6767,
      "ĠSur": 6768,
      "obil": 6769,
      "ĠHero": 6770,
      "Ġintens": 6771,
      "Ġreconhecimento": 6772,
      "ilton": 6773,
      "ĠPatri": 6774,
      "ĠSenhor": 6775,
      "dex": 6776,
      "ĠJen": 6777,
      "Ġ1953": 6778,
      "diram": 6779,
      "Ġler": 6780,
      "urocra": 6781,
      "ĠServi": 6782,
      "ĠinstituiÃ§Ãµes": 6783,
      "Ġlinguagem": 6784,
      "rum": 6785,
      "DÃ©": 6786,
      "ĠEgito": 6787,
      "Ġchegada": 6788,
      "Ġconstruir": 6789,
      "ĠDal": 6790,
      "ambiguaÃ§Ã£o": 6791,
      "vens": 6792,
      "Ġpreciso": 6793,
      "Ġconcer": 6794,
      "Ġrevis": 6795,
      "ĠAgu": 6796,
      "Ġexcel": 6797,
      "entista": 6798,
      "ÃŃdio": 6799,
      "Ġquarta": 6800,
      "Ġadvogado": 6801,
      "ĠHorizonte": 6802,
      "Ġimig": 6803,
      "Ġdem": 6804,
      "ÅĤ": 6805,
      "ĠCabo": 6806,
      "ĠColle": 6807,
      "Ġcampos": 6808,
      "Ġetapa": 6809,
      "cidas": 6810,
      "Ġbons": 6811,
      "ricultura": 6812,
      "ĠSouth": 6813,
      "vais": 6814,
      "ĠBaixos": 6815,
      "jor": 6816,
      "doso": 6817,
      "Ġpreten": 6818,
      "iverso": 6819,
      "Dom": 6820,
      "issa": 6821,
      "Ġpoeta": 6822,
      "ĠrÃ©": 6823,
      "Ġhospital": 6824,
      "ies": 6825,
      "Ġsonora": 6826,
      "rade": 6827,
      "ĠturnÃª": 6828,
      "Ġtopo": 6829,
      "ĠRevista": 6830,
      "ĠEstimativa": 6831,
      "jc": 6832,
      "ĠMaca": 6833,
      "Ġdesapare": 6834,
      "Ġincen": 6835,
      "Ġpreso": 6836,
      "ĠModer": 6837,
      "ĠLeague": 6838,
      "ĠcondiÃ§Ã£o": 6839,
      "Ġsituada": 6840,
      "toriedade": 6841,
      "ĠOscar": 6842,
      "DE": 6843,
      "Ġdada": 6844,
      "lov": 6845,
      "Ġvotar": 6846,
      "volucion": 6847,
      "ians": 6848,
      "ĠShe": 6849,
      "Ġger": 6850,
      "rÃ©s": 6851,
      "ĠutilizaÃ§Ã£o": 6852,
      "teriores": 6853,
      "Ġpedra": 6854,
      "ĠMax": 6855,
      "ĠresistÃªncia": 6856,
      "Ġmeia": 6857,
      "presa": 6858,
      "Ġviu": 6859,
      "user": 6860,
      "Ġrej": 6861,
      "Ġadm": 6862,
      "alizar": 6863,
      "ĠPark": 6864,
      "fede": 6865,
      "Ag": 6866,
      "ĠNaÃ§Ãµes": 6867,
      "ttle": 6868,
      "Ġconsiste": 6869,
      "ĠAires": 6870,
      "Ġecl": 6871,
      "ĠDomin": 6872,
      "ĠacadÃªm": 6873,
      "Ġvontade": 6874,
      "ĠInc": 6875,
      "Ġfossem": 6876,
      "ĠCearÃ¡": 6877,
      "ĠbotÃ¢n": 6878,
      "Ġretorno": 6879,
      "Ġformada": 6880,
      "Ġcrimin": 6881,
      "ĠFM": 6882,
      "Ġcerta": 6883,
      "Ġganhar": 6884,
      "ĠBob": 6885,
      "Ġparal": 6886,
      "tuaÃ§Ã£o": 6887,
      "Ġrecomenda": 6888,
      "zinho": 6889,
      "'].": 6890,
      "Ġchu": 6891,
      "ĠIma": 6892,
      "ĠSaÃºde": 6893,
      "Ġtran": 6894,
      "estade": 6895,
      "bs": 6896,
      "Ġencontro": 6897,
      "ĠvitÃ³rias": 6898,
      "Ã³sito": 6899,
      "Ġadvers": 6900,
      "Ġestrada": 6901,
      "Ã©lia": 6902,
      "ĠexpansÃ£o": 6903,
      "Ġescon": 6904,
      "Ġequival": 6905,
      "daÃ§Ã£o": 6906,
      "Hel": 6907,
      "\"]": 6908,
      "nis": 6909,
      "ĠPE": 6910,
      "emitÃ©rio": 6911,
      "Ġ09": 6912,
      "Ġengenheiro": 6913,
      "asteroide": 6914,
      "pole": 6915,
      "single": 6916,
      "?'": 6917,
      "ĠnÃºcle": 6918,
      "lish": 6919,
      "ĠNicol": 6920,
      "ĠterritÃ³rios": 6921,
      "ĠvÃª": 6922,
      "ĠPopular": 6923,
      "ĠStra": 6924,
      "ĠSuÃŃÃ§a": 6925,
      "69": 6926,
      "Ġaquele": 6927,
      "1993": 6928,
      "Ġtabela": 6929,
      "ivis": 6930,
      "phyll": 6931,
      "ÃŃba": 6932,
      "Ġentretanto": 6933,
      "ĠBruno": 6934,
      "Ġassuntos": 6935,
      "ĠParque": 6936,
      "mino": 6937,
      "Ġhuman": 6938,
      "oli": 6939,
      "Ġconsegue": 6940,
      "Ġobjetos": 6941,
      "Ã¡dio": 6942,
      "book": 6943,
      "ĠHistÃ³rico": 6944,
      "lamen": 6945,
      "Ġciclo": 6946,
      "cht": 6947,
      "Ġtrein": 6948,
      "ĠBig": 6949,
      "ĠBiblioteca": 6950,
      "Ġdentre": 6951,
      "Ġ1933": 6952,
      "uela": 6953,
      "Ġpodemos": 6954,
      "Ġ55": 6955,
      "Ġlevan": 6956,
      "ĠinvÃ©s": 6957,
      "Ġorb": 6958,
      "Ġdito": 6959,
      "ĠLivro": 6960,
      "tana": 6961,
      "ĠMacho": 6962,
      "Ġantigas": 6963,
      "Ġexpul": 6964,
      "Ġesco": 6965,
      "fos": 6966,
      "ĠSouza": 6967,
      "Ġmanifes": 6968,
      "jclaudio": 6969,
      "Ġarmaz": 6970,
      "ĠFootball": 6971,
      "ÃŃnas": 6972,
      "ĠEntÃ£o": 6973,
      "ĠcolocaÃ§Ã£o": 6974,
      "mÃ©": 6975,
      "Ġvoo": 6976,
      "Ġ1932": 6977,
      "ĠcÃ³pias": 6978,
      "ouro": 6979,
      "ĠDun": 6980,
      "Ġ1937": 6981,
      "ĠFemin": 6982,
      "Ġqueda": 6983,
      "ĠPi": 6984,
      "ĠPesso": 6985,
      "tman": 6986,
      "ĠrealizaÃ§Ã£o": 6987,
      "ĠPalÃ¡cio": 6988,
      "Ġnatal": 6989,
      "ĠTar": 6990,
      "maÃ§Ã£o": 6991,
      "posiÃ§Ãµes": 6992,
      "Ġespeciais": 6993,
      "ĠZa": 6994,
      "Ġfilosofia": 6995,
      "istiu": 6996,
      "Ġmovimentos": 6997,
      "ĠPass": 6998,
      "Hol": 6999,
      "ĠPrÃ©mio": 7000,
      "Ben": 7001,
      "ĠJohan": 7002,
      "ĠDam": 7003,
      "ĠBir": 7004,
      "BS": 7005,
      "idÃªncias": 7006,
      "Ġjoga": 7007,
      "yon": 7008,
      "Ġbaseada": 7009,
      "ĠaprovaÃ§Ã£o": 7010,
      "ĠRegiÃ£o": 7011,
      "ĠBraga": 7012,
      "ĠalcanÃ§ou": 7013,
      "ien": 7014,
      "ĠfÃ¡b": 7015,
      "ĠLeÃ£o": 7016,
      "Seu": 7017,
      "tiago": 7018,
      "ĠAndre": 7019,
      "paÃ§Ã£o": 7020,
      "Ġdesenho": 7021,
      "ĠAbra": 7022,
      "ĠPrimeiro": 7023,
      "Ġ^(": 7024,
      "Desporto": 7025,
      "imar": 7026,
      "ierre": 7027,
      "ĠAÃ©rea": 7028,
      "Ġsobreviv": 7029,
      "ĠDisney": 7030,
      "ĠVida": 7031,
      "Ġturno": 7032,
      "ject": 7033,
      "Ġimediatamente": 7034,
      "ĠcrÃŃticos": 7035,
      "ilha": 7036,
      "ĠReis": 7037,
      "Ġpul": 7038,
      "Ġproduzir": 7039,
      "ĠMÃºsica": 7040,
      "Ġsens": 7041,
      "Ġintelig": 7042,
      "Ġonline": 7043,
      "entando": 7044,
      "ĠDig": 7045,
      "Ġhol": 7046,
      "ure": 7047,
      "Ġdever": 7048,
      "ĠPernambuco": 7049,
      "ĠindependÃªncia": 7050,
      "ĠSon": 7051,
      "ĠBoard": 7052,
      "Ġpudes": 7053,
      "restling": 7054,
      "Ġinva": 7055,
      "Ġfazia": 7056,
      "ĠLes": 7057,
      "itoral": 7058,
      "yan": 7059,
      "ĠGet": 7060,
      "Ġexterior": 7061,
      "ipÃ©lago": 7062,
      "ĠPaÃŃses": 7063,
      "ocal": 7064,
      "Ġbairros": 7065,
      "alves": 7066,
      "ÃŃcia": 7067,
      "filme": 7068,
      "Ġtivesse": 7069,
      "Ġcomplexo": 7070,
      "Che": 7071,
      "Ġ1949": 7072,
      "Ġgaro": 7073,
      "ĠespÃŃ": 7074,
      "Ġbor": 7075,
      "ourt": 7076,
      "Francisco": 7077,
      "than": 7078,
      "Ġlevando": 7079,
      "Ġelabo": 7080,
      "iner": 7081,
      "Ġatuais": 7082,
      "Ġguar": 7083,
      "ĠSum": 7084,
      "Ġnascimento": 7085,
      "Cri": 7086,
      "Nova": 7087,
      "oura": 7088,
      "iente": 7089,
      "Ã§u": 7090,
      "Ġwidth": 7091,
      "umpre": 7092,
      "tinental": 7093,
      "erto": 7094,
      "Ġescal": 7095,
      "ĠCambridge": 7096,
      "ĠalemÃ£es": 7097,
      "ĠCheck": 7098,
      "ĠcomÃ©dia": 7099,
      "ĠAlo": 7100,
      "ĠBento": 7101,
      "inhas": 7102,
      "estre": 7103,
      "Ġobjec": 7104,
      "ĠargumentaÃ§Ã£o": 7105,
      "cebispo": 7106,
      "ĠList": 7107,
      "ĠContudo": 7108,
      "ĠChicago": 7109,
      "ĠverÃ£o": 7110,
      "1979": 7111,
      "portivo": 7112,
      "ĠMary": 7113,
      "ĠUnited": 7114,
      "Ġadi": 7115,
      "ĠCorin": 7116,
      "Ã¡lbum": 7117,
      "ĠTerceira": 7118,
      "ecÃ§Ã£o": 7119,
      "Ġvencedor": 7120,
      "Ġdescoberta": 7121,
      "rÃªncia": 7122,
      "Ġorg": 7123,
      "Ġemissora": 7124,
      "ĠDE": 7125,
      "ĠTeres": 7126,
      "ĠWol": 7127,
      "Ġrefle": 7128,
      "ritmo": 7129,
      "Ġpiano": 7130,
      "Ġbril": 7131,
      "ĠImpe": 7132,
      "Ġinglesa": 7133,
      "Ġ06": 7134,
      "Ġabran": 7135,
      "Desde": 7136,
      "aste": 7137,
      "box": 7138,
      "Ġassassina": 7139,
      "Ġdepen": 7140,
      "ĠSP": 7141,
      "ecular": 7142,
      "Ġredes": 7143,
      "teis": 7144,
      "Ġpesquisas": 7145,
      "ĠMinistro": 7146,
      "fim": 7147,
      "phyllum": 7148,
      "Ġagu": 7149,
      "trais": 7150,
      "ason": 7151,
      "Ġanunciado": 7152,
      "Ġfabrica": 7153,
      "ĠLim": 7154,
      "gy": 7155,
      "ramente": 7156,
      "JÃ¡": 7157,
      "peÃ£": 7158,
      "ĠShow": 7159,
      "ritiba": 7160,
      "Obras": 7161,
      "Ġaeroporto": 7162,
      "tn": 7163,
      "Ã³vel": 7164,
      "qual": 7165,
      "ĠFlores": 7166,
      "Ġcomputa": 7167,
      "estas": 7168,
      "Ġ1935": 7169,
      "ĠNi": 7170,
      "Ġvira": 7171,
      "ophora": 7172,
      "Ġguarda": 7173,
      "ĠCanÃ§Ã£o": 7174,
      "Ġadoles": 7175,
      "osas": 7176,
      "Ġcarga": 7177,
      "Ġassinou": 7178,
      "Ġhabil": 7179,
      "sey": 7180,
      "ticip": 7181,
      "ĠintenÃ§Ã£o": 7182,
      "Ġesten": 7183,
      "Ġsaiu": 7184,
      "Ġmeios": 7185,
      "ĠRela": 7186,
      "Ġimplan": 7187,
      "Ġprocura": 7188,
      "ĠDVD": 7189,
      "ĠsatÃ©lite": 7190,
      "Ġconse": 7191,
      "Ġaven": 7192,
      "Ġpista": 7193,
      "Ġrival": 7194,
      "Ġdesenvolver": 7195,
      "Ġescul": 7196,
      "Ġprojecto": 7197,
      "ĠFrancis": 7198,
      "Ġinfan": 7199,
      "rizado": 7200,
      "iction": 7201,
      "Ġtestes": 7202,
      "Ġassina": 7203,
      "ĠDinamarca": 7204,
      "Ġrecons": 7205,
      "ĠinvasÃ£o": 7206,
      "Ġlonge": 7207,
      "Ġfortes": 7208,
      "DF": 7209,
      "ĠFam": 7210,
      "ĠIb": 7211,
      "Ġmorre": 7212,
      "ĠPeru": 7213,
      "zen": 7214,
      "ĠLus": 7215,
      "chal": 7216,
      "Ġanalis": 7217,
      "Ġjulg": 7218,
      "Ġdisputou": 7219,
      "ĠprogramaÃ§Ã£o": 7220,
      "ĠBÃ©lgica": 7221,
      "bab": 7222,
      "Ġ48": 7223,
      "Ġtitular": 7224,
      "Ġsair": 7225,
      "ĠConstituiÃ§Ã£o": 7226,
      "ĠcomentÃ¡rio": 7227,
      "ĠCho": 7228,
      "Ġacontece": 7229,
      "ĠbritÃ¢nica": 7230,
      "uru": 7231,
      "Ġletra": 7232,
      "ĠGreen": 7233,
      "Ġprovas": 7234,
      "randa": 7235,
      "Ġpraticamente": 7236,
      "graph": 7237,
      "fen": 7238,
      "ĠAla": 7239,
      "Ġmito": 7240,
      "ĠRecife": 7241,
      "ĠMedicina": 7242,
      "ĠjurÃŃ": 7243,
      "ĠMate": 7244,
      "Ġuns": 7245,
      "ĠTodos": 7246,
      "ĠquilÃ´metros": 7247,
      "Ã³veis": 7248,
      "ĠJackson": 7249,
      "Ġtomou": 7250,
      "uda": 7251,
      "Ġplaneta": 7252,
      "Ġsta": 7253,
      "ĠMay": 7254,
      "ĠIrlanda": 7255,
      "Ġparticularmente": 7256,
      "ĠSoares": 7257,
      "ĠMendes": 7258,
      "ĠalteraÃ§Ãµes": 7259,
      "inastia": 7260,
      "ĠAmor": 7261,
      "ĠVicente": 7262,
      "Sim": 7263,
      "sula": 7264,
      "ĠJardim": 7265,
      "Ġelo": 7266,
      "Ġeditora": 7267,
      "Ġbateria": 7268,
      "ĠDC": 7269,
      "ĠsugestÃµes": 7270,
      "nd": 7271,
      "Ġconsum": 7272,
      "Ana": 7273,
      "rimentos": 7274,
      "Ġpropriedades": 7275,
      "ditos": 7276,
      "Ġleg": 7277,
      "Ġarquitetura": 7278,
      "ĠaplicaÃ§Ã£o": 7279,
      "Ġtropical": 7280,
      "ĠNews": 7281,
      "ĠGonÃ§alves": 7282,
      "Ñģ": 7283,
      "Ġchama": 7284,
      "ĠevoluÃ§Ã£o": 7285,
      "Ġrealizados": 7286,
      "Ġdro": 7287,
      "ĠtÃŃp": 7288,
      "ĠChristian": 7289,
      "ffe": 7290,
      "zia": 7291,
      "Ġproced": 7292,
      "inae": 7293,
      "ecendo": 7294,
      "ĠSoviÃ©tica": 7295,
      "Ġexemplos": 7296,
      "ĠTecn": 7297,
      "ĠrevisÃ£o": 7298,
      "ĠmÃŃdia": 7299,
      "ĠLen": 7300,
      "Ġfesta": 7301,
      "Ġarque": 7302,
      "Ġcrime": 7303,
      "itÃ¡ria": 7304,
      "Ġutilizados": 7305,
      "Don": 7306,
      "Ġnosso": 7307,
      "Ġato": 7308,
      "raes": 7309,
      "PE": 7310,
      "Ġutilizar": 7311,
      "ĠfrequÃªncia": 7312,
      "ceiro": 7313,
      "itÃª": 7314,
      "tificaÃ§Ã£o": 7315,
      "Ġaceita": 7316,
      "Ġ47": 7317,
      "Institu": 7318,
      "ĠsubstituÃŃdo": 7319,
      "Ġhos": 7320,
      "Ã©u": 7321,
      "Ã³lo": 7322,
      "ĠBea": 7323,
      "Ġsinal": 7324,
      "Ġchegando": 7325,
      "ĠinvestigaÃ§Ã£o": 7326,
      "Ġferrovi": 7327,
      "On": 7328,
      "Ġsurgiu": 7329,
      "AF": 7330,
      "Ġestran": 7331,
      "ĠindÃŃg": 7332,
      "ĠPlay": 7333,
      "rence": 7334,
      "ĠCoreia": 7335,
      "Ġpintor": 7336,
      "ĠrecÃ©m": 7337,
      "now": 7338,
      "ĠRel": 7339,
      "Central": 7340,
      "olÃ³gicas": 7341,
      "orges": 7342,
      "dium": 7343,
      "xos": 7344,
      "ĠAnos": 7345,
      "ĠAngola": 7346,
      "Ġisol": 7347,
      "ĠVerm": 7348,
      "very": 7349,
      "Ġ300": 7350,
      "Ġ34": 7351,
      "ĠPublish": 7352,
      "Bill": 7353,
      "Ã©sia": 7354,
      "Ġestudantes": 7355,
      "Ġmecan": 7356,
      "gÃ³": 7357,
      "ĠOce": 7358,
      "ibe": 7359,
      "Ġcost": 7360,
      "IV": 7361,
      "Ġindividual": 7362,
      "Ġdeterminado": 7363,
      "Coleophora": 7364,
      "riado": 7365,
      "ĠdefiniÃ§Ã£o": 7366,
      "Ġatua": 7367,
      "ĠTel": 7368,
      "Ġconv": 7369,
      "ĠNatal": 7370,
      "Ġestudar": 7371,
      "Ġsegue": 7372,
      "Ġcenas": 7373,
      "Ġperder": 7374,
      "Ġdefender": 7375,
      "Carioca": 7376,
      "Ġapari": 7377,
      "Mad": 7378,
      "ĠEstes": 7379,
      "ĠpÃºblicos": 7380,
      "Ġrusso": 7381,
      "FundaÃ§Ãµes": 7382,
      "ĠsecretÃ¡rio": 7383,
      "Ġescolhido": 7384,
      "cÃ³cia": 7385,
      "Ġpediu": 7386,
      "ĠTi": 7387,
      "idal": 7388,
      "Ġfech": 7389,
      "ĠScott": 7390,
      "ream": 7391,
      "bÃ³": 7392,
      "Äĩ": 7393,
      "ĠGl": 7394,
      "Ġsepul": 7395,
      "Ġ1910": 7396,
      "tine": 7397,
      "Ġneu": 7398,
      "Ġpropostas": 7399,
      "ĠÃ¡guas": 7400,
      "Ã§ul": 7401,
      "TambÃ©m": 7402,
      "tÃµes": 7403,
      "Ã³fona": 7404,
      "rana": 7405,
      "idencial": 7406,
      "ĠCy": 7407,
      "Ġras": 7408,
      "Dia": 7409,
      "torial": 7410,
      "Ġprima": 7411,
      "Ġromano": 7412,
      "liga": 7413,
      "ĠGreg": 7414,
      "Jogos": 7415,
      "New": 7416,
      "Ġjul": 7417,
      "ĠpÃ¡": 7418,
      "ĠSob": 7419,
      "JPG": 7420,
      "Ġpedidos": 7421,
      "nam": 7422,
      "Ġaumentar": 7423,
      "ecuÃ§Ã£o": 7424,
      "alto": 7425,
      "presentou": 7426,
      "abeth": 7427,
      "Los": 7428,
      "SE": 7429,
      "vora": 7430,
      "ĠClass": 7431,
      "pri": 7432,
      "ĠWilson": 7433,
      "ĠÃ³rgÃ£o": 7434,
      "Ġburocra": 7435,
      "identes": 7436,
      "Ġelimina": 7437,
      "Ġquestion": 7438,
      "ĠFernandes": 7439,
      "lon": 7440,
      "hares": 7441,
      "Ġverde": 7442,
      "Ġitaliana": 7443,
      "ĠWay": 7444,
      "ĠinterpretaÃ§Ã£o": 7445,
      "ungria": 7446,
      "Ġrecebido": 7447,
      "vÃ©r": 7448,
      "Ġlus": 7449,
      "Ġ08": 7450,
      "Ãĥ": 7451,
      "Ġredor": 7452,
      "Ġnascido": 7453,
      "ĠRomano": 7454,
      "ĠMesmo": 7455,
      "Ġpodendo": 7456,
      "gene": 7457,
      "aba": 7458,
      "ouco": 7459,
      "Ġpotencial": 7460,
      "Ġleis": 7461,
      "acho": 7462,
      "Ġrelativamente": 7463,
      "Ġregul": 7464,
      "Ġanimal": 7465,
      "Ġaeronaves": 7466,
      "caram": 7467,
      "ĠLogo": 7468,
      "ĠHei": 7469,
      "Ġvaga": 7470,
      "ĠVocÃª": 7471,
      "Ġargumento": 7472,
      "hel": 7473,
      "Ġaprovei": 7474,
      "ecreto": 7475,
      "page": 7476,
      "Ġviveu": 7477,
      "ĠTaÃ§a": 7478,
      "Ġpena": 7479,
      "ĠTan": 7480,
      "Ġregistro": 7481,
      "ĠTexas": 7482,
      "Ġclassific": 7483,
      "rupÃ§Ã£o": 7484,
      "ĠcolaboraÃ§Ã£o": 7485,
      "Ġviver": 7486,
      "ĠRegional": 7487,
      "Ġemo": 7488,
      "citos": 7489,
      "Ġapre": 7490,
      "Ġvocais": 7491,
      "Au": 7492,
      "CC": 7493,
      "Ġtorre": 7494,
      "ĠcÃ¢n": 7495,
      "ĠZe": 7496,
      "Ġdeus": 7497,
      "Ġaborda": 7498,
      "Ġprofun": 7499,
      "Ġcompartil": 7500,
      "ĠgÃ¡s": 7501,
      "entistas": 7502,
      "ĠHans": 7503,
      "ĠSantiago": 7504,
      "qÃ¼": 7505,
      "ragem": 7506,
      "Ġficaram": 7507,
      "ĠrÃ¡pida": 7508,
      "Ã´mbia": 7509,
      "Ġenorme": 7510,
      "day": 7511,
      "ĠassociaÃ§Ã£o": 7512,
      "Ġcusto": 7513,
      "Ġfranceses": 7514,
      "ath": 7515,
      "Ġaspectos": 7516,
      "ĠRay": 7517,
      "sur": 7518,
      "ciam": 7519,
      "Ġfundou": 7520,
      "Ġprovoc": 7521,
      "Ġsobretudo": 7522,
      "formance": 7523,
      "1989": 7524,
      "Ġsatis": 7525,
      "dicaÃ§Ã£o": 7526,
      "Carac": 7527,
      "Ġinde": 7528,
      "Ġdisposi": 7529,
      "Ġeditar": 7530,
      "chidaceae": 7531,
      "ink": 7532,
      "Ġpoucas": 7533,
      "ĠÃºtil": 7534,
      "RS": 7535,
      "Ġpromovido": 7536,
      "Ġplanos": 7537,
      "ĠTaxon": 7538,
      "\"),": 7539,
      "Ġchamados": 7540,
      "iou": 7541,
      "Ġintitulado": 7542,
      "olÃ³gicos": 7543,
      "site": 7544,
      "trimÃ´nio": 7545,
      "els": 7546,
      "ĠrazÃµes": 7547,
      "ÑĤ": 7548,
      "Ġlimite": 7549,
      "Ġhistoriador": 7550,
      "Ġolhos": 7551,
      "oa": 7552,
      "ĠCollege": 7553,
      "Ġdista": 7554,
      "ĠBoa": 7555,
      "ĠSenado": 7556,
      "face": 7557,
      "ciada": 7558,
      "ĠGrÃ¡": 7559,
      "Ġrecentemente": 7560,
      ")\"": 7561,
      "Ġsuj": 7562,
      "%.": 7563,
      "ĠestaÃ§Ãµes": 7564,
      "Ġextremamente": 7565,
      "ĠHomem": 7566,
      "Ġenter": 7567,
      "tÃ¢ncias": 7568,
      "ĠJoe": 7569,
      "Ġmoderna": 7570,
      "Ġorbital": 7571,
      "gias": 7572,
      "ĠEsporte": 7573,
      "Ġweb": 7574,
      "inopse": 7575,
      "ĠGio": 7576,
      "Bas": 7577,
      "ak": 7578,
      "Ġmuse": 7579,
      "ĠSebasti": 7580,
      "ĠSteph": 7581,
      "Mor": 7582,
      "ographic": 7583,
      "ĠwikipÃ©dia": 7584,
      "iliares": 7585,
      "ĠEar": 7586,
      "ĠFluminense": 7587,
      "ĠEscÃ³cia": 7588,
      "Ġgolpe": 7589,
      "ciano": 7590,
      "Ġcircul": 7591,
      "Ġmicro": 7592,
      "BT": 7593,
      "ĠMara": 7594,
      "Ġchegaram": 7595,
      "ĠRoss": 7596,
      "ĠBis": 7597,
      "Ġ07": 7598,
      "ĠQual": 7599,
      "Ġconsci": 7600,
      "ĠpÃ©s": 7601,
      "Ġcandidatos": 7602,
      "??": 7603,
      "oeste": 7604,
      "Ġeduca": 7605,
      "Ġcolspan": 7606,
      "ĠcoleÃ§Ã£o": 7607,
      "ĠSw": 7608,
      "fogo": 7609,
      "raram": 7610,
      "ĠinfÃ¢ncia": 7611,
      "Ġpaulista": 7612,
      "Ġnarra": 7613,
      "ĠFinal": 7614,
      "ĠMato": 7615,
      "Ġmonum": 7616,
      "Ġfotos": 7617,
      "Ġdebate": 7618,
      "Ġacredita": 7619,
      "Ġcomerciais": 7620,
      "grafias": 7621,
      "eme": 7622,
      "ĠUs": 7623,
      "Ġproduzida": 7624,
      "ficial": 7625,
      "Ġpopulares": 7626,
      "Ġfutebolista": 7627,
      "Ġentender": 7628,
      "ĠEdiÃ§Ã£o": 7629,
      "Ġaplic": 7630,
      "Ġtratado": 7631,
      "Ġencontrados": 7632,
      "ĠBrian": 7633,
      "Ġvil": 7634,
      "Ġconcurso": 7635,
      "Ġquinto": 7636,
      "ĠMarcos": 7637,
      "Ġfaleceu": 7638,
      "lamengo": 7639,
      "olos": 7640,
      "up": 7641,
      "ornais": 7642,
      "ĠAcre": 7643,
      "ingos": 7644,
      "Ġbreve": 7645,
      "ĠJÃºlio": 7646,
      "quÃªs": 7647,
      "urt": 7648,
      "ĠAndrade": 7649,
      "ĠIlhas": 7650,
      "ĠSite": 7651,
      "Ġidentidade": 7652,
      "ĠLas": 7653,
      "ĨĴ": 7654,
      "trado": 7655,
      "ĠresidÃªncia": 7656,
      "Ġdestacados": 7657,
      "ĠWilliams": 7658,
      "inÃ©": 7659,
      "Ġcorrente": 7660,
      "ĠhistÃ³rica": 7661,
      "ĠCunha": 7662,
      "ĠJournal": 7663,
      "Ġconflitos": 7664,
      "ĠempresÃ¡rio": 7665,
      "Ġatingiu": 7666,
      "portes": 7667,
      "Ġmestre": 7668,
      "ĠlideranÃ§a": 7669,
      "ME": 7670,
      "xi": 7671,
      "kh": 7672,
      "tane": 7673,
      "ree": 7674,
      "ĠpoderÃ¡": 7675,
      "Tem": 7676,
      "enha": 7677,
      "Ġfinan": 7678,
      "bÃ©": 7679,
      "ĠDoc": 7680,
      "ĠMarcelo": 7681,
      "ĠfÃ£s": 7682,
      "Ġgo": 7683,
      "vess": 7684,
      "Ġhaja": 7685,
      "Ġfins": 7686,
      "ĠHisto": 7687,
      "feira": 7688,
      "Ġrealizadas": 7689,
      "Vo": 7690,
      "Ġjuntos": 7691,
      "David": 7692,
      "eibol": 7693,
      "uch": 7694,
      "ĠAustralian": 7695,
      "Pre": 7696,
      "gam": 7697,
      "ĠSys": 7698,
      "Ġtop": 7699,
      "Ġtestem": 7700,
      "ĠTeix": 7701,
      "ĠMedia": 7702,
      "wor": 7703,
      "Ġmexic": 7704,
      "Ġ1914": 7705,
      "Ġdeba": 7706,
      "Ġtrilha": 7707,
      "thians": 7708,
      "Ġhonra": 7709,
      "Ġdeslo": 7710,
      "Ġpis": 7711,
      "ĠligaÃ§Ãµes": 7712,
      "ĠGoogle": 7713,
      "Ġexistentes": 7714,
      "ĠÃģl": 7715,
      "imedia": 7716,
      "ĠRocha": 7717,
      "Ġ44": 7718,
      "Ġusadas": 7719,
      "Ġtornaram": 7720,
      "cessado": 7721,
      "tidades": 7722,
      "risto": 7723,
      "Ġcla": 7724,
      "ĠMÃ¡rio": 7725,
      "ĠTime": 7726,
      "reat": 7727,
      "Fern": 7728,
      "Ġlegal": 7729,
      "Ġapresentam": 7730,
      "ouri": 7731,
      "ĠcompetiÃ§Ãµes": 7732,
      "Ġteste": 7733,
      "ev": 7734,
      "Ġvolun": 7735,
      "ĠGro": 7736,
      "Ġresolver": 7737,
      "mel": 7738,
      "lywood": 7739,
      "mont": 7740,
      "ĠLaw": 7741,
      "ĠBla": 7742,
      "Ġrou": 7743,
      "ĠtÃ³pico": 7744,
      "Flo": 7745,
      "more": 7746,
      "ĠAntes": 7747,
      "Ġdocumentos": 7748,
      "VitÃ³ria": 7749,
      "ĠFortaleza": 7750,
      "300": 7751,
      "Prede": 7752,
      "Ġsil": 7753,
      ":*": 7754,
      "ĠRjclaudio": 7755,
      "Ġpromover": 7756,
      "Ġestruturas": 7757,
      "ĠHot": 7758,
      "ĠPia": 7759,
      "Ġ1917": 7760,
      "1988": 7761,
      "ĠprÃªmios": 7762,
      "rÃ¡tica": 7763,
      "ĠEstudos": 7764,
      "Ġbon": 7765,
      "caute": 7766,
      "ĠCome": 7767,
      "ovela": 7768,
      "ÃŃderes": 7769,
      "sv": 7770,
      "Ġautoridades": 7771,
      "Ġcontrola": 7772,
      "Ġpossam": 7773,
      "Ġchamou": 7774,
      "Ġ49": 7775,
      "Ãªme": 7776,
      "Ġconvidado": 7777,
      "Sem": 7778,
      "Ġrecupe": 7779,
      "Ġtrin": 7780,
      "Ġdestin": 7781,
      "emplo": 7782,
      "ĠopÃ§Ã£o": 7783,
      "Ġbrin": 7784,
      "dioc": 7785,
      "ĠFried": 7786,
      "ĠexecuÃ§Ã£o": 7787,
      "jado": 7788,
      "Ġdesenvolveu": 7789,
      "pto": 7790,
      "ĠIra": 7791,
      "ady": 7792,
      "ĠFranco": 7793,
      "AP": 7794,
      "ĠOne": 7795,
      "dice": 7796,
      "ĠPom": 7797,
      "ĠOutros": 7798,
      "Ber": 7799,
      "Ġvenda": 7800,
      "Melhor": 7801,
      "licaÃ§Ãµes": 7802,
      "ComentÃ¡rios": 7803,
      "Ãºl": 7804,
      "Ġox": 7805,
      "Ġcondu": 7806,
      "Ġnotoriedade": 7807,
      "ĠLucas": 7808,
      "Den": 7809,
      "ĠreligiÃ£o": 7810,
      "Ġ1918": 7811,
      "ĠKim": 7812,
      "ÃŃsticos": 7813,
      "Ġdeveriam": 7814,
      "Ġquadro": 7815,
      "Ġenviado": 7816,
      "ĠameaÃ§a": 7817,
      "Ġ400": 7818,
      "Ġoportunidade": 7819,
      "Ġboas": 7820,
      "terrÃ¢n": 7821,
      "Ġrecentes": 7822,
      "ĠÃ¢mb": 7823,
      "xias": 7824,
      "ĠFÃ³rmula": 7825,
      "entares": 7826,
      "Ġmostrar": 7827,
      "ĠcritÃ©rio": 7828,
      "isti": 7829,
      "Ġvendas": 7830,
      "ĠirÃ¡": 7831,
      "Ġplataforma": 7832,
      "ĠfusÃµes": 7833,
      "gaÃ§Ãµes": 7834,
      "Cy": 7835,
      "*\"": 7836,
      "ĠduraÃ§Ã£o": 7837,
      "quesa": 7838,
      "ĠMassa": 7839,
      "Ġtrou": 7840,
      "ilares": 7841,
      "xual": 7842,
      "ĠFlÃ¡": 7843,
      "ãĤ": 7844,
      "Ġtill": 7845,
      "doro": 7846,
      "Hom": 7847,
      "ĠtransmissÃ£o": 7848,
      "ĠcomeÃ§ar": 7849,
      "tres": 7850,
      "Ġ1928": 7851,
      "aylor": 7852,
      "Ġroteiro": 7853,
      "ĠMarga": 7854,
      "#'": 7855,
      "ule": 7856,
      "Ġartic": 7857,
      "Ġpossibil": 7858,
      "bul": 7859,
      "essÃ£o": 7860,
      "tee": 7861,
      "uega": 7862,
      "uk": 7863,
      "ĠcaÃ§a": 7864,
      "Ġvc": 7865,
      "ĠprincÃŃpios": 7866,
      "Ġpropa": 7867,
      "ĠAlto": 7868,
      "Ġjustifica": 7869,
      "tocol": 7870,
      "ciaÃ§Ã£o": 7871,
      "ĠprÃ©dio": 7872,
      "Ġ([": 7873,
      "Ġvolumes": 7874,
      "Ġ41": 7875,
      "elly": 7876,
      "Dar": 7877,
      "Ġ1919": 7878,
      "ĠEp": 7879,
      "Ġ1912": 7880,
      "ĠlÃŃnguas": 7881,
      "ĠTeixeira": 7882,
      "ĠMov": 7883,
      "Ġtransfor": 7884,
      "ĠinÃº": 7885,
      "ĠpÃºblicas": 7886,
      "ĠRodrigo": 7887,
      "tÃª": 7888,
      "ĠVasco": 7889,
      "Ġporto": 7890,
      "Ġromanos": 7891,
      "Pres": 7892,
      "ĠHy": 7893,
      "ĠinÃ©": 7894,
      "ĠDepu": 7895,
      "Ġtrecho": 7896,
      "uts": 7897,
      "Ġvencer": 7898,
      "ĠfÃŃsico": 7899,
      "trina": 7900,
      "iniÃµes": 7901,
      "Ã±a": 7902,
      "ixar": 7903,
      "ĠRub": 7904,
      "giram": 7905,
      "Ġassumir": 7906,
      "ĠCorn": 7907,
      "Ġtemporadas": 7908,
      "ĠEuropeia": 7909,
      "cÃ³p": 7910,
      "gop": 7911,
      "Ġanda": 7912,
      "Ġchamar": 7913,
      "ĠBei": 7914,
      "Ġelemento": 7915,
      "ĠtrÃ¡s": 7916,
      "Ġsenador": 7917,
      "Ġterreno": 7918,
      "ĠSpecies": 7919,
      "eight": 7920,
      "ensa": 7921,
      "inh": 7922,
      "tamentos": 7923,
      "Ġrodo": 7924,
      "Ter": 7925,
      "Î±": 7926,
      "Ġ1922": 7927,
      "ĉĉĉĉ": 7928,
      "ĠCarolina": 7929,
      "ĠmatemÃ¡tica": 7930,
      "ĠrÃ¡pido": 7931,
      "usal": 7932,
      "Ġ1929": 7933,
      "Ġimpacto": 7934,
      "Ġintelec": 7935,
      "Batalha": 7936,
      "Ġautoria": 7937,
      "bach": 7938,
      "ĠBl": 7939,
      "icaÃ§Ãµes": 7940,
      "gura": 7941,
      "tÃŃcia": 7942,
      "ĠFerra": 7943,
      "Ã¶r": 7944,
      "ĠImperial": 7945,
      "ĠMarco": 7946,
      "Ġ85": 7947,
      "Ġserve": 7948,
      "inÃ¡ria": 7949,
      "1982": 7950,
      "ĠhipÃ³": 7951,
      "urch": 7952,
      "ibus": 7953,
      "Ġforn": 7954,
      "zas": 7955,
      "Ġposso": 7956,
      "ĠUFC": 7957,
      "Ġargumentos": 7958,
      "ances": 7959,
      "ĠGrosso": 7960,
      "Sal": 7961,
      "ĠAcesso": 7962,
      "Casa": 7963,
      "Ġnotas": 7964,
      "ĠgeogrÃ¡": 7965,
      "ĠPlant": 7966,
      "tÃ©rias": 7967,
      "Liv": 7968,
      "desambiguaÃ§Ã£o": 7969,
      "ray": 7970,
      "ĠArthur": 7971,
      "Ġcaixa": 7972,
      "HÃ¡": 7973,
      "ĠFamÃŃlia": 7974,
      "ĠEnter": 7975,
      "iba": 7976,
      "Ġ37": 7977,
      "Ġdefens": 7978,
      "ppe": 7979,
      "PredefiniÃ§Ãµes": 7980,
      "Dec": 7981,
      "SC": 7982,
      "ĠMath": 7983,
      "ministro": 7984,
      "Ġdificuldades": 7985,
      "Gen": 7986,
      "pode": 7987,
      "Ġvariedade": 7988,
      "Ã´ns": 7989,
      "Ġmedidas": 7990,
      "Ġit": 7991,
      "eixe": 7992,
      "gna": 7993,
      "Ġencontrou": 7994,
      "hl": 7995,
      "AT": 7996,
      "Ġdestas": 7997,
      "bophyllum": 7998,
      "Ġpreserva": 7999,
      "Ã´nicas": 8000,
      "ĠUE": 8001,
      "Dire": 8002,
      "Ġ43": 8003,
      "ĠdescendÃªncia": 8004,
      "Ġina": 8005,
      "key": 8006,
      "ĠTrÃªs": 8007,
      "ĠNelson": 8008,
      "Ġruas": 8009,
      "ĠPÃºblico": 8010,
      "Ġagre": 8011,
      "Ġdetalhes": 8012,
      "Ġcontou": 8013,
      "Ġaustrali": 8014,
      "capa": 8015,
      "ste": 8016,
      "ĠgraÃ§as": 8017,
      "ĠPreto": 8018,
      "ĠdÃºvida": 8019,
      "ÃŃzes": 8020,
      "Bulbophyllum": 8021,
      "Ġcontratado": 8022,
      "Ġ64": 8023,
      "Ã´nsul": 8024,
      "ĠDesenvolvimento": 8025,
      "Ġ1931": 8026,
      "Ġino": 8027,
      "Ġpedir": 8028,
      "ĠJohnson": 8029,
      "itter": 8030,
      "PR": 8031,
      "Ġpion": 8032,
      "ĠPolÃŃcia": 8033,
      "Ġemi": 8034,
      "Ġimposs": 8035,
      "Ã³gico": 8036,
      "ĠÃ³rbita": 8037,
      "ĠHigh": 8038,
      "Ġconfigu": 8039,
      "Ġfolhas": 8040,
      "ĠVieira": 8041,
      "inger": 8042,
      "Ġ1926": 8043,
      "Ġpatr": 8044,
      "ĠmatÃ©ria": 8045,
      "Ġiniciativa": 8046,
      "elli": 8047,
      "Ġanexo": 8048,
      "vision": 8049,
      "gÃ£os": 8050,
      "pass": 8051,
      "Ġatingir": 8052,
      "Ger": 8053,
      "dt": 8054,
      "ĠPs": 8055,
      "Ġlog": 8056,
      "Estados": 8057,
      "rÃ¡tico": 8058,
      "Jul": 8059,
      "ĠAcho": 8060,
      "domin": 8061,
      "Ġservir": 8062,
      "ĠclÃ¡ssico": 8063,
      "Ġeng": 8064,
      "ezuela": 8065,
      "ĠedifÃŃcios": 8066,
      "dense": 8067,
      "Ġrelacionamento": 8068,
      "ĠGeographic": 8069,
      "Ã¨re": 8070,
      "ĠRena": 8071,
      "Ġtemplo": 8072,
      "Ġconsol": 8073,
      "ĠcontribuiÃ§Ãµes": 8074,
      "tors": 8075,
      "ĠOriente": 8076,
      "ĠsÃŃmbolo": 8077,
      "rub": 8078,
      "ĠcÃ¡": 8079,
      "Ġpalco": 8080,
      "ĠSong": 8081,
      "ĠBet": 8082,
      "cipl": 8083,
      "ĠcoraÃ§Ã£o": 8084,
      "\").": 8085,
      "IT": 8086,
      "ixon": 8087,
      "ĠTempo": 8088,
      "ĠveÃŃculos": 8089,
      "SN": 8090,
      "Ġ38": 8091,
      "onto": 8092,
      "Ġaberta": 8093,
      "Ġengenharia": 8094,
      "ĠPraia": 8095,
      "ĠcarÃ¡ter": 8096,
      "Ġclima": 8097,
      "ĠPaz": 8098,
      "ÃĥO": 8099,
      "ĠSobre": 8100,
      "Ġsobe": 8101,
      "Sinopse": 8102,
      "Ġaltitude": 8103,
      "ĠRÃ¡dio": 8104,
      "Ġofe": 8105,
      "Ġseguiu": 8106,
      "ĠMetropol": 8107,
      "1987": 8108,
      "Ġreligiosa": 8109,
      "Äģ": 8110,
      "ciamento": 8111,
      "ĠCarl": 8112,
      "Ġcontudo": 8113,
      "Portugal": 8114,
      "Ġigualmente": 8115,
      "ĠCated": 8116,
      "ĠLÃ¡": 8117,
      "ĠOlim": 8118,
      "ÃŃnsula": 8119,
      "ĠLegislativa": 8120,
      "ĠComics": 8121,
      "heir": 8122,
      "Bro": 8123,
      "sk": 8124,
      "Ġ1913": 8125,
      "ĠWill": 8126,
      "EP": 8127,
      "ĠAten": 8128,
      "gress": 8129,
      "tambÃ©m": 8130,
      "ĠUp": 8131,
      "ctos": 8132,
      "Ġajudou": 8133,
      "dd": 8134,
      "vante": 8135,
      "ĠPit": 8136,
      "ĠlÃŃderes": 8137,
      "gie": 8138,
      "ĠConf": 8139,
      "ĠrepresentaÃ§Ã£o": 8140,
      "\"',": 8141,
      "Ġile": 8142,
      "Ġconselho": 8143,
      "ĠChecklist": 8144,
      "Ġenviou": 8145,
      "Ġben": 8146,
      "ĠWood": 8147,
      "ĠcaracterÃŃstica": 8148,
      "ĠLand": 8149,
      "Ġconsiderados": 8150,
      "Ġafric": 8151,
      "ĠrÃ³": 8152,
      "urus": 8153,
      "Ġinternet": 8154,
      "Ġsurg": 8155,
      "essem": 8156,
      "vores": 8157,
      "Ġutiliza": 8158,
      "ĠÂł": 8159,
      "ĠdisponÃŃveis": 8160,
      "Ġroub": 8161,
      "Ġfacilmente": 8162,
      "Ġsetor": 8163,
      "ĠcrÃŃtico": 8164,
      "Ġjornais": 8165,
      "Ġaviso": 8166,
      "Ġpessoais": 8167,
      "iago": 8168,
      "ĠRainha": 8169,
      "Ġaquela": 8170,
      "veira": 8171,
      "Ġdestino": 8172,
      "Ġesteja": 8173,
      "Ġsemelhantes": 8174,
      "Ġestabeleceu": 8175,
      "pea": 8176,
      "Ã¡ginas": 8177,
      "inete": 8178,
      "ÃŃaco": 8179,
      "Ġexatamente": 8180,
      "wis": 8181,
      "FusÃ£o": 8182,
      "ĠCapitÃ£o": 8183,
      "cap": 8184,
      "ĠVilla": 8185,
      "Ph": 8186,
      "ĠMaior": 8187,
      "ĠBatista": 8188,
      "Ġcr": 8189,
      "Ġoita": 8190,
      "Ġsimilar": 8191,
      "United": 8192,
      "Ġescritos": 8193,
      "Country": 8194,
      "ĠEuropeu": 8195,
      "Ã³nio": 8196,
      "heim": 8197,
      "ĠconfianÃ§a": 8198,
      "Ġcontas": 8199,
      "ore": 8200,
      "pson": 8201,
      "ĠopiniÃµes": 8202,
      "Ġlocalidade": 8203,
      "Cin": 8204,
      "Ġocidental": 8205,
      "nor": 8206,
      "ĠprÃ³prias": 8207,
      "tainment": 8208,
      "ĠÃ¢mbito": 8209,
      "ĠexpediÃ§Ã£o": 8210,
      "ĠSistema": 8211,
      "Ġtheir": 8212,
      "1980": 8213,
      "ĠAdol": 8214,
      "lei": 8215,
      "ÃŃsica": 8216,
      "Ġoce": 8217,
      "ĠBuenos": 8218,
      "off": 8219,
      "Ã³nica": 8220,
      "ĠEspecial": 8221,
      "ĠEngenharia": 8222,
      "Ġconhecidas": 8223,
      "Ġtrouxe": 8224,
      "teros": 8225,
      "Ġface": 8226,
      "Ġcandidatura": 8227,
      "Ġquinta": 8228,
      "bis": 8229,
      "Ġ1911": 8230,
      "laÃ§Ã£o": 8231,
      "Ġcarros": 8232,
      "mittee": 8233,
      "dral": 8234,
      "far": 8235,
      "ĠBooks": 8236,
      "Ġcasada": 8237,
      "ĠreuniÃ£o": 8238,
      "Ġ$": 8239,
      "Ġcente": 8240,
      "ĠColÃ´mbia": 8241,
      "futebol": 8242,
      "cionalmente": 8243,
      "Fun": 8244,
      "ĠAnn": 8245,
      "ĠmuÃ§ul": 8246,
      "ĠPortal": 8247,
      "ĠDecreto": 8248,
      "gueira": 8249,
      "dessa": 8250,
      "ĠGaz": 8251,
      "Ġfacul": 8252,
      "1985": 8253,
      "Ġordens": 8254,
      "Ġsau": 8255,
      "ĠpossÃŃveis": 8256,
      "Ġnuclear": 8257,
      "contra": 8258,
      "Ġacor": 8259,
      "ĠcrÃ©": 8260,
      "Rec": 8261,
      "ixÃ£o": 8262,
      "ĠSecretaria": 8263,
      "Ġcre": 8264,
      "Ġbiblio": 8265,
      "veja": 8266,
      "ĠMid": 8267,
      "ĠpossuÃŃa": 8268,
      "pÃ©cies": 8269,
      "ĠZel": 8270,
      "renÃ§a": 8271,
      "ĠDois": 8272,
      "Ġinfluen": 8273,
      "embar": 8274,
      "Ġexistir": 8275,
      "Ġcabo": 8276,
      "tie": 8277,
      "Ġhel": 8278,
      "Ġverifica": 8279,
      "Ġespecificamente": 8280,
      "ĠUN": 8281,
      "Ġanex": 8282,
      "Ġderrotado": 8283,
      "Ġcobertura": 8284,
      "ĠDiego": 8285,
      "Ġespanhola": 8286,
      "Ġpoderes": 8287,
      "ĠAssociation": 8288,
      "Ġimperial": 8289,
      "Ġleitura": 8290,
      "Ġigno": 8291,
      "Ġjus": 8292,
      "ĠGod": 8293,
      "ĠAh": 8294,
      "hista": 8295,
      "ĠMaran": 8296,
      "Ġdiscutir": 8297,
      "Ġpele": 8298,
      "ĠpalÃ¡cio": 8299,
      "svg": 8300,
      "ĠSec": 8301,
      "rop": 8302,
      "Ġtoma": 8303,
      "Ġsituado": 8304,
      "Ġaman": 8305,
      "ĠJeff": 8306,
      "ret": 8307,
      "ĠmÃ©todos": 8308,
      "idor": 8309,
      "ĠEvang": 8310,
      "ĠGuarda": 8311,
      "Ġcontinente": 8312,
      "Ġrequis": 8313,
      "Ġidi": 8314,
      "Ġmig": 8315,
      "Ġinterrom": 8316,
      "ĠParÃ¡": 8317,
      "Bretanha": 8318,
      "rinos": 8319,
      "dies": 8320,
      "Ġbandas": 8321,
      ":::::": 8322,
      "'(": 8323,
      "Ġindicado": 8324,
      "Ġpermitiu": 8325,
      "Ġfrag": 8326,
      "Ġinstrumentos": 8327,
      "ĠVil": 8328,
      "Ġdivis": 8329,
      "ĠXVII": 8330,
      "ĠAeroporto": 8331,
      "ĠTrin": 8332,
      "ogia": 8333,
      "ĠPraÃ§a": 8334,
      "Ġigrejas": 8335,
      "ganda": 8336,
      "dando": 8337,
      "eda": 8338,
      "ĠsÃŃtio": 8339,
      "Ã§amento": 8340,
      "Ġprimo": 8341,
      "ĠOficial": 8342,
      "ĠDesta": 8343,
      "vite": 8344,
      "Ġmodal": 8345,
      "Ġatuar": 8346,
      "Ã§am": 8347,
      "ĠES": 8348,
      "Ġculturais": 8349,
      "ĠCada": 8350,
      "ĠjaponÃªs": 8351,
      "erdo": 8352,
      "Ġimpress": 8353,
      "Ġmilhares": 8354,
      "{{": 8355,
      "ĠOriental": 8356,
      "mica": 8357,
      "Ġaeronave": 8358,
      "Ġconsecu": 8359,
      "])": 8360,
      "ĠDol": 8361,
      "ĠFox": 8362,
      "fes": 8363,
      "ittle": 8364,
      "ww": 8365,
      "Ġ1900": 8366,
      "ĠBarbosa": 8367,
      "Ġverdadeira": 8368,
      "ĠCuritiba": 8369,
      "ences": 8370,
      "dicion": 8371,
      "ĠEric": 8372,
      "chus": 8373,
      "Ġutilizando": 8374,
      "pÃ©is": 8375,
      "Ġretirada": 8376,
      "Ġsupor": 8377,
      "Ġmel": 8378,
      "Ġbombar": 8379,
      "Vol": 8380,
      "Ġatmos": 8381,
      "oman": 8382,
      "Ġseg": 8383,
      "ĠGarcia": 8384,
      "ĠVII": 8385,
      "tag": 8386,
      "Ġinstru": 8387,
      "Ġbatal": 8388,
      "Ġdoze": 8389,
      "Ġbens": 8390,
      "Centro": 8391,
      "ĠfenÃ´m": 8392,
      "ĠcÃ¢mara": 8393,
      "conde": 8394,
      "ĠYour": 8395,
      "Ġcarb": 8396,
      "ĠLatina": 8397,
      "ĠMachoCarioca": 8398,
      "Ġamplia": 8399,
      "spe": 8400,
      "ĠGuar": 8401,
      "bÃ¡": 8402,
      "ĠconclusÃ£o": 8403,
      "ĠBarros": 8404,
      "mm": 8405,
      "ĠâĢł": 8406,
      "Ġjudeus": 8407,
      "ĠocupaÃ§Ã£o": 8408,
      "ming": 8409,
      "manda": 8410,
      "ĠDist": 8411,
      "Ġprocess": 8412,
      "ĠXa": 8413,
      "fol": 8414,
      "Ġaldeia": 8415,
      "ĠnegÃ³cios": 8416,
      "Ġtrabalhando": 8417,
      "rizada": 8418,
      "ĠPalmeiras": 8419,
      "iais": 8420,
      "ifornia": 8421,
      "ĠLam": 8422,
      "seca": 8423,
      "Ġesbo": 8424,
      "ĠpresidÃªncia": 8425,
      "Ġcoo": 8426,
      "versÃ£o": 8427,
      "ĠArtigo": 8428,
      "ĠBoy": 8429,
      "Ġvindo": 8430,
      "ĠadaptaÃ§Ã£o": 8431,
      "idi": 8432,
      "Ġoriginais": 8433,
      "presso": 8434,
      "Embora": 8435,
      "ĠDio": 8436,
      "ĠcenÃ¡rio": 8437,
      "ĠAuto": 8438,
      "Ġbic": 8439,
      "Ġassegu": 8440,
      "Ġcard": 8441,
      "Ġfiguras": 8442,
      "ery": 8443,
      "ĠHarry": 8444,
      "Ġcurto": 8445,
      "Ġtradicionais": 8446,
      "canÃ§Ã£o": 8447,
      "ĠÃļ": 8448,
      "Filho": 8449,
      "Ġreferir": 8450,
      "Ġbola": 8451,
      "Ġrecol": 8452,
      "ĠParal": 8453,
      "terÃŃsticas": 8454,
      "ĠCenter": 8455,
      "quetebol": 8456,
      "ĠCorte": 8457,
      "iversÃ¡rio": 8458,
      "Ġhouver": 8459,
      "Ġ1927": 8460,
      "ĠÃĢ": 8461,
      "fu": 8462,
      "ĠHay": 8463,
      "rigada": 8464,
      "Ġcompreen": 8465,
      "Ġrevistas": 8466,
      "Ð¾Ð": 8467,
      "ĠCatedral": 8468,
      "My": 8469,
      "ĠRem": 8470,
      "olas": 8471,
      "Ġ39": 8472,
      "ĠpromoÃ§Ã£o": 8473,
      "tempo": 8474,
      "Ġequil": 8475,
      "Ġmedie": 8476,
      "Ġmodern": 8477,
      "Ġline": 8478,
      "Ġgravadora": 8479,
      "ift": 8480,
      "Super": 8481,
      "ĠsecÃ§Ã£o": 8482,
      "ĠMana": 8483,
      "Ġtelen": 8484,
      "Ġresponsabilidade": 8485,
      "Mais": 8486,
      "ĠficÃ§Ã£o": 8487,
      "At": 8488,
      "James": 8489,
      "Ãªu": 8490,
      "quidioc": 8491,
      "Ġdif": 8492,
      "Prin": 8493,
      ".),": 8494,
      "Ġaltitudes": 8495,
      "irou": 8496,
      "Ġjuntou": 8497,
      "ĠesforÃ§o": 8498,
      "Ġpermitir": 8499,
      "ĠnÃºcleo": 8500,
      "ĠCorinthians": 8501,
      "Ġcolor": 8502,
      "EE": 8503,
      "zio": 8504,
      "gÃªn": 8505,
      "landÃªs": 8506,
      "ĠMedalha": 8507,
      "ĠespecÃŃfico": 8508,
      "Ġgig": 8509,
      "Ġdireto": 8510,
      "ĠmÃºlti": 8511,
      "ĠSeries": 8512,
      "Ġtripul": 8513,
      "ĠPosteriormente": 8514,
      "Ġcriados": 8515,
      "ĠfuncionÃ¡rios": 8516,
      "Ġprision": 8517,
      "peonatos": 8518,
      "cidentes": 8519,
      "Ġativo": 8520,
      "ĠKn": 8521,
      "roco": 8522,
      "2018": 8523,
      "ĠBarÃ£o": 8524,
      "Ġviria": 8525,
      "Ġbranca": 8526,
      "1986": 8527,
      "ĠPÃºblica": 8528,
      "Ġconhece": 8529,
      "imarÃ£es": 8530,
      "Star": 8531,
      "Ġfrota": 8532,
      "Ġalvo": 8533,
      "remos": 8534,
      "Cu": 8535,
      "Era": 8536,
      "ĠNu": 8537,
      "cedentes": 8538,
      "doeste": 8539,
      "ĠorganizaÃ§Ãµes": 8540,
      "ĠOrig": 8541,
      "Ass": 8542,
      "lah": 8543,
      "ĠaviÃ£o": 8544,
      "ium": 8545,
      "ĠUruguai": 8546,
      "Ġconsa": 8547,
      "Ġposterior": 8548,
      "Ġusou": 8549,
      "Ġvandalismo": 8550,
      "terno": 8551,
      "1983": 8552,
      "eu": 8553,
      "Ã³so": 8554,
      "ĠUniversal": 8555,
      "rion": 8556,
      "Ġ1925": 8557,
      "RJ": 8558,
      "Ġrepor": 8559,
      "ĠsituaÃ§Ãµes": 8560,
      "Ġquadrinhos": 8561,
      "bb": 8562,
      "Ġvar": 8563,
      "Ġnaquela": 8564,
      "ĠTaylor": 8565,
      "Ã©ticos": 8566,
      "Ġacum": 8567,
      "Ġromana": 8568,
      "ĠAdministraÃ§Ã£o": 8569,
      "Ġestabelecer": 8570,
      "Ġverdadeiro": 8571,
      "Ġderrotou": 8572,
      "Ġconsta": 8573,
      "ĠAnth": 8574,
      "ĠmantÃ©m": 8575,
      "Ġmoral": 8576,
      "Ġativa": 8577,
      "ĠSus": 8578,
      "Ġinteressante": 8579,
      "Ġarco": 8580,
      "ĠProdu": 8581,
      "US": 8582,
      "Ġfantas": 8583,
      "non": 8584,
      "Ġ--'": 8585,
      "Ġobrigado": 8586,
      "ĠmanhÃ£": 8587,
      "ĠRepublic": 8588,
      "Ġprofessores": 8589,
      "Ġcirur": 8590,
      "Ġpasso": 8591,
      "Atualmente": 8592,
      "dox": 8593,
      "ĠVia": 8594,
      "Ġtrabalhadores": 8595,
      "Ġ1923": 8596,
      "Ġvantagem": 8597,
      "Ġpapa": 8598,
      "Ġagente": 8599,
      "ded": 8600,
      "Ġbru": 8601,
      "Ġportal": 8602,
      "jamento": 8603,
      "Ġvive": 8604,
      "ĠdoenÃ§as": 8605,
      ")',": 8606,
      "1984": 8607,
      "lamente": 8608,
      "ĠBay": 8609,
      "Ġaceitar": 8610,
      "Ġhar": 8611,
      "ĠSuas": 8612,
      "tador": 8613,
      "Ġpoesia": 8614,
      "ĠAfric": 8615,
      "Ġlados": 8616,
      "ĠMem": 8617,
      "Ġcredi": 8618,
      "Ġverbete": 8619,
      "kan": 8620,
      "Prazo": 8621,
      "Ġ&#": 8622,
      "ĠAgora": 8623,
      "Ġmostrou": 8624,
      "Min": 8625,
      "Ġsenhor": 8626,
      "ĠPaula": 8627,
      "GE": 8628,
      "ata": 8629,
      "Ser": 8630,
      "Ġconheceu": 8631,
      "viaÃ§Ã£o": 8632,
      "ĠGrand": 8633,
      "Ġsimul": 8634,
      "Ġinterpretou": 8635,
      "ĠdiÃ¢metro": 8636,
      "Ġexibido": 8637,
      "ological": 8638,
      "Ġcartas": 8639,
      "ĠpapÃ©is": 8640,
      "Ġabrir": 8641,
      "Ġcerteza": 8642,
      "ĠmÃºsico": 8643,
      "icker": 8644,
      "Ġpensamento": 8645,
      "ey": 8646,
      "Ġbu": 8647,
      "ĠConstantin": 8648,
      "cyclopedia": 8649,
      "Santa": 8650,
      "ĠAda": 8651,
      "Ġmagn": 8652,
      "Ġ42": 8653,
      "ĠTÃ©cnico": 8654,
      "cci": 8655,
      "ĠTorneio": 8656,
      "ĠreaÃ§Ã£o": 8657,
      "trio": 8658,
      "Ġentidade": 8659,
      "Ġmural": 8660,
      "Ġqua": 8661,
      "Ġoferece": 8662,
      "Ġinteresses": 8663,
      "Ġfatores": 8664,
      "REDIRECTC": 8665,
      "Ġdanos": 8666,
      "Ġcron": 8667,
      "Ġdecreto": 8668,
      "Ã³quia": 8669,
      "tÃ¡s": 8670,
      "chn": 8671,
      "ĠItali": 8672,
      "ĠEns": 8673,
      "Ġpossivelmente": 8674,
      "ĠnecessÃ¡ria": 8675,
      "Ġdisputar": 8676,
      "ĠNoruega": 8677,
      "Ġautoma": 8678,
      "sel": 8679,
      "ouve": 8680,
      "ĠLeste": 8681,
      "valo": 8682,
      "Ġcostum": 8683,
      "Ġfug": 8684,
      "Ġfoco": 8685,
      "gaz": 8686,
      "Ã¢ndal": 8687,
      "ester": 8688,
      "Ġideal": 8689,
      "ĠinstalaÃ§Ã£o": 8690,
      "lash": 8691,
      "ĠIsland": 8692,
      "Ġgerais": 8693,
      "ĠDoug": 8694,
      "Ġofens": 8695,
      "trie": 8696,
      "ĠSport": 8697,
      "Ġcomputador": 8698,
      "ĠHollywood": 8699,
      "Ġequipamentos": 8700,
      "Ġpermitindo": 8701,
      "Wil": 8702,
      "fan": 8703,
      "DescriÃ§Ã£o": 8704,
      "cc": 8705,
      "Ã§amb": 8706,
      "Ġinteira": 8707,
      "tologia": 8708,
      "tentes": 8709,
      "sin": 8710,
      "Ġcancel": 8711,
      "ĠFilm": 8712,
      "ĠausÃªncia": 8713,
      "Ġcontendo": 8714,
      "ĠPrograma": 8715,
      "ĠLago": 8716,
      "cionar": 8717,
      "ĠespaÃ§os": 8718,
      "Class": 8719,
      "Ġfuncionamento": 8720,
      "Ġshows": 8721,
      "Ġ120": 8722,
      "depois": 8723,
      "ĠeconÃ´mica": 8724,
      "diaÃ§Ã£o": 8725,
      "Ġcolocou": 8726,
      "Ġabriu": 8727,
      "Ġmesmas": 8728,
      "Ġcolabora": 8729,
      "ĠJord": 8730,
      "Ġdub": 8731,
      "ĠAngra": 8732,
      "ĠConceiÃ§Ã£o": 8733,
      "mus": 8734,
      "Bel": 8735,
      "lou": 8736,
      "ĠâĢĺ": 8737,
      "ĠDNA": 8738,
      "chan": 8739,
      "Ġarm": 8740,
      "ĠMatt": 8741,
      "ĠFrancesa": 8742,
      "UCN": 8743,
      "ĠGame": 8744,
      "entados": 8745,
      "Ġindustrial": 8746,
      "ĠGoiÃ¡s": 8747,
      "Ġglobal": 8748,
      "CE": 8749,
      "Ã¡pol": 8750,
      "Ãĵ": 8751,
      "endas": 8752,
      "ikis": 8753,
      "ĠrÃ³tulo": 8754,
      "Histo": 8755,
      "ÃŃtica": 8756,
      "Ġpadre": 8757,
      "Ġempate": 8758,
      "ĠDefesa": 8759,
      "#--": 8760,
      "ĠTavares": 8761,
      "Proponente": 8762,
      "Ãºjo": 8763,
      "hed": 8764,
      "Ġ46": 8765,
      "ĠQuanto": 8766,
      "ĠÅ": 8767,
      "Ainda": 8768,
      "ĠOp": 8769,
      "Ġroda": 8770,
      "isse": 8771,
      "ĠClara": 8772,
      "Ġfilma": 8773,
      "Ġfamosa": 8774,
      "ĠHenri": 8775,
      "nesto": 8776,
      "Ġtradu": 8777,
      "Ġ75": 8778,
      "Ġlimita": 8779,
      "chada": 8780,
      "ĠquÃŃmica": 8781,
      "suÃ¡rio": 8782,
      "ĠMarques": 8783,
      "Ġexpor": 8784,
      "ĠNatural": 8785,
      "Ġpilotos": 8786,
      "Ġreel": 8787,
      "ĠreduÃ§Ã£o": 8788,
      "Ġabsor": 8789,
      "flo": 8790,
      "dere": 8791,
      "ĠRou": 8792,
      "Ġsoftware": 8793,
      "Ġseguindo": 8794,
      "Ġdesenvolve": 8795,
      "Ġimplica": 8796,
      "Ġreconhecido": 8797,
      "ĠdÃŃ": 8798,
      "rigo": 8799,
      "omb": 8800,
      "opla": 8801,
      "Ġcalor": 8802,
      "ĠSÃ¡": 8803,
      "ĠKu": 8804,
      "}}}}": 8805,
      "Ġamplamente": 8806,
      "ĠconsequÃªncia": 8807,
      "ĠPhy": 8808,
      "ĠNesta": 8809,
      "ĠHab": 8810,
      "Ġgrave": 8811,
      "ĠPolÃ´nia": 8812,
      "gil": 8813,
      "Ġfunciona": 8814,
      "ĠClÃ¡u": 8815,
      "Ġ1908": 8816,
      "Ġregional": 8817,
      "ualmente": 8818,
      "Ġrelacionadas": 8819,
      "ĠJerusal": 8820,
      "ĠbotÃ¢nico": 8821,
      "Ġdescrito": 8822,
      "Ġajus": 8823,
      "âĢ¢": 8824,
      "Ġvisual": 8825,
      "ĠnotÃ¡vel": 8826,
      "Lei": 8827,
      "ficiÃªncia": 8828,
      "Ġdemocra": 8829,
      "Ġmargem": 8830,
      "Ġespiri": 8831,
      "Ġdescreveu": 8832,
      "Ġsegundos": 8833,
      "ĠinstalaÃ§Ãµes": 8834,
      "iadas": 8835,
      "ione": 8836,
      "Ġfix": 8837,
      "ĠPÃ©": 8838,
      "riram": 8839,
      "Ġfestival": 8840,
      "ĠNob": 8841,
      "ĠSebastiÃ£o": 8842,
      "ÃŃngua": 8843,
      "ĠStreet": 8844,
      "ĠNuno": 8845,
      "Ġlevado": 8846,
      "pada": 8847,
      "Ġestaduais": 8848,
      "ĠPonte": 8849,
      "Ġprofunda": 8850,
      "gente": 8851,
      "Ġsedia": 8852,
      "ika": 8853,
      "Ġcoluna": 8854,
      "DÃ©cada": 8855,
      "Ġreper": 8856,
      "image": 8857,
      "Ġalimentos": 8858,
      "ĠÃ³rgÃ£os": 8859,
      "ĠFlamengo": 8860,
      "Ġ1921": 8861,
      "ÃŃrculo": 8862,
      "Ã©e": 8863,
      "ĠTeam": 8864,
      "ĠOut": 8865,
      "ĠJam": 8866,
      "Ġescla": 8867,
      "Ġamericanos": 8868,
      "ĠcontÃŃn": 8869,
      "ĠGuimarÃ£es": 8870,
      "Ġganha": 8871,
      "Br": 8872,
      "Ġcreio": 8873,
      "Ġincluir": 8874,
      "reich": 8875,
      "ĠTr": 8876,
      "ĠHand": 8877,
      "tilidade": 8878,
      "ĠProfessor": 8879,
      "Jean": 8880,
      "ĠPC": 8881,
      "toph": 8882,
      "Ġestil": 8883,
      "ĠParaguai": 8884,
      "tafogo": 8885,
      "ĠHungria": 8886,
      "ĠAnna": 8887,
      "ĠCastela": 8888,
      "Ev": 8889,
      "Ġdouto": 8890,
      "geu": 8891,
      "ĠConserva": 8892,
      "uracÃ£o": 8893,
      "ĠER": 8894,
      "ensÃµes": 8895,
      "Ġexplos": 8896,
      "\"'.": 8897,
      "ĠTony": 8898,
      "less": 8899,
      "tins": 8900,
      "Ġtimes": 8901,
      "ĠViena": 8902,
      "bios": 8903,
      "quio": 8904,
      "Ġconcordo": 8905,
      "Ġrig": 8906,
      "ptera": 8907,
      "ĠTorres": 8908,
      "ĠAcessado": 8909,
      "ĠPT": 8910,
      "Ġtio": 8911,
      "ÃŃmica": 8912,
      "gle": 8913,
      "venil": 8914,
      "ember": 8915,
      "cate": 8916,
      "ĠAraÃºjo": 8917,
      "Ġlatim": 8918,
      "lla": 8919,
      "Ġargen": 8920,
      "ĠNeto": 8921,
      "ĠprÃ³ximos": 8922,
      "Ġsubme": 8923,
      "Ġrepresentante": 8924,
      "Ġperde": 8925,
      "Ġerrado": 8926,
      "Ob": 8927,
      "Ġpse": 8928,
      "pressa": 8929,
      "Ġsignificado": 8930,
      "EThe": 8931,
      "espe": 8932,
      "ĠWrestling": 8933,
      "Ġdescar": 8934,
      "Ġdesaf": 8935,
      "ĠChico": 8936,
      "Ġcoorden": 8937,
      "Å¡": 8938,
      "ĠPublishing": 8939,
      "type": 8940,
      "ĠSun": 8941,
      "teira": 8942,
      "Ġsofre": 8943,
      "genda": 8944,
      "Ġatores": 8945,
      "ĠOpera": 8946,
      "ĠCass": 8947,
      "Ġbeb": 8948,
      "Ã¼n": 8949,
      "Bal": 8950,
      "ĠcÃ¡l": 8951,
      "ĠartÃŃstica": 8952,
      "Ġformando": 8953,
      "ĠdecisÃµes": 8954,
      "seis": 8955,
      "tsu": 8956,
      "xia": 8957,
      "Ġtido": 8958,
      "ĠsÃ©ries": 8959,
      "ãģ": 8960,
      "ont": 8961,
      "rens": 8962,
      "Ġaves": 8963,
      "Ġampli": 8964,
      "ĠTorre": 8965,
      "Ġassistente": 8966,
      "Ġchave": 8967,
      "ines": 8968,
      "ort": 8969,
      "Ġacre": 8970,
      "ĠCardoso": 8971,
      "ĠEmb": 8972,
      "ĠdaÃŃ": 8973,
      "Ġpertence": 8974,
      "Ġacessado": 8975,
      "ĠClau": 8976,
      "ĠSupre": 8977,
      "famÃŃlia": 8978,
      "Ġpt": 8979,
      "ĠFrance": 8980,
      "ĠGazette": 8981,
      "ĠdenominaÃ§Ã£o": 8982,
      "ĠLive": 8983,
      "quistÃ£o": 8984,
      "Ġtratar": 8985,
      "ĠmÃ¡xima": 8986,
      "ĠDevido": 8987,
      "ĠCul": 8988,
      "ĠCarioca": 8989,
      "arch": 8990,
      "quadrÃ£o": 8991,
      "ĠIUCN": 8992,
      "ĠlocalizaÃ§Ã£o": 8993,
      "Ã¢nime": 8994,
      "ĠVenezuela": 8995,
      "Info": 8996,
      "ictionary": 8997,
      "Ġenvolvendo": 8998,
      "Geral": 8999,
      "ianos": 9000,
      "Ġdiscor": 9001,
      "Ġnumeros": 9002,
      "ĠBase": 9003,
      "Ġfavo": 9004,
      "Ġresga": 9005,
      "ĠexceÃ§Ã£o": 9006,
      "vice": 9007,
      "ĠPers": 9008,
      "ĠVice": 9009,
      "duras": 9010,
      "Ġpeda": 9011,
      "ĠOeste": 9012,
      "Ġartilharia": 9013,
      "Ġretirar": 9014,
      "Ġrenome": 9015,
      "ĠviolÃªncia": 9016,
      "Ġlas": 9017,
      "haram": 9018,
      "Ġconec": 9019,
      "letismo": 9020,
      "Ġmedicina": 9021,
      "ĠColum": 9022,
      "kk": 9023,
      "All": 9024,
      "gonha": 9025,
      "ĠalteraÃ§Ã£o": 9026,
      "ĠLong": 9027,
      "Ġtentando": 9028,
      "Grupo": 9029,
      "ĠDiocese": 9030,
      "izabeth": 9031,
      "Ġirre": 9032,
      "Ġgarantir": 9033,
      "ĠmissÃµes": 9034,
      "Que": 9035,
      "ĠcomissÃ£o": 9036,
      "irro": 9037,
      "vando": 9038,
      "ĠDados": 9039,
      "tilo": 9040,
      "elos": 9041,
      "ĠNich": 9042,
      "Ġconsumo": 9043,
      "hard": 9044,
      "eixo": 9045,
      "ĠCampeÃµes": 9046,
      "ĠFeminino": 9047,
      "Ġdevia": 9048,
      "ĠPie": 9049,
      "ĠBernardo": 9050,
      "ĠfÃ¡brica": 9051,
      "Ġ1915": 9052,
      "junto": 9053,
      "hÃ£es": 9054,
      "liv": 9055,
      "pers": 9056,
      "Ġ{{": 9057,
      "endÃ¡rio": 9058,
      "Ġevolu": 9059,
      "Ġinfantil": 9060,
      "500": 9061,
      "IM": 9062,
      "Ġran": 9063,
      "Ġsolu": 9064,
      "Ġinaugurado": 9065,
      "ĠGi": 9066,
      "Ġcomunidades": 9067,
      "ĠAtlÃ¢ntico": 9068,
      "ĠFrances": 9069,
      "ĠpropÃ³sito": 9070,
      "Ġinimigos": 9071,
      "Ġaulas": 9072,
      "Ġtea": 9073,
      "Ġcaiu": 9074,
      "ĠInverno": 9075,
      "Ġdiploma": 9076,
      "%,": 9077,
      "ĠForam": 9078,
      "Ġpior": 9079,
      "Ġparada": 9080,
      "pez": 9081,
      "ĠDavis": 9082,
      "ĠCiÃªncia": 9083,
      "ĠSr": 9084,
      "chester": 9085,
      "quidiocese": 9086,
      "ĠÃŃ": 9087,
      "Ela": 9088,
      "ĠAB": 9089,
      "ĠPala": 9090,
      "Ġrenun": 9091,
      "Ġsuporte": 9092,
      "ĠHard": 9093,
      "Ġdenominado": 9094,
      "Ara": 9095,
      "ĠLoc": 9096,
      "ĠespÃŃrito": 9097,
      "Ġpublicados": 9098,
      "ĠAlgumas": 9099,
      "Ġusam": 9100,
      "itante": 9101,
      "gais": 9102,
      "ĠFic": 9103,
      "Ġamare": 9104,
      "Ġrios": 9105,
      "Ġcolegas": 9106,
      "Ġproteger": 9107,
      "Ġseres": 9108,
      "Ġexclusivamente": 9109,
      "ĠYoung": 9110,
      "ski": 9111,
      "CaracterÃŃsticas": 9112,
      "Pal": 9113,
      "Ãªncio": 9114,
      "Ã¡bio": 9115,
      "ota": 9116,
      "Ġparlam": 9117,
      "Ġacusa": 9118,
      "ĠGuer": 9119,
      "George": 9120,
      "ĠEqua": 9121,
      "inter": 9122,
      "ĠUnidas": 9123,
      "Ġmontan": 9124,
      "Ġeuropeus": 9125,
      "ids": 9126,
      "Ġpatro": 9127,
      "Ġsucessor": 9128,
      "Ġassassinato": 9129,
      "onha": 9130,
      "ĠProvÃŃncia": 9131,
      "ĠtÃ¡": 9132,
      "ricamente": 9133,
      "ĠBerlin": 9134,
      "Ġinaugurada": 9135,
      "IB": 9136,
      "PT": 9137,
      "Ġpovos": 9138,
      "Ġperspec": 9139,
      "ĠOnline": 9140,
      "ĠVargas": 9141,
      "Sub": 9142,
      "ĠUF": 9143,
      "Ġinimigo": 9144,
      "ficou": 9145,
      "wig": 9146,
      "Ġsorte": 9147,
      "ĠMiranda": 9148,
      "ĠÃ¡rvore": 9149,
      "Ġabre": 9150,
      "ĠCampeÃ£o": 9151,
      "copa": 9152,
      "ĠelÃ©": 9153,
      "ĠdescriÃ§Ã£o": 9154,
      "...)": 9155,
      "cÃŃfico": 9156,
      "ĠGold": 9157,
      "ĠLeop": 9158,
      "Ã³nimo": 9159,
      "Ġequivalente": 9160,
      "Ġdesejo": 9161,
      "rary": 9162,
      "core": 9163,
      "Ġcompetiu": 9164,
      "ĠPM": 9165,
      "izou": 9166,
      "Les": 9167,
      "Ġinform": 9168,
      "Ġtela": 9169,
      "ĠEurovisÃ£o": 9170,
      "1970": 9171,
      "ĠÃ¡rabe": 9172,
      "Ġdireta": 9173,
      "ÃŃnia": 9174,
      "ĠDuarte": 9175,
      "Ġproxim": 9176,
      "Ġparcial": 9177,
      "Sch": 9178,
      "log": 9179,
      "Ãºlio": 9180,
      "Ġconvo": 9181,
      "americanos": 9182,
      "metragem": 9183,
      "Ġestando": 9184,
      "ĠpadrÃµes": 9185,
      "Ġsolar": 9186,
      "ingen": 9187,
      "ĠintervenÃ§Ã£o": 9188,
      "ĠelÃ©trica": 9189,
      "ÃŃblia": 9190,
      "Ġcompro": 9191,
      "Ġcriando": 9192,
      "wski": 9193,
      "ĠdomÃ©s": 9194,
      "ĠenciclopÃ©dia": 9195,
      "ĠmilhÃ£o": 9196,
      "yu": 9197,
      "ĠEstas": 9198,
      "Ġinteressa": 9199,
      "ĠvotaÃ§Ãµes": 9200,
      "ĠLie": 9201,
      "Ġmarcado": 9202,
      "ĠPonta": 9203,
      "aral": 9204,
      "Ġdevo": 9205,
      "ĠdiferenÃ§as": 9206,
      "work": 9207,
      "ĠBul": 9208,
      "ĠCalifornia": 9209,
      "Ġmoto": 9210,
      "ĠÃºltimas": 9211,
      "ĠFelipe": 9212,
      "ĠLibertadores": 9213,
      "ĠpÃ³": 9214,
      "ĠEP": 9215,
      "gart": 9216,
      "rioso": 9217,
      "ĠScience": 9218,
      "Ġcog": 9219,
      "Ġsh": 9220,
      "Ãªx": 9221,
      "Ġcorpos": 9222,
      "ĠjustiÃ§a": 9223,
      "ĠpÃ´": 9224,
      "able": 9225,
      "Ġaparentemente": 9226,
      "ĠpartÃŃ": 9227,
      "ĠincÃªn": 9228,
      "Ġprevis": 9229,
      "ĠFlÃ¡vio": 9230,
      "ĠuniÃ£o": 9231,
      "ĠAtlan": 9232,
      "UN": 9233,
      "Ġprotagonista": 9234,
      "Trans": 9235,
      "vard": 9236,
      "Ġpop": 9237,
      "ĠFred": 9238,
      "Ġvie": 9239,
      "Ġala": 9240,
      "ĠJov": 9241,
      "ĠTeo": 9242,
      "Ġeuropeu": 9243,
      "uld": 9244,
      "ĠBene": 9245,
      "Ġmanifesta": 9246,
      "Ġrecusou": 9247,
      "ĠexploraÃ§Ã£o": 9248,
      "Ġrepresentou": 9249,
      "ĠAbreu": 9250,
      "Ġcargos": 9251,
      "boratÃ³rio": 9252,
      "ĠLÃº": 9253,
      "ĠtransferÃªncia": 9254,
      "cÃŃlio": 9255,
      "Ġdescreve": 9256,
      "Tu": 9257,
      "Ġlargura": 9258,
      "ĠEri": 9259,
      "tinha": 9260,
      "Ġdie": 9261,
      "1978": 9262,
      "Ġdestina": 9263,
      "Ġresultou": 9264,
      "Ġdocumento": 9265,
      "ĠReport": 9266,
      "Ġconseguiram": 9267,
      "ato": 9268,
      "à¸": 9269,
      "Ġpensar": 9270,
      "Ġhomenage": 9271,
      "imas": 9272,
      "torno": 9273,
      "cora": 9274,
      "renta": 9275,
      "Ġcontar": 9276,
      "Ġcitado": 9277,
      "ĠIdade": 9278,
      "ĠEsp": 9279,
      "Ġdiscurso": 9280,
      "ĠHelder": 9281,
      "ĠGovernador": 9282,
      "Ġsovi": 9283,
      "ĠMuseum": 9284,
      "riaÃ§Ã£o": 9285,
      "ĠSantana": 9286,
      "Ãºncia": 9287,
      "zinha": 9288,
      "Ġ]": 9289,
      "estes": 9290,
      "FamÃŃlia": 9291,
      "ĠCarlo": 9292,
      "dicaÃ§Ãµes": 9293,
      "usage": 9294,
      "Ġcivis": 9295,
      "ĠImperador": 9296,
      "ĠPlaces": 9297,
      "Ġcra": 9298,
      "Ġenfrentar": 9299,
[...]
